{
  "version": "1.0",
  "truncation": null,
  "padding": null,
  "added_tokens": [
    {
      "id": 0,
      "special": true,
      "content": "<PAD>",
      "single_word": false,
      "lstrip": false,
      "rstrip": false,
      "normalized": false
    },
    {
      "id": 1,
      "special": true,
      "content": "<UNK>",
      "single_word": false,
      "lstrip": false,
      "rstrip": false,
      "normalized": false
    },
    {
      "id": 2,
      "special": true,
      "content": "[CLS]",
      "single_word": false,
      "lstrip": false,
      "rstrip": false,
      "normalized": false
    },
    {
      "id": 3,
      "special": true,
      "content": "[SEP]",
      "single_word": false,
      "lstrip": false,
      "rstrip": false,
      "normalized": false
    },
    {
      "id": 4,
      "special": true,
      "content": "<s>",
      "single_word": false,
      "lstrip": false,
      "rstrip": false,
      "normalized": false
    },
    {
      "id": 5,
      "special": true,
      "content": "<MASK>",
      "single_word": false,
      "lstrip": false,
      "rstrip": false,
      "normalized": false
    },
    {
      "id": 6,
      "special": true,
      "content": "<size>",
      "single_word": false,
      "lstrip": false,
      "rstrip": false,
      "normalized": false
    },
    {
      "id": 7,
      "special": true,
      "content": "<ind>",
      "single_word": false,
      "lstrip": false,
      "rstrip": false,
      "normalized": false
    },
    {
      "id": 8,
      "special": true,
      "content": "<prompt>",
      "single_word": false,
      "lstrip": false,
      "rstrip": false,
      "normalized": false
    },
    {
      "id": 9,
      "special": true,
      "content": "T1",
      "single_word": false,
      "lstrip": false,
      "rstrip": false,
      "normalized": false
    },
    {
      "id": 10,
      "special": true,
      "content": "T2",
      "single_word": false,
      "lstrip": false,
      "rstrip": false,
      "normalized": false
    },
    {
      "id": 11,
      "special": true,
      "content": "T3",
      "single_word": false,
      "lstrip": false,
      "rstrip": false,
      "normalized": false
    },
    {
      "id": 12,
      "special": true,
      "content": "T4",
      "single_word": false,
      "lstrip": false,
      "rstrip": false,
      "normalized": false
    },
    {
      "id": 13,
      "special": true,
      "content": "T5",
      "single_word": false,
      "lstrip": false,
      "rstrip": false,
      "normalized": false
    },
    {
      "id": 14,
      "special": true,
      "content": "T6",
      "single_word": false,
      "lstrip": false,
      "rstrip": false,
      "normalized": false
    },
    {
      "id": 15,
      "special": true,
      "content": "T7",
      "single_word": false,
      "lstrip": false,
      "rstrip": false,
      "normalized": false
    },
    {
      "id": 16,
      "special": true,
      "content": "T8",
      "single_word": false,
      "lstrip": false,
      "rstrip": false,
      "normalized": false
    },
    {
      "id": 17,
      "special": true,
      "content": "T9",
      "single_word": false,
      "lstrip": false,
      "rstrip": false,
      "normalized": false
    },
    {
      "id": 18,
      "special": true,
      "content": "T10",
      "single_word": false,
      "lstrip": false,
      "rstrip": false,
      "normalized": false
    },
    {
      "id": 19,
      "special": true,
      "content": "T11",
      "single_word": false,
      "lstrip": false,
      "rstrip": false,
      "normalized": false
    },
    {
      "id": 20,
      "special": true,
      "content": "T12",
      "single_word": false,
      "lstrip": false,
      "rstrip": false,
      "normalized": false
    },
    {
      "id": 21,
      "special": true,
      "content": "1",
      "single_word": false,
      "lstrip": false,
      "rstrip": false,
      "normalized": false
    },
    {
      "id": 22,
      "special": true,
      "content": "2",
      "single_word": false,
      "lstrip": false,
      "rstrip": false,
      "normalized": false
    },
    {
      "id": 23,
      "special": true,
      "content": "3",
      "single_word": false,
      "lstrip": false,
      "rstrip": false,
      "normalized": false
    },
    {
      "id": 24,
      "special": true,
      "content": "4",
      "single_word": false,
      "lstrip": false,
      "rstrip": false,
      "normalized": false
    },
    {
      "id": 25,
      "special": true,
      "content": "5",
      "single_word": false,
      "lstrip": false,
      "rstrip": false,
      "normalized": false
    },
    {
      "id": 26,
      "special": true,
      "content": "6",
      "single_word": false,
      "lstrip": false,
      "rstrip": false,
      "normalized": false
    },
    {
      "id": 27,
      "special": true,
      "content": "7",
      "single_word": false,
      "lstrip": false,
      "rstrip": false,
      "normalized": false
    },
    {
      "id": 28,
      "special": true,
      "content": "8",
      "single_word": false,
      "lstrip": false,
      "rstrip": false,
      "normalized": false
    },
    {
      "id": 29,
      "special": true,
      "content": "9",
      "single_word": false,
      "lstrip": false,
      "rstrip": false,
      "normalized": false
    },
    {
      "id": 30,
      "special": true,
      "content": "0",
      "single_word": false,
      "lstrip": false,
      "rstrip": false,
      "normalized": false
    },
    {
      "id": 31,
      "special": true,
      "content": "<loc0>",
      "single_word": false,
      "lstrip": false,
      "rstrip": false,
      "normalized": false
    },
    {
      "id": 32,
      "special": true,
      "content": "<loc1>",
      "single_word": false,
      "lstrip": false,
      "rstrip": false,
      "normalized": false
    },
    {
      "id": 33,
      "special": true,
      "content": "<loc2>",
      "single_word": false,
      "lstrip": false,
      "rstrip": false,
      "normalized": false
    },
    {
      "id": 34,
      "special": true,
      "content": "<loc00>",
      "single_word": false,
      "lstrip": false,
      "rstrip": false,
      "normalized": false
    },
    {
      "id": 35,
      "special": true,
      "content": "<loc01>",
      "single_word": false,
      "lstrip": false,
      "rstrip": false,
      "normalized": false
    },
    {
      "id": 36,
      "special": true,
      "content": "<loc02>",
      "single_word": false,
      "lstrip": false,
      "rstrip": false,
      "normalized": false
    },
    {
      "id": 37,
      "special": true,
      "content": "<loc10>",
      "single_word": false,
      "lstrip": false,
      "rstrip": false,
      "normalized": false
    },
    {
      "id": 38,
      "special": true,
      "content": "<loc11>",
      "single_word": false,
      "lstrip": false,
      "rstrip": false,
      "normalized": false
    },
    {
      "id": 39,
      "special": true,
      "content": "<loc12>",
      "single_word": false,
      "lstrip": false,
      "rstrip": false,
      "normalized": false
    },
    {
      "id": 40,
      "special": true,
      "content": "<loc20>",
      "single_word": false,
      "lstrip": false,
      "rstrip": false,
      "normalized": false
    },
    {
      "id": 41,
      "special": true,
      "content": "<loc21>",
      "single_word": false,
      "lstrip": false,
      "rstrip": false,
      "normalized": false
    },
    {
      "id": 42,
      "special": true,
      "content": "<loc22>",
      "single_word": false,
      "lstrip": false,
      "rstrip": false,
      "normalized": false
    },
    {
      "id": 43,
      "special": true,
      "content": "<loc02><loc22>",
      "single_word": false,
      "lstrip": false,
      "rstrip": false,
      "normalized": false
    },
    {
      "id": 44,
      "special": true,
      "content": "<loc0><loc2>",
      "single_word": false,
      "lstrip": false,
      "rstrip": false,
      "normalized": false
    },
    {
      "id": 45,
      "special": true,
      "content": "<rib1>",
      "single_word": false,
      "lstrip": false,
      "rstrip": false,
      "normalized": false
    },
    {
      "id": 46,
      "special": true,
      "content": "<rib2>",
      "single_word": false,
      "lstrip": false,
      "rstrip": false,
      "normalized": false
    },
    {
      "id": 47,
      "special": true,
      "content": "<rib3>",
      "single_word": false,
      "lstrip": false,
      "rstrip": false,
      "normalized": false
    },
    {
      "id": 48,
      "special": true,
      "content": "<rib4>",
      "single_word": false,
      "lstrip": false,
      "rstrip": false,
      "normalized": false
    },
    {
      "id": 49,
      "special": true,
      "content": "<rib5>",
      "single_word": false,
      "lstrip": false,
      "rstrip": false,
      "normalized": false
    },
    {
      "id": 50,
      "special": true,
      "content": "<rib6>",
      "single_word": false,
      "lstrip": false,
      "rstrip": false,
      "normalized": false
    },
    {
      "id": 51,
      "special": true,
      "content": "<rib7>",
      "single_word": false,
      "lstrip": false,
      "rstrip": false,
      "normalized": false
    },
    {
      "id": 52,
      "special": true,
      "content": "<rib8>",
      "single_word": false,
      "lstrip": false,
      "rstrip": false,
      "normalized": false
    },
    {
      "id": 53,
      "special": true,
      "content": "<rib9>",
      "single_word": false,
      "lstrip": false,
      "rstrip": false,
      "normalized": false
    },
    {
      "id": 54,
      "special": true,
      "content": "<rib10>",
      "single_word": false,
      "lstrip": false,
      "rstrip": false,
      "normalized": false
    },
    {
      "id": 55,
      "special": true,
      "content": "<rib11>",
      "single_word": false,
      "lstrip": false,
      "rstrip": false,
      "normalized": false
    },
    {
      "id": 56,
      "special": true,
      "content": "<rib12>",
      "single_word": false,
      "lstrip": false,
      "rstrip": false,
      "normalized": false
    }
  ],
  "normalizer": null,
  "pre_tokenizer": {
    "type": "ByteLevel",
    "add_prefix_space": false,
    "trim_offsets": true
  },
  "post_processor": {
    "type": "ByteLevel",
    "add_prefix_space": true,
    "trim_offsets": false
  },
  "decoder": {
    "type": "ByteLevel",
    "add_prefix_space": true,
    "trim_offsets": true
  },
  "model": {
    "type": "BPE",
    "dropout": null,
    "unk_token": null,
    "continuing_subword_prefix": null,
    "end_of_word_suffix": "</w>",
    "fuse_unk": false,
    "vocab": {
      "<PAD>": 0,
      "<UNK>": 1,
      "[CLS]": 2,
      "[SEP]": 3,
      "<s>": 4,
      "<MASK>": 5,
      "<size>": 6,
      "<ind>": 7,
      "<prompt>": 8,
      "T1": 9,
      "T2": 10,
      "T3": 11,
      "T4": 12,
      "T5": 13,
      "T6": 14,
      "T7": 15,
      "T8": 16,
      "T9": 17,
      "T10": 18,
      "T11": 19,
      "T12": 20,
      "1": 21,
      "2": 22,
      "3": 23,
      "4": 24,
      "5": 25,
      "6": 26,
      "7": 27,
      "8": 28,
      "9": 29,
      "0": 30,
      "<loc0>": 31,
      "<loc1>": 32,
      "<loc2>": 33,
      "<loc00>": 34,
      "<loc01>": 35,
      "<loc02>": 36,
      "<loc10>": 37,
      "<loc11>": 38,
      "<loc12>": 39,
      "<loc20>": 40,
      "<loc21>": 41,
      "<loc22>": 42,
      "<loc02><loc22>": 43,
      "<loc0><loc2>": 44,
      "<rib1>": 45,
      "<rib2>": 46,
      "<rib3>": 47,
      "<rib4>": 48,
      "<rib5>": 49,
      "<rib6>": 50,
      "<rib7>": 51,
      "<rib8>": 52,
      "<rib9>": 53,
      "<rib10>": 54,
      "<rib11>": 55,
      "<rib12>": 56,
      "\"": 57,
      "$": 58,
      "%": 59,
      "&": 60,
      "'": 61,
      "(": 62,
      ")": 63,
      "+": 64,
      ",": 65,
      "-": 66,
      ".": 67,
      "/": 68,
      ":": 69,
      ";": 70,
      "<": 71,
      "=": 72,
      ">": 73,
      "?": 74,
      "A": 75,
      "B": 76,
      "C": 77,
      "D": 78,
      "E": 79,
      "F": 80,
      "G": 81,
      "H": 82,
      "I": 83,
      "J": 84,
      "K": 85,
      "L": 86,
      "M": 87,
      "N": 88,
      "O": 89,
      "P": 90,
      "Q": 91,
      "R": 92,
      "S": 93,
      "T": 94,
      "U": 95,
      "V": 96,
      "W": 97,
      "X": 98,
      "Y": 99,
      "Z": 100,
      "[": 101,
      "]": 102,
      "a": 103,
      "b": 104,
      "c": 105,
      "d": 106,
      "e": 107,
      "f": 108,
      "g": 109,
      "h": 110,
      "i": 111,
      "j": 112,
      "k": 113,
      "l": 114,
      "m": 115,
      "n": 116,
      "o": 117,
      "p": 118,
      "q": 119,
      "r": 120,
      "s": 121,
      "t": 122,
      "u": 123,
      "v": 124,
      "w": 125,
      "x": 126,
      "y": 127,
      "z": 128,
      "Ċ": 129,
      "Ġ": 130,
      "l</w>": 131,
      "s</w>": 132,
      "n</w>": 133,
      "1</w>": 134,
      "y</w>": 135,
      "c</w>": 136,
      "e</w>": 137,
      "C</w>": 138,
      "t</w>": 139,
      "g</w>": 140,
      "r</w>": 141,
      "d</w>": 142,
      "h</w>": 143,
      "M</w>": 144,
      "<</w>": 145,
      "2</w>": 146,
      "i</w>": 147,
      "m</w>": 148,
      "8</w>": 149,
      "a</w>": 150,
      "k</w>": 151,
      "B</w>": 152,
      "o</w>": 153,
      ".</w>": 154,
      "5</w>": 155,
      "I</w>": 156,
      "-</w>": 157,
      "3</w>": 158,
      "G</w>": 159,
      "b</w>": 160,
      "4</w>": 161,
      "0</w>": 162,
      "/</w>": 163,
      "x</w>": 164,
      "P</w>": 165,
      "F</w>": 166,
      "[</w>": 167,
      "p</w>": 168,
      ")</w>": 169,
      "v</w>": 170,
      "A</w>": 171,
      "T</w>": 172,
      "6</w>": 173,
      "f</w>": 174,
      "w</w>": 175,
      "S</w>": 176,
      "\"</w>": 177,
      "7</w>": 178,
      "?</w>": 179,
      "%</w>": 180,
      "]</w>": 181,
      "=</w>": 182,
      ";</w>": 183,
      "Ċ</w>": 184,
      "R</w>": 185,
      "N</w>": 186,
      "D</w>": 187,
      ",</w>": 188,
      "O</w>": 189,
      "+</w>": 190,
      "u</w>": 191,
      "9</w>": 192,
      "'</w>": 193,
      "L</w>": 194,
      "V</w>": 195,
      "H</w>": 196,
      "></w>": 197,
      "Ġ</w>": 198,
      "X</w>": 199,
      ":</w>": 200,
      "&</w>": 201,
      "j</w>": 202,
      "(</w>": 203,
      "in": 204,
      "Ġo": 205,
      "om": 206,
      "pr": 207,
      "Ġa": 208,
      "ti": 209,
      "Ġt": 210,
      "si": 211,
      "ind</w>": 212,
      "omp": 213,
      "promp": 214,
      "prompt</w>": 215,
      "re</w>": 216,
      "Ġp": 217,
      "ra": 218,
      "he": 219,
      "Ġof</w>": 220,
      "Ġc": 221,
      "ns</w>": 222,
      "ma": 223,
      "di": 224,
      "Ġ<</w>": 225,
      "Ġsi": 226,
      "ul": 227,
      "Ġor</w>": 228,
      "on</w>": 229,
      "><</w>": 230,
      "es</w>": 231,
      "Ġsig": 232,
      "Ġsigns</w>": 233,
      "le": 234,
      "on": 235,
      "Ġth": 236,
      "Ġs": 237,
      "Ġi": 238,
      "en": 239,
      "or": 240,
      "ar": 241,
      "Ġn": 242,
      "here</w>": 243,
      "as": 244,
      "No</w>": 245,
      "Ġan": 246,
      "er": 247,
      "tion</w>": 248,
      "ral</w>": 249,
      "Ġf": 250,
      "ĠNo</w>": 251,
      "Ġthe</w>": 252,
      "Ġw": 253,
      "Ġthere</w>": 254,
      "ar</w>": 255,
      "ural</w>": 256,
      "ic": 257,
      "Ġple": 258,
      "Ġpleural</w>": 259,
      "ed</w>": 260,
      "es": 261,
      ".<</w>": 262,
      "Ġl": 263,
      "Ġe": 264,
      "ol": 265,
      "al</w>": 266,
      "ĠA": 267,
      "Ġany</w>": 268,
      "ĠAre</w>": 269,
      "ing</w>": 270,
      "it": 271,
      "ation</w>": 272,
      "Ġin": 273,
      "Ġb": 274,
      "Ġdi": 275,
      "mal": 276,
      "sis</w>": 277,
      "un": 278,
      "ai": 279,
      "al": 280,
      "ye": 281,
      "Ġwit": 282,
      "Ġsu": 283,
      "Ġm": 284,
      "Ġr": 285,
      "osis</w>": 286,
      "sion</w>": 287,
      "ain</w>": 288,
      "st</w>": 289,
      "cul": 290,
      "ve</w>": 291,
      "Ġare</w>": 292,
      "Ġno</w>": 293,
      "mon": 294,
      "year</w>": 295,
      "Ġab": 296,
      "st": 297,
      "old</w>": 298,
      "at": 299,
      "Ġno": 300,
      "Ġpain</w>": 301,
      "Ġis</w>": 302,
      "Ġwith</w>": 303,
      "ung</w>": 304,
      "Ġcon": 305,
      "Ġv": 306,
      "ĠT": 307,
      "hest</w>": 308,
      "ci": 309,
      "Ġin</w>": 310,
      "ne": 311,
      "ary</w>": 312,
      "ent</w>": 313,
      "la": 314,
      "cation</w>": 315,
      "ulmon": 316,
      "Ġlung</w>": 317,
      "ce</w>": 318,
      "Ġhe": 319,
      "ati": 320,
      "ardi": 321,
      "ons</w>": 322,
      "tive</w>": 323,
      "de": 324,
      "um": 325,
      "ulmonary</w>": 326,
      "male</w>": 327,
      "Ġh": 328,
      "ast": 329,
      "ge</w>": 330,
      "Ġpulmonary</w>": 331,
      "ff": 332,
      "fi": 333,
      "tic</w>": 334,
      "Ġdis": 335,
      "ased</w>": 336,
      "id": 337,
      "ties</w>": 338,
      "mage</w>": 339,
      "Ġma": 340,
      "Ġimage</w>": 341,
      "orma": 342,
      "ct": 343,
      "ffu": 344,
      "Ġindi": 345,
      "yo": 346,
      "Ġeffu": 347,
      "Ġpr": 348,
      "Ġindication</w>": 349,
      "ho": 350,
      "Ġcal": 351,
      "Ġyo": 352,
      "Ġyou</w>": 353,
      "Ġeffusion</w>": 354,
      "based</w>": 355,
      "ges": 356,
      "Ġpne": 357,
      "re": 358,
      "Ġchest</w>": 359,
      "edi": 360,
      "ence</w>": 361,
      "ur": 362,
      "25</w>": 363,
      "astin": 364,
      "ediastin": 365,
      "an</w>": 366,
      "Ġcalci": 367,
      "sp": 368,
      "ap": 369,
      "Ġtra": 370,
      "ch</w>": 371,
      "ations</w>": 372,
      "Ġmas": 373,
      "fic": 374,
      "ormal": 375,
      "Ġand</w>": 376,
      "Ġas</w>": 377,
      "Ġabn": 378,
      "Ġabnormal": 379,
      "ter": 380,
      "ess</w>": 381,
      "Ġnod": 382,
      "Ġsuch</w>": 383,
      "ities</w>": 384,
      "Ġabnormalities</w>": 385,
      "ĠC": 386,
      "ut</w>": 387,
      "ub": 388,
      "ĠI": 389,
      "or</w>": 390,
      "ot": 391,
      "gges": 392,
      "ormal</w>": 393,
      "ron": 394,
      "Ġev": 395,
      "tra": 396,
      "Ġfi": 397,
      "Ġcalcific": 398,
      "Ġpneum": 399,
      "pp": 400,
      "is</w>": 401,
      "Ġcalcifications</w>": 402,
      "Ġnormal</w>": 403,
      "Ġsugges": 404,
      "Ġabs": 405,
      "Ġthis</w>": 406,
      "Ġfe": 407,
      "ha": 408,
      "Ġnodul": 409,
      "Ġa</w>": 410,
      "le</w>": 411,
      "ĠThere</w>": 412,
      "ase</w>": 413,
      "ercul": 414,
      "ubercul": 415,
      "uberculosis</w>": 416,
      "ma</w>": 417,
      "Ġfemale</w>": 418,
      "lo": 419,
      "gs</w>": 420,
      "he</w>": 421,
      "ease</w>": 422,
      "art</w>": 423,
      "Ġper": 424,
      "Ġdisease</w>": 425,
      "Ġaor": 426,
      "hi": 427,
      "Ġcardi": 428,
      "oma</w>": 429,
      "te": 430,
      "ure</w>": 431,
      "cular</w>": 432,
      "op": 433,
      "che": 434,
      "Ġd": 435,
      "ob": 436,
      "ĠCan</w>": 437,
      "Ġaortic</w>": 438,
      "el": 439,
      "icardi": 440,
      "Ġpericardi": 441,
      "ses</w>": 442,
      "Ġmasses</w>": 443,
      "mp": 444,
      "ment</w>": 445,
      "ĠThe</w>": 446,
      "Ġde": 447,
      "ac</w>": 448,
      "Ġout</w>": 449,
      "str": 450,
      "hra": 451,
      "aphra": 452,
      "aphrag": 453,
      "Ġnodules</w>": 454,
      "ular</w>": 455,
      "br": 456,
      "ble</w>": 457,
      "Ġheart</w>": 458,
      "Ġmale</w>": 459,
      "Ġmediastin": 460,
      "Ġrul": 461,
      "Ġfibr": 462,
      "Ġvas": 463,
      "Ġtrache": 464,
      "ig": 465,
      "Ġcardiac</w>": 466,
      "vic": 467,
      "Ġfibrosis</w>": 468,
      "ic</w>": 469,
      "ĠIs</w>": 470,
      "ec": 471,
      "matic</w>": 472,
      "as</w>": 473,
      "aphragmatic</w>": 474,
      "ures</w>": 475,
      "Ġfor</w>": 476,
      "Ġconfi": 477,
      "ou": 478,
      "ness</w>": 479,
      "Ġconfir": 480,
      "tis</w>": 481,
      "pa": 482,
      "Ġlo": 483,
      "ctures</w>": 484,
      "um</w>": 485,
      "hora": 486,
      "ting</w>": 487,
      "ory</w>": 488,
      "Ġsh": 489,
      "Ġob": 490,
      "ĠD": 491,
      "othora": 492,
      "Ġse": 493,
      "ronc": 494,
      "Ġai": 495,
      "ia</w>": 496,
      "Ġbre": 497,
      "Ġpneumothora": 498,
      "pres": 499,
      "per": 500,
      "Ġpneumothorax</w>": 501,
      "Ġhi": 502,
      "oc": 503,
      "Ġdiaphragmatic</w>": 504,
      "pression</w>": 505,
      "Ġre": 506,
      "ings</w>": 507,
      "nea</w>": 508,
      "able</w>": 509,
      "ement</w>": 510,
      "ysp": 511,
      "Ġabsence</w>": 512,
      "yspnea</w>": 513,
      "ronchi": 514,
      "ind": 515,
      "et": 516,
      "story</w>": 517,
      "Ġbreat": 518,
      "se</w>": 519,
      "indings</w>": 520,
      "Ġtuberculosis</w>": 521,
      "ft</w>": 522,
      "ort": 523,
      "fil": 524,
      "trat": 525,
      "filtrat": 526,
      "Ġinfiltrat": 527,
      "Ġst": 528,
      "Ġapp": 529,
      "Ġg": 530,
      "Ġevid": 531,
      "Ġli": 532,
      "hat</w>": 533,
      "Ġconfirm</w>": 534,
      "Ġevidence</w>": 535,
      "ze</w>": 536,
      "loc</w>": 537,
      "Ġbreath</w>": 538,
      "ms</w>": 539,
      "Ġnot": 540,
      "ue</w>": 541,
      "lavic": 542,
      "Ġinfiltrates</w>": 543,
      "yc": 544,
      "Ġle": 545,
      "ortness</w>": 546,
      "Ġj": 547,
      "oin": 548,
      "lavicular</w>": 549,
      "oble": 550,
      "Ġmediastinal</w>": 551,
      "ts</w>": 552,
      "era": 553,
      "Ġjoin": 554,
      "one": 555,
      "omb": 556,
      "Ġpres": 557,
      "oblems</w>": 558,
      "ĠDo</w>": 559,
      "Ġar": 560,
      "Ġhone": 561,
      "ycomb": 562,
      "Ġhoneycomb": 563,
      "Ġhoneycombing</w>": 564,
      "an": 565,
      "er</w>": 566,
      "uc": 567,
      "atient</w>": 568,
      "Ġtum": 569,
      "Ġhy": 570,
      "chest</w>": 571,
      "Ġsize</w>": 572,
      "en</w>": 573,
      "Ġto</w>": 574,
      "Ġruling</w>": 575,
      "Ġpericardial</w>": 576,
      "igh": 577,
      "Ġproblems</w>": 578,
      "ors</w>": 579,
      "Ġtumors</w>": 580,
      "Ġcol": 581,
      "Ġvascular</w>": 582,
      "asis</w>": 583,
      "erative</w>": 584,
      "Ġsuggesting</w>": 585,
      "omediastin": 586,
      "Ġsc": 587,
      "ight</w>": 588,
      "Ġopa": 589,
      "ormation</w>": 590,
      "Ġtb</w>": 591,
      "ctasis</w>": 592,
      "uctive</w>": 593,
      "Ġhyper": 594,
      "teri": 595,
      "dema</w>": 596,
      "Ġcons": 597,
      "Ġen": 598,
      "Ġsuggestive</w>": 599,
      "Ġedema</w>": 600,
      "Ġap": 601,
      "olid": 602,
      "etast": 603,
      "Ġconsolid": 604,
      "Ġfra": 605,
      "qu": 606,
      "Ġmetast": 607,
      "ection</w>": 608,
      "culat": 609,
      "Ġhema": 610,
      "Ġobstr": 611,
      "Ġpo": 612,
      "il": 613,
      "Ġcan": 614,
      "gn": 615,
      "omas</w>": 616,
      "tions</w>": 617,
      "rn": 618,
      "Ġhern": 619,
      "Ġif</w>": 620,
      "Ġtracheal</w>": 621,
      "Ġind</w>": 622,
      "Ġemp": 623,
      "Ġhistory</w>": 624,
      "Ġpla": 625,
      "ous</w>": 626,
      "ymp": 627,
      "Ġwhat</w>": 628,
      "agn": 629,
      "ases</w>": 630,
      "Ġmass</w>": 631,
      "Ġfractures</w>": 632,
      "ss": 633,
      "arg": 634,
      "ticular</w>": 635,
      "larg": 636,
      "Ġopaci": 637,
      "Ġbronchi": 638,
      "ices</w>": 639,
      "fied</w>": 640,
      "Ġopacities</w>": 641,
      "Ġenlarg": 642,
      "ail": 643,
      "ailure</w>": 644,
      "enti": 645,
      "Ġfailure</w>": 646,
      "Ġobstructive</w>": 647,
      "Ġhemat": 648,
      "lear</w>": 649,
      "Ġapices</w>": 650,
      "Ġmetastases</w>": 651,
      "Ġinf": 652,
      "Ġdiagn": 653,
      "ine</w>": 654,
      "Ġclear</w>": 655,
      "Ġabsc": 656,
      "operative</w>": 657,
      "Ġthy": 658,
      "ib</w>": 659,
      "erte": 660,
      "Ġabscess</w>": 661,
      "Ġdiagnosis</w>": 662,
      "ac": 663,
      "yema</w>": 664,
      "Ġempyema</w>": 665,
      "Ġpericarditis</w>": 666,
      "Ġpneumomediastin": 667,
      "Ġpneumomediastinum</w>": 668,
      "Ġair</w>": 669,
      "Ġverte": 670,
      "Ġverteb": 671,
      "Findings</w>": 672,
      "mpression</w>": 673,
      "Ġbe</w>": 674,
      "Ġvertebral</w>": 675,
      "ĠImpression</w>": 676,
      "Ġenlargement</w>": 677,
      "section</w>": 678,
      "Ġdissection</w>": 679,
      "Ġjoint</w>": 680,
      "oclavicular</w>": 681,
      "Ġformation</w>": 682,
      "Ġthym": 683,
      "ques</w>": 684,
      "Ġplaques</w>": 685,
      "ictive</w>": 686,
      "lap": 687,
      "Ġconstr": 688,
      "Ġconstrictive</w>": 689,
      "lapse</w>": 690,
      "Ġright</w>": 691,
      "Ġreticular</w>": 692,
      "Ġstr": 693,
      "pping</w>": 694,
      "Ġtrapping</w>": 695,
      "ri": 696,
      "Ġac": 697,
      "umon": 698,
      "umonia</w>": 699,
      "Ġrib</w>": 700,
      "ran": 701,
      "Ġdyspnea</w>": 702,
      "ent": 703,
      "ray</w>": 704,
      "ening</w>": 705,
      "ro": 706,
      "Ġappe": 707,
      "lu": 708,
      "ĠTuberculosis</w>": 709,
      "ined</w>": 710,
      "the": 711,
      "Ġpneumonia</w>": 712,
      "alu": 713,
      "Ġstru": 714,
      "th": 715,
      "Ġso": 716,
      "hout</w>": 717,
      "Ġlocation</w>": 718,
      "Ġpresent</w>": 719,
      "65</w>": 720,
      "Ġti": 721,
      "Ġwithout</w>": 722,
      "Ġstructures</w>": 723,
      "ungs</w>": 724,
      "Ġair": 725,
      "ys": 726,
      "Ġnoti": 727,
      "Ġnoted</w>": 728,
      "no": 729,
      "ace</w>": 730,
      "Ġex": 731,
      "ick": 732,
      "Ġthick": 733,
      "ten": 734,
      "Ġthickening</w>": 735,
      "space</w>": 736,
      "Ġrule</w>": 737,
      "Ġairspace</w>": 738,
      "ronic</w>": 739,
      "Ġdue</w>": 740,
      "der</w>": 741,
      "hortness</w>": 742,
      "tension</w>": 743,
      "sions</w>": 744,
      "pla": 745,
      "Ġsho": 746,
      "Ġshortness</w>": 747,
      "Ġnotice</w>": 748,
      "ranul": 749,
      "Ġlymp": 750,
      "te</w>": 751,
      "Ġpatient</w>": 752,
      "Ġgranul": 753,
      "Ġcollapse</w>": 754,
      "ĠL": 755,
      "Ġcom": 756,
      "Ġtiss": 757,
      "icable</w>": 758,
      "iv": 759,
      "licable</w>": 760,
      "Ġapplicable</w>": 761,
      "ars</w>": 762,
      "Ġmil": 763,
      "Ġmediastinum</w>": 764,
      "Ġsoft</w>": 765,
      "Ġcompression</w>": 766,
      "Ġlungs</w>": 767,
      "vi": 768,
      "cement</w>": 769,
      "ter</w>": 770,
      "Ġon</w>": 771,
      "Ġposi": 772,
      "ther</w>": 773,
      "Ġevalu": 774,
      "ulder</w>": 775,
      "Chest</w>": 776,
      "Ġwhere</w>": 777,
      "Ġval": 778,
      "gestion</w>": 779,
      "yst": 780,
      "lectasis</w>": 781,
      "dyspnea</w>": 782,
      "sist": 783,
      "telectasis</w>": 784,
      "eur": 785,
      "lation</w>": 786,
      "rat": 787,
      "Ġatelectasis</w>": 788,
      "Ġcalcified</w>": 789,
      "Ġvalve</w>": 790,
      "Ġshoulder</w>": 791,
      "Ġleft</w>": 792,
      "Ġfindings</w>": 793,
      "Ġra": 794,
      "Patient</w>": 795,
      "Ġmid": 796,
      "Ġbo": 797,
      "Ġvasculat": 798,
      "sistent</w>": 799,
      "Ġvasculature</w>": 800,
      "Ġhypertension</w>": 801,
      "eoperative</w>": 802,
      "Ġother</w>": 803,
      "Ġobs": 804,
      "Ġcongestion</w>": 805,
      "ration</w>": 806,
      "terior</w>": 807,
      "Ġconsolidation</w>": 808,
      "oug": 809,
      "Ġobser": 810,
      "Ġaneur": 811,
      "ysm</w>": 812,
      "Ġaneurysm</w>": 813,
      "oli": 814,
      "Ġx</w>": 815,
      "ell</w>": 816,
      "entra": 817,
      "Ġtissue</w>": 818,
      "entration</w>": 819,
      "Ġradi": 820,
      "ore": 821,
      "Ġanterior</w>": 822,
      "Ġeventration</w>": 823,
      "ree</w>": 824,
      "Ġcyst": 825,
      "Ġcysts</w>": 826,
      "der": 827,
      "Ġhernia</w>": 828,
      "Ġappears</w>": 829,
      "Ġfore": 830,
      "Ġwe": 831,
      "olum": 832,
      "Ġmo": 833,
      "Ġnot</w>": 834,
      "Ġele": 835,
      "not</w>": 836,
      "ign</w>": 837,
      "Ġinter": 838,
      "dies</w>": 839,
      "Ġgranuloma</w>": 840,
      "ity</w>": 841,
      "Ġforeign</w>": 842,
      "Ġbodies</w>": 843,
      "Ġtracheob": 844,
      "placement</w>": 845,
      "Ġevaluation</w>": 846,
      "Ġlip": 847,
      "at</w>": 848,
      "ritis</w>": 849,
      "Ġvolum": 850,
      "ds</w>": 851,
      "ough</w>": 852,
      "irat": 853,
      "Ġsp": 854,
      "ias</w>": 855,
      "lec": 856,
      "Ġmidl": 857,
      "Ġarth": 858,
      "sti": 859,
      "tial</w>": 860,
      "oth</w>": 861,
      "pt": 862,
      "Ġtracheobronchi": 863,
      "ectasis</w>": 864,
      "Ġlymph</w>": 865,
      "Ġnodes</w>": 866,
      "Ġsub": 867,
      "ĠP": 868,
      "Ġcough</w>": 869,
      "stitial</w>": 870,
      "Ġinterstitial</w>": 871,
      "Ġbronchiectasis</w>": 872,
      "iven</w>": 873,
      "Ġcannot</w>": 874,
      "Ġfree</w>": 875,
      "tern": 876,
      "Ġgiven</w>": 877,
      "Ġposition</w>": 878,
      "Ġdislo": 879,
      "Ġdislocation</w>": 880,
      "Ġarthritis</w>": 881,
      "Ġbul": 882,
      "ling</w>": 883,
      "Ġlesions</w>": 884,
      "Ġhematoma</w>": 885,
      "Ġstern": 886,
      "og": 887,
      "ly</w>": 888,
      "Ġby</w>": 889,
      "ĠY": 890,
      "Ġconsolidations</w>": 891,
      "Ġmidline</w>": 892,
      "oliosis</w>": 893,
      "Ġconsistent</w>": 894,
      "entral</w>": 895,
      "Ġbased</w>": 896,
      "lae</w>": 897,
      "ĠW": 898,
      "rom": 899,
      "ĠYes</w>": 900,
      "ng": 901,
      "Ġasp": 902,
      "Ġbullae</w>": 903,
      "ape</w>": 904,
      "Ġshape</w>": 905,
      "enous</w>": 906,
      "mit": 907,
      "Ġwell</w>": 908,
      "Ġtub": 909,
      "order": 910,
      "Shortness</w>": 911,
      "Ġlin": 912,
      "ely</w>": 913,
      "ocal</w>": 914,
      "Ġscoliosis</w>": 915,
      "Ġdisplacement</w>": 916,
      "Ġscap": 917,
      "Ġfocal</w>": 918,
      "athe": 919,
      "Ġscapular</w>": 920,
      "Ġsw": 921,
      "Ġinfec": 922,
      "Ġintra": 923,
      "Ġtracheobronchial</w>": 924,
      "cer</w>": 925,
      "Ġcathe": 926,
      "terial</w>": 927,
      "Ġshun": 928,
      "Ġcollec": 929,
      "Ġinfections</w>": 930,
      "Ġlines</w>": 931,
      "hag": 932,
      "Ġcentral</w>": 933,
      "Ġshunts</w>": 934,
      "orders</w>": 935,
      "Ġclavicular</w>": 936,
      "gment</w>": 937,
      "Ġwid": 938,
      "oman</w>": 939,
      "Ġwoman</w>": 940,
      "rg": 941,
      "Ġcancer</w>": 942,
      "atal</w>": 943,
      "Ġsegment</w>": 944,
      "Ġhematomas</w>": 945,
      "Ġmaterial</w>": 946,
      "Ġhiatal</w>": 947,
      "ulmonic</w>": 948,
      "irated</w>": 949,
      "Ġaspirated</w>": 950,
      "Ġsternoclavicular</w>": 951,
      "Ġsubp": 952,
      "iary</w>": 953,
      "rap": 954,
      "ened</w>": 955,
      "Ġcatheter</w>": 956,
      "Ġloculat": 957,
      "Ġloculated</w>": 958,
      "Ġcollections</w>": 959,
      "are</w>": 960,
      "Ġmiliary</w>": 961,
      "upt": 962,
      "Ġsubpulmonic</w>": 963,
      "ĠK": 964,
      "ĠB</w>": 965,
      "Ġrupt": 966,
      "Ġrupture</w>": 967,
      "Ġlipomas</w>": 968,
      "Ġlik": 969,
      "Ġcan</w>": 970,
      "ley</w>": 971,
      "erley</w>": 972,
      "ĠKerley</w>": 973,
      "Ġlikely</w>": 974,
      "fined</w>": 975,
      "ophag": 976,
      "Ġborders</w>": 977,
      "alci": 978,
      "Ġwidened</w>": 979,
      "eal</w>": 980,
      "Ġthymic</w>": 981,
      "defined</w>": 982,
      "ĠH": 983,
      "aling</w>": 984,
      "Ġvolume</w>": 985,
      "inf": 986,
      "hin</w>": 987,
      "ĠWhat</w>": 988,
      "Ġhernias</w>": 989,
      "sible</w>": 990,
      "Ġwithin</w>": 991,
      "Ġdevi": 992,
      "Ġdeviation</w>": 993,
      "ograp": 994,
      "Ġintram": 995,
      "Ġintramural</w>": 996,
      "Ġjoints</w>": 997,
      "ical</w>": 998,
      "ffer": 999,
      "one</w>": 1000,
      "Ġfiel": 1001,
      "Ġfields</w>": 1002,
      "ential</w>": 1003,
      "esophag": 1004,
      "Ġthymoma</w>": 1005,
      "fferential</w>": 1006,
      "Ġcallu": 1007,
      "Ġcallus</w>": 1008,
      "Ġhyperinf": 1009,
      "ioclavicular</w>": 1010,
      "romioclavicular</w>": 1011,
      "Ġseen</w>": 1012,
      "Ġhealing</w>": 1013,
      "Ġsurg": 1014,
      "Ġradiograp": 1015,
      "istory</w>": 1016,
      "Ġlimit": 1017,
      "Ġacromioclavicular</w>": 1018,
      "paration</w>": 1019,
      "Ġseparation</w>": 1020,
      "Ġvenous</w>": 1021,
      "Ġdevic": 1022,
      "elling</w>": 1023,
      "ĠN": 1024,
      "Ġ(</w>": 1025,
      "esophageal</w>": 1026,
      "Ġswelling</w>": 1027,
      "Ġelect": 1028,
      "Ġpresen": 1029,
      "Ġtubes</w>": 1030,
      "Ġhyperinflation</w>": 1031,
      "lan": 1032,
      "fication</w>": 1033,
      "Ġradiograph</w>": 1034,
      "Ġdevices</w>": 1035,
      "Ġmost</w>": 1036,
      "Ġlimits</w>": 1037,
      "Ġelectronic</w>": 1038,
      "calci": 1039,
      "calcification</w>": 1040,
      "arc": 1041,
      "Ġthat</w>": 1042,
      "PD</w>": 1043,
      "ery</w>": 1044,
      "gen": 1045,
      "ĠLung</w>": 1046,
      "Ġsurgery</w>": 1047,
      "hang": 1048,
      "Ġbronchial</w>": 1049,
      "ved</w>": 1050,
      "term": 1051,
      "mo": 1052,
      "Ġdeterm": 1053,
      "od": 1054,
      "Ġinc": 1055,
      "Ġvi": 1056,
      "Ġtrachea</w>": 1057,
      "med</w>": 1058,
      "Ġnodule</w>": 1059,
      "50</w>": 1060,
      "Ġu": 1061,
      "ali": 1062,
      "Ġobserved</w>": 1063,
      "Ġconfirmed</w>": 1064,
      "Ġcont": 1065,
      "dom": 1066,
      "ded</w>": 1067,
      "Ġwh": 1068,
      "ora": 1069,
      "enc": 1070,
      "po": 1071,
      "hanges</w>": 1072,
      "Ġpreoperative</w>": 1073,
      "Ġchanges</w>": 1074,
      "30</w>": 1075,
      "History</w>": 1076,
      "peri": 1077,
      "su": 1078,
      "ĠS": 1079,
      "Ġdifferential</w>": 1080,
      "Ġthora": 1081,
      "de</w>": 1082,
      "ĠB": 1083,
      "ack</w>": 1084,
      "Ġun": 1085,
      "tery</w>": 1086,
      "Ġartery</w>": 1087,
      "ate</w>": 1088,
      "us</w>": 1089,
      "Ġnote</w>": 1090,
      "reoperative</w>": 1091,
      "in</w>": 1092,
      "Ġdetermined</w>": 1093,
      "hou": 1094,
      "lhou": 1095,
      "Ġsilhou": 1096,
      "Ġsilhouet": 1097,
      "Ġal": 1098,
      "oned</w>": 1099,
      "rong</w>": 1100,
      "Ġwrong</w>": 1101,
      "Ġboth</w>": 1102,
      "ated</w>": 1103,
      "Ġnotable</w>": 1104,
      "Ġ50</w>": 1105,
      "yn": 1106,
      "Ġesophageal</w>": 1107,
      "Ġmenti": 1108,
      "Ġmentioned</w>": 1109,
      "cic</w>": 1110,
      "lin": 1111,
      "Ġspine</w>": 1112,
      "splan": 1113,
      "Ġsilhouette</w>": 1114,
      "Ġ65</w>": 1115,
      "linical</w>": 1116,
      "Ġit</w>": 1117,
      "hronic</w>": 1118,
      "splant</w>": 1119,
      "ĠM": 1120,
      "Preoperative</w>": 1121,
      "Ġtran": 1122,
      "Ġwee": 1123,
      "Ġk": 1124,
      "Ġexperi": 1125,
      "Ġexperienc": 1126,
      "ympt": 1127,
      "mok": 1128,
      "se": 1129,
      "Ġexperiencing</w>": 1130,
      "cop": 1131,
      "ak": 1132,
      "ing": 1133,
      "inal</w>": 1134,
      "omali": 1135,
      "Ġanomali": 1136,
      "Ġanomalies</w>": 1137,
      "ysis</w>": 1138,
      "Ġsen": 1139,
      "eart</w>": 1140,
      "ute</w>": 1141,
      "Ġthoracic</w>": 1142,
      "Ġtransplant</w>": 1143,
      "preoperative</w>": 1144,
      "Ġtes": 1145,
      "ats</w>": 1146,
      "ks</w>": 1147,
      "id</w>": 1148,
      "yncop": 1149,
      "diaphragmatic</w>": 1150,
      "Ġvisible</w>": 1151,
      "ss</w>": 1152,
      "Ġinclu": 1153,
      "act</w>": 1154,
      "lung</w>": 1155,
      "Ġback</w>": 1156,
      "Ġweeks</w>": 1157,
      "Ġsense</w>": 1158,
      "wer</w>": 1159,
      "oron": 1160,
      "oronary</w>": 1161,
      "Ġpresenting</w>": 1162,
      "akness</w>": 1163,
      "ĠE": 1164,
      "Ġint": 1165,
      "hee": 1166,
      "Ġ-</w>": 1167,
      "omediastinal</w>": 1168,
      "hing</w>": 1169,
      "hy": 1170,
      "ĠAb": 1171,
      "hy</w>": 1172,
      "dominal</w>": 1173,
      "hma</w>": 1174,
      "generative</w>": 1175,
      "Ġacute</w>": 1176,
      "Ġlower</w>": 1177,
      "Ġfind</w>": 1178,
      "ect": 1179,
      "ĠHeart</w>": 1180,
      "sthma</w>": 1181,
      "Ġx": 1182,
      "Ġsee</w>": 1183,
      "ty</w>": 1184,
      "omit": 1185,
      "omiting</w>": 1186,
      "yncope</w>": 1187,
      "Ġchronic</w>": 1188,
      "Ġcoronary</w>": 1189,
      "Ġsign</w>": 1190,
      "Ġintact</w>": 1191,
      "col": 1192,
      "rk": 1193,
      "Ġxray</w>": 1194,
      "collapse</w>": 1195,
      "Ġobserve</w>": 1196,
      "rom</w>": 1197,
      "Ġ25</w>": 1198,
      "Ġfrom</w>": 1199,
      "Ġsuggest": 1200,
      "ĠBoth</w>": 1201,
      "ay": 1202,
      "all</w>": 1203,
      "ony</w>": 1204,
      "ymptom": 1205,
      "ays</w>": 1206,
      "led</w>": 1207,
      "sence</w>": 1208,
      "Ġsmok": 1209,
      "Ġvascul": 1210,
      "up</w>": 1211,
      "shortness</w>": 1212,
      "Ġrep": 1213,
      "ĠAbsence</w>": 1214,
      "Ġhem": 1215,
      "pper</w>": 1216,
      "ymptoms</w>": 1217,
      "omy</w>": 1218,
      "sided</w>": 1219,
      "Ġdegenerative</w>": 1220,
      "sitive</w>": 1221,
      "Ġwhats</w>": 1222,
      "Ġpre": 1223,
      "ggesting</w>": 1224,
      "suggesting</w>": 1225,
      "eft</w>": 1226,
      "Ġstat": 1227,
      "ast</w>": 1228,
      "Ġcardiomediastinal</w>": 1229,
      "Ġdet": 1230,
      "Ġdetai": 1231,
      "Ġon": 1232,
      "Ġdays</w>": 1233,
      "Ġdetailed</w>": 1234,
      "Ġbone</w>": 1235,
      "ive</w>": 1236,
      "inglung</w>": 1237,
      "Ġsuggestinglung</w>": 1238,
      "ssible</w>": 1239,
      "pl": 1240,
      "Ġbony</w>": 1241,
      "li": 1242,
      "ĠCardi": 1243,
      "Ġpa": 1244,
      "Ġad": 1245,
      "Ġlob": 1246,
      "Ġupper</w>": 1247,
      "OPD</w>": 1248,
      "Ġinformation</w>": 1249,
      "Ġtest</w>": 1250,
      "uri": 1251,
      "our": 1252,
      "Ġdo": 1253,
      "ver</w>": 1254,
      "denti": 1255,
      "Ġidenti": 1256,
      "ab": 1257,
      "Ġidentified</w>": 1258,
      "ĠEx": 1259,
      "Hy": 1260,
      "Ġvomiting</w>": 1261,
      "Ġalone</w>": 1262,
      "ĠChest</w>": 1263,
      "Ġpro": 1264,
      "Ġpresents</w>": 1265,
      "Ġdef": 1266,
      "eral</w>": 1267,
      "ilat": 1268,
      "ver": 1269,
      "wn</w>": 1270,
      "plain</w>": 1271,
      "ĠExplain</w>": 1272,
      "pox": 1273,
      "ours</w>": 1274,
      "Ġcomp": 1275,
      "sse": 1276,
      "Ġloss</w>": 1277,
      "Ġasthma</w>": 1278,
      "Ġsymptoms</w>": 1279,
      "low</w>": 1280,
      "sc": 1281,
      "reased</w>": 1282,
      "sseous</w>": 1283,
      "zing</w>": 1284,
      "our</w>": 1285,
      "icle</w>": 1286,
      "arcin": 1287,
      "opat": 1288,
      "Ġinclude</w>": 1289,
      "ĠDi": 1290,
      "ĠNot": 1291,
      "10</w>": 1292,
      "aphragm</w>": 1293,
      "heezing</w>": 1294,
      "Ġarm</w>": 1295,
      "eh": 1296,
      "Ġ3</w>": 1297,
      "ehicle</w>": 1298,
      "ib": 1299,
      "Ġcontour</w>": 1300,
      "poxia</w>": 1301,
      "mark": 1302,
      "Ġstable</w>": 1303,
      "ention</w>": 1304,
      "remark": 1305,
      "Ġim": 1306,
      "remarkable</w>": 1307,
      "Ġclinical</w>": 1308,
      "ula</w>": 1309,
      "city</w>": 1310,
      "au": 1311,
      "lain": 1312,
      "nown</w>": 1313,
      "Ġlobe</w>": 1314,
      "Ġwall</w>": 1315,
      "Ġsmoking</w>": 1316,
      "Fe": 1317,
      "rro": 1318,
      "Ġcontours</w>": 1319,
      "Ġunremarkable</w>": 1320,
      "Ġmarro": 1321,
      "Ġmarrow</w>": 1322,
      "Ġopacity</w>": 1323,
      "Ġmon": 1324,
      "ating</w>": 1325,
      "COPD</w>": 1326,
      "lar</w>": 1327,
      "ĠNotable</w>": 1328,
      "eg": 1329,
      "Ġmild</w>": 1330,
      "Ġcarcin": 1331,
      "ric": 1332,
      "Ġat": 1333,
      "Ġdoes</w>": 1334,
      "Ġappear</w>": 1335,
      "Ġpossible</w>": 1336,
      "Ġbilat": 1337,
      "ding</w>": 1338,
      "Ġco": 1339,
      "eci": 1340,
      "Ġmention</w>": 1341,
      "Female</w>": 1342,
      "oductive</w>": 1343,
      "cid": 1344,
      "valu": 1345,
      "ative</w>": 1346,
      "Ġstatus</w>": 1347,
      "min": 1348,
      "ior</w>": 1349,
      "Ġprevi": 1350,
      "nee</w>": 1351,
      "fter</w>": 1352,
      "Ġafter</w>": 1353,
      "Ġarch</w>": 1354,
      "Ġone</w>": 1355,
      "Ġvent": 1356,
      "ad": 1357,
      "rial</w>": 1358,
      "opathy</w>": 1359,
      "Ġmot": 1360,
      "sea</w>": 1361,
      "ausea</w>": 1362,
      "ffic": 1363,
      "Ġeffusions</w>": 1364,
      "Ġweakness</w>": 1365,
      "iness</w>": 1366,
      "ital</w>": 1367,
      "ricular</w>": 1368,
      "ziness</w>": 1369,
      "zziness</w>": 1370,
      "Ġelev": 1371,
      "ste": 1372,
      "Ġvehicle</w>": 1373,
      "ollow</w>": 1374,
      "ĠPr": 1375,
      "genital</w>": 1376,
      "xy": 1377,
      "Ġventricular</w>": 1378,
      "PPD</w>": 1379,
      "Ġcongenital</w>": 1380,
      "ta</w>": 1381,
      "45</w>": 1382,
      "Ġlar": 1383,
      "Ġaorta</w>": 1384,
      "Ġcomplain": 1385,
      "Ġoste": 1386,
      "Ġhas</w>": 1387,
      "Ġpara": 1388,
      "ĠCardiac</w>": 1389,
      "Ġinj": 1390,
      "Ġcer": 1391,
      "fficul": 1392,
      "gen</w>": 1393,
      "Ġmyo": 1394,
      "xygen</w>": 1395,
      "Ġknee</w>": 1396,
      "fficulty</w>": 1397,
      "Ġprevious</w>": 1398,
      "cident</w>": 1399,
      "tysis</w>": 1400,
      "optysis</w>": 1401,
      "Ġabnormality</w>": 1402,
      "gue</w>": 1403,
      "idosis</w>": 1404,
      "cardi": 1405,
      "Ġwor": 1406,
      "valuate</w>": 1407,
      "Left</w>": 1408,
      "Ġits</w>": 1409,
      "Ġoxygen</w>": 1410,
      "ury</w>": 1411,
      "Ġaccident</w>": 1412,
      "Ġatrial</w>": 1413,
      "ein</w>": 1414,
      "rache": 1415,
      "Ġ1</w>": 1416,
      "ĠTrache": 1417,
      "ĠProblems</w>": 1418,
      "les</w>": 1419,
      "lysis</w>": 1420,
      "Ġparalysis</w>": 1421,
      "size</w>": 1422,
      "Ġinjury</w>": 1423,
      "atigue</w>": 1424,
      "ental</w>": 1425,
      "Ġpost</w>": 1426,
      "Ġlarge</w>": 1427,
      "asi": 1428,
      "Ġdiaphragm</w>": 1429,
      "The</w>": 1430,
      "Ġwheezing</w>": 1431,
      "arity</w>": 1432,
      "Ġlow</w>": 1433,
      "Ġmal": 1434,
      "air</w>": 1435,
      "atic</w>": 1436,
      "Ġprot": 1437,
      "Ġbreathing</w>": 1438,
      "omeg": 1439,
      "aly</w>": 1440,
      "omegaly</w>": 1441,
      "Ġbreast</w>": 1442,
      "ĠTrachea</w>": 1443,
      "zed</w>": 1444,
      "ĠDifferential</w>": 1445,
      "oid</w>": 1446,
      "Ġpuri": 1447,
      "eriv": 1448,
      "Ġderiv": 1449,
      "Ġprotein</w>": 1450,
      "Ġpurified</w>": 1451,
      "Ġderivative</w>": 1452,
      "Ġabdominal</w>": 1453,
      "roat</w>": 1454,
      "Ġ2</w>": 1455,
      "uction</w>": 1456,
      "positive</w>": 1457,
      "Ġimmage</w>": 1458,
      "Po": 1459,
      "Ġvascularity</w>": 1460,
      "umb": 1461,
      "esc": 1462,
      "idne": 1463,
      "idney</w>": 1464,
      "ĠR": 1465,
      "ĠG": 1466,
      "Ġinfection</w>": 1467,
      "ut": 1468,
      "Ġpost": 1469,
      "Ġmyocardi": 1470,
      "ort</w>": 1471,
      "Ġ10</w>": 1472,
      "ecent</w>": 1473,
      "ule</w>": 1474,
      "Ġpositive</w>": 1475,
      "Ġsten": 1476,
      "ric</w>": 1477,
      "vid": 1478,
      "esp": 1479,
      "ĠHistory</w>": 1480,
      "enic</w>": 1481,
      "ve": 1482,
      "Ġspeci": 1483,
      "ot</w>": 1484,
      "asal</w>": 1485,
      "Ġcarcinoma</w>": 1486,
      "Ġosseous</w>": 1487,
      "Ġ,</w>": 1488,
      "arr": 1489,
      "Ġexa": 1490,
      "eakness</w>": 1491,
      "Ġweight</w>": 1492,
      "Ġrepair</w>": 1493,
      "Ġag": 1494,
      "70</w>": 1495,
      "ay</w>": 1496,
      "Ġelevated</w>": 1497,
      "20</w>": 1498,
      "Ġincreased</w>": 1499,
      "Ġnasal</w>": 1500,
      "th</w>": 1501,
      "Ġreg": 1502,
      "escri": 1503,
      "oidosis</w>": 1504,
      "arcoidosis</w>": 1505,
      "tered</w>": 1506,
      "plan": 1507,
      "omat": 1508,
      "Ġexplan": 1509,
      "Ġexplanation</w>": 1510,
      "pan": 1511,
      "Ġgive</w>": 1512,
      "Ġmotor</w>": 1513,
      "age</w>": 1514,
      "Ġcardiomegaly</w>": 1515,
      "?<</w>": 1516,
      "Evaluate</w>": 1517,
      "cal</w>": 1518,
      "escrib": 1519,
      "Ġreport</w>": 1520,
      "ĠGive</w>": 1521,
      "Ġfist": 1522,
      "vical</w>": 1523,
      "Ġprovid": 1524,
      "sity</w>": 1525,
      "Ġdilation</w>": 1526,
      "ths</w>": 1527,
      "Ġmonths</w>": 1528,
      "Ġfever</w>": 1529,
      "ow</w>": 1530,
      "oun": 1531,
      "Ġproductive</w>": 1532,
      "Syncope</w>": 1533,
      "There</w>": 1534,
      "umbness</w>": 1535,
      "Ġnumbness</w>": 1536,
      "pertension</w>": 1537,
      "Ġarr": 1538,
      "Ġfollow</w>": 1539,
      "Ġmental</w>": 1540,
      "Ġcervical</w>": 1541,
      "history</w>": 1542,
      "ĠLungs</w>": 1543,
      "mination</w>": 1544,
      "ĠNormal</w>": 1545,
      "Ġ[</w>": 1546,
      "Ġbronc": 1547,
      "ache</w>": 1548,
      "yp": 1549,
      "ectomy</w>": 1550,
      "ĊĊ</w>": 1551,
      "Ġsyncope</w>": 1552,
      "Ġradiating</w>": 1553,
      "Ġstenosis</w>": 1554,
      "'s</w>": 1555,
      "Ġplacement</w>": 1556,
      "alized</w>": 1557,
      "known</w>": 1558,
      "Ġye": 1559,
      "Ġyears</w>": 1560,
      "itis</w>": 1561,
      "ĠI</w>": 1562,
      "urg": 1563,
      "mb": 1564,
      "sualized</w>": 1565,
      "Ġexamination</w>": 1566,
      "ticul": 1567,
      "Ġme</w>": 1568,
      "ĠDescrib": 1569,
      "ĠDescribe</w>": 1570,
      "Ġtissu": 1571,
      "dy</w>": 1572,
      "Ġwas</w>": 1573,
      "ĠNot</w>": 1574,
      "is": 1575,
      "set</w>": 1576,
      "Ġwho</w>": 1577,
      "Ġinfiltrate</w>": 1578,
      "Ġ70</w>": 1579,
      "strib": 1580,
      "Ġdiver": 1581,
      "Ġvolumes</w>": 1582,
      "Ġdiverticul": 1583,
      "stribu": 1584,
      "homa</w>": 1585,
      "acc": 1586,
      "ound</w>": 1587,
      "Ġosteop": 1588,
      "usion</w>": 1589,
      "Di": 1590,
      "Ġat</w>": 1591,
      "Ġep": 1592,
      "els</w>": 1593,
      "ima": 1594,
      "Ġfistula</w>": 1595,
      "adache</w>": 1596,
      "ĠPPD</w>": 1597,
      "onal</w>": 1598,
      "Hypoxia</w>": 1599,
      "Ġago</w>": 1600,
      "av": 1601,
      "panded</w>": 1602,
      "Ġbe": 1603,
      "pain</w>": 1604,
      "hr": 1605,
      "hys": 1606,
      "hrenic</w>": 1607,
      "hyse": 1608,
      "idi": 1609,
      "sure</w>": 1610,
      "Ġass": 1611,
      "Ġobstruction</w>": 1612,
      "Hypertension</w>": 1613,
      "lly</w>": 1614,
      "ild</w>": 1615,
      "Ġhemidi": 1616,
      "ced</w>": 1617,
      "kup</w>": 1618,
      "Ġworkup</w>": 1619,
      "22</w>": 1620,
      "ond": 1621,
      "rac": 1622,
      "Ġresp": 1623,
      "Ġvisualized</w>": 1624,
      "Ġyear</w>": 1625,
      "os": 1626,
      "Ġhemang": 1627,
      "thm": 1628,
      "hythm": 1629,
      "Ġarrhythm": 1630,
      "Ġhemangi": 1631,
      "Ġage</w>": 1632,
      "Ġdifficulty</w>": 1633,
      "Ġbroncho": 1634,
      "Ġarrhythmias</w>": 1635,
      "mma": 1636,
      "Ġlev": 1637,
      "Dyspnea</w>": 1638,
      "ld</w>": 1639,
      "ĠLeft</w>": 1640,
      "ep": 1641,
      "lamma": 1642,
      "ale</w>": 1643,
      "Ġinflamma": 1644,
      "ted</w>": 1645,
      "Ġdizziness</w>": 1646,
      "Ġevaluate</w>": 1647,
      "Age</w>": 1648,
      "ari": 1649,
      "02</w>": 1650,
      "Ġ45</w>": 1651,
      "Ġold</w>": 1652,
      "hem": 1653,
      "ardia</w>": 1654,
      "ortu": 1655,
      "urr": 1656,
      "kin</w>": 1657,
      "ĠO": 1658,
      "Ġbase</w>": 1659,
      "ls</w>": 1660,
      "hil": 1661,
      "Ġbronchitis</w>": 1662,
      "Ġmu": 1663,
      "Ġruled</w>": 1664,
      "Ġrecent</w>": 1665,
      "Ġdiverticula</w>": 1666,
      "stribution</w>": 1667,
      "od</w>": 1668,
      "ĠFemale</w>": 1669,
      "Ġbilateral</w>": 1670,
      "Ġthroat</w>": 1671,
      "Ġemphyse": 1672,
      "ant</w>": 1673,
      "Ab": 1674,
      "Ġprior</w>": 1675,
      "obacc": 1676,
      "obacco</w>": 1677,
      "Ġlevels</w>": 1678,
      "Rib</w>": 1679,
      "Un": 1680,
      "ects</w>": 1681,
      "ĠPulmonary</w>": 1682,
      "erally</w>": 1683,
      "Ġcondi": 1684,
      "isod": 1685,
      "Ġepisod": 1686,
      "hills</w>": 1687,
      "xoma</w>": 1688,
      "yxoma</w>": 1689,
      "Ġmyxoma</w>": 1690,
      "Al": 1691,
      "enal</w>": 1692,
      "Ġgranulomat": 1693,
      "Ġbilaterally</w>": 1694,
      "ulti": 1695,
      "Ġmyocardial</w>": 1696,
      "Ġcell</w>": 1697,
      "cture</w>": 1698,
      "Ġdefects</w>": 1699,
      "mall</w>": 1700,
      "pro": 1701,
      "Ġuse</w>": 1702,
      "fic</w>": 1703,
      "itral</w>": 1704,
      "ign": 1705,
      "back</w>": 1706,
      "Ġspa": 1707,
      "Ġsarcoidosis</w>": 1708,
      "yoma</w>": 1709,
      "Ġmitral</w>": 1710,
      "iratory</w>": 1711,
      "arring</w>": 1712,
      "Ġtobacco</w>": 1713,
      "Ġhemoptysis</w>": 1714,
      "asilar</w>": 1715,
      "enopathy</w>": 1716,
      "Ġemb": 1717,
      "Ġemboli": 1718,
      ").<</w>": 1719,
      "Ġover</w>": 1720,
      "sm</w>": 1721,
      "ffuse</w>": 1722,
      "Ġembolism</w>": 1723,
      "ill": 1724,
      "Ġrespiratory</w>": 1725,
      "Ġfracture</w>": 1726,
      "arcoma</w>": 1727,
      "Ġmusc": 1728,
      "Ġinflammation</w>": 1729,
      "Ġqu": 1730,
      "lated</w>": 1731,
      "]-</w>": 1732,
      "rosc": 1733,
      "ĠPatient</w>": 1734,
      "erior</w>": 1735,
      "Ġel": 1736,
      "Ġlesion</w>": 1737,
      "Ġconditions</w>": 1738,
      "Ġhip</w>": 1739,
      "Tuberculosis</w>": 1740,
      "Ġreplacement</w>": 1741,
      "Ġscarring</w>": 1742,
      "Ġinfarc": 1743,
      "mity</w>": 1744,
      "Ġ5</w>": 1745,
      "tures</w>": 1746,
      "kidney</w>": 1747,
      "hysi": 1748,
      "tr": 1749,
      "Ġcho": 1750,
      "Ġcav": 1751,
      "Ġmedi": 1752,
      "Ġelb": 1753,
      "sing</w>": 1754,
      "Fatigue</w>": 1755,
      "Ġ20</w>": 1756,
      "Ġdiffuse</w>": 1757,
      "igns</w>": 1758,
      "ĠSigns</w>": 1759,
      "hysical</w>": 1760,
      "Ġdetermine</w>": 1761,
      "side</w>": 1762,
      "Ġpat": 1763,
      "Ġknown</w>": 1764,
      "Ġover": 1765,
      "orr": 1766,
      "Ġbari": 1767,
      "atric</w>": 1768,
      "Ġbariatric</w>": 1769,
      "sia</w>": 1770,
      "Ġenlarged</w>": 1771,
      "Ġemphysema</w>": 1772,
      "tional</w>": 1773,
      "itation</w>": 1774,
      "Ġfound</w>": 1775,
      "Ġremo": 1776,
      "fusion</w>": 1777,
      "ctomy</w>": 1778,
      "ĠSi": 1779,
      "ov": 1780,
      "state</w>": 1781,
      "aul": 1782,
      "ictures</w>": 1783,
      "Ġstrictures</w>": 1784,
      "Ġlymphang": 1785,
      "Ġelbow</w>": 1786,
      "Ġlymphangi": 1787,
      "ĠX</w>": 1788,
      "Ġsept": 1789,
      "Ġseptal</w>": 1790,
      "om</w>": 1791,
      "Ġnec": 1792,
      "ally</w>": 1793,
      "Ġindic": 1794,
      "Ġden": 1795,
      "Ġhypoxia</w>": 1796,
      "Ġchee": 1797,
      "Ġcheek</w>": 1798,
      "55</w>": 1799,
      "ces</w>": 1800,
      "Ġan</w>": 1801,
      "ite</w>": 1802,
      "Nausea</w>": 1803,
      "Ġnausea</w>": 1804,
      "Ġpai</w>": 1805,
      "domen</w>": 1806,
      "Ġmalf": 1807,
      "Ġnd</w>": 1808,
      "Ġstates</w>": 1809,
      "),</w>": 1810,
      "Ġsin": 1811,
      "Ġsmall</w>": 1812,
      "ateral</w>": 1813,
      "ple</w>": 1814,
      "arct": 1815,
      "esticular</w>": 1816,
      "ex": 1817,
      "Ġtortu": 1818,
      "Ġpresence</w>": 1819,
      "Ġ30</w>": 1820,
      "Ġperi": 1821,
      "osseous</w>": 1822,
      "Ġphysical</w>": 1823,
      "Ġnose</w>": 1824,
      "Ġassaul": 1825,
      "clinical</w>": 1826,
      "ws</w>": 1827,
      "Ġinfarction</w>": 1828,
      "Ġbeen</w>": 1829,
      "esosseous</w>": 1830,
      "Ġabdomen</w>": 1831,
      "ach": 1832,
      "Ġsmoker</w>": 1833,
      "olap": 1834,
      "Ġprolap": 1835,
      "Ġtube</w>": 1836,
      "ĠSize</w>": 1837,
      "Ġprolapse</w>": 1838,
      "In": 1839,
      "Ġspecific</w>": 1840,
      "roscle": 1841,
      "weakness</w>": 1842,
      "imal</w>": 1843,
      "neumonia</w>": 1844,
      "ear</w>": 1845,
      "Ġgranulomatous</w>": 1846,
      "ging</w>": 1847,
      "ide": 1848,
      "Ġlateral</w>": 1849,
      "stat": 1850,
      "rant</w>": 1851,
      "Sympt": 1852,
      "Symptom</w>": 1853,
      "Ġrenal</w>": 1854,
      "Ġarteri": 1855,
      "mat": 1856,
      "00</w>": 1857,
      "rosis</w>": 1858,
      "Ġmetastatic</w>": 1859,
      ",<</w>": 1860,
      "theroscle": 1861,
      "des</w>": 1862,
      "table</w>": 1863,
      "Ġmark": 1864,
      "had": 1865,
      "Ġprovided</w>": 1866,
      "Ġfibro": 1867,
      "hemoptysis</w>": 1868,
      "Ġcost": 1869,
      "ditional</w>": 1870,
      "Ġhilar</w>": 1871,
      "ir": 1872,
      "aphragms</w>": 1873,
      "ultiple</w>": 1874,
      "lee": 1875,
      "Positive</w>": 1876,
      "creased</w>": 1877,
      "achyc": 1878,
      "mia</w>": 1879,
      "uration</w>": 1880,
      "nula</w>": 1881,
      "Ġfall</w>": 1882,
      "Ġlab": 1883,
      "Ġinside</w>": 1884,
      "Ġcannula</w>": 1885,
      "Ġusing</w>": 1886,
      "Ġregurg": 1887,
      "Ġmuscles</w>": 1888,
      "Ġregurgitation</w>": 1889,
      "ex</w>": 1890,
      "Ġapex</w>": 1891,
      "orat": 1892,
      "Ġsuperi": 1893,
      "Ġhemangiomas</w>": 1894,
      "Ġlaborat": 1895,
      "Ġlaboratory</w>": 1896,
      "ĠUn": 1897,
      "Ġheadache</w>": 1898,
      "Ġcha": 1899,
      "Ġcholec": 1900,
      "ertion</w>": 1901,
      "Abdominal</w>": 1902,
      "lood</w>": 1903,
      "Ġlymphoma</w>": 1904,
      "ena</w>": 1905,
      "Ġvena</w>": 1906,
      "Ġcava</w>": 1907,
      "wo</w>": 1908,
      "Ġnon": 1909,
      "unds</w>": 1910,
      "kles</w>": 1911,
      "Ġcrac": 1912,
      "Ġfatigue</w>": 1913,
      "Ġexertion</w>": 1914,
      "Ġcrackles</w>": 1915,
      "Ġchills</w>": 1916,
      "idectomy</w>": 1917,
      "Ġtod": 1918,
      "Ġtoday</w>": 1919,
      "aci": 1920,
      "Ġincludes</w>": 1921,
      "Ġha": 1922,
      "Ġpersistent</w>": 1923,
      "sening</w>": 1924,
      "iom": 1925,
      "Ġleiom": 1926,
      "inimal</w>": 1927,
      "Ġshows</w>": 1928,
      "ĠMild</w>": 1929,
      "Ġtracheo": 1930,
      "Ġhemorr": 1931,
      "gh": 1932,
      "tness</w>": 1933,
      "Ġside</w>": 1934,
      "Ġtigh": 1935,
      "Ġtissues</w>": 1936,
      "Ġtightness</w>": 1937,
      "35</w>": 1938,
      "Ġtumor</w>": 1939,
      "nset</w>": 1940,
      "reat": 1941,
      "Ġcholecyst": 1942,
      "Ġassault</w>": 1943,
      "iration</w>": 1944,
      "ĠCan": 1945,
      "elast": 1946,
      "Ġfibroelast": 1947,
      "Ġblood</w>": 1948,
      "Ġmay</w>": 1949,
      "Ġstu": 1950,
      "abdominal</w>": 1951,
      "Altered</w>": 1952,
      "cre": 1953,
      "eats</w>": 1954,
      "Ġmonth</w>": 1955,
      "elan": 1956,
      "elanoma</w>": 1957,
      "alp": 1958,
      "Ġcomplaints</w>": 1959,
      "Ġposterior</w>": 1960,
      "utum</w>": 1961,
      "Ġlymphangioma</w>": 1962,
      "ous": 1963,
      "Ġmalign": 1964,
      "ps</w>": 1965,
      "ĠPo": 1966,
      "Ġvasculopathy</w>": 1967,
      "Ġvasculitis</w>": 1968,
      "his</w>": 1969,
      "hadenopathy</w>": 1970,
      "hesions</w>": 1971,
      "Ġadhesions</w>": 1972,
      "Ġsuperior</w>": 1973,
      "dul": 1974,
      "Ġmalformation</w>": 1975,
      "tre": 1976,
      "ross": 1977,
      "Ġmotion</w>": 1978,
      "ovenous</w>": 1979,
      "Ġarteriovenous</w>": 1980,
      "Ġmalignan": 1981,
      "aran": 1982,
      "hal": 1983,
      "productive</w>": 1984,
      "Ġare": 1985,
      "Ġgranulomas</w>": 1986,
      "rossly</w>": 1987,
      "arance</w>": 1988,
      "Ġcoarct": 1989,
      "Ġbronchoesophageal</w>": 1990,
      "achycardia</w>": 1991,
      "Ġtracheoesophageal</w>": 1992,
      "Ġcoarctation</w>": 1993,
      "phe": 1994,
      "chedul": 1995,
      "cheduled</w>": 1996,
      "Onset</w>": 1997,
      "Ġtracheobronchitis</w>": 1998,
      "Ġmetastasis</w>": 1999,
      "Ġappearance</w>": 2000,
      "ĠShortness</w>": 2001,
      "otal</w>": 2002,
      "uritic</w>": 2003,
      "Ġthree</w>": 2004,
      "ĠClinical</w>": 2005,
      "Ġthyro": 2006,
      "zation</w>": 2007,
      "unknown</w>": 2008,
      "erali": 2009,
      "Ġtesticular</w>": 2010,
      "Ġadditional</w>": 2011,
      "smok": 2012,
      "sive</w>": 2013,
      "Ġpressure</w>": 2014,
      "Chronic</w>": 2015,
      "spic": 2016,
      "Ġatheroscle": 2017,
      "Ġgrossly</w>": 2018,
      "Dizziness</w>": 2019,
      "Ġnoticed</w>": 2020,
      "ĠLo": 2021,
      "Ġcm</w>": 2022,
      "ophrenic</w>": 2023,
      "Ġspace</w>": 2024,
      "Ġsyn": 2025,
      "Ġsynd": 2026,
      "ise</w>": 2027,
      "Ġtwo</w>": 2028,
      "art": 2029,
      "Ġunder": 2030,
      "umat": 2031,
      "Ġlipoma</w>": 2032,
      "Ġne": 2033,
      "Ġhemidiaphragms</w>": 2034,
      "Ġsince</w>": 2035,
      "dly</w>": 2036,
      "heumat": 2037,
      "Ġrheumat": 2038,
      "Ġrheumatoid</w>": 2039,
      "ode": 2040,
      "ĠF": 2041,
      "Ġbody</w>": 2042,
      "rome</w>": 2043,
      "Ġsyndrome</w>": 2044,
      "Ġstudy</w>": 2045,
      "ĠStable</w>": 2046,
      "val</w>": 2047,
      "Ġkidney</w>": 2048,
      "ĠRight</w>": 2049,
      "hoidectomy</w>": 2050,
      "Ġhemorrhoidectomy</w>": 2051,
      "orosis</w>": 2052,
      "Ġextre": 2053,
      "Ġperiphe": 2054,
      "ĠCannot</w>": 2055,
      "chy</w>": 2056,
      "ortic</w>": 2057,
      "Ġmid</w>": 2058,
      "othe": 2059,
      "Ġosteoporosis</w>": 2060,
      "status</w>": 2061,
      "ĠAortic</w>": 2062,
      "Ġmarkings</w>": 2063,
      "Ġdefin": 2064,
      "Ġang": 2065,
      "Ġflu": 2066,
      "Ġsounds</w>": 2067,
      "Ġsuggest</w>": 2068,
      "Ġsputum</w>": 2069,
      "ĠMediastin": 2070,
      "ĠMale</w>": 2071,
      "ĠUnable</w>": 2072,
      "Asthma</w>": 2073,
      "Ġcostophrenic</w>": 2074,
      "ibs</w>": 2075,
      "ystic</w>": 2076,
      "adrant</w>": 2077,
      "Ġquadrant</w>": 2078,
      "Ġremoval</w>": 2079,
      "Ġribs</w>": 2080,
      "Ġhyperex": 2081,
      "lely</w>": 2082,
      "Ġdex": 2083,
      "Ġsolely</w>": 2084,
      "tes</w>": 2085,
      "ass</w>": 2086,
      "ich</w>": 2087,
      "Ġwhich</w>": 2088,
      "omin": 2089,
      "illary</w>": 2090,
      "Ġbr": 2091,
      "spici": 2092,
      "ĠN</w>": 2093,
      "Ġsuspici": 2094,
      "ected</w>": 2095,
      "Ġaden": 2096,
      "Ġprovide</w>": 2097,
      "troc": 2098,
      "hond": 2099,
      "Ġchan": 2100,
      "lad": 2101,
      "am": 2102,
      "Ġscheduled</w>": 2103,
      "Ġpromin": 2104,
      "Ġdecreased</w>": 2105,
      "Ġdefor": 2106,
      "Ġchange</w>": 2107,
      "fo": 2108,
      "ker</w>": 2109,
      "itations</w>": 2110,
      "Ġminimal</w>": 2111,
      "lity</w>": 2112,
      "Ġimp": 2113,
      "Ġpleur": 2114,
      "reast</w>": 2115,
      "Ġscan</w>": 2116,
      "lat": 2117,
      "uk": 2118,
      "Ġer": 2119,
      "Ġdefinite</w>": 2120,
      "Testicular</w>": 2121,
      "ĠCalci": 2122,
      "alpitations</w>": 2123,
      "yst</w>": 2124,
      "Ġcyst</w>": 2125,
      "Ġthorax</w>": 2126,
      "Lymp": 2127,
      "ytic</w>": 2128,
      "low": 2129,
      "60</w>": 2130,
      "Ġpap": 2131,
      "uld</w>": 2132,
      "ascular</w>": 2133,
      "Ġfibroelastoma</w>": 2134,
      "Ġpapillary</w>": 2135,
      "Ġmye": 2136,
      "Ġmildly</w>": 2137,
      "ĠPain</w>": 2138,
      "Breast</w>": 2139,
      "ning</w>": 2140,
      "ĠĊĊ</w>": 2141,
      "Ġmyel": 2142,
      "act": 2143,
      "ke</w>": 2144,
      "Ġanes": 2145,
      "thesia</w>": 2146,
      "Ġanesthesia</w>": 2147,
      "orre": 2148,
      "ĠCOPD</w>": 2149,
      "Ġcalcification</w>": 2150,
      "Ġend": 2151,
      "Ġtotal</w>": 2152,
      "idging</w>": 2153,
      "Ġdemin": 2154,
      "row": 2155,
      "rotic</w>": 2156,
      "eralization</w>": 2157,
      "Ġdemineralization</w>": 2158,
      "Ġbridging</w>": 2159,
      "wise</w>": 2160,
      "ĠMo": 2161,
      ").</w>": 2162,
      "Ġner": 2163,
      "Ġbasilar</w>": 2164,
      "Ġredi": 2165,
      "Ġrepres": 2166,
      "Ġindicated</w>": 2167,
      "Ġnerve</w>": 2168,
      "Ġredistribution</w>": 2169,
      "rwise</w>": 2170,
      "therwise</w>": 2171,
      "Ġlymphadenopathy</w>": 2172,
      "ĠMost</w>": 2173,
      "Rule</w>": 2174,
      "omal": 2175,
      "Ġdistribution</w>": 2176,
      "Ġtissuesosseous</w>": 2177,
      "Ġhemidiaphragm</w>": 2178,
      "acia</w>": 2179,
      "Ġthyroid</w>": 2180,
      "omalacia</w>": 2181,
      "ele": 2182,
      "Ġnight</w>": 2183,
      "Ġsweats</w>": 2184,
      "Ġmyocarditis</w>": 2185,
      "Ġtortuous</w>": 2186,
      "Ġtear</w>": 2187,
      "Ġphrenic</w>": 2188,
      "leural</w>": 2189,
      "urther</w>": 2190,
      "Ġunknown</w>": 2191,
      "mm": 2192,
      "Ġwing": 2193,
      "Ġabo": 2194,
      "..<</w>": 2195,
      "tling</w>": 2196,
      "Ġonset</w>": 2197,
      "Ġmottling</w>": 2198,
      "Ġleiomyoma</w>": 2199,
      "Ġwinging</w>": 2200,
      "Ġthr": 2201,
      "Ġskin</w>": 2202,
      "Ġpneumothoraces</w>": 2203,
      "Ġsurgical</w>": 2204,
      "Ġepisode</w>": 2205,
      "ĠCalcified</w>": 2206,
      "cies</w>": 2207,
      "entilation</w>": 2208,
      "lips</w>": 2209,
      "ans</w>": 2210,
      "nal</w>": 2211,
      "asm</w>": 2212,
      "Possible</w>": 2213,
      "Ġmore</w>": 2214,
      "Ġimm": 2215,
      "Ġcomplains</w>": 2216,
      "Ġneck</w>": 2217,
      "Right</w>": 2218,
      "Ġscans</w>": 2219,
      "Ġpregn": 2220,
      "ying</w>": 2221,
      "asts</w>": 2222,
      "Ġangle</w>": 2223,
      "Ġero": 2224,
      "Heart</w>": 2225,
      "ching</w>": 2226,
      "emia</w>": 2227,
      "kin": 2228,
      "rate</w>": 2229,
      "Ġlytic</w>": 2230,
      "Ġbl": 2231,
      "Ġshar": 2232,
      "Ġnotching</w>": 2233,
      "Ġexpanded</w>": 2234,
      "lision</w>": 2235,
      "Ġerosion</w>": 2236,
      "Ġclips</w>": 2237,
      "Ġ.</w>": 2238,
      "esothe": 2239,
      "Ġmesothe": 2240,
      "Ġstress</w>": 2241,
      "lioma</w>": 2242,
      "Ġepisodes</w>": 2243,
      "Ġmalignancies</w>": 2244,
      "ĠMediastinal</w>": 2245,
      "Ġsharp</w>": 2246,
      "Ġmesothelioma</w>": 2247,
      "IV</w>": 2248,
      "lying</w>": 2249,
      "Ġdiab": 2250,
      "Ġdensity</w>": 2251,
      "Ġmyeloma</w>": 2252,
      "olar</w>": 2253,
      "normal</w>": 2254,
      "sy</w>": 2255,
      "ĠDyspnea</w>": 2256,
      "Weakness</w>": 2257,
      "osity</w>": 2258,
      "Ġout": 2259,
      "Ġref": 2260,
      "ĠLocation</w>": 2261,
      "28</w>": 2262,
      "ĠPositive</w>": 2263,
      "ni": 2264,
      "Ġbyp": 2265,
      "reg": 2266,
      "ypical</w>": 2267,
      "urgical</w>": 2268,
      "Ġextremity</w>": 2269,
      "Ġbypass</w>": 2270,
      "tal</w>": 2271,
      "hic</w>": 2272,
      "Ġunderg": 2273,
      "Ġtreat": 2274,
      "ster": 2275,
      "ator</w>": 2276,
      "Ġtreatment</w>": 2277,
      "rreg": 2278,
      "sures</w>": 2279,
      "Ġpressures</w>": 2280,
      "Ġareas</w>": 2281,
      "Ġperipheral</w>": 2282,
      "fically</w>": 2283,
      "Ġcystic</w>": 2284,
      "fibr": 2285,
      "pat": 2286,
      "ĠA</w>": 2287,
      "hea</w>": 2288,
      "erb": 2289,
      "Ġblee": 2290,
      "Ġdiarr": 2291,
      "acerb": 2292,
      "ency</w>": 2293,
      "Ġbleeding</w>": 2294,
      "Ġdiarrhea</w>": 2295,
      "tite</w>": 2296,
      "org": 2297,
      "Ġbut</w>": 2298,
      "Ġappetite</w>": 2299,
      "ondy": 2300,
      "Ġabout</w>": 2301,
      "losis</w>": 2302,
      "Ġspondy": 2303,
      "smoker</w>": 2304,
      "bdom": 2305,
      "Ġrha": 2306,
      "Ġweek</w>": 2307,
      "bdomyoma</w>": 2308,
      "Ġrhabdomyoma</w>": 2309,
      "Ġshi": 2310,
      "Ġspondylosis</w>": 2311,
      "spected</w>": 2312,
      "ocy": 2313,
      "ĠPreoperative</w>": 2314,
      "ladder</w>": 2315,
      "Ġpregnant</w>": 2316,
      "so</w>": 2317,
      "ĠV": 2318,
      "Ġ60</w>": 2319,
      "Ġtachycardia</w>": 2320,
      "ess": 2321,
      "ĠHy": 2322,
      "ade": 2323,
      "right</w>": 2324,
      "ĠNod": 2325,
      "cin": 2326,
      "Ġventilation</w>": 2327,
      "tely</w>": 2328,
      "perfusion</w>": 2329,
      "Ġleuk": 2330,
      "Ġcollision</w>": 2331,
      "cinosis</w>": 2332,
      "Ġalso</w>": 2333,
      "inning</w>": 2334,
      "Ġfurther</w>": 2335,
      "otomy</w>": 2336,
      "Lymphoma</w>": 2337,
      "Ġcrow": 2338,
      "veolar</w>": 2339,
      "pneumonia</w>": 2340,
      "ilateral</w>": 2341,
      "Ġcarcinoid</w>": 2342,
      "Ġneur": 2343,
      "Ġappro": 2344,
      "uspected</w>": 2345,
      "Ġdextroc": 2346,
      "orrelation</w>": 2347,
      "This</w>": 2348,
      "rule</w>": 2349,
      "Ġrequ": 2350,
      "throat</w>": 2351,
      "Ġprostate</w>": 2352,
      "Ġelevation</w>": 2353,
      "monst": 2354,
      "ect</w>": 2355,
      "horacic</w>": 2356,
      "Ġcrowding</w>": 2357,
      "Ġtip</w>": 2358,
      "ĠCardiomediastinal</w>": 2359,
      "cc": 2360,
      "tent</w>": 2361,
      "vascular</w>": 2362,
      "fection</w>": 2363,
      "Ġ6</w>": 2364,
      "Ġam": 2365,
      "Difficulty</w>": 2366,
      "diopat": 2367,
      "Ġidiopat": 2368,
      "Ġexacerb": 2369,
      "mittent</w>": 2370,
      "Ġidiopathic</w>": 2371,
      "ĠCon": 2372,
      "Ġworsening</w>": 2373,
      "Ġdeformity</w>": 2374,
      "tation</w>": 2375,
      "Ġ4": 2376,
      "Ġexacerbation</w>": 2377,
      "cy</w>": 2378,
      "ersistent</w>": 2379,
      "oughing</w>": 2380,
      "Ġbronchovascular</w>": 2381,
      "Melanoma</w>": 2382,
      "stress</w>": 2383,
      "ently</w>": 2384,
      "asia</w>": 2385,
      "Ġmedical</w>": 2386,
      "iz": 2387,
      "oing</w>": 2388,
      "Ġreac": 2389,
      "Ġcalcinosis</w>": 2390,
      "loss</w>": 2391,
      "ĠIt</w>": 2392,
      "ema": 2393,
      "gkin</w>": 2394,
      "Ġsore</w>": 2395,
      "lank</w>": 2396,
      "odgkin</w>": 2397,
      "Ġ40</w>": 2398,
      ",.<</w>": 2399,
      "aring</w>": 2400,
      "Infection</w>": 2401,
      "revi": 2402,
      "opl": 2403,
      "Ġgast": 2404,
      "Ġosteophy": 2405,
      "Si": 2406,
      "okin": 2407,
      "yncopal</w>": 2408,
      "Ġoverlying</w>": 2409,
      "Ġcholecystokin": 2410,
      "Ġshiel": 2411,
      "Ġcholecystokinin</w>": 2412,
      "mild</w>": 2413,
      "Ġ7</w>": 2414,
      "vel</w>": 2415,
      "ephal": 2416,
      "Ġblun": 2417,
      "VC</w>": 2418,
      "correlation</w>": 2419,
      "tosis</w>": 2420,
      "Ġmidlung</w>": 2421,
      "ously</w>": 2422,
      "ocytosis</w>": 2423,
      "Six</w>": 2424,
      "ĠIf</w>": 2425,
      "ighthe": 2426,
      "Ġsuspicious</w>": 2427,
      "ĠNodule</w>": 2428,
      "dness</w>": 2429,
      "Ġalveolar</w>": 2430,
      "adedness</w>": 2431,
      "Ġdextrocardia</w>": 2432,
      "ightheadedness</w>": 2433,
      "part": 2434,
      "Ġas": 2435,
      "asing</w>": 2436,
      "Ġhyperexpanded</w>": 2437,
      "Ġgastro": 2438,
      "war": 2439,
      "etes</w>": 2440,
      "hed</w>": 2441,
      "Ġsl": 2442,
      "arding</w>": 2443,
      "Ġregarding</w>": 2444,
      "Ġotherwise</w>": 2445,
      "attered</w>": 2446,
      "Ġgra": 2447,
      "Ġhyd": 2448,
      "ibasilar</w>": 2449,
      "Ġimmun": 2450,
      "emaker</w>": 2451,
      "rib</w>": 2452,
      "Ġ+</w>": 2453,
      "Ġnon</w>": 2454,
      "Ġenc": 2455,
      "ward</w>": 2456,
      "sation</w>": 2457,
      "Ġsternotomy</w>": 2458,
      "prostate</w>": 2459,
      "Ġgastroesophageal</w>": 2460,
      "Ġatherosclerotic</w>": 2461,
      "Ġimplan": 2462,
      "ong</w>": 2463,
      "Ġfol": 2464,
      "astric</w>": 2465,
      "Ġcomplaining</w>": 2466,
      "Ġpatchy</w>": 2467,
      "Ġfollow": 2468,
      "Ġexpo": 2469,
      "Ġhave</w>": 2470,
      "Ġexposure</w>": 2471,
      "tain</w>": 2472,
      "omplain": 2473,
      "Ġline</w>": 2474,
      "oblem</w>": 2475,
      "Ġspecified</w>": 2476,
      "ĠSc": 2477,
      "iet": 2478,
      "Ġsigni": 2479,
      "ochond": 2480,
      "Ġsignific": 2481,
      "Ġring</w>": 2482,
      "Ġocc": 2483,
      "dle</w>": 2484,
      "xima": 2485,
      "Ġpalpitations</w>": 2486,
      "Ġirreg": 2487,
      "ents</w>": 2488,
      "Ġdist": 2489,
      "Ġhyp": 2490,
      "lux</w>": 2491,
      "Ġmiddle</w>": 2492,
      "Ġmode": 2493,
      "Ġreflux</w>": 2494,
      "Ġundergoing</w>": 2495,
      "Ġapproxima": 2496,
      "Ġgraft</w>": 2497,
      "tly</w>": 2498,
      "Ġbrac": 2499,
      "Ġbrachi": 2500,
      "Persistent</w>": 2501,
      "Ġnodular</w>": 2502,
      "ech": 2503,
      "ecurr": 2504,
      "ĠHodgkin</w>": 2505,
      "Ġrequir": 2506,
      "Lo": 2507,
      "Ġtypical</w>": 2508,
      "Ġvar": 2509,
      "Ġcardiop": 2510,
      "igastric</w>": 2511,
      "ancre": 2512,
      "Loss</w>": 2513,
      "Ġcardiopulmonary</w>": 2514,
      "Ġdemonst": 2515,
      "izure</w>": 2516,
      "Symptoms</w>": 2517,
      "ymm": 2518,
      "ctur": 2519,
      "Ġcertain</w>": 2520,
      "ymmet": 2521,
      "Ġleukocytosis</w>": 2522,
      "placed</w>": 2523,
      "Ġvarices</w>": 2524,
      "Edema</w>": 2525,
      "Wheezing</w>": 2526,
      "Ġpleuritic</w>": 2527,
      "Ġproj": 2528,
      "egative</w>": 2529,
      "omatosis</w>": 2530,
      "Ġpatent</w>": 2531,
      "Ġnecrosis</w>": 2532,
      "Ġapproximately</w>": 2533,
      "esity</w>": 2534,
      "flank</w>": 2535,
      "roma</w>": 2536,
      "use</w>": 2537,
      "Ġabuse</w>": 2538,
      "uring</w>": 2539,
      "Ġobesity</w>": 2540,
      "Ġhad</w>": 2541,
      "Ġtech": 2542,
      "Ġsqu": 2543,
      "Ġbibasilar</w>": 2544,
      "agni</w>": 2545,
      "Ġspasm</w>": 2546,
      "ĠMorg": 2547,
      "Ġdefect</w>": 2548,
      "amous</w>": 2549,
      "Ġsquamous</w>": 2550,
      "ĠMorgagni</w>": 2551,
      "arenc": 2552,
      "Ġlast</w>": 2553,
      "Ġhea": 2554,
      "Ġproblem</w>": 2555,
      "Ġperfo": 2556,
      "arenchy": 2557,
      "Ġperforation</w>": 2558,
      ">-</w>": 2559,
      "homalacia</w>": 2560,
      "ylo": 2561,
      "tility</w>": 2562,
      "Ġplu": 2563,
      "Ġcasts</w>": 2564,
      "Ġthinning</w>": 2565,
      "Ġmuc": 2566,
      "atid</w>": 2567,
      "gestive</w>": 2568,
      "ĠDe": 2569,
      "ronchomalacia</w>": 2570,
      "Ġtracheobronchomalacia</w>": 2571,
      "Ġlipos": 2572,
      "Ġincre": 2573,
      "Ġpostpart": 2574,
      "Ġhemangioma</w>": 2575,
      "Ġspaces</w>": 2576,
      "odesis</w>": 2577,
      "Ġadenoid</w>": 2578,
      "Ġpleurodesis</w>": 2579,
      "Ġamylo": 2580,
      "Ġhydatid</w>": 2581,
      "Ġplugs</w>": 2582,
      "Ġmucus</w>": 2583,
      "Ġliposarcoma</w>": 2584,
      "Ġpostpartum</w>": 2585,
      "Ġamyloidosis</w>": 2586,
      "Con": 2587,
      "us": 2588,
      "Ġfo": 2589,
      "Ġprod": 2590,
      "Ġshow</w>": 2591,
      "ĠSp": 2592,
      "Ġproduction</w>": 2593,
      "Male</w>": 2594,
      "oar": 2595,
      "patient</w>": 2596,
      "Ġflat": 2597,
      "Clinical</w>": 2598,
      "con": 2599,
      "thoracic</w>": 2600,
      "ches</w>": 2601,
      "Ġblunting</w>": 2602,
      "ĠHIV</w>": 2603,
      "gene": 2604,
      "hilar</w>": 2605,
      "kele": 2606,
      "Ġclavic": 2607,
      "mal</w>": 2608,
      "keletal</w>": 2609,
      "headache</w>": 2610,
      "Ġbases</w>": 2611,
      "Ġconfusion</w>": 2612,
      "Ġincluding</w>": 2613,
      "Ġskeletal</w>": 2614,
      "Ġbi": 2615,
      "Ġprominent</w>": 2616,
      "Ġnormal": 2617,
      "01</w>": 2618,
      "mental</w>": 2619,
      "Ġrel": 2620,
      "ates</w>": 2621,
      "houlder</w>": 2622,
      "sternal</w>": 2623,
      "Ġrelated</w>": 2624,
      "cer": 2625,
      "ould</w>": 2626,
      "Ġtortuosity</w>": 2627,
      "Ġrepresent</w>": 2628,
      "...<</w>": 2629,
      "Vehicle</w>": 2630,
      "Ġfew</w>": 2631,
      "Ġov": 2632,
      "tiv": 2633,
      "rain</w>": 2634,
      "Ġwould</w>": 2635,
      "Ġbrain</w>": 2636,
      "ins</w>": 2637,
      "Ġcholecystectomy</w>": 2638,
      "Ġres": 2639,
      "ĠDegenerative</w>": 2640,
      "Ġclavicle</w>": 2641,
      "day</w>": 2642,
      "orsening</w>": 2643,
      "Ġthorac": 2644,
      "aky</w>": 2645,
      "gmental</w>": 2646,
      "left</w>": 2647,
      "Ġend</w>": 2648,
      "Ġmake</w>": 2649,
      "erat": 2650,
      "gia</w>": 2651,
      "Ġsarcoma</w>": 2652,
      "Ġsyncopal</w>": 2653,
      "out": 2654,
      "segmental</w>": 2655,
      "illator</w>": 2656,
      "fibrillator</w>": 2657,
      "ell": 2658,
      "osed</w>": 2659,
      "Ġmoderate</w>": 2660,
      "gy</w>": 2661,
      "stage</w>": 2662,
      "aturation</w>": 2663,
      "Ġstructur": 2664,
      "Ġhyperinflated</w>": 2665,
      "ĠEvaluate</w>": 2666,
      "outine</w>": 2667,
      "Ġstructuresosseous</w>": 2668,
      "14</w>": 2669,
      "Vomiting</w>": 2670,
      "iency</w>": 2671,
      "ctal</w>": 2672,
      "Ġlimited</w>": 2673,
      "An": 2674,
      "Ġthan</w>": 2675,
      "Ġcongestive</w>": 2676,
      "Ġnothing</w>": 2677,
      "Ġunder</w>": 2678,
      "Ġdiabetes</w>": 2679,
      "ial</w>": 2680,
      "ĠĊ</w>": 2681,
      "let</w>": 2682,
      "Ġhours</w>": 2683,
      "ophy</w>": 2684,
      "ving</w>": 2685,
      "Ġy": 2686,
      "otor</w>": 2687,
      "Ġsubsegmental</w>": 2688,
      "Suspected</w>": 2689,
      "hosis</w>": 2690,
      "acemaker</w>": 2691,
      "ĠBony</w>": 2692,
      "ome</w>": 2693,
      "cious": 2694,
      "atible</w>": 2695,
      "Ġconscious": 2696,
      "Ġcompatible</w>": 2697,
      "Ġnonproductive</w>": 2698,
      "Ġconsciousness</w>": 2699,
      "ta": 2700,
      "Ġactive</w>": 2701,
      "Ġadenopathy</w>": 2702,
      "sw": 2703,
      "Ġeating</w>": 2704,
      "ogenic</w>": 2705,
      "].<</w>": 2706,
      "Ġpacemaker</w>": 2707,
      "Ġactiv": 2708,
      "Ġnee": 2709,
      "Ġactivity</w>": 2710,
      "Motor</w>": 2711,
      "ction</w>": 2712,
      "Ġexc": 2713,
      "iver</w>": 2714,
      "ĠPleural</w>": 2715,
      "Ġsensation</w>": 2716,
      "Ġfood</w>": 2717,
      "kle</w>": 2718,
      "vol": 2719,
      "Ġpast</w>": 2720,
      "Ġscattered</w>": 2721,
      "Ġendom": 2722,
      "Ġaspiration</w>": 2723,
      "Ġendomet": 2724,
      "Ġstent</w>": 2725,
      "Ġshielded</w>": 2726,
      "sarcoidosis</w>": 2727,
      "Ġankle</w>": 2728,
      "Ġdistress</w>": 2729,
      "igh</w>": 2730,
      "Ġsignificant</w>": 2731,
      "arenchymal</w>": 2732,
      "ged</w>": 2733,
      "hd": 2734,
      "Ġima": 2735,
      "atri": 2736,
      "Ġrema": 2737,
      "cute</w>": 2738,
      "Ġpancre": 2739,
      "erm</w>": 2740,
      "Ġinvol": 2741,
      "Ġstar": 2742,
      "Ġsilhouettes</w>": 2743,
      "pathy</w>": 2744,
      "gu": 2745,
      "Ġcontact</w>": 2746,
      "ecifically</w>": 2747,
      "Ġosteophytes</w>": 2748,
      "ĠSpecifically</w>": 2749,
      "surgical</w>": 2750,
      "Ġte": 2751,
      "Ġingu": 2752,
      "Ġairw": 2753,
      "ingling</w>": 2754,
      "Ġlobectomy</w>": 2755,
      "Ġinguinal</w>": 2756,
      "line</w>": 2757,
      "aret": 2758,
      "spiration</w>": 2759,
      "ocardi": 2760,
      "Ġinflated</w>": 2761,
      "valuation</w>": 2762,
      "Ġthromb": 2763,
      "arette</w>": 2764,
      "Ġthe": 2765,
      "ester": 2766,
      "urisy</w>": 2767,
      "ecurrent</w>": 2768,
      "Ġnormally</w>": 2769,
      "Ġyester": 2770,
      "Ġyesterday</w>": 2771,
      "com": 2772,
      "king</w>": 2773,
      "sed</w>": 2774,
      "atitis</w>": 2775,
      "ĠChronic</w>": 2776,
      "Ġfibril": 2777,
      "Ġfibrillation</w>": 2778,
      "ep</w>": 2779,
      "Ġdeep</w>": 2780,
      "Ġfluid</w>": 2781,
      "Ġneuro": 2782,
      "bone</w>": 2783,
      "Ġslee": 2784,
      "Ġmelanoma</w>": 2785,
      "stectomy</w>": 2786,
      "Ġmastectomy</w>": 2787,
      "Ġapnea</w>": 2788,
      "ĠRecent</w>": 2789,
      "Ġatherosclerosis</w>": 2790,
      "Ġsleep</w>": 2791,
      "testicular</w>": 2792,
      "Ġmultiple</w>": 2793,
      "rated</w>": 2794,
      "bladder</w>": 2795,
      "itone": 2796,
      "Ġstre": 2797,
      "Ġtests</w>": 2798,
      "Ġsuggested</w>": 2799,
      "ellular</w>": 2800,
      "Ġpre</w>": 2801,
      "nec": 2802,
      "nical</w>": 2803,
      "pigastric</w>": 2804,
      "unt</w>": 2805,
      "algia</w>": 2806,
      "orted</w>": 2807,
      "Ġleg</w>": 2808,
      "oinf": 2809,
      "Ġaltered</w>": 2810,
      "Ġirregul": 2811,
      "Ġneeds</w>": 2812,
      "Hep": 2813,
      "Pneumonia</w>": 2814,
      "tening</w>": 2815,
      "Ġur": 2816,
      "malign": 2817,
      "allo": 2818,
      "Ġapical</w>": 2819,
      "Ġhypoinf": 2820,
      "Ġstreaky</w>": 2821,
      "malignant</w>": 2822,
      "bly</w>": 2823,
      "sf": 2824,
      "Ġesophag": 2825,
      "Ġsaturation</w>": 2826,
      "unction</w>": 2827,
      "ĠThis</w>": 2828,
      "Ġdisplaced</w>": 2829,
      "Ġrequires</w>": 2830,
      "ĠCoronary</w>": 2831,
      "urred</w>": 2832,
      "Ġcomple": 2833,
      "Ġregi": 2834,
      "Ġflattening</w>": 2835,
      "mities</w>": 2836,
      "Ġ-": 2837,
      "tib": 2838,
      "rec": 2839,
      "ĠIn": 2840,
      "etastatic</w>": 2841,
      "Ġradiates</w>": 2842,
      "ĠSyncope</w>": 2843,
      "Bronchi": 2844,
      "ssi": 2845,
      "Ġaches</w>": 2846,
      "sities</w>": 2847,
      "Ġappearing</w>": 2848,
      "Ġwed": 2849,
      "Ġdensities</w>": 2850,
      "Ġme": 2851,
      "bar</w>": 2852,
      "vated</w>": 2853,
      "Ġect": 2854,
      "ality</w>": 2855,
      "asty</w>": 2856,
      "Ġdevice</w>": 2857,
      "Ġup</w>": 2858,
      "Ġfal": 2859,
      "est</w>": 2860,
      "Ġlightheadedness</w>": 2861,
      "ĠBilateral</w>": 2862,
      "Ġtechnical</w>": 2863,
      "Ġtubercul": 2864,
      "ance</w>": 2865,
      "Ex": 2866,
      "Epigastric</w>": 2867,
      "multiple</w>": 2868,
      "wheezing</w>": 2869,
      "ale": 2870,
      "hi</w>": 2871,
      "oti": 2872,
      "requ": 2873,
      "speci": 2874,
      "ĠComplain": 2875,
      "olumbar</w>": 2876,
      "oscop": 2877,
      "Ġprominence</w>": 2878,
      "Ġthoracolumbar</w>": 2879,
      "requent</w>": 2880,
      "Ġnow</w>": 2881,
      "Ġproc": 2882,
      "Ġgerm</w>": 2883,
      "Ġquality</w>": 2884,
      "Ġs</w>": 2885,
      "Ġaus": 2886,
      "cultation</w>": 2887,
      "ocarcin": 2888,
      "Ġpossi": 2889,
      "Ġintermittent</w>": 2890,
      "ĠNothing</w>": 2891,
      "espon": 2892,
      "Ġadenocarcin": 2893,
      "Ġauscultation</w>": 2894,
      "Ġadenocarcinoma</w>": 2895,
      "own</w>": 2896,
      "tensive</w>": 2897,
      "Ġoutlet</w>": 2898,
      "He": 2899,
      "frequent</w>": 2900,
      "pleural</w>": 2901,
      "ightly</w>": 2902,
      "Ġcould</w>": 2903,
      "asional</w>": 2904,
      "Ġperihilar</w>": 2905,
      "Ġpossibly</w>": 2906,
      "IC": 2907,
      "Ġfil": 2908,
      "Ġachal": 2909,
      "Ġachalasia</w>": 2910,
      "..</w>": 2911,
      "Ġinspiration</w>": 2912,
      "alysis</w>": 2913,
      "Ġdepression</w>": 2914,
      "Ġvie": 2915,
      "urrently</w>": 2916,
      "Ġreaction</w>": 2917,
      "sarcoma</w>": 2918,
      "wn": 2919,
      "dition</w>": 2920,
      "Ġfaci": 2921,
      "Ġpleurisy</w>": 2922,
      "yosarcoma</w>": 2923,
      "urv": 2924,
      "Ġdys": 2925,
      "ĠPrevi": 2926,
      "ĠNone</w>": 2927,
      "Ġdown": 2928,
      "cardiac</w>": 2929,
      "Ġleiomyosarcoma</w>": 2930,
      "Ġfacility</w>": 2931,
      "St": 2932,
      "and</w>": 2933,
      "ĠSurgical</w>": 2934,
      "cern</w>": 2935,
      "Ġor": 2936,
      "igarette</w>": 2937,
      "indclinical</w>": 2938,
      "acute</w>": 2939,
      "Abnormal</w>": 2940,
      "Ġfollowing</w>": 2941,
      "itoneal</w>": 2942,
      "ore</w>": 2943,
      "Ġhand</w>": 2944,
      "Ġpersist": 2945,
      "igrant</w>": 2946,
      "Ġarrest</w>": 2947,
      "ephalopathy</w>": 2948,
      "Ġencephalopathy</w>": 2949,
      "Ġcompleted</w>": 2950,
      "Ġtuberculin</w>": 2951,
      "ination</w>": 2952,
      "Ġpar": 2953,
      "leged</w>": 2954,
      "Ġrectal</w>": 2955,
      "Ġunable</w>": 2956,
      "Ġcomplaint</w>": 2957,
      "Ġagain</w>": 2958,
      "Ġhead</w>": 2959,
      "Anterior</w>": 2960,
      "Ġregion</w>": 2961,
      "Recurrent</w>": 2962,
      "ll</w>": 2963,
      "leuritic</w>": 2964,
      "olog": 2965,
      "tran": 2966,
      "erated</w>": 2967,
      "Ġpositi": 2968,
      "Shoulder</w>": 2969,
      "ual</w>": 2970,
      "enia</w>": 2971,
      "als</w>": 2972,
      "ficiency</w>": 2973,
      "Ġdehy": 2974,
      "odeficiency</w>": 2975,
      "Ġimmunodeficiency</w>": 2976,
      "ĠPreviously</w>": 2977,
      "Ġdehyd": 2978,
      ")<</w>": 2979,
      "Tachycardia</w>": 2980,
      "Thed</w>": 2981,
      "it</w>": 2982,
      "ne</w>": 2983,
      "rapy</w>": 2984,
      "Ġprostat": 2985,
      "Ġstents</w>": 2986,
      "Ġspecifically</w>": 2987,
      "Ġremoved</w>": 2988,
      "tained</w>": 2989,
      "Ġprostatectomy</w>": 2990,
      "luc": 2991,
      "talgia</w>": 2992,
      "Ġotalgia</w>": 2993,
      "lerg": 2994,
      "level</w>": 2995,
      "Ġsymmet": 2996,
      "ronchial</w>": 2997,
      "ultilevel</w>": 2998,
      "Ġdistention</w>": 2999,
      "lergic</w>": 3000,
      "Ġsided</w>": 3001,
      "Ġbladder</w>": 3002,
      "uma</w>": 3003,
      "eto": 3004,
      "Ġlevel</w>": 3005,
      "Ġcomm": 3006,
      "ĠMultiple</w>": 3007,
      "pansion</w>": 3008,
      "Ġincreasing</w>": 3009,
      "Ġhypoinflated</w>": 3010,
      "xiet": 3011,
      "Ġhepat": 3012,
      "atisf": 3013,
      "termittent</w>": 3014,
      "ocellular</w>": 3015,
      "actory</w>": 3016,
      "xiety</w>": 3017,
      "Ġhepatocellular</w>": 3018,
      "atisfactory</w>": 3019,
      "'t</w>": 3020,
      "acid": 3021,
      "etic</w>": 3022,
      "haling</w>": 3023,
      "orb": 3024,
      "arities</w>": 3025,
      "cision</w>": 3026,
      "urm": 3027,
      "Ġdr": 3028,
      "oce": 3029,
      "Ġpresyncope</w>": 3030,
      "thritis</w>": 3031,
      "Ġkyp": 3032,
      "Ġketo": 3033,
      "ĠCardio</w>": 3034,
      "Ġdiabetic</w>": 3035,
      "Ġreactive</w>": 3036,
      "condition</w>": 3037,
      "Ġirregularities</w>": 3038,
      "acidosis</w>": 3039,
      "Ġketoacidosis</w>": 3040,
      "VA</w>": 3041,
      "bilateral</w>": 3042,
      "difficulty</w>": 3043,
      "ĠLow</w>": 3044,
      "gency</w>": 3045,
      "Ġbelow</w>": 3046,
      "Ġarea</w>": 3047,
      "respon": 3048,
      "Ġet": 3049,
      "Ġear</w>": 3050,
      "Ġinhaling</w>": 3051,
      "Ġroutine</w>": 3052,
      "month</w>": 3053,
      "Ġvacc": 3054,
      "Ġhal": 3055,
      "idal</w>": 3056,
      "tralo": 3057,
      "Ġday</w>": 3058,
      "Ġmidback</w>": 3059,
      "ĠCardiomegaly</w>": 3060,
      "Ġosteoar": 3061,
      "ĠFallo": 3062,
      "transplant</w>": 3063,
      "responsive</w>": 3064,
      "tralogy</w>": 3065,
      "Ġosteoarthritis</w>": 3066,
      "ĠFallot</w>": 3067,
      "sophag": 3068,
      "ecreased</w>": 3069,
      "Ġconfig": 3070,
      "ocephal": 3071,
      "agnosis</w>": 3072,
      "oughout</w>": 3073,
      "ody</w>": 3074,
      "Ġpreviously</w>": 3075,
      "Ġthroughout</w>": 3076,
      "Ġslightly</w>": 3077,
      "Ġbrachiocephal": 3078,
      "Ġpersisting</w>": 3079,
      "Ġbrachiocephalic</w>": 3080,
      "MVA</w>": 3081,
      "wit": 3082,
      "rain": 3083,
      "stomy</w>": 3084,
      "Ġdisorders</w>": 3085,
      "Ġcostochond": 3086,
      "creasing</w>": 3087,
      "op</w>": 3088,
      "satisfactory</w>": 3089,
      "ature</w>": 3090,
      "ĠClear</w>": 3091,
      "ĠNegative</w>": 3092,
      "Ġwhite</w>": 3093,
      "poxemia</w>": 3094,
      "Ġcount</w>": 3095,
      "Ġindicating</w>": 3096,
      "Ġwedge</w>": 3097,
      "sophageal</w>": 3098,
      "Follow</w>": 3099,
      "Recent</w>": 3100,
      "knee</w>": 3101,
      "nausea</w>": 3102,
      "sal</w>": 3103,
      "vomiting</w>": 3104,
      "Ġ.<</w>": 3105,
      "obronchial</w>": 3106,
      "Ġinternal</w>": 3107,
      "Post": 3108,
      "Intermittent</w>": 3109,
      "smoking</w>": 3110,
      "Ġhyperexpansion</w>": 3111,
      "Congestion</w>": 3112,
      "sweats</w>": 3113,
      "Ġfalling</w>": 3114,
      "Ġprocess</w>": 3115,
      "Ġconfiguration</w>": 3116,
      "vement</w>": 3117,
      "orderline</w>": 3118,
      "Ġunsatisfactory</w>": 3119,
      "Ġdemonstrated</w>": 3120,
      "mber</w>": 3121,
      "Ġosteopenia</w>": 3122,
      "Ġpositioned</w>": 3123,
      "osu": 3124,
      "Ġcau": 3125,
      "leed</w>": 3126,
      "stance</w>": 3127,
      "pple</w>": 3128,
      "Ġimmunosu": 3129,
      "Ġmeas": 3130,
      "Ġimmunosup": 3131,
      "Ġ1": 3132,
      "Ġ4</w>": 3133,
      "Ġchem": 3134,
      "ĠAd": 3135,
      "Ġvess": 3136,
      "Ġup": 3137,
      "ecting</w>": 3138,
      "Ġendpl": 3139,
      "oplasty</w>": 3140,
      "Ġexclu": 3141,
      "urvature</w>": 3142,
      "Ġvessels</w>": 3143,
      "Metastatic</w>": 3144,
      "Palpitations</w>": 3145,
      "ormations</w>": 3146,
      "oparenchymal</w>": 3147,
      "ochd": 3148,
      "Ġjunction</w>": 3149,
      "Ġhypertr": 3150,
      "Ġvalv": 3151,
      "Ġonly</w>": 3152,
      "Ġosteochond": 3153,
      "Ġbronchi</w>": 3154,
      "Ġmuscle</w>": 3155,
      "ĠFollow</w>": 3156,
      "Ġpleuroparenchymal</w>": 3157,
      "ĠHypertension</w>": 3158,
      "alek</w>": 3159,
      "ĠComplaint</w>": 3160,
      "ochdalek</w>": 3161,
      "Ġhypertrophy</w>": 3162,
      "eins</w>": 3163,
      "jor</w>": 3164,
      "Ġterat": 3165,
      "Ġsmo": 3166,
      "Ġrings</w>": 3167,
      "ately</w>": 3168,
      "Ġveins</w>": 3169,
      "uble</w>": 3170,
      "Ġtracheomalacia</w>": 3171,
      "Ġhyperpla": 3172,
      "Ġdiagnosed</w>": 3173,
      "Ġlipomatosis</w>": 3174,
      "Ġalong</w>": 3175,
      "Ġdouble</w>": 3176,
      "Ġmalignancy</w>": 3177,
      "Ġneurogenic</w>": 3178,
      "Ġupward</w>": 3179,
      "Ġteratoma</w>": 3180,
      "Ġhyperplasia</w>": 3181,
      "oroscop": 3182,
      "Ġind": 3183,
      "Ġduring</w>": 3184,
      "Ġcolon</w>": 3185,
      "Ġmidthoracic</w>": 3186,
      "rically</w>": 3187,
      "matous</w>": 3188,
      "Ġfluoroscop": 3189,
      "hondroma</w>": 3190,
      "Ġenchondroma</w>": 3191,
      "Ġsymmetrically</w>": 3192,
      "Ġfluoroscopy</w>": 3193,
      "dure</w>": 3194,
      "ipple</w>": 3195,
      "Ġade": 3196,
      "Ġstra": 3197,
      "Ġherni": 3198,
      "Ġlymphangitic</w>": 3199,
      "Ġprojecting</w>": 3200,
      "Ġtemp": 3201,
      "Ġkyphosis</w>": 3202,
      "Ġadequ": 3203,
      "liver</w>": 3204,
      "ers</w>": 3205,
      "Ġfee": 3206,
      "Ġscar</w>": 3207,
      "ĠWorsening</w>": 3208,
      "Ġmedial</w>": 3209,
      "Ġimpact": 3210,
      "Ġairway</w>": 3211,
      "Ġendplate</w>": 3212,
      "Ġvalvular</w>": 3213,
      "Ġimpacted</w>": 3214,
      "Bone</w>": 3215,
      "Decreased</w>": 3216,
      "Tran": 3217,
      "Zen": 3218,
      "bs</w>": 3219,
      "hat": 3220,
      "ki</w>": 3221,
      "men</w>": 3222,
      "xus</w>": 3223,
      "zki</w>": 3224,
      "ĠZen": 3225,
      "Ġagene": 3226,
      "Ġpal": 3227,
      "ulas</w>": 3228,
      "Ġfora": 3229,
      "Ġfusion</w>": 3230,
      "Ġplexus</w>": 3231,
      "ese</w>": 3232,
      "olus</w>": 3233,
      "Ġbolus</w>": 3234,
      "Ġdistribu": 3235,
      "Ġdilat": 3236,
      "ĠTiet": 3237,
      "Ġfibroma</w>": 3238,
      "persistent</w>": 3239,
      "riosis</w>": 3240,
      "Ġwebs</w>": 3241,
      "Ġmotility</w>": 3242,
      "Ġintracardiac</w>": 3243,
      "motility</w>": 3244,
      "ĠBochdalek</w>": 3245,
      "Ġcarcinomatosis</w>": 3246,
      "Ġmyopathy</w>": 3247,
      "Ġfistulas</w>": 3248,
      "Ġdiverticulum</w>": 3249,
      "Ġrespiration</w>": 3250,
      "Ġgranulomatosis</w>": 3251,
      "Ġmalformations</w>": 3252,
      "Ġchamber</w>": 3253,
      "Ġfibroelastosis</w>": 3254,
      "Ġendocardi": 3255,
      "Ġendobronchial</w>": 3256,
      "ĠSchat": 3257,
      "Ġbrachial</w>": 3258,
      "Ġovale</w>": 3259,
      "Ġendometriosis</w>": 3260,
      "Ġthrombus</w>": 3261,
      "Ġesophagitis</w>": 3262,
      "Ġfilter</w>": 3263,
      "Ġdysmotility</w>": 3264,
      "Ġdownward</w>": 3265,
      "Ġcostochondritis</w>": 3266,
      "Ġosteochondroma</w>": 3267,
      "Ġstrain</w>": 3268,
      "Ġherniation</w>": 3269,
      "Ġadequately</w>": 3270,
      "ĠZenker</w>": 3271,
      "Ġagenesis</w>": 3272,
      "Ġpalsy</w>": 3273,
      "Ġforamen</w>": 3274,
      "Ġdistributions</w>": 3275,
      "Ġdilatation</w>": 3276,
      "ĠTietze</w>": 3277,
      "Ġendocarditis</w>": 3278,
      "ĠSchatzki</w>": 3279,
      "dde": 3280,
      "hly</w>": 3281,
      "lined</w>": 3282,
      "where</w>": 3283,
      "Ġsudde": 3284,
      "Ġrot": 3285,
      "Ġdisor": 3286,
      "othly</w>": 3287,
      "Ġinfarct": 3288,
      "Ġmoving</w>": 3289,
      "Ġwidening</w>": 3290,
      "ĠHow</w>": 3291,
      "Ġoutlined</w>": 3292,
      "Ġbig</w>": 3293,
      "Ġview</w>": 3294,
      "Ġsmoothly</w>": 3295,
      "Ġsudden</w>": 3296,
      "Ġinfarcts</w>": 3297,
      "que</w>": 3298,
      "Ġcar": 3299,
      "Ġmultilevel</w>": 3300,
      "defibrillator</w>": 3301,
      "Ġdisc</w>": 3302,
      "ann": 3303,
      "umbar</w>": 3304,
      "ĠOb": 3305,
      "Ġneopl": 3306,
      "Ġsuspicion</w>": 3307,
      "Ġoccasional</w>": 3308,
      "Ġt</w>": 3309,
      "orly</w>": 3310,
      "Ġwound</w>": 3311,
      "icatri": 3312,
      "ĠDis": 3313,
      "Ġnonsmoker</w>": 3314,
      "icatrix</w>": 3315,
      "hw": 3316,
      "uma": 3317,
      "ĠT</w>": 3318,
      "arent</w>": 3319,
      "Ġmajor</w>": 3320,
      "Ġschw": 3321,
      "Ġarthr": 3322,
      "Ġvir": 3323,
      "Ġpostoperative</w>": 3324,
      "fibroma</w>": 3325,
      "ĠHypoxia</w>": 3326,
      "Ġneurofibroma</w>": 3327,
      "annoma</w>": 3328,
      "Ġschwannoma</w>": 3329,
      "ee": 3330,
      "Ġcurrently</w>": 3331,
      "ending</w>": 3332,
      "structive</w>": 3333,
      "Ġpounds</w>": 3334,
      "geneic</w>": 3335,
      "Ġneoplasm</w>": 3336,
      "HIV</w>": 3337,
      "ur</w>": 3338,
      "Ġtingling</w>": 3339,
      "Ġdiaphragms</w>": 3340,
      "Ġhuma": 3341,
      "Ġwere</w>": 3342,
      "Ġspinal</w>": 3343,
      "moking</w>": 3344,
      "Ġsinus</w>": 3345,
      "Ġarthroplasty</w>": 3346,
      "Ġvirus</w>": 3347,
      "Ġhuman</w>": 3348,
      "Pr": 3349,
      "hs</w>": 3350,
      "pen": 3351,
      "tter</w>": 3352,
      "Ġten": 3353,
      "Ġcicatrix</w>": 3354,
      "Ġnegative</w>": 3355,
      "Ġhav": 3356,
      "pped</w>": 3357,
      "ssure</w>": 3358,
      "Ġspee": 3359,
      "Ġflutter</w>": 3360,
      "Ġfollowed</w>": 3361,
      "ĠObstructive</w>": 3362,
      "ĠDisease</w>": 3363,
      "Ġhaving</w>": 3364,
      "Ġspeech</w>": 3365,
      "ĠAtheroscle": 3366,
      "Ġdise": 3367,
      "trac": 3368,
      "hage</w>": 3369,
      "Ġapparent</w>": 3370,
      "Ġevident</w>": 3371,
      "Ġobsc": 3372,
      "ĠMinimal</w>": 3373,
      "sh": 3374,
      "Ġconcern</w>": 3375,
      "Ġventral</w>": 3376,
      "Ġhearing</w>": 3377,
      "Ġswal": 3378,
      "Ġradiographs</w>": 3379,
      "Ġmedic": 3380,
      "Ġmedication</w>": 3381,
      "Ġectasia</w>": 3382,
      "26</w>": 3383,
      "Coughing</w>": 3384,
      "Lightheadedness</w>": 3385,
      "Sore</w>": 3386,
      "Smoking</w>": 3387,
      "ain": 3388,
      "ct</w>": 3389,
      "hx</w>": 3390,
      "ĠC</w>": 3391,
      "proce": 3392,
      "Ġcoughing</w>": 3393,
      "Ġface</w>": 3394,
      "Ġseizure</w>": 3395,
      "Ġscle": 3396,
      "Ġcollection</w>": 3397,
      "Ġcontusion</w>": 3398,
      "Bronchitis</w>": 3399,
      "procedure</w>": 3400,
      "upper</w>": 3401,
      "atus</w>": 3402,
      "Ġonce</w>": 3403,
      "Ġadr": 3404,
      "ymmetric</w>": 3405,
      "Ġdehydration</w>": 3406,
      "Ġ12</w>": 3407,
      "tory</w>": 3408,
      "Ġluc": 3409,
      "Ġlumbar</w>": 3410,
      "Ġfever": 3411,
      "Ġglan": 3412,
      "ritic</w>": 3413,
      "Ġstarting</w>": 3414,
      "Ġfevers</w>": 3415,
      "Ġgland</w>": 3416,
      "Acute</w>": 3417,
      "Complain": 3418,
      "MVC</w>": 3419,
      "do": 3420,
      "tion": 3421,
      "radi": 3422,
      "Ġins": 3423,
      "Ġmidsternal</w>": 3424,
      "ĠSuspected</w>": 3425,
      "Ġassess": 3426,
      "Ġasymmetric</w>": 3427,
      "neck</w>": 3428,
      "Ġmeasuring</w>": 3429,
      "for": 3430,
      "xation</w>": 3431,
      "Ġpol": 3432,
      "ĠAt": 3433,
      "ĠAsthma</w>": 3434,
      "neous</w>": 3435,
      "Ġgreat": 3436,
      "erter</w>": 3437,
      "Ġinflammatory</w>": 3438,
      "overter</w>": 3439,
      "Ġdistal</w>": 3440,
      "Ġdiseases</w>": 3441,
      ":.<</w>": 3442,
      "AB": 3443,
      "Ass": 3444,
      "Chills</w>": 3445,
      "Sarcoidosis</w>": 3446,
      "cough</w>": 3447,
      "eating</w>": 3448,
      "follow</w>": 3449,
      "gra": 3450,
      "rae</w>": 3451,
      "distress</w>": 3452,
      "Ġnear</w>": 3453,
      "Ġlea": 3454,
      "Ġvertebrae</w>": 3455,
      "Ġinto</w>": 3456,
      "abnormal</w>": 3457,
      "Ġpostsurgical</w>": 3458,
      "Ġimag": 3459,
      "Hepatitis</w>": 3460,
      "ABG</w>": 3461,
      "yth": 3462,
      "Ġfain": 3463,
      "Ġrec": 3464,
      "derness</w>": 3465,
      "ĠWell</w>": 3466,
      "Ġling": 3467,
      "ĠDiagnosis</w>": 3468,
      "ĠVi": 3469,
      "Ġtenderness</w>": 3470,
      "radiating</w>": 3471,
      "Ġfainting</w>": 3472,
      "ram</w>": 3473,
      "heart</w>": 3474,
      "ulting</w>": 3475,
      "ĠDuration</w>": 3476,
      "Ġpresent": 3477,
      "antly</w>": 3478,
      "Ġhypertensive</w>": 3479,
      "ogram</w>": 3480,
      "ĠPossible</w>": 3481,
      "Ġurgency</w>": 3482,
      "Ġinser": 3483,
      "ike</w>": 3484,
      "rop": 3485,
      "we": 3486,
      "ĠTortu": 3487,
      "expanded</w>": 3488,
      "elevated</w>": 3489,
      "Expanded</w>": 3490,
      "otid</w>": 3491,
      "ĠVisualized</w>": 3492,
      "eness</w>": 3493,
      "Ġabnormal</w>": 3494,
      "Ġsubc": 3495,
      "ĠWeakness</w>": 3496,
      "ĠAbdominal</w>": 3497,
      "Ġthyroidectomy</w>": 3498,
      "Ġosteophyte</w>": 3499,
      "Ġincrease</w>": 3500,
      "bleed</w>": 3501,
      "ob</w>": 3502,
      "sob</w>": 3503,
      "increasing</w>": 3504,
      "Ġnan</w>": 3505,
      "ĠAl": 3506,
      "Ġver": 3507,
      "ubstance</w>": 3508,
      "Ġfixation</w>": 3509,
      "ysubstance</w>": 3510,
      "ĠSmall</w>": 3511,
      "Ġemphysematous</w>": 3512,
      "Ġimmunosuppres": 3513,
      "Ġpolysubstance</w>": 3514,
      "grade</w>": 3515,
      "Ġsome</w>": 3516,
      "Ġantib": 3517,
      "ĠDown</w>": 3518,
      "Ġimpro": 3519,
      "Ġdeformities</w>": 3520,
      "orbid</w>": 3521,
      "Ġantibi": 3522,
      "no</w>": 3523,
      "eri": 3524,
      "ĠCT</w>": 3525,
      "rontal</w>": 3526,
      "Ġobtained</w>": 3527,
      "ĠOtherwise</w>": 3528,
      "solid": 3529,
      "larged</w>": 3530,
      "sus</w>": 3531,
      "ĠRule</w>": 3532,
      "Ġques": 3533,
      "Ġshielding</w>": 3534,
      "ĠAdditional</w>": 3535,
      "Ġversus</w>": 3536,
      "solidation</w>": 3537,
      "cated</w>": 3538,
      "Ġhum": 3539,
      "oper": 3540,
      "vere</w>": 3541,
      "Ġdemonstrate</w>": 3542,
      "Ġgreater</w>": 3543,
      "Ġleads</w>": 3544,
      "18</w>": 3545,
      "15</w>": 3546,
      "Esophageal</w>": 3547,
      "morbid</w>": 3548,
      "pre</w>": 3549,
      "Ġch": 3550,
      "Ġcurvature</w>": 3551,
      "Ġsuggests</w>": 3552,
      "Ġarthritic</w>": 3553,
      "ĠAbnormal</w>": 3554,
      "Hypoxemia</w>": 3555,
      "ology</w>": 3556,
      "Transplant</w>": 3557,
      "men": 3558,
      "trosc": 3559,
      "welling</w>": 3560,
      "Ġvein</w>": 3561,
      "Ġprob": 3562,
      "escribed</w>": 3563,
      "Ġhealed</w>": 3564,
      "Ġlucency</w>": 3565,
      "Ġinserted</w>": 3566,
      "SVC</w>": 3567,
      "os</w>": 3568,
      "enerali": 3569,
      "Ġwhe": 3570,
      "ardiac</w>": 3571,
      "peritoneal</w>": 3572,
      "Ġretroc": 3573,
      "Ġintraperitoneal</w>": 3574,
      "ĠDizziness</w>": 3575,
      "ĠOsseous</w>": 3576,
      "eneralized</w>": 3577,
      "Ġretrocardiac</w>": 3578,
      "lum</w>": 3579,
      "sized</w>": 3580,
      "Ġinstr": 3581,
      "apical</w>": 3582,
      "Ġdescribed</w>": 3583,
      "mphyse": 3584,
      "Ġhilum</w>": 3585,
      "Ġrev": 3586,
      "ĠLoss</w>": 3587,
      "troscoliosis</w>": 3588,
      "adi": 3589,
      "gorg": 3590,
      "Ġsul": 3591,
      "Ġfrontal</w>": 3592,
      "esses</w>": 3593,
      "ĠAcute</w>": 3594,
      "Ġbac": 3595,
      "Ġsequ": 3596,
      "ight": 3597,
      "Ġengorg": 3598,
      "Ġarteries</w>": 3599,
      "Ġback": 3600,
      "ol</w>": 3601,
      "Ġlum": 3602,
      "Ġmin": 3603,
      "uments</w>": 3604,
      "othorax</w>": 3605,
      "ang": 3606,
      "ĠPneumonia</w>": 3607,
      "Ġsternum</w>": 3608,
      "Ġlobes</w>": 3609,
      "Ġimaging</w>": 3610,
      "Ġremains</w>": 3611,
      "Ġstarted</w>": 3612,
      "ICC</w>": 3613,
      "Ġsclerosis</w>": 3614,
      "Ġassessment</w>": 3615,
      "ĠTortuous</w>": 3616,
      "Ġinstruments</w>": 3617,
      "Ġreveal</w>": 3618,
      "be": 3619,
      "oft</w>": 3620,
      "ostomy</w>": 3621,
      "sho": 3622,
      "Ġfind": 3623,
      "Ġborderline</w>": 3624,
      "unsho": 3625,
      "atchy</w>": 3626,
      "Ġmain</w>": 3627,
      "eration</w>": 3628,
      "range</w>": 3629,
      "ĠProm": 3630,
      "ĠPatchy</w>": 3631,
      "ĠRadi": 3632,
      "Ġimplanted</w>": 3633,
      "Ġsulc": 3634,
      "Ġfinding</w>": 3635,
      "unshot</w>": 3636,
      "ĠPromin": 3637,
      "co": 3638,
      "mul": 3639,
      "mit</w>": 3640,
      "ricle</w>": 3641,
      "yng": 3642,
      "Ġrange</w>": 3643,
      "ince</w>": 3644,
      "Ġrevi": 3645,
      "Ġliver</w>": 3646,
      "rior</w>": 3647,
      "rium</w>": 3648,
      "dered</w>": 3649,
      "Ġalco": 3650,
      "Ġventricle</w>": 3651,
      "Ġexam</w>": 3652,
      "Ġpath": 3653,
      "foot</w>": 3654,
      "Ġirregular</w>": 3655,
      "Ġindwelling</w>": 3656,
      "Ġchf</w>": 3657,
      "yngeal</w>": 3658,
      "ad</w>": 3659,
      "ch": 3660,
      "dent</w>": 3661,
      "eed</w>": 3662,
      "me": 3663,
      "nd</w>": 3664,
      "pectomy</w>": 3665,
      "ystr": 3666,
      "Ġcl": 3667,
      "Ġperfor": 3668,
      "Ġaround</w>": 3669,
      "Ġplaced</w>": 3670,
      "Ġworse</w>": 3671,
      "Ġdextroscoliosis</w>": 3672,
      "Ġremain</w>": 3673,
      "pendent</w>": 3674,
      "Ġimageed</w>": 3675,
      "Ġlumpectomy</w>": 3676,
      "ĠRadiograp": 3677,
      "ystrophy</w>": 3678,
      "Ġorg": 3679,
      "Ġton": 3680,
      "Ġport": 3681,
      "Ġshad": 3682,
      "Ġdialysis</w>": 3683,
      "Ġhep": 3684,
      "hol</w>": 3685,
      "Ġtrauma</w>": 3686,
      "ĠPrior</w>": 3687,
      "Fever</w>": 3688,
      "Ġlaryngeal</w>": 3689,
      "irr": 3690,
      "ĠVehicle</w>": 3691,
      "ĠScattered</w>": 3692,
      "Ġresection</w>": 3693,
      "Ġinvolvement</w>": 3694,
      "specified</w>": 3695,
      "specific</w>": 3696,
      "Status</w>": 3697,
      "mulator</w>": 3698,
      "Ġalcohol</w>": 3699,
      "Ġter": 3700,
      "rally</w>": 3701,
      "Ġtract</w>": 3702,
      "logeneic</w>": 3703,
      "Ġsubj": 3704,
      "inged</w>": 3705,
      "Ġchoking</w>": 3706,
      "Ġdense</w>": 3707,
      "Ġhemorrhage</w>": 3708,
      "eizure</w>": 3709,
      "fol": 3710,
      "fort</w>": 3711,
      "imm": 3712,
      "mot": 3713,
      "ug</w>": 3714,
      "Ġpul": 3715,
      "hes</w>": 3716,
      "Ġches</w>": 3717,
      "ulsion</w>": 3718,
      "enlarged</w>": 3719,
      "Ġanxiety</w>": 3720,
      "yelo": 3721,
      "neum": 3722,
      "Ġdiscom": 3723,
      "teme": 3724,
      "elch": 3725,
      "Ġplace</w>": 3726,
      "entation</w>": 3727,
      "ĠMVC</w>": 3728,
      "uries</w>": 3729,
      "Ġatt": 3730,
      "Ġinjuries</w>": 3731,
      "Ġepigastric</w>": 3732,
      "Ġinfarct</w>": 3733,
      "Ġmarkers</w>": 3734,
      "ĠCancer</w>": 3735,
      "creening</w>": 3736,
      "Ġneed</w>": 3737,
      "lowing</w>": 3738,
      "Ġimmigrant</w>": 3739,
      "essed</w>": 3740,
      "Ġtherapy</w>": 3741,
      "Ġordered</w>": 3742,
      "Ġdrug</w>": 3743,
      "Ġwheelch": 3744,
      "Ġorgan</w>": 3745,
      "Ġtonight</w>": 3746,
      "Ġportable</w>": 3747,
      "Ġhepatic</w>": 3748,
      "irrhosis</w>": 3749,
      "mote</w>": 3750,
      "neumothorax</w>": 3751,
      "Ġdiscomfort</w>": 3752,
      "temesis</w>": 3753,
      "Ġwheelchair</w>": 3754,
      "Th": 3755,
      "oci": 3756,
      "sche": 3757,
      "pre": 3758,
      "Ġcour": 3759,
      "Ġcigarette</w>": 3760,
      "ensation</w>": 3761,
      "oro": 3762,
      "esn</w>": 3763,
      "essive</w>": 3764,
      "Ġheart": 3765,
      "ters</w>": 3766,
      "ective</w>": 3767,
      "Ġlocated</w>": 3768,
      "Ġrate</w>": 3769,
      "Ġdoesn</w>": 3770,
      "scle": 3771,
      "utes</w>": 3772,
      "Ġassoci": 3773,
      "epsis</w>": 3774,
      "arian</w>": 3775,
      "Ġmus": 3776,
      "Ġassaulted</w>": 3777,
      "rregular</w>": 3778,
      "Ġslurred</w>": 3779,
      "Ġpancreatitis</w>": 3780,
      "Ġdisori": 3781,
      "beat</w>": 3782,
      "Ġrevision</w>": 3783,
      "Ġperformed</w>": 3784,
      "Ġsubjective</w>": 3785,
      "Ġheartbeat</w>": 3786,
      "Ġassociated</w>": 3787,
      "27</w>": 3788,
      "31</w>": 3789,
      "33</w>": 3790,
      "72</w>": 3791,
      ")-</w>": 3792,
      "BN": 3793,
      "CG</w>": 3794,
      "aine</w>": 3795,
      "ade</w>": 3796,
      "brevi": 3797,
      "days</w>": 3798,
      "etralogy</w>": 3799,
      "horo": 3800,
      "iti": 3801,
      "kos": 3802,
      "lul": 3803,
      "nne</w>": 3804,
      "nessed</w>": 3805,
      "rterial</w>": 3806,
      "symptoms</w>": 3807,
      "tb</w>": 3808,
      "tchy</w>": 3809,
      "tinged</w>": 3810,
      "ure": 3811,
      "uche": 3812,
      "vulsion</w>": 3813,
      "inary</w>": 3814,
      "inations</w>": 3815,
      "tide</w>": 3816,
      "tizing</w>": 3817,
      "Ġtre": 3818,
      "Ġtachyc": 3819,
      "sid": 3820,
      "Ġpm</w>": 3821,
      "Ġpep": 3822,
      "Ġpus": 3823,
      "ramp": 3824,
      "Ġcramp": 3825,
      "Ġsec": 3826,
      "Ġsli": 3827,
      "Ġische": 3828,
      "arting</w>": 3829,
      "Ġnatri": 3830,
      "ergy</w>": 3831,
      "icade</w>": 3832,
      "esh</w>": 3833,
      "Ġlast": 3834,
      "Ġlasts</w>": 3835,
      "oly": 3836,
      "Ġiniti": 3837,
      "Ġbeg": 3838,
      "ĠTingling</w>": 3839,
      "ĠTetralogy</w>": 3840,
      "nemia</w>": 3841,
      "ardic</w>": 3842,
      "dependent</w>": 3843,
      "umir": 3844,
      "urs</w>": 3845,
      "tercation</w>": 3846,
      "ĠCoc": 3847,
      "ĠItchy</w>": 3848,
      "Ġfive</w>": 3849,
      "hano": 3850,
      "teps</w>": 3851,
      "Ġdesp": 3852,
      "Ġdystrophy</w>": 3853,
      "Ġdecom": 3854,
      "Ġconfirms</w>": 3855,
      "Ġreplaced</w>": 3856,
      "Ġhyster": 3857,
      "Ġenergy</w>": 3858,
      "Ġhematemesis</w>": 3859,
      "acks</w>": 3860,
      "ranial</w>": 3861,
      "roder": 3862,
      "rotizing</w>": 3863,
      "Ġexcision</w>": 3864,
      "Ġradial</w>": 3865,
      "Ġradiation</w>": 3866,
      "Ġbulging</w>": 3867,
      "ĠYear</w>": 3868,
      "mitted</w>": 3869,
      "hagic</w>": 3870,
      "ĠHumir": 3871,
      "ĠBang": 3872,
      "ĠBCG</w>": 3873,
      "Ġunspecified</w>": 3874,
      "Ġaltercation</w>": 3875,
      "splantation</w>": 3876,
      "Ġtransplantation</w>": 3877,
      "Ġkg</w>": 3878,
      "seas</w>": 3879,
      "ymptomatic</w>": 3880,
      "Ġpretib": 3881,
      "Ġpreop</w>": 3882,
      "Ġadmit</w>": 3883,
      "Ġosteogenic</w>": 3884,
      "ĠRep": 3885,
      "veitis</w>": 3886,
      "ĠOsh": 3887,
      "Ġoverdo": 3888,
      "Ġoverseas</w>": 3889,
      "Ġnondependent</w>": 3890,
      "Ġextremities</w>": 3891,
      "ladesh</w>": 3892,
      "amicade</w>": 3893,
      "Ġrepresents</w>": 3894,
      "Ġundergo</w>": 3895,
      "ĠConfusion</w>": 3896,
      "ĠConvulsion</w>": 3897,
      "Ġasymptomatic</w>": 3898,
      "Ġoccurs</w>": 3899,
      "Ġendometrial</w>": 3900,
      "Ġpancreas</w>": 3901,
      "Ġurinary</w>": 3902,
      "lucinations</w>": 3903,
      "Ġcomments</w>": 3904,
      "urmese</w>": 3905,
      "Ġethano": 3906,
      "Ġvaccination</w>": 3907,
      "Ġhallucinations</w>": 3908,
      "witnessed</w>": 3909,
      "Ġfeel</w>": 3910,
      "Ġmedicine</w>": 3911,
      "Ġadrenal</w>": 3912,
      "Complaints</w>": 3913,
      "Ġbackache</w>": 3914,
      "Ġminutes</w>": 3915,
      "ĠRadiograph</w>": 3916,
      "Ġpulses</w>": 3917,
      "Ġattacks</w>": 3918,
      "Ġmuscular</w>": 3919,
      "BNP</w>": 3920,
      "breviations</w>": 3921,
      "horoidal</w>": 3922,
      "kosh</w>": 3923,
      "lulike</w>": 3924,
      "uretic</w>": 3925,
      "uchenne</w>": 3926,
      "Ġtreated</w>": 3927,
      "Ġtachycardic</w>": 3928,
      "Ġpeptide</w>": 3929,
      "Ġpushed</w>": 3930,
      "Ġcramping</w>": 3931,
      "Ġslipped</w>": 3932,
      "Ġischemia</w>": 3933,
      "Ġnatriuretic</w>": 3934,
      "Ġlasting</w>": 3935,
      "Ġinitiation</w>": 3936,
      "Ġbeginning</w>": 3937,
      "ĠCocaine</w>": 3938,
      "Ġdespite</w>": 3939,
      "Ġdecompression</w>": 3940,
      "Ġhysterectomy</w>": 3941,
      "roderma</w>": 3942,
      "ĠHumira</w>": 3943,
      "ĠBangladesh</w>": 3944,
      "Ġpretibial</w>": 3945,
      "ĠReported</w>": 3946,
      "ĠOshkosh</w>": 3947,
      "Ġoverdose</w>": 3948,
      "Ġethanol</w>": 3949,
      "Upper</w>": 3950,
      "ef</w>": 3951,
      "dialysis</w>": 3952,
      "Ġhemo": 3953,
      "cted</w>": 3954,
      "hief</w>": 3955,
      "Ġsevere</w>": 3956,
      "Ġraise</w>": 3957,
      "Ġsubsternal</w>": 3958,
      "Ġtransp": 3959,
      "Ġatrium</w>": 3960,
      "veals</w>": 3961,
      "Ġperipherally</w>": 3962,
      "ĠHyper": 3963,
      "Ġexclude</w>": 3964,
      "Ġhemodialysis</w>": 3965,
      "Arterial</w>": 3966,
      "Anemia</w>": 3967,
      "Burmese</w>": 3968,
      "Cystic</w>": 3969,
      "Cigarette</w>": 3970,
      "CABG</w>": 3971,
      "Choroidal</w>": 3972,
      "Duchenne</w>": 3973,
      "Evaluation</w>": 3974,
      "End</w>": 3975,
      "Flulike</w>": 3976,
      "High</w>": 3977,
      "Long</w>": 3978,
      "Liver</w>": 3979,
      "Pre</w>": 3980,
      "Pro": 3981,
      "Pleuritic</w>": 3982,
      "Routine</w>": 3983,
      "Ramicade</w>": 3984,
      "Scheduled</w>": 3985,
      "Since</w>": 3986,
      "Seizure</w>": 3987,
      "Screening</w>": 3988,
      "Sensation</w>": 3989,
      "Sepsis</w>": 3990,
      "Steps</w>": 3991,
      "body</w>": 3992,
      "chills</w>": 3993,
      "pleuritic</w>": 3994,
      "syncopal</w>": 3995,
      "uveitis</w>": 3996,
      "ventral</w>": 3997,
      "Ġ14</w>": 3998,
      "Ġ:.<</w>": 3999,
      "intrac": 4000,
      "Ġcd</w>": 4001,
      "Ġsac": 4002,
      "Ġear": 4003,
      "sputum</w>": 4004,
      "apula</w>": 4005,
      "Ġcardioverter</w>": 4006,
      "scapula</w>": 4007,
      "hemorr": 4008,
      "Unresponsive</w>": 4009,
      "Unwitnessed</w>": 4010,
      "Alleged</w>": 4011,
      "Allogeneic</w>": 4012,
      "Lymphadenopathy</w>": 4013,
      "nique</w>": 4014,
      "Ġimplantable</w>": 4015,
      "Ġtechnique</w>": 4016,
      "necrotizing</w>": 4017,
      "Hepatic</w>": 4018,
      "Ġ-..<</w>": 4019,
      "recent</w>": 4020,
      "Starting</w>": 4021,
      "Posterior</w>": 4022,
      "Pruritic</w>": 4023,
      "ĠAtherosclerotic</w>": 4024,
      "Assess</w>": 4025,
      "ĠProminent</w>": 4026,
      "immigrant</w>": 4027,
      "Throat</w>": 4028,
      "scleroderma</w>": 4029,
      "intracranial</w>": 4030,
      "hemorrhagic</w>": 4031,
      "58</w>": 4032,
      "HF</w>": 4033,
      "cemaker</w>": 4034,
      "Ġz": 4035,
      "Ġpas": 4036,
      "enting</w>": 4037,
      "Ġplease</w>": 4038,
      "spine</w>": 4039,
      "Ġdete": 4040,
      "pacemaker</w>": 4041,
      "Ġreveals</w>": 4042,
      "ili": 4043,
      "Ġrales</w>": 4044,
      "Ġalleged</w>": 4045,
      "Ġadmitted</w>": 4046,
      "Hyper": 4047,
      "ĠRec": 4048,
      "alpitation</w>": 4049,
      "fore</w>": 4050,
      "ICD</w>": 4051,
      "tionable</w>": 4052,
      ",,</w>": 4053,
      "venous</w>": 4054,
      "omyo": 4055,
      "est": 4056,
      "Ġsupr": 4057,
      "trast</w>": 4058,
      "Ġresid": 4059,
      "ilar</w>": 4060,
      "Ġintravenous</w>": 4061,
      "Ġradiography</w>": 4062,
      "abetes</w>": 4063,
      "ĠOpa": 4064,
      "ĠOne</w>": 4065,
      "Ġleukemia</w>": 4066,
      "Ġrequiring</w>": 4067,
      "rainage</w>": 4068,
      "omyopathy</w>": 4069,
      "eter</w>": 4070,
      "Ġax": 4071,
      "Ġdiam": 4072,
      "Ġrecurr": 4073,
      "Ġhe</w>": 4074,
      "Ġhome</w>": 4075,
      "ĠChief</w>": 4076,
      "Ġretr": 4077,
      "erall</w>": 4078,
      "roili": 4079,
      "Ġreported</w>": 4080,
      "ondary</w>": 4081,
      "Ġrepresenting</w>": 4082,
      "Ġsignificantly</w>": 4083,
      "Ġpathology</w>": 4084,
      "Ġsecondary</w>": 4085,
      "Ġsacroili": 4086,
      "Ġdetected</w>": 4087,
      "Ġdiameter</w>": 4088,
      "Ġrecurrence</w>": 4089,
      "KG</w>": 4090,
      "XR</w>": 4091,
      "milar</w>": 4092,
      "shoulder</w>": 4093,
      "ina</w>": 4094,
      "Ġper</w>": 4095,
      "levated</w>": 4096,
      "arran": 4097,
      "Ġwarran": 4098,
      "Ġrh": 4099,
      "ĠCXR</w>": 4100,
      "othing</w>": 4101,
      "lower</w>": 4102,
      "Ġdysp": 4103,
      "Ġdrainage</w>": 4104,
      "Ġju": 4105,
      "Ġspurr": 4106,
      "stimulator</w>": 4107,
      "ĠMass</w>": 4108,
      "ĠDiaphragm</w>": 4109,
      "escending</w>": 4110,
      "eph": 4111,
      "Ġstudies</w>": 4112,
      "otherapy</w>": 4113,
      "ĠMediastinum</w>": 4114,
      "Ġbiapical</w>": 4115,
      "Ġneurostimulator</w>": 4116,
      "Ġpartial</w>": 4117,
      "Ġcarotid</w>": 4118,
      "Ġclothing</w>": 4119,
      "Ġspurring</w>": 4120,
      "Irregular</w>": 4121,
      "Multiple</w>": 4122,
      "Pain</w>": 4123,
      "Palpitation</w>": 4124,
      "Worsening</w>": 4125,
      "rocardi": 4126,
      "tif": 4127,
      "Ġsix</w>": 4128,
      "Ġanteri": 4129,
      "ĠThoracic</w>": 4130,
      "Ġstage</w>": 4131,
      "tened</w>": 4132,
      "Ġvision</w>": 4133,
      "ĠShe</w>": 4134,
      "Ġunfol": 4135,
      "seizure</w>": 4136,
      "Ġcoar": 4137,
      "Ġbefore</w>": 4138,
      "urry</w>": 4139,
      "Ġblurry</w>": 4140,
      "Ġflattened</w>": 4141,
      "Ġairways</w>": 4142,
      "Head</w>": 4143,
      "preprocedure</w>": 4144,
      "Ġanteriorly</w>": 4145,
      "53</w>": 4146,
      "aneous</w>": 4147,
      "bing</w>": 4148,
      "best": 4149,
      "go</w>": 4150,
      "tortu": 4151,
      "utive</w>": 4152,
      "wal</w>": 4153,
      "omye": 4154,
      "tive": 4155,
      "sitive": 4156,
      "rawal</w>": 4157,
      "Ġsor": 4158,
      "arm</w>": 4159,
      "Ġneph": 4160,
      "ertional</w>": 4161,
      "Ġinsu": 4162,
      "Ġmig": 4163,
      "Ġmurm": 4164,
      "culi</w>": 4165,
      "Ġcalculi</w>": 4166,
      "opau": 4167,
      "Ġdescending</w>": 4168,
      "Ġdefibrillator</w>": 4169,
      "Ġrever": 4170,
      "iving</w>": 4171,
      "Ġforearm</w>": 4172,
      "hagia</w>": 4173,
      "ĠNon</w>": 4174,
      "post</w>": 4175,
      "litis</w>": 4176,
      "abbing</w>": 4177,
      "fficiency</w>": 4178,
      "Ġosteomye": 4179,
      "Positive": 4180,
      "utaneous</w>": 4181,
      "ĠUnknown</w>": 4182,
      "Ġasbest": 4183,
      "Ġslight</w>": 4184,
      "oarse</w>": 4185,
      "hdrawal</w>": 4186,
      "Ġinvolved</w>": 4187,
      "Ġthrombosis</w>": 4188,
      "Ġ-></w>": 4189,
      "raines</w>": 4190,
      "Ġcauses</w>": 4191,
      "Ġchemotherapy</w>": 4192,
      "ightsweats</w>": 4193,
      "Ġdysphagia</w>": 4194,
      "tortuosity</w>": 4195,
      "Ġsoreness</w>": 4196,
      "Ġinsufficiency</w>": 4197,
      "Ġmigraines</w>": 4198,
      "Ġmurmur</w>": 4199,
      "opausal</w>": 4200,
      "Ġreversal</w>": 4201,
      "Ġosteomyelitis</w>": 4202,
      "Positivekin</w>": 4203,
      "Ġasbestos</w>": 4204,
      "CHF</w>": 4205,
      "pation</w>": 4206,
      "tipation</w>": 4207,
      "Ġsimilar</w>": 4208,
      "ension</w>": 4209,
      "Ġfat</w>": 4210,
      "Ġmarg": 4211,
      "Ġindigestion</w>": 4212,
      "otension</w>": 4213,
      "loody</w>": 4214,
      "Ġartif": 4215,
      "Ġconstipation</w>": 4216,
      "ĠLymp": 4217,
      "like</w>": 4218,
      "Ġimplantation</w>": 4219,
      "Ġhypotension</w>": 4220,
      "Ġprojection</w>": 4221,
      "Ġlingula</w>": 4222,
      "Ġimmunosuppressed</w>": 4223,
      "$,</w>": 4224,
      "ER": 4225,
      "EKG</w>": 4226,
      "GER": 4227,
      "Join": 4228,
      "ax</w>": 4229,
      "cs</w>": 4230,
      "issure</w>": 4231,
      "menti": 4232,
      "non": 4233,
      "oh</w>": 4234,
      "oom": 4235,
      "oral</w>": 4236,
      "pic": 4237,
      "pair</w>": 4238,
      "Ġ$,</w>": 4239,
      "inated</w>": 4240,
      "inking</w>": 4241,
      "Ġtrop": 4242,
      "Ġcare</w>": 4243,
      "mate</w>": 4244,
      "onin</w>": 4245,
      "onidal</w>": 4246,
      "asn</w>": 4247,
      "Ġanyth": 4248,
      "Ġwhee": 4249,
      "icals</w>": 4250,
      "esulting</w>": 4251,
      "Ġlong</w>": 4252,
      "olore": 4253,
      "aise</w>": 4254,
      "Ġhasn</w>": 4255,
      "ffusion</w>": 4256,
      "rectomy</w>": 4257,
      "repair</w>": 4258,
      "term</w>": 4259,
      "ĠCarcin": 4260,
      "trache": 4261,
      "trauma</w>": 4262,
      "Ġduration</w>": 4263,
      "elv": 4264,
      "mpit</w>": 4265,
      "Ġdementi": 4266,
      "ecutive</w>": 4267,
      "Ġgown</w>": 4268,
      "Ġarmpit</w>": 4269,
      "anax</w>": 4270,
      "Ġcolostomy</w>": 4271,
      "terization</w>": 4272,
      "Ġconsecutive</w>": 4273,
      "ilonidal</w>": 4274,
      "Ġabscesses</w>": 4275,
      "Ġcatheters</w>": 4276,
      "Ġcatheterization</w>": 4277,
      "ĠHigh</w>": 4278,
      "Ġelectrocardi": 4279,
      "Ġunresponsive</w>": 4280,
      "Ġxanax</w>": 4281,
      "Ġmalaise</w>": 4282,
      "Ġremove</w>": 4283,
      "Ġnonradiating</w>": 4284,
      "ancreatic</w>": 4285,
      "Ġtetralogy</w>": 4286,
      "otics</w>": 4287,
      "Ġcommissure</w>": 4288,
      "Ġdrinking</w>": 4289,
      "Ġetoh</w>": 4290,
      "Ġvaccinated</w>": 4291,
      "Ġhalf</w>": 4292,
      "Ġchemicals</w>": 4293,
      "Ġtemporal</w>": 4294,
      "ĠAtypical</w>": 4295,
      "Ġantibiotics</w>": 4296,
      "operitoneal</w>": 4297,
      "Ġprobable</w>": 4298,
      "Ġcourse</w>": 4299,
      "Ġpassed</w>": 4300,
      "ĠRecently</w>": 4301,
      "Ġretroperitoneal</w>": 4302,
      "Ġsacroiliitis</w>": 4303,
      "Ġwarrants</w>": 4304,
      "Ġnephrectomy</w>": 4305,
      "GERD</w>": 4306,
      "Joint</w>": 4307,
      "nonproductive</w>": 4308,
      "oommate</w>": 4309,
      "picc</w>": 4310,
      "Ġtroponin</w>": 4311,
      "Ġanything</w>": 4312,
      "Ġwheeze</w>": 4313,
      "olorectal</w>": 4314,
      "ĠCarcinoid</w>": 4315,
      "tracheal</w>": 4316,
      "Ġdementia</w>": 4317,
      "Ġelectrocardiogram</w>": 4318,
      "Ġ8</w>": 4319,
      "Ġpelv": 4320,
      "Ġengorgement</w>": 4321,
      "16</w>": 4322,
      "43</w>": 4323,
      "46</w>": 4324,
      "Bloody</w>": 4325,
      "Ca": 4326,
      "Coarse</w>": 4327,
      "Colorectal</w>": 4328,
      "Effusion</w>": 4329,
      "Mid</w>": 4330,
      "Nipple</w>": 4331,
      "Physical</w>": 4332,
      "Previ": 4333,
      "Pancreatic</w>": 4334,
      "Renal</w>": 4335,
      "Resulting</w>": 4336,
      "Roommate</w>": 4337,
      "Sarcoma</w>": 4338,
      "Two</w>": 4339,
      "pilonidal</w>": 4340,
      "total</w>": 4341,
      "Ġ...<</w>": 4342,
      "stabbing</w>": 4343,
      "Ġcontrast</w>": 4344,
      "nesia</w>": 4345,
      "Ġparatracheal</w>": 4346,
      "Inside</w>": 4347,
      "Increased</w>": 4348,
      "Ġamnesia</w>": 4349,
      "Ġoccurred</w>": 4350,
      "congestion</w>": 4351,
      "erature</w>": 4352,
      "Anxiety</w>": 4353,
      "sweating</w>": 4354,
      "recently</w>": 4355,
      "Bronchiectasis</w>": 4356,
      "Exertional</w>": 4357,
      "withdrawal</w>": 4358,
      "Postoperative</w>": 4359,
      "Ġcausing</w>": 4360,
      "Ġtemperature</w>": 4361,
      "Ġquestionable</w>": 4362,
      "Ġresidual</w>": 4363,
      "Previous</w>": 4364,
      "ximal</w>": 4365,
      "Ġo</w>": 4366,
      "sition</w>": 4367,
      "ĠAc": 4368,
      "Ġho": 4369,
      "ĠHe": 4370,
      "Ġproximal</w>": 4371,
      "scoliosis</w>": 4372,
      "orrel": 4373,
      "mphysema</w>": 4374,
      "ew": 4375,
      "Ġnipple</w>": 4376,
      "Ġhigh</w>": 4377,
      "Ġcardio</w>": 4378,
      "Ġaspect</w>": 4379,
      "minis": 4380,
      "Ġthem</w>": 4381,
      "Ġhumeral</w>": 4382,
      "Ġzone</w>": 4383,
      "minished</w>": 4384,
      "emo": 4385,
      "flu": 4386,
      "Ġso</w>": 4387,
      "ĠThe": 4388,
      "lop": 4389,
      "Ġacc": 4390,
      "velop": 4391,
      "Ġsuperimp": 4392,
      "ĠConsolidation</w>": 4393,
      "Ġectatic</w>": 4394,
      "Ġcoarse</w>": 4395,
      "orrelate</w>": 4396,
      "ague</w>": 4397,
      "gg": 4398,
      "ones</w>": 4399,
      "Ġdiminished</w>": 4400,
      "inflated</w>": 4401,
      "ĠExa": 4402,
      "Ġoverli": 4403,
      "Ġfibrotic</w>": 4404,
      "Ġpresentwhere</w>": 4405,
      "Ġ9</w>": 4406,
      "preci": 4407,
      "itus</w>": 4408,
      "idline</w>": 4409,
      "Ġhyperluc": 4410,
      "Ġappreci": 4411,
      "ĠMidline</w>": 4412,
      "ĠPres": 4413,
      "Ġunderlying</w>": 4414,
      "Ġsulcus</w>": 4415,
      "imit": 4416,
      "oscoliosis</w>": 4417,
      "Ġtop</w>": 4418,
      "Ġcu": 4419,
      "ull": 4420,
      "Ġsom": 4421,
      "sthe": 4422,
      "lavi": 4423,
      "demonst": 4424,
      "Ġdevelop": 4425,
      "Ġgunshot</w>": 4426,
      "Ġopacification</w>": 4427,
      "acent</w>": 4428,
      "ĠLimit": 4429,
      "ĠSoft</w>": 4430,
      "Ġovert</w>": 4431,
      "ĠIncreased</w>": 4432,
      "Ġsubclavi": 4433,
      "Ġsuperimposed</w>": 4434,
      "ĠLimited</w>": 4435,
      "Ġsubclavian</w>": 4436,
      "elae</w>": 4437,
      "ool</w>": 4438,
      "sened</w>": 4439,
      "tro": 4440,
      "ul</w>": 4441,
      "inate</w>": 4442,
      "ĠAort": 4443,
      "und</w>": 4444,
      "determ": 4445,
      "Ġnode</w>": 4446,
      "losure</w>": 4447,
      "ela</w>": 4448,
      "Ġretro": 4449,
      "Ġstool</w>": 4450,
      "Ġlobar</w>": 4451,
      "rowing</w>": 4452,
      "Ġrequi": 4453,
      "ĠThese</w>": 4454,
      "ĠAorta</w>": 4455,
      "determinate</w>": 4456,
      "gular</w>": 4457,
      "jacent</w>": 4458,
      "her</w>": 4459,
      "ither</w>": 4460,
      "ĠIn</w>": 4461,
      "ented</w>": 4462,
      "ĠGranul": 4463,
      "Ġindicate</w>": 4464,
      "acter": 4465,
      "Ġterms</w>": 4466,
      "Ġjugular</w>": 4467,
      "PICC</w>": 4468,
      "cing</w>": 4469,
      "ommen": 4470,
      "Ġpart</w>": 4471,
      "Ġparenchy": 4472,
      "air": 4473,
      "sterior</w>": 4474,
      "ĠCentral</w>": 4475,
      "icardial</w>": 4476,
      "ternal</w>": 4477,
      "ĠMain</w>": 4478,
      "ĠMode": 4479,
      "Ġadjacent</w>": 4480,
      "ĠVomiting</w>": 4481,
      "Ġblunted</w>": 4482,
      "Ġexcluded</w>": 4483,
      "Ġimproved</w>": 4484,
      "ewhat</w>": 4485,
      "ĠPresence</w>": 4486,
      "Ġparenchyma</w>": 4487,
      "dlike</w>": 4488,
      "gr": 4489,
      "ir</w>": 4490,
      "iate</w>": 4491,
      "otic</w>": 4492,
      "priate</w>": 4493,
      "Ġaeration</w>": 4494,
      "Ġbsence</w>": 4495,
      "Ġvari": 4496,
      "Ġgo": 4497,
      "andlike</w>": 4498,
      "Ġhypo": 4499,
      "ĠLe": 4500,
      "Ġlevoscoliosis</w>": 4501,
      "Ġcondition</w>": 4502,
      "illa</w>": 4503,
      "Ġappropriate</w>": 4504,
      "Ġoverall</w>": 4505,
      "Ġesophagus</w>": 4506,
      "wever</w>": 4507,
      "Ġaxilla</w>": 4508,
      "acterial</w>": 4509,
      "Cardi": 4510,
      "Ġ28</w>": 4511,
      "Ġap</w>": 4512,
      "Ġasc": 4513,
      "rately</w>": 4514,
      "Ġfunction</w>": 4515,
      "ĠTh": 4516,
      "Ġhour</w>": 4517,
      "Ġfissure</w>": 4518,
      "sual</w>": 4519,
      "ĠBone</w>": 4520,
      "Ġresul": 4521,
      "Ġappreciated</w>": 4522,
      "Ġsomewhat</w>": 4523,
      "Ġretrosternal</w>": 4524,
      "ĠModerate</w>": 4525,
      "Ġascending</w>": 4526,
      "tially</w>": 4527,
      "ente": 4528,
      "Ġwir": 4529,
      "iter</w>": 4530,
      "Ġdilated</w>": 4531,
      "Ġobese</w>": 4532,
      "Ġgeneralized</w>": 4533,
      "ĠPer": 4534,
      "ĠBased</w>": 4535,
      "ounded</w>": 4536,
      "ĠFurther</w>": 4537,
      "Ġthoracente": 4538,
      "Ġimprovement</w>": 4539,
      "Ġgoiter</w>": 4540,
      "Ġhypov": 4541,
      "Ġwires</w>": 4542,
      "Ġthoracentesis</w>": 4543,
      "idly</w>": 4544,
      "ured</w>": 4545,
      "Ġstated</w>": 4546,
      "Ġless</w>": 4547,
      "Ġinferior</w>": 4548,
      "ĠPro": 4549,
      "ĠWit": 4550,
      "Ġprosthe": 4551,
      "Ġmoderately</w>": 4552,
      "Ġresol": 4553,
      "orbidly</w>": 4554,
      "Ġartifact</w>": 4555,
      "fy</w>": 4556,
      "gl": 4557,
      "vin": 4558,
      "veral</w>": 4559,
      "Ġaerated</w>": 4560,
      "itor</w>": 4561,
      "Ġsur": 4562,
      "Ġmm</w>": 4563,
      "Ġconvin": 4564,
      "Ġvague</w>": 4565,
      "Ġdate</w>": 4566,
      "ildly</w>": 4567,
      "ĠWheezing</w>": 4568,
      "ĠEsophageal</w>": 4569,
      "Ġmonitor</w>": 4570,
      "treaky</w>": 4571,
      "Ġinvolving</w>": 4572,
      "Ġdisorder</w>": 4573,
      "Ġsequela</w>": 4574,
      "ggerated</w>": 4575,
      "ĠLeuk": 4576,
      "ĠThree</w>": 4577,
      "Ġconvincing</w>": 4578,
      "ff</w>": 4579,
      "tle</w>": 4580,
      "indeterminate</w>": 4581,
      "Ġparenchymal</w>": 4582,
      "Ġcri": 4583,
      "Ġcorrelate</w>": 4584,
      "Ġimpression</w>": 4585,
      "erous</w>": 4586,
      "Ġfact": 4587,
      "Ġlit": 4588,
      "Ġnor</w>": 4589,
      "umerous</w>": 4590,
      "Ġindivid": 4591,
      "temp": 4592,
      "Ġseveral</w>": 4593,
      "pressive</w>": 4594,
      "Ġtim": 4595,
      "Ġsweating</w>": 4596,
      "Ġused</w>": 4597,
      "ĠSe": 4598,
      "Ġallergic</w>": 4599,
      "ĠMildly</w>": 4600,
      "Ġattemp": 4601,
      "ĠRe": 4602,
      "Ġepicardial</w>": 4603,
      "Ġneither</w>": 4604,
      "oplas": 4605,
      "Ġrotator</w>": 4606,
      "Ġsequelae</w>": 4607,
      "Ġpelvic</w>": 4608,
      "Ġcuff</w>": 4609,
      "demonstration</w>": 4610,
      "Ġresult</w>": 4611,
      "Ġliters</w>": 4612,
      "Ġindividual</w>": 4613,
      "Ġattempting</w>": 4614,
      "21</w>": 4615,
      "ML</w>": 4616,
      "aw</w>": 4617,
      "aerated</w>": 4618,
      "ferative</w>": 4619,
      "mur</w>": 4620,
      "osition</w>": 4621,
      "pide": 4622,
      "red</w>": 4623,
      "Ġ7": 4624,
      "Ġ9": 4625,
      "ĠFever</w>": 4626,
      "proli": 4627,
      "Ġpa</w>": 4628,
      "Ġcir": 4629,
      "Ġiritis</w>": 4630,
      "Ġfour</w>": 4631,
      "ically</w>": 4632,
      "Ġsutures</w>": 4633,
      "Ġmet": 4634,
      "Ġro": 4635,
      "Ġrounded</w>": 4636,
      "reat</w>": 4637,
      "ĠCoughing</w>": 4638,
      "ĠCirrhosis</w>": 4639,
      "ubation</w>": 4640,
      "lob": 4641,
      "Ġretained</w>": 4642,
      "Ġremote</w>": 4643,
      "Ġgreat</w>": 4644,
      "Ġlie</w>": 4645,
      "Ġjaw</w>": 4646,
      "ĠPar": 4647,
      "ĠPersistent</w>": 4648,
      "calcified</w>": 4649,
      "lipide": 4650,
      "Ġdown</w>": 4651,
      "Ġassess</w>": 4652,
      "ĠSix</w>": 4653,
      "Ġindicates</w>": 4654,
      "Ġsinu": 4655,
      "Ġmarked</w>": 4656,
      "spice</w>": 4657,
      "ĠVascular</w>": 4658,
      "Ġovarian</w>": 4659,
      "ĠAtrial</w>": 4660,
      "Ġrecommen": 4661,
      "ĠAllergic</w>": 4662,
      "eriphe": 4663,
      "Ġshadow</w>": 4664,
      "Ġhospice</w>": 4665,
      "proliferative</w>": 4666,
      "lipidemia</w>": 4667,
      "cum": 4668,
      "cell</w>": 4669,
      "ken</w>": 4670,
      "ry</w>": 4671,
      "sv": 4672,
      "wed</w>": 4673,
      "ye</w>": 4674,
      "Ġv</w>": 4675,
      "ĠFindings</w>": 4676,
      "Ġamo": 4677,
      "tio</w>": 4678,
      "Ġcou": 4679,
      "mass</w>": 4680,
      "ord": 4681,
      "Ġlack</w>": 4682,
      "olic</w>": 4683,
      "Ġmor": 4684,
      "stly</w>": 4685,
      "stoplas": 4686,
      "Ġnose": 4687,
      "ĠCurrently</w>": 4688,
      "Ġfemur</w>": 4689,
      "han": 4690,
      "opsy</w>": 4691,
      "Ġbreat</w>": 4692,
      "quate</w>": 4693,
      "roken</w>": 4694,
      "Ġexternal</w>": 4695,
      "Ġcompressive</w>": 4696,
      "Ġratio</w>": 4697,
      "Ġmostly</w>": 4698,
      "ĠDiabetes</w>": 4699,
      "Ġworsened</w>": 4700,
      "Ġoverla": 4701,
      "ovascular</w>": 4702,
      "Ġrefer": 4703,
      "adequate</w>": 4704,
      "Ġfoot</w>": 4705,
      "Ġpancreatic</w>": 4706,
      "Ġpartially</w>": 4707,
      "ĠLymphadenopathy</w>": 4708,
      "Ġcrisis</w>": 4709,
      "Ġfactors</w>": 4710,
      "svc</w>": 4711,
      "Ġamount</w>": 4712,
      "Ġcouple</w>": 4713,
      "stoplasm": 4714,
      "56</w>": 4715,
      "AML</w>": 4716,
      "BP</w>": 4717,
      "CF</w>": 4718,
      "DS</w>": 4719,
      "ES": 4720,
      "Elevated</w>": 4721,
      "ECF</w>": 4722,
      "IDS</w>": 4723,
      "SBP</w>": 4724,
      "coughing</w>": 4725,
      "ductive</w>": 4726,
      "ebr": 4727,
      "hritis</w>": 4728,
      "lom": 4729,
      "lgia</w>": 4730,
      "mer": 4731,
      "mis": 4732,
      "mentation</w>": 4733,
      "ny</w>": 4734,
      "night</w>": 4735,
      "ows</w>": 4736,
      "oproliferative</w>": 4737,
      "phritis</w>": 4738,
      "rocy": 4739,
      "yno": 4740,
      "ingestion</w>": 4741,
      "Ġaut": 4742,
      "Ġtyp": 4743,
      "sitis</w>": 4744,
      "Ġpil": 4745,
      "Ġpyelo": 4746,
      "Ġcor": 4747,
      "ulone": 4748,
      "lect": 4749,
      "onitis</w>": 4750,
      "onta": 4751,
      "onged</w>": 4752,
      "Ġsedi": 4753,
      "Ġsyp": 4754,
      "Ġsyno": 4755,
      "erulone": 4756,
      "Ġwri": 4757,
      "esaturation</w>": 4758,
      "Ġemer": 4759,
      "olonged</w>": 4760,
      "ĠAir</w>": 4761,
      "ĠAIDS</w>": 4762,
      "itonitis</w>": 4763,
      "Ġbandlike</w>": 4764,
      "Ġbroken</w>": 4765,
      "rement</w>": 4766,
      "Ġfeel": 4767,
      "Ġfell</w>": 4768,
      "hasia</w>": 4769,
      "lous</w>": 4770,
      "mpull": 4771,
      "Ġdepart": 4772,
      "hralgia</w>": 4773,
      "Ġbreasts</w>": 4774,
      "Ġglom": 4775,
      "ycemia</w>": 4776,
      "Ġhypergl": 4777,
      "Ġenter": 4778,
      "Ġpound</w>": 4779,
      "illan": 4780,
      "ranoproliferative</w>": 4781,
      "Ġextensive</w>": 4782,
      "Ġextrac": 4783,
      "Ġshower</w>": 4784,
      "vial</w>": 4785,
      "Ġbullous</w>": 4786,
      "ĠStreaky</w>": 4787,
      "ĠBasilar</w>": 4788,
      "ĠBacterial</w>": 4789,
      "ĠMyelo": 4790,
      "aking</w>": 4791,
      "Ġintubation</w>": 4792,
      "plasty</w>": 4793,
      "lier</w>": 4794,
      "Ġcerebr": 4795,
      "veillan": 4796,
      "mbranoproliferative</w>": 4797,
      "ĠOxygen</w>": 4798,
      "ĠOcc": 4799,
      "hilis</w>": 4800,
      "Ġovernight</w>": 4801,
      "Ġtracheostomy</w>": 4802,
      "arthralgia</w>": 4803,
      "Ġangina</w>": 4804,
      "Ġeryth": 4805,
      "lowed</w>": 4806,
      "ctured</w>": 4807,
      "ĠSponta": 4808,
      "ĠInadequate</w>": 4809,
      "Ġmembranoproliferative</w>": 4810,
      "Ġdehydrated</w>": 4811,
      "Ġinduction</w>": 4812,
      "ĠAtherosclerosis</w>": 4813,
      "Ġobscured</w>": 4814,
      "Ġswallow</w>": 4815,
      "Ġswallowed</w>": 4816,
      "Ġpresented</w>": 4817,
      "Ġshadows</w>": 4818,
      "Ġdisoriented</w>": 4819,
      "olyarthralgia</w>": 4820,
      "Ġtransposition</w>": 4821,
      "Ġearlier</w>": 4822,
      "Ġunfolding</w>": 4823,
      "emoved</w>": 4824,
      "Ġrequirement</w>": 4825,
      "gressive</w>": 4826,
      "ĠPeritonitis</w>": 4827,
      "ĠProductive</w>": 4828,
      "Ġsurveillan": 4829,
      "ĠLeukemia</w>": 4830,
      "Ġ79</w>": 4831,
      "Ġ98</w>": 4832,
      "Ġroom</w>": 4833,
      "Ġsinusitis</w>": 4834,
      "Ġreferred</w>": 4835,
      "ESR</w>": 4836,
      "mission</w>": 4837,
      "rocyte</w>": 4838,
      "Ġtype</w>": 4839,
      "Ġpills</w>": 4840,
      "Ġpyeloplasty</w>": 4841,
      "Ġsedimentation</w>": 4842,
      "Ġsyphilis</w>": 4843,
      "Ġsynovial</w>": 4844,
      "erulonephritis</w>": 4845,
      "Ġwrist</w>": 4846,
      "Ġemergency</w>": 4847,
      "Ġfeeling</w>": 4848,
      "mpullary</w>": 4849,
      "Ġdepartment</w>": 4850,
      "Ġglomerulonephritis</w>": 4851,
      "Ġhyperglycemia</w>": 4852,
      "Ġextracellular</w>": 4853,
      "ĠMyeloid</w>": 4854,
      "Ġcerebrovascular</w>": 4855,
      "ĠOccasional</w>": 4856,
      "Ġerythrocyte</w>": 4857,
      "ĠSpontaneous</w>": 4858,
      "Ġsurveillance</w>": 4859,
      "66</w>": 4860,
      "IN": 4861,
      "blee": 4862,
      "eye</w>": 4863,
      "ized</w>": 4864,
      "nati": 4865,
      "owed</w>": 4866,
      "pid</w>": 4867,
      "sl": 4868,
      "xr</w>": 4869,
      "tious</w>": 4870,
      "Ġcr": 4871,
      "Ġcxr</w>": 4872,
      "onc": 4873,
      "Ġir": 4874,
      "articular</w>": 4875,
      "aroscop": 4876,
      "ervical</w>": 4877,
      "Ġlap": 4878,
      "unny</w>": 4879,
      "Ġrunny</w>": 4880,
      "Ġabbreviations</w>": 4881,
      "Ġmade</w>": 4882,
      "Ġpneumon": 4883,
      "aped</w>": 4884,
      "mplan": 4885,
      "Ġmediastinitis</w>": 4886,
      "Ġfibros": 4887,
      "Ġhistoplasm": 4888,
      "Ġrela": 4889,
      "Ġvertebr": 4890,
      "ripped</w>": 4891,
      "Ġrapid</w>": 4892,
      "Ġinternati": 4893,
      "inful</w>": 4894,
      "Ġure": 4895,
      "Ġpread": 4896,
      "ĠDiaphragmatic</w>": 4897,
      "Ġcoord": 4898,
      "Ġspecify</w>": 4899,
      "ĠOnset</w>": 4900,
      "Abbreviations</w>": 4901,
      "Ġelbowed</w>": 4902,
      "Ġthrough</w>": 4903,
      "ĠScoliosis</w>": 4904,
      "Ġnormalized</w>": 4905,
      "Ġresulting</w>": 4906,
      "Ġexcessive</w>": 4907,
      "ologous</w>": 4908,
      "Ġobscuration</w>": 4909,
      "Ġlingular</w>": 4910,
      "Ġdisorientation</w>": 4911,
      "Ġhypoventilation</w>": 4912,
      "Ġnoseblee": 4913,
      "Ġautologous</w>": 4914,
      "INR</w>": 4915,
      "aroscopic</w>": 4916,
      "Ġlaparoscopic</w>": 4917,
      "Ġfibrosing</w>": 4918,
      "Ġinternational</w>": 4919,
      "Ġpreadmission</w>": 4920,
      "Ġcoordination</w>": 4921,
      "Ġnosebleeds</w>": 4922,
      "92</w>": 4923,
      "-...<</w>": 4924,
      "CD</w>": 4925,
      "Call</w>": 4926,
      "Cirrhosis</w>": 4927,
      "Closure</w>": 4928,
      "De": 4929,
      "Desaturation</w>": 4930,
      "Flank</w>": 4931,
      "Generalized</w>": 4932,
      "Hodgkin</w>": 4933,
      "Morbidly</w>": 4934,
      "Non</w>": 4935,
      "Ong": 4936,
      "Polyarthralgia</w>": 4937,
      "Removed</w>": 4938,
      "Tripped</w>": 4939,
      "ampullary</w>": 4940,
      "dysp": 4941,
      "emale</w>": 4942,
      "evaluate</w>": 4943,
      "emphysema</w>": 4944,
      "female</w>": 4945,
      "garette</w>": 4946,
      "poly": 4947,
      "sore</w>": 4948,
      "wal": 4949,
      "increased</w>": 4950,
      "Ġful": 4951,
      "Ġfor": 4952,
      "Ġwal": 4953,
      "Ġlad": 4954,
      "Ġbet": 4955,
      "cigarette</w>": 4956,
      "Ġhab": 4957,
      "remote</w>": 4958,
      "ĠICD</w>": 4959,
      "painful</w>": 4960,
      "ĠSome</w>": 4961,
      "ĠBorderline</w>": 4962,
      "hypoxemia</w>": 4963,
      "ably</w>": 4964,
      "abolic</w>": 4965,
      "Ġcervic": 4966,
      "omatous</w>": 4967,
      "Concern</w>": 4968,
      "Consolidation</w>": 4969,
      "Ġirregularity</w>": 4970,
      "allogeneic</w>": 4971,
      "Ġrotated</w>": 4972,
      "Prolonged</w>": 4973,
      "Prostate</w>": 4974,
      "Progressive</w>": 4975,
      "Hyperlipidemia</w>": 4976,
      "ĠGranulomatous</w>": 4977,
      "eripheral</w>": 4978,
      "slurred</w>": 4979,
      "Ongoing</w>": 4980,
      "dysphasia</w>": 4981,
      "polyarticular</w>": 4982,
      "Ġladder</w>": 4983,
      "Ġhabitus</w>": 4984,
      "NF</w>": 4985,
      "ab</w>": 4986,
      "aches</w>": 4987,
      "breat": 4988,
      "cu": 4989,
      "ost": 4990,
      "ues</w>": 4991,
      "usc": 4992,
      "vai": 4993,
      "varian</w>": 4994,
      "Ġ58</w>": 4995,
      "initis</w>": 4996,
      "Ġavai": 4997,
      "Ġtaking</w>": 4998,
      "Ġiss": 4999
    },
    "merges": [
      "i n",
      "Ġ o",
      "o m",
      "p r",
      "Ġ a",
      "t i",
      "Ġ t",
      "s i",
      "in d</w>",
      "om p",
      "pr omp",
      "promp t</w>",
      "r e</w>",
      "Ġ p",
      "r a",
      "h e",
      "Ġo f</w>",
      "Ġ c",
      "n s</w>",
      "m a",
      "d i",
      "Ġ <</w>",
      "Ġ si",
      "u l",
      "Ġo r</w>",
      "o n</w>",
      "> <</w>",
      "e s</w>",
      "Ġsi g",
      "Ġsig ns</w>",
      "l e",
      "o n",
      "Ġt h",
      "Ġ s",
      "Ġ i",
      "e n",
      "o r",
      "a r",
      "Ġ n",
      "he re</w>",
      "a s",
      "N o</w>",
      "Ġa n",
      "e r",
      "ti on</w>",
      "ra l</w>",
      "Ġ f",
      "Ġ No</w>",
      "Ġth e</w>",
      "Ġ w",
      "Ġt here</w>",
      "a r</w>",
      "u ral</w>",
      "i c",
      "Ġp le",
      "Ġple ural</w>",
      "e d</w>",
      "e s",
      ". <</w>",
      "Ġ l",
      "Ġ e",
      "o l",
      "a l</w>",
      "Ġ A",
      "Ġan y</w>",
      "ĠA re</w>",
      "in g</w>",
      "i t",
      "a tion</w>",
      "Ġ in",
      "Ġ b",
      "Ġ di",
      "ma l",
      "si s</w>",
      "u n",
      "a i",
      "a l",
      "y e",
      "Ġw it",
      "Ġs u",
      "Ġ m",
      "Ġ r",
      "o sis</w>",
      "si on</w>",
      "ai n</w>",
      "s t</w>",
      "c ul",
      "v e</w>",
      "Ġa re</w>",
      "Ġn o</w>",
      "m on",
      "ye ar</w>",
      "Ġa b",
      "s t",
      "ol d</w>",
      "a t",
      "Ġn o",
      "Ġp ain</w>",
      "Ġi s</w>",
      "Ġwit h</w>",
      "un g</w>",
      "Ġc on",
      "Ġ v",
      "Ġ T",
      "he st</w>",
      "c i",
      "Ġi n</w>",
      "n e",
      "ar y</w>",
      "en t</w>",
      "l a",
      "c ation</w>",
      "ul mon",
      "Ġl ung</w>",
      "c e</w>",
      "Ġ he",
      "a ti",
      "ar di",
      "o ns</w>",
      "ti ve</w>",
      "d e",
      "u m",
      "ulmon ary</w>",
      "mal e</w>",
      "Ġ h",
      "as t",
      "g e</w>",
      "Ġp ulmonary</w>",
      "f f",
      "f i",
      "ti c</w>",
      "Ġdi s",
      "as ed</w>",
      "i d",
      "ti es</w>",
      "ma ge</w>",
      "Ġ ma",
      "Ġi mage</w>",
      "or ma",
      "c t",
      "ff u",
      "Ġin di",
      "y o",
      "Ġe ffu",
      "Ġ pr",
      "Ġindi cation</w>",
      "h o",
      "Ġc al",
      "Ġ yo",
      "Ġyo u</w>",
      "Ġeffu sion</w>",
      "b ased</w>",
      "g es",
      "Ġp ne",
      "r e",
      "Ġc hest</w>",
      "e di",
      "en ce</w>",
      "u r",
      "2 5</w>",
      "ast in",
      "edi astin",
      "a n</w>",
      "Ġcal ci",
      "s p",
      "a p",
      "Ġt ra",
      "c h</w>",
      "ati ons</w>",
      "Ġma s",
      "f ic",
      "or mal",
      "Ġan d</w>",
      "Ġa s</w>",
      "Ġab n",
      "Ġabn ormal",
      "t er",
      "es s</w>",
      "Ġno d",
      "Ġsu ch</w>",
      "i ties</w>",
      "Ġabnormal ities</w>",
      "Ġ C",
      "u t</w>",
      "u b",
      "Ġ I",
      "o r</w>",
      "o t",
      "g ges",
      "orma l</w>",
      "r on",
      "Ġe v",
      "t ra",
      "Ġf i",
      "Ġcalci fic",
      "Ġpne um",
      "p p",
      "i s</w>",
      "Ġcalcific ations</w>",
      "Ġn ormal</w>",
      "Ġsu gges",
      "Ġab s",
      "Ġth is</w>",
      "Ġf e",
      "h a",
      "Ġnod ul",
      "Ġ a</w>",
      "l e</w>",
      "ĠT here</w>",
      "as e</w>",
      "er cul",
      "ub ercul",
      "ubercul osis</w>",
      "m a</w>",
      "Ġfe male</w>",
      "l o",
      "g s</w>",
      "h e</w>",
      "e ase</w>",
      "ar t</w>",
      "Ġp er",
      "Ġdis ease</w>",
      "Ġa or",
      "h i",
      "Ġc ardi",
      "om a</w>",
      "t e",
      "u re</w>",
      "cul ar</w>",
      "o p",
      "c he",
      "Ġ d",
      "o b",
      "ĠC an</w>",
      "Ġaor tic</w>",
      "e l",
      "ic ardi",
      "Ġper icardi",
      "s es</w>",
      "Ġmas ses</w>",
      "m p",
      "m ent</w>",
      "ĠT he</w>",
      "Ġ de",
      "a c</w>",
      "Ġo ut</w>",
      "st r",
      "h ra",
      "ap hra",
      "aphra g",
      "Ġnodul es</w>",
      "ul ar</w>",
      "b r",
      "b le</w>",
      "Ġhe art</w>",
      "Ġ male</w>",
      "Ġm ediastin",
      "Ġr ul",
      "Ġfi br",
      "Ġv as",
      "Ġtra che",
      "i g",
      "Ġcardi ac</w>",
      "v ic",
      "Ġfibr osis</w>",
      "i c</w>",
      "ĠI s</w>",
      "e c",
      "ma tic</w>",
      "a s</w>",
      "aphrag matic</w>",
      "ur es</w>",
      "Ġf or</w>",
      "Ġcon fi",
      "o u",
      "n ess</w>",
      "Ġconfi r",
      "ti s</w>",
      "p a",
      "Ġl o",
      "ct ures</w>",
      "u m</w>",
      "ho ra",
      "t ing</w>",
      "or y</w>",
      "Ġs h",
      "Ġo b",
      "Ġ D",
      "ot hora",
      "Ġs e",
      "ron c",
      "Ġa i",
      "i a</w>",
      "Ġb re",
      "Ġpneum othora",
      "pr es",
      "p er",
      "Ġpneumothora x</w>",
      "Ġh i",
      "o c",
      "Ġdi aphragmatic</w>",
      "pres sion</w>",
      "Ġr e",
      "in gs</w>",
      "ne a</w>",
      "a ble</w>",
      "e ment</w>",
      "y sp",
      "Ġabs ence</w>",
      "ysp nea</w>",
      "ronc hi",
      "in d",
      "e t",
      "st ory</w>",
      "Ġbre at",
      "s e</w>",
      "ind ings</w>",
      "Ġt uberculosis</w>",
      "f t</w>",
      "or t",
      "fi l",
      "tra t",
      "fil trat",
      "Ġin filtrat",
      "Ġs t",
      "Ġa pp",
      "Ġ g",
      "Ġev id",
      "Ġl i",
      "ha t</w>",
      "Ġconfir m</w>",
      "Ġevid ence</w>",
      "z e</w>",
      "lo c</w>",
      "Ġbreat h</w>",
      "m s</w>",
      "Ġno t",
      "u e</w>",
      "la vic",
      "Ġinfiltrat es</w>",
      "y c",
      "Ġ le",
      "ort ness</w>",
      "Ġ j",
      "o in",
      "lavic ular</w>",
      "ob le",
      "Ġmediastin al</w>",
      "t s</w>",
      "e ra",
      "Ġj oin",
      "on e",
      "om b",
      "Ġpr es",
      "oble ms</w>",
      "ĠD o</w>",
      "Ġa r",
      "Ġh one",
      "yc omb",
      "Ġhone ycomb",
      "Ġhoneycomb ing</w>",
      "a n",
      "e r</w>",
      "u c",
      "ati ent</w>",
      "Ġt um",
      "Ġh y",
      "c hest</w>",
      "Ġsi ze</w>",
      "e n</w>",
      "Ġt o</w>",
      "Ġrul ing</w>",
      "Ġpericardi al</w>",
      "ig h",
      "Ġpr oblems</w>",
      "or s</w>",
      "Ġtum ors</w>",
      "Ġc ol",
      "Ġvas cular</w>",
      "a sis</w>",
      "era tive</w>",
      "Ġsugges ting</w>",
      "om ediastin",
      "Ġs c",
      "igh t</w>",
      "Ġo pa",
      "orma tion</w>",
      "Ġt b</w>",
      "ct asis</w>",
      "uc tive</w>",
      "Ġhy per",
      "ter i",
      "de ma</w>",
      "Ġcon s",
      "Ġ en",
      "Ġsugges tive</w>",
      "Ġe dema</w>",
      "Ġa p",
      "ol id",
      "et ast",
      "Ġcons olid",
      "Ġf ra",
      "q u",
      "Ġm etast",
      "ec tion</w>",
      "cul at",
      "Ġhe ma",
      "Ġob str",
      "Ġp o",
      "i l",
      "Ġc an",
      "g n",
      "om as</w>",
      "ti ons</w>",
      "r n",
      "Ġhe rn",
      "Ġi f</w>",
      "Ġtrache al</w>",
      "Ġ ind</w>",
      "Ġe mp",
      "Ġhi story</w>",
      "Ġp la",
      "ou s</w>",
      "y mp",
      "Ġw hat</w>",
      "a gn",
      "as es</w>",
      "Ġmas s</w>",
      "Ġfra ctures</w>",
      "s s",
      "ar g",
      "ti cular</w>",
      "l arg",
      "Ġopa ci",
      "Ġb ronchi",
      "ic es</w>",
      "fi ed</w>",
      "Ġopaci ties</w>",
      "Ġen larg",
      "ai l",
      "ail ure</w>",
      "en ti",
      "Ġf ailure</w>",
      "Ġobstr uctive</w>",
      "Ġhema t",
      "le ar</w>",
      "Ġap ices</w>",
      "Ġmetast ases</w>",
      "Ġin f",
      "Ġdi agn",
      "in e</w>",
      "Ġc lear</w>",
      "Ġabs c",
      "op erative</w>",
      "Ġth y",
      "i b</w>",
      "er te",
      "Ġabsc ess</w>",
      "Ġdiagn osis</w>",
      "a c",
      "ye ma</w>",
      "Ġemp yema</w>",
      "Ġpericardi tis</w>",
      "Ġpneum omediastin",
      "Ġpneumomediastin um</w>",
      "Ġai r</w>",
      "Ġv erte",
      "Ġverte b",
      "F indings</w>",
      "m pression</w>",
      "Ġb e</w>",
      "Ġverteb ral</w>",
      "ĠI mpression</w>",
      "Ġenlarg ement</w>",
      "s ection</w>",
      "Ġdis section</w>",
      "Ġjoin t</w>",
      "oc lavicular</w>",
      "Ġf ormation</w>",
      "Ġthy m",
      "qu es</w>",
      "Ġpla ques</w>",
      "ic tive</w>",
      "la p",
      "Ġcon str",
      "Ġconstr ictive</w>",
      "lap se</w>",
      "Ġr ight</w>",
      "Ġre ticular</w>",
      "Ġst r",
      "pp ing</w>",
      "Ġtra pping</w>",
      "r i",
      "Ġa c",
      "u mon",
      "umon ia</w>",
      "Ġr ib</w>",
      "ra n",
      "Ġd yspnea</w>",
      "en t",
      "ra y</w>",
      "en ing</w>",
      "r o",
      "Ġapp e",
      "l u",
      "ĠT uberculosis</w>",
      "in ed</w>",
      "t he",
      "Ġpne umonia</w>",
      "al u",
      "Ġstr u",
      "t h",
      "Ġs o",
      "ho ut</w>",
      "Ġlo cation</w>",
      "Ġpres ent</w>",
      "6 5</w>",
      "Ġ ti",
      "Ġwit hout</w>",
      "Ġstru ctures</w>",
      "un gs</w>",
      "Ġai r",
      "y s",
      "Ġno ti",
      "Ġnot ed</w>",
      "n o",
      "a ce</w>",
      "Ġe x",
      "ic k",
      "Ġth ick",
      "t en",
      "Ġthick ening</w>",
      "sp ace</w>",
      "Ġrul e</w>",
      "Ġair space</w>",
      "ron ic</w>",
      "Ġd ue</w>",
      "de r</w>",
      "h ortness</w>",
      "ten sion</w>",
      "si ons</w>",
      "p la",
      "Ġs ho",
      "Ġsh ortness</w>",
      "Ġnoti ce</w>",
      "ran ul",
      "Ġl ymp",
      "t e</w>",
      "Ġp atient</w>",
      "Ġg ranul",
      "Ġcol lapse</w>",
      "Ġ L",
      "Ġc om",
      "Ġti ss",
      "ic able</w>",
      "i v",
      "l icable</w>",
      "Ġapp licable</w>",
      "ar s</w>",
      "Ġm il",
      "Ġmediastin um</w>",
      "Ġso ft</w>",
      "Ġcom pression</w>",
      "Ġl ungs</w>",
      "v i",
      "c ement</w>",
      "te r</w>",
      "Ġo n</w>",
      "Ġpo si",
      "the r</w>",
      "Ġev alu",
      "ul der</w>",
      "C hest</w>",
      "Ġw here</w>",
      "Ġv al",
      "ges tion</w>",
      "y st",
      "le ctasis</w>",
      "d yspnea</w>",
      "si st",
      "te lectasis</w>",
      "e ur",
      "l ation</w>",
      "ra t",
      "Ġa telectasis</w>",
      "Ġcalci fied</w>",
      "Ġval ve</w>",
      "Ġsho ulder</w>",
      "Ġle ft</w>",
      "Ġf indings</w>",
      "Ġ ra",
      "P atient</w>",
      "Ġm id",
      "Ġb o",
      "Ġvas culat",
      "sist ent</w>",
      "Ġvasculat ure</w>",
      "Ġhyper tension</w>",
      "e operative</w>",
      "Ġo ther</w>",
      "Ġob s",
      "Ġcon gestion</w>",
      "ra tion</w>",
      "teri or</w>",
      "Ġconsolid ation</w>",
      "ou g",
      "Ġobs er",
      "Ġan eur",
      "ys m</w>",
      "Ġaneur ysm</w>",
      "ol i",
      "Ġ x</w>",
      "el l</w>",
      "en tra",
      "Ġtiss ue</w>",
      "entra tion</w>",
      "Ġra di",
      "or e",
      "Ġan terior</w>",
      "Ġev entration</w>",
      "re e</w>",
      "Ġc yst",
      "Ġcyst s</w>",
      "d er",
      "Ġhern ia</w>",
      "Ġappe ars</w>",
      "Ġf ore",
      "Ġw e",
      "ol um",
      "Ġm o",
      "Ġno t</w>",
      "Ġe le",
      "no t</w>",
      "ig n</w>",
      "Ġin ter",
      "di es</w>",
      "Ġgranul oma</w>",
      "it y</w>",
      "Ġfore ign</w>",
      "Ġbo dies</w>",
      "Ġtrache ob",
      "pla cement</w>",
      "Ġevalu ation</w>",
      "Ġli p",
      "a t</w>",
      "ri tis</w>",
      "Ġv olum",
      "d s</w>",
      "oug h</w>",
      "i rat",
      "Ġs p",
      "i as</w>",
      "le c",
      "Ġmid l",
      "Ġar th",
      "s ti",
      "ti al</w>",
      "ot h</w>",
      "p t",
      "Ġtracheob ronchi",
      "e ctasis</w>",
      "Ġlymp h</w>",
      "Ġnod es</w>",
      "Ġsu b",
      "Ġ P",
      "Ġc ough</w>",
      "sti tial</w>",
      "Ġinter stitial</w>",
      "Ġbronchi ectasis</w>",
      "iv en</w>",
      "Ġcan not</w>",
      "Ġf ree</w>",
      "ter n",
      "Ġg iven</w>",
      "Ġposi tion</w>",
      "Ġdis lo",
      "Ġdislo cation</w>",
      "Ġarth ritis</w>",
      "Ġb ul",
      "l ing</w>",
      "Ġle sions</w>",
      "Ġhemat oma</w>",
      "Ġs tern",
      "o g",
      "l y</w>",
      "Ġb y</w>",
      "Ġ Y",
      "Ġconsolid ations</w>",
      "Ġmidl ine</w>",
      "oli osis</w>",
      "Ġcon sistent</w>",
      "ent ral</w>",
      "Ġb ased</w>",
      "la e</w>",
      "Ġ W",
      "r om",
      "ĠY es</w>",
      "n g",
      "Ġa sp",
      "Ġbul lae</w>",
      "ap e</w>",
      "Ġsh ape</w>",
      "en ous</w>",
      "m it",
      "Ġw ell</w>",
      "Ġt ub",
      "or der",
      "S hortness</w>",
      "Ġl in",
      "el y</w>",
      "oc al</w>",
      "Ġsc oliosis</w>",
      "Ġdis placement</w>",
      "Ġsc ap",
      "Ġf ocal</w>",
      "at he",
      "Ġscap ular</w>",
      "Ġs w",
      "Ġinf ec",
      "Ġin tra",
      "Ġtracheobronchi al</w>",
      "c er</w>",
      "Ġc athe",
      "teri al</w>",
      "Ġsh un",
      "Ġcol lec",
      "Ġinfec tions</w>",
      "Ġlin es</w>",
      "ha g",
      "Ġc entral</w>",
      "Ġshun ts</w>",
      "order s</w>",
      "Ġc lavicular</w>",
      "g ment</w>",
      "Ġw id",
      "om an</w>",
      "Ġw oman</w>",
      "r g",
      "Ġcan cer</w>",
      "at al</w>",
      "Ġse gment</w>",
      "Ġhemat omas</w>",
      "Ġma terial</w>",
      "Ġhi atal</w>",
      "ulmon ic</w>",
      "irat ed</w>",
      "Ġasp irated</w>",
      "Ġstern oclavicular</w>",
      "Ġsub p",
      "i ary</w>",
      "ra p",
      "en ed</w>",
      "Ġcathe ter</w>",
      "Ġlo culat",
      "Ġloculat ed</w>",
      "Ġcollec tions</w>",
      "a re</w>",
      "Ġmil iary</w>",
      "u pt",
      "Ġsubp ulmonic</w>",
      "Ġ K",
      "Ġ B</w>",
      "Ġr upt",
      "Ġrupt ure</w>",
      "Ġlip omas</w>",
      "Ġli k",
      "Ġc an</w>",
      "le y</w>",
      "er ley</w>",
      "ĠK erley</w>",
      "Ġlik ely</w>",
      "f ined</w>",
      "op hag",
      "Ġb orders</w>",
      "al ci",
      "Ġwid ened</w>",
      "e al</w>",
      "Ġthym ic</w>",
      "de fined</w>",
      "Ġ H",
      "al ing</w>",
      "Ġvolum e</w>",
      "in f",
      "hi n</w>",
      "ĠW hat</w>",
      "Ġhern ias</w>",
      "si ble</w>",
      "Ġwit hin</w>",
      "Ġde vi",
      "Ġdevi ation</w>",
      "og rap",
      "Ġintra m",
      "Ġintram ural</w>",
      "Ġjoin ts</w>",
      "ic al</w>",
      "ff er",
      "on e</w>",
      "Ġfi el",
      "Ġfiel ds</w>",
      "enti al</w>",
      "es ophag",
      "Ġthym oma</w>",
      "ffer ential</w>",
      "Ġcal lu",
      "Ġcallu s</w>",
      "Ġhyper inf",
      "i oclavicular</w>",
      "rom ioclavicular</w>",
      "Ġse en</w>",
      "Ġhe aling</w>",
      "Ġsu rg",
      "Ġradi ograp",
      "i story</w>",
      "Ġli mit",
      "Ġac romioclavicular</w>",
      "pa ration</w>",
      "Ġse paration</w>",
      "Ġv enous</w>",
      "Ġde vic",
      "el ling</w>",
      "Ġ N",
      "Ġ (</w>",
      "esophag eal</w>",
      "Ġsw elling</w>",
      "Ġele ct",
      "Ġpres en",
      "Ġtub es</w>",
      "Ġhyperinf lation</w>",
      "la n",
      "fic ation</w>",
      "Ġradiograp h</w>",
      "Ġdevic es</w>",
      "Ġmo st</w>",
      "Ġlimit s</w>",
      "Ġelect ronic</w>",
      "c alci",
      "calci fication</w>",
      "ar c",
      "Ġth at</w>",
      "P D</w>",
      "er y</w>",
      "g en",
      "ĠL ung</w>",
      "Ġsurg ery</w>",
      "ha ng",
      "Ġbronchi al</w>",
      "v ed</w>",
      "ter m",
      "m o",
      "Ġde term",
      "o d",
      "Ġin c",
      "Ġv i",
      "Ġtrache a</w>",
      "m ed</w>",
      "Ġnodul e</w>",
      "5 0</w>",
      "Ġ u",
      "al i",
      "Ġobser ved</w>",
      "Ġconfir med</w>",
      "Ġcon t",
      "d om",
      "d ed</w>",
      "Ġw h",
      "o ra",
      "en c",
      "p o",
      "hang es</w>",
      "Ġpr eoperative</w>",
      "Ġc hanges</w>",
      "3 0</w>",
      "H istory</w>",
      "per i",
      "s u",
      "Ġ S",
      "Ġdi fferential</w>",
      "Ġth ora",
      "d e</w>",
      "Ġ B",
      "ac k</w>",
      "Ġ un",
      "ter y</w>",
      "Ġar tery</w>",
      "at e</w>",
      "u s</w>",
      "Ġnot e</w>",
      "re operative</w>",
      "i n</w>",
      "Ġdeterm ined</w>",
      "ho u",
      "l hou",
      "Ġsi lhou",
      "Ġsilhou et",
      "Ġa l",
      "on ed</w>",
      "ron g</w>",
      "Ġw rong</w>",
      "Ġb oth</w>",
      "at ed</w>",
      "Ġnot able</w>",
      "Ġ 50</w>",
      "y n",
      "Ġ esophageal</w>",
      "Ġm enti",
      "Ġmenti oned</w>",
      "ci c</w>",
      "l in",
      "Ġsp ine</w>",
      "sp lan",
      "Ġsilhouet te</w>",
      "Ġ 65</w>",
      "lin ical</w>",
      "Ġi t</w>",
      "h ronic</w>",
      "splan t</w>",
      "Ġ M",
      "P reoperative</w>",
      "Ġtra n",
      "Ġwe e",
      "Ġ k",
      "Ġex peri",
      "Ġexperi enc",
      "ymp t",
      "mo k",
      "s e",
      "Ġexperienc ing</w>",
      "c op",
      "a k",
      "in g",
      "in al</w>",
      "om ali",
      "Ġan omali",
      "Ġanomali es</w>",
      "y sis</w>",
      "Ġs en",
      "e art</w>",
      "u te</w>",
      "Ġthora cic</w>",
      "Ġtran splant</w>",
      "pr eoperative</w>",
      "Ġt es",
      "at s</w>",
      "k s</w>",
      "i d</w>",
      "yn cop",
      "di aphragmatic</w>",
      "Ġvi sible</w>",
      "s s</w>",
      "Ġinc lu",
      "ac t</w>",
      "l ung</w>",
      "Ġb ack</w>",
      "Ġwee ks</w>",
      "Ġsen se</w>",
      "w er</w>",
      "or on",
      "oron ary</w>",
      "Ġpresen ting</w>",
      "ak ness</w>",
      "Ġ E",
      "Ġin t",
      "he e",
      "Ġ -</w>",
      "omediastin al</w>",
      "h ing</w>",
      "h y",
      "ĠA b",
      "h y</w>",
      "dom inal</w>",
      "h ma</w>",
      "gen erative</w>",
      "Ġac ute</w>",
      "Ġlo wer</w>",
      "Ġf ind</w>",
      "e ct",
      "ĠH eart</w>",
      "st hma</w>",
      "Ġ x",
      "Ġse e</w>",
      "t y</w>",
      "om it",
      "omit ing</w>",
      "yncop e</w>",
      "Ġc hronic</w>",
      "Ġc oronary</w>",
      "Ġsig n</w>",
      "Ġint act</w>",
      "c ol",
      "r k",
      "Ġx ray</w>",
      "col lapse</w>",
      "Ġobser ve</w>",
      "ro m</w>",
      "Ġ 25</w>",
      "Ġf rom</w>",
      "Ġsugges t",
      "ĠB oth</w>",
      "a y",
      "al l</w>",
      "on y</w>",
      "ympt om",
      "ay s</w>",
      "le d</w>",
      "s ence</w>",
      "Ġs mok",
      "Ġvas cul",
      "u p</w>",
      "s hortness</w>",
      "Ġre p",
      "ĠAb sence</w>",
      "Ġhe m",
      "pp er</w>",
      "ymptom s</w>",
      "om y</w>",
      "si ded</w>",
      "Ġde generative</w>",
      "si tive</w>",
      "Ġwh ats</w>",
      "Ġpr e",
      "gges ting</w>",
      "su ggesting</w>",
      "e ft</w>",
      "Ġst at",
      "as t</w>",
      "Ġcardi omediastinal</w>",
      "Ġde t",
      "Ġdet ai",
      "Ġo n",
      "Ġd ays</w>",
      "Ġdetai led</w>",
      "Ġb one</w>",
      "i ve</w>",
      "ing lung</w>",
      "Ġsuggest inglung</w>",
      "s sible</w>",
      "p l",
      "Ġb ony</w>",
      "l i",
      "ĠC ardi",
      "Ġp a",
      "Ġa d",
      "Ġl ob",
      "Ġu pper</w>",
      "O PD</w>",
      "Ġinf ormation</w>",
      "Ġtes t</w>",
      "ur i",
      "o ur",
      "Ġd o",
      "v er</w>",
      "d enti",
      "Ġi denti",
      "a b",
      "Ġidenti fied</w>",
      "ĠE x",
      "H y",
      "Ġv omiting</w>",
      "Ġal one</w>",
      "ĠC hest</w>",
      "Ġpr o",
      "Ġpresen ts</w>",
      "Ġde f",
      "e ral</w>",
      "il at",
      "v er",
      "w n</w>",
      "pl ain</w>",
      "ĠEx plain</w>",
      "po x",
      "our s</w>",
      "Ġc omp",
      "ss e",
      "Ġlo ss</w>",
      "Ġa sthma</w>",
      "Ġs ymptoms</w>",
      "lo w</w>",
      "s c",
      "re ased</w>",
      "sse ous</w>",
      "z ing</w>",
      "ou r</w>",
      "ic le</w>",
      "arc in",
      "op at",
      "Ġinclu de</w>",
      "ĠD i",
      "ĠN ot",
      "1 0</w>",
      "aphrag m</w>",
      "hee zing</w>",
      "Ġar m</w>",
      "e h",
      "Ġ 3</w>",
      "eh icle</w>",
      "i b",
      "Ġcont our</w>",
      "pox ia</w>",
      "ma rk",
      "Ġst able</w>",
      "en tion</w>",
      "re mark",
      "Ġi m",
      "remark able</w>",
      "Ġc linical</w>",
      "ul a</w>",
      "c ity</w>",
      "a u",
      "la in",
      "no wn</w>",
      "Ġlob e</w>",
      "Ġw all</w>",
      "Ġsmok ing</w>",
      "F e",
      "r ro",
      "Ġcont ours</w>",
      "Ġun remarkable</w>",
      "Ġma rro",
      "Ġmarro w</w>",
      "Ġopa city</w>",
      "Ġm on",
      "at ing</w>",
      "C OPD</w>",
      "l ar</w>",
      "ĠNot able</w>",
      "e g",
      "Ġmil d</w>",
      "Ġc arcin",
      "r ic",
      "Ġa t",
      "Ġdo es</w>",
      "Ġappe ar</w>",
      "Ġpo ssible</w>",
      "Ġb ilat",
      "d ing</w>",
      "Ġc o",
      "e ci",
      "Ġm ention</w>",
      "Fe male</w>",
      "od uctive</w>",
      "ci d",
      "v alu",
      "ati ve</w>",
      "Ġstat us</w>",
      "m in",
      "i or</w>",
      "Ġpre vi",
      "ne e</w>",
      "f ter</w>",
      "Ġa fter</w>",
      "Ġar ch</w>",
      "Ġon e</w>",
      "Ġv ent",
      "a d",
      "ri al</w>",
      "opat hy</w>",
      "Ġm ot",
      "se a</w>",
      "au sea</w>",
      "ff ic",
      "Ġeffu sions</w>",
      "Ġwe akness</w>",
      "in ess</w>",
      "it al</w>",
      "ric ular</w>",
      "z iness</w>",
      "z ziness</w>",
      "Ġele v",
      "st e",
      "Ġv ehicle</w>",
      "ol low</w>",
      "ĠP r",
      "gen ital</w>",
      "x y",
      "Ġvent ricular</w>",
      "P PD</w>",
      "Ġcon genital</w>",
      "t a</w>",
      "4 5</w>",
      "Ġl ar",
      "Ġaor ta</w>",
      "Ġcomp lain",
      "Ġo ste",
      "Ġh as</w>",
      "Ġpa ra",
      "ĠCardi ac</w>",
      "Ġin j",
      "Ġc er",
      "ffic ul",
      "g en</w>",
      "Ġm yo",
      "xy gen</w>",
      "Ġk nee</w>",
      "fficul ty</w>",
      "Ġprevi ous</w>",
      "cid ent</w>",
      "t ysis</w>",
      "op tysis</w>",
      "Ġabnormal ity</w>",
      "g ue</w>",
      "id osis</w>",
      "c ardi",
      "Ġw or",
      "valu ate</w>",
      "L eft</w>",
      "Ġi ts</w>",
      "Ġo xygen</w>",
      "ur y</w>",
      "Ġac cident</w>",
      "Ġat rial</w>",
      "e in</w>",
      "ra che",
      "Ġ 1</w>",
      "ĠT rache",
      "ĠPr oblems</w>",
      "l es</w>",
      "l ysis</w>",
      "Ġpara lysis</w>",
      "si ze</w>",
      "Ġinj ury</w>",
      "ati gue</w>",
      "ent al</w>",
      "Ġpo st</w>",
      "Ġlar ge</w>",
      "a si",
      "Ġdi aphragm</w>",
      "T he</w>",
      "Ġw heezing</w>",
      "ar ity</w>",
      "Ġlo w</w>",
      "Ġ mal",
      "ai r</w>",
      "ati c</w>",
      "Ġpr ot",
      "Ġbreat hing</w>",
      "om eg",
      "al y</w>",
      "omeg aly</w>",
      "Ġbre ast</w>",
      "ĠTrache a</w>",
      "z ed</w>",
      "ĠDi fferential</w>",
      "o id</w>",
      "Ġp uri",
      "er iv",
      "Ġd eriv",
      "Ġprot ein</w>",
      "Ġpuri fied</w>",
      "Ġderiv ative</w>",
      "Ġab dominal</w>",
      "ro at</w>",
      "Ġ 2</w>",
      "uc tion</w>",
      "po sitive</w>",
      "Ġim mage</w>",
      "P o",
      "Ġvascul arity</w>",
      "um b",
      "es c",
      "id ne",
      "idne y</w>",
      "Ġ R",
      "Ġ G",
      "Ġinf ection</w>",
      "u t",
      "Ġpo st",
      "Ġmyo cardi",
      "or t</w>",
      "Ġ 10</w>",
      "ec ent</w>",
      "ul e</w>",
      "Ġposi tive</w>",
      "Ġst en",
      "r ic</w>",
      "v id",
      "es p",
      "ĠH istory</w>",
      "en ic</w>",
      "v e",
      "Ġsp eci",
      "o t</w>",
      "as al</w>",
      "Ġcarcin oma</w>",
      "Ġo sseous</w>",
      "Ġ ,</w>",
      "ar r",
      "Ġex a",
      "e akness</w>",
      "Ġwe ight</w>",
      "Ġrep air</w>",
      "Ġa g",
      "7 0</w>",
      "a y</w>",
      "Ġelev ated</w>",
      "2 0</w>",
      "Ġinc reased</w>",
      "Ġn asal</w>",
      "t h</w>",
      "Ġre g",
      "esc ri",
      "o idosis</w>",
      "arc oidosis</w>",
      "ter ed</w>",
      "pla n",
      "om at",
      "Ġex plan",
      "Ġexplan ation</w>",
      "pa n",
      "Ġg ive</w>",
      "Ġmot or</w>",
      "a ge</w>",
      "Ġcardi omegaly</w>",
      "? <</w>",
      "E valuate</w>",
      "c al</w>",
      "escri b",
      "Ġrep ort</w>",
      "ĠG ive</w>",
      "Ġfi st",
      "vic al</w>",
      "Ġpro vid",
      "si ty</w>",
      "Ġdi lation</w>",
      "th s</w>",
      "Ġmon ths</w>",
      "Ġfe ver</w>",
      "o w</w>",
      "o un",
      "Ġpr oductive</w>",
      "S yncope</w>",
      "T here</w>",
      "umb ness</w>",
      "Ġn umbness</w>",
      "per tension</w>",
      "Ġar r",
      "Ġf ollow</w>",
      "Ġm ental</w>",
      "Ġcer vical</w>",
      "hi story</w>",
      "ĠL ungs</w>",
      "min ation</w>",
      "ĠN ormal</w>",
      "Ġ [</w>",
      "Ġb ronc",
      "ac he</w>",
      "y p",
      "ect omy</w>",
      "Ċ Ċ</w>",
      "Ġs yncope</w>",
      "Ġradi ating</w>",
      "Ġsten osis</w>",
      "' s</w>",
      "Ġpla cement</w>",
      "ali zed</w>",
      "k nown</w>",
      "Ġ ye",
      "Ġye ars</w>",
      "i tis</w>",
      "Ġ I</w>",
      "ur g",
      "m b",
      "su alized</w>",
      "Ġexa mination</w>",
      "ti cul",
      "Ġm e</w>",
      "ĠD escrib",
      "ĠDescrib e</w>",
      "Ġtiss u",
      "d y</w>",
      "Ġw as</w>",
      "ĠN ot</w>",
      "i s",
      "se t</w>",
      "Ġwh o</w>",
      "Ġinfiltrat e</w>",
      "Ġ 70</w>",
      "str ib",
      "Ġdi ver",
      "Ġvolum es</w>",
      "Ġdiver ticul",
      "strib u",
      "h oma</w>",
      "ac c",
      "oun d</w>",
      "Ġoste op",
      "u sion</w>",
      "D i",
      "Ġa t</w>",
      "Ġe p",
      "el s</w>",
      "i ma",
      "Ġfist ula</w>",
      "ad ache</w>",
      "ĠP PD</w>",
      "on al</w>",
      "Hy poxia</w>",
      "Ġag o</w>",
      "a v",
      "pan ded</w>",
      "Ġb e",
      "p ain</w>",
      "h r",
      "h ys",
      "hr enic</w>",
      "hys e",
      "i di",
      "s ure</w>",
      "Ġa ss",
      "Ġobstr uction</w>",
      "Hy pertension</w>",
      "l ly</w>",
      "il d</w>",
      "Ġhem idi",
      "c ed</w>",
      "k up</w>",
      "Ġwor kup</w>",
      "2 2</w>",
      "on d",
      "ra c",
      "Ġr esp",
      "Ġvi sualized</w>",
      "Ġ year</w>",
      "o s",
      "Ġhema ng",
      "th m",
      "hy thm",
      "Ġarr hythm",
      "Ġhemang i",
      "Ġa ge</w>",
      "Ġdi fficulty</w>",
      "Ġbronc ho",
      "Ġarrhythm ias</w>",
      "m ma",
      "Ġle v",
      "D yspnea</w>",
      "l d</w>",
      "ĠL eft</w>",
      "e p",
      "la mma",
      "al e</w>",
      "Ġinf lamma",
      "t ed</w>",
      "Ġdi zziness</w>",
      "Ġevalu ate</w>",
      "A ge</w>",
      "ar i",
      "0 2</w>",
      "Ġ 45</w>",
      "Ġo ld</w>",
      "he m",
      "ardi a</w>",
      "ort u",
      "ur r",
      "k in</w>",
      "Ġ O",
      "Ġb ase</w>",
      "l s</w>",
      "hi l",
      "Ġbronchi tis</w>",
      "Ġm u",
      "Ġrul ed</w>",
      "Ġr ecent</w>",
      "Ġdiverticul a</w>",
      "stribu tion</w>",
      "o d</w>",
      "Ġ Female</w>",
      "Ġbilat eral</w>",
      "Ġth roat</w>",
      "Ġemp hyse",
      "an t</w>",
      "A b",
      "Ġpr ior</w>",
      "ob acc",
      "obacc o</w>",
      "Ġlev els</w>",
      "R ib</w>",
      "U n",
      "ect s</w>",
      "ĠP ulmonary</w>",
      "era lly</w>",
      "Ġcon di",
      "is od",
      "Ġep isod",
      "hil ls</w>",
      "x oma</w>",
      "y xoma</w>",
      "Ġm yxoma</w>",
      "A l",
      "en al</w>",
      "Ġgranul omat",
      "Ġbilat erally</w>",
      "ul ti",
      "Ġmyocardi al</w>",
      "Ġc ell</w>",
      "ct ure</w>",
      "Ġdef ects</w>",
      "mal l</w>",
      "pr o",
      "Ġu se</w>",
      "fi c</w>",
      "it ral</w>",
      "ig n",
      "b ack</w>",
      "Ġs pa",
      "Ġs arcoidosis</w>",
      "y oma</w>",
      "Ġm itral</w>",
      "irat ory</w>",
      "arr ing</w>",
      "Ġt obacco</w>",
      "Ġhem optysis</w>",
      "asi lar</w>",
      "en opathy</w>",
      "Ġe mb",
      "Ġemb oli",
      ") .<</w>",
      "Ġo ver</w>",
      "s m</w>",
      "ffu se</w>",
      "Ġemboli sm</w>",
      "il l",
      "Ġresp iratory</w>",
      "Ġfra cture</w>",
      "arc oma</w>",
      "Ġmu sc",
      "Ġinflamma tion</w>",
      "Ġ qu",
      "l ated</w>",
      "] -</w>",
      "ro sc",
      "Ġ Patient</w>",
      "er ior</w>",
      "Ġe l",
      "Ġle sion</w>",
      "Ġcondi tions</w>",
      "Ġhi p</w>",
      "T uberculosis</w>",
      "Ġre placement</w>",
      "Ġsc arring</w>",
      "Ġinf arc",
      "m ity</w>",
      "Ġ 5</w>",
      "t ures</w>",
      "k idney</w>",
      "hy si",
      "t r",
      "Ġc ho",
      "Ġc av",
      "Ġm edi",
      "Ġel b",
      "s ing</w>",
      "F atigue</w>",
      "Ġ 20</w>",
      "Ġdi ffuse</w>",
      "ig ns</w>",
      "ĠS igns</w>",
      "hysi cal</w>",
      "Ġdeterm ine</w>",
      "si de</w>",
      "Ġp at",
      "Ġk nown</w>",
      "Ġo ver",
      "or r",
      "Ġb ari",
      "at ric</w>",
      "Ġbari atric</w>",
      "si a</w>",
      "Ġenlarg ed</w>",
      "Ġemphyse ma</w>",
      "ti onal</w>",
      "it ation</w>",
      "Ġf ound</w>",
      "Ġre mo",
      "f usion</w>",
      "ct omy</w>",
      "ĠS i",
      "o v",
      "st ate</w>",
      "a ul",
      "ic tures</w>",
      "Ġstr ictures</w>",
      "Ġlymp hang",
      "Ġelb ow</w>",
      "Ġlymphang i",
      "Ġ X</w>",
      "Ġse pt",
      "Ġsept al</w>",
      "o m</w>",
      "Ġn ec",
      "al ly</w>",
      "Ġindi c",
      "Ġd en",
      "Ġhy poxia</w>",
      "Ġc hee",
      "Ġchee k</w>",
      "5 5</w>",
      "c es</w>",
      "Ġa n</w>",
      "it e</w>",
      "N ausea</w>",
      "Ġn ausea</w>",
      "Ġpa i</w>",
      "dom en</w>",
      "Ġmal f",
      "Ġn d</w>",
      "Ġstat es</w>",
      ") ,</w>",
      "Ġs in",
      "Ġs mall</w>",
      "at eral</w>",
      "p le</w>",
      "ar ct",
      "es ticular</w>",
      "e x",
      "Ġt ortu",
      "Ġpres ence</w>",
      "Ġ 30</w>",
      "Ġper i",
      "o sseous</w>",
      "Ġp hysical</w>",
      "Ġno se</w>",
      "Ġass aul",
      "c linical</w>",
      "w s</w>",
      "Ġinfarc tion</w>",
      "Ġbe en</w>",
      "es osseous</w>",
      "Ġab domen</w>",
      "ac h",
      "Ġsmok er</w>",
      "ol ap",
      "Ġpr olap",
      "Ġtub e</w>",
      "ĠSi ze</w>",
      "Ġprolap se</w>",
      "I n",
      "Ġspeci fic</w>",
      "rosc le",
      "w eakness</w>",
      "ima l</w>",
      "ne umonia</w>",
      "e ar</w>",
      "Ġgranulomat ous</w>",
      "g ing</w>",
      "i de",
      "Ġl ateral</w>",
      "st at",
      "ran t</w>",
      "S ympt",
      "Sympt om</w>",
      "Ġr enal</w>",
      "Ġar teri",
      "ma t",
      "0 0</w>",
      "r osis</w>",
      "Ġmetast atic</w>",
      ", <</w>",
      "the roscle",
      "d es</w>",
      "t able</w>",
      "Ġma rk",
      "ha d",
      "Ġprovid ed</w>",
      "Ġfibr o",
      "hem optysis</w>",
      "Ġco st",
      "di tional</w>",
      "Ġhi lar</w>",
      "i r",
      "aphrag ms</w>",
      "ulti ple</w>",
      "le e",
      "Po sitive</w>",
      "c reased</w>",
      "ach yc",
      "m ia</w>",
      "u ration</w>",
      "n ula</w>",
      "Ġf all</w>",
      "Ġl ab",
      "Ġin side</w>",
      "Ġcan nula</w>",
      "Ġu sing</w>",
      "Ġreg urg",
      "Ġmusc les</w>",
      "Ġregurg itation</w>",
      "e x</w>",
      "Ġap ex</w>",
      "o rat",
      "Ġsu peri",
      "Ġhemangi omas</w>",
      "Ġlab orat",
      "Ġlaborat ory</w>",
      "Ġ Un",
      "Ġhe adache</w>",
      "Ġc ha",
      "Ġcho lec",
      "er tion</w>",
      "Ab dominal</w>",
      "lo od</w>",
      "Ġlymp homa</w>",
      "en a</w>",
      "Ġv ena</w>",
      "Ġcav a</w>",
      "w o</w>",
      "Ġn on",
      "un ds</w>",
      "k les</w>",
      "Ġc rac",
      "Ġf atigue</w>",
      "Ġex ertion</w>",
      "Ġcrac kles</w>",
      "Ġc hills</w>",
      "ide ctomy</w>",
      "Ġt od",
      "Ġtod ay</w>",
      "a ci",
      "Ġinclu des</w>",
      "Ġh a",
      "Ġper sistent</w>",
      "s ening</w>",
      "i om",
      "Ġle iom",
      "in imal</w>",
      "Ġsho ws</w>",
      "ĠM ild</w>",
      "Ġtrache o",
      "Ġhem orr",
      "g h",
      "t ness</w>",
      "Ġsi de</w>",
      "Ġti gh",
      "Ġtissu es</w>",
      "Ġtigh tness</w>",
      "3 5</w>",
      "Ġtum or</w>",
      "n set</w>",
      "re at",
      "Ġcholec yst",
      "Ġassaul t</w>",
      "i ration</w>",
      "ĠC an",
      "el ast",
      "Ġfibro elast",
      "Ġb lood</w>",
      "Ġma y</w>",
      "Ġst u",
      "ab dominal</w>",
      "Al tered</w>",
      "c re",
      "e ats</w>",
      "Ġmon th</w>",
      "e lan",
      "elan oma</w>",
      "al p",
      "Ġcomplain ts</w>",
      "Ġpost erior</w>",
      "ut um</w>",
      "Ġlymphangi oma</w>",
      "ou s",
      "Ġmal ign",
      "p s</w>",
      "ĠP o",
      "Ġvascul opathy</w>",
      "Ġvascul itis</w>",
      "h is</w>",
      "had enopathy</w>",
      "he sions</w>",
      "Ġad hesions</w>",
      "Ġsuperi or</w>",
      "d ul",
      "Ġmalf ormation</w>",
      "t re",
      "ro ss",
      "Ġmo tion</w>",
      "ov enous</w>",
      "Ġarteri ovenous</w>",
      "Ġmalign an",
      "a ran",
      "h al",
      "pr oductive</w>",
      "Ġa re",
      "Ġgranul omas</w>",
      "ross ly</w>",
      "aran ce</w>",
      "Ġco arct",
      "Ġbroncho esophageal</w>",
      "achyc ardia</w>",
      "Ġtracheo esophageal</w>",
      "Ġcoarct ation</w>",
      "p he",
      "che dul",
      "chedul ed</w>",
      "O nset</w>",
      "Ġtracheobronchi tis</w>",
      "Ġmetast asis</w>",
      "Ġappe arance</w>",
      "Ġ Shortness</w>",
      "ot al</w>",
      "uri tic</w>",
      "Ġth ree</w>",
      "ĠC linical</w>",
      "Ġthy ro",
      "z ation</w>",
      "un known</w>",
      "era li",
      "Ġtes ticular</w>",
      "Ġad ditional</w>",
      "s mok",
      "si ve</w>",
      "Ġpres sure</w>",
      "C hronic</w>",
      "sp ic",
      "Ġa theroscle",
      "Ġg rossly</w>",
      "Di zziness</w>",
      "Ġnoti ced</w>",
      "ĠL o",
      "Ġc m</w>",
      "op hrenic</w>",
      "Ġspa ce</w>",
      "Ġs yn",
      "Ġsyn d",
      "i se</w>",
      "Ġt wo</w>",
      "ar t",
      "Ġun der",
      "u mat",
      "Ġlip oma</w>",
      "Ġn e",
      "Ġhemidi aphragms</w>",
      "Ġsin ce</w>",
      "d ly</w>",
      "he umat",
      "Ġr heumat",
      "Ġrheumat oid</w>",
      "o de",
      "Ġ F",
      "Ġbo dy</w>",
      "rom e</w>",
      "Ġsynd rome</w>",
      "Ġstu dy</w>",
      "ĠS table</w>",
      "v al</w>",
      "Ġk idney</w>",
      "ĠR ight</w>",
      "ho idectomy</w>",
      "Ġhemorr hoidectomy</w>",
      "or osis</w>",
      "Ġex tre",
      "Ġperi phe",
      "ĠCan not</w>",
      "c hy</w>",
      "or tic</w>",
      "Ġm id</w>",
      "ot he",
      "Ġosteop orosis</w>",
      "stat us</w>",
      "ĠA ortic</w>",
      "Ġmark ings</w>",
      "Ġdef in",
      "Ġan g",
      "Ġf lu",
      "Ġso unds</w>",
      "Ġsugges t</w>",
      "Ġsp utum</w>",
      "ĠM ediastin",
      "ĠM ale</w>",
      "ĠUn able</w>",
      "A sthma</w>",
      "Ġcost ophrenic</w>",
      "ib s</w>",
      "ys tic</w>",
      "ad rant</w>",
      "Ġqu adrant</w>",
      "Ġremo val</w>",
      "Ġr ibs</w>",
      "Ġhyper ex",
      "le ly</w>",
      "Ġde x",
      "Ġso lely</w>",
      "t es</w>",
      "as s</w>",
      "ic h</w>",
      "Ġwh ich</w>",
      "om in",
      "ill ary</w>",
      "Ġb r",
      "spic i",
      "Ġ N</w>",
      "Ġsu spici",
      "ect ed</w>",
      "Ġad en",
      "Ġprovid e</w>",
      "tr oc",
      "h ond",
      "Ġcha n",
      "la d",
      "a m",
      "Ġs cheduled</w>",
      "Ġpr omin",
      "Ġde creased</w>",
      "Ġdef or",
      "Ġchan ge</w>",
      "f o",
      "k er</w>",
      "it ations</w>",
      "Ġm inimal</w>",
      "l ity</w>",
      "Ġi mp",
      "Ġple ur",
      "re ast</w>",
      "Ġsc an</w>",
      "l at",
      "u k",
      "Ġ er",
      "Ġdefin ite</w>",
      "T esticular</w>",
      "ĠC alci",
      "alp itations</w>",
      "y st</w>",
      "Ġc yst</w>",
      "Ġthora x</w>",
      "L ymp",
      "y tic</w>",
      "lo w",
      "6 0</w>",
      "Ġp ap",
      "ul d</w>",
      "as cular</w>",
      "Ġfibroelast oma</w>",
      "Ġpap illary</w>",
      "Ġm ye",
      "Ġmil dly</w>",
      "ĠP ain</w>",
      "B reast</w>",
      "n ing</w>",
      "Ġ ĊĊ</w>",
      "Ġmye l",
      "a ct",
      "k e</w>",
      "Ġan es",
      "the sia</w>",
      "Ġanes thesia</w>",
      "or re",
      "ĠC OPD</w>",
      "Ġcalcific ation</w>",
      "Ġen d",
      "Ġt otal</w>",
      "id ging</w>",
      "Ġde min",
      "ro w",
      "ro tic</w>",
      "erali zation</w>",
      "Ġdemin eralization</w>",
      "Ġbr idging</w>",
      "w ise</w>",
      "ĠM o",
      ") .</w>",
      "Ġn er",
      "Ġb asilar</w>",
      "Ġr edi",
      "Ġre pres",
      "Ġindic ated</w>",
      "Ġner ve</w>",
      "Ġredi stribution</w>",
      "r wise</w>",
      "the rwise</w>",
      "Ġlymp hadenopathy</w>",
      "ĠMo st</w>",
      "R ule</w>",
      "om al",
      "Ġdi stribution</w>",
      "Ġtissu esosseous</w>",
      "Ġhemidi aphragm</w>",
      "aci a</w>",
      "Ġthyro id</w>",
      "omal acia</w>",
      "e le",
      "Ġn ight</w>",
      "Ġsw eats</w>",
      "Ġmyocardi tis</w>",
      "Ġtortu ous</w>",
      "Ġt ear</w>",
      "Ġp hrenic</w>",
      "le ural</w>",
      "ur ther</w>",
      "Ġun known</w>",
      "m m",
      "Ġw ing",
      "Ġab o",
      ". .<</w>",
      "t ling</w>",
      "Ġon set</w>",
      "Ġmot tling</w>",
      "Ġleiom yoma</w>",
      "Ġwing ing</w>",
      "Ġth r",
      "Ġs kin</w>",
      "Ġpneumothora ces</w>",
      "Ġsurg ical</w>",
      "Ġepisod e</w>",
      "ĠCalci fied</w>",
      "ci es</w>",
      "enti lation</w>",
      "li ps</w>",
      "a ns</w>",
      "n al</w>",
      "as m</w>",
      "Po ssible</w>",
      "Ġmo re</w>",
      "Ġim m",
      "Ġcomplain s</w>",
      "Ġnec k</w>",
      "R ight</w>",
      "Ġsc ans</w>",
      "Ġpre gn",
      "y ing</w>",
      "ast s</w>",
      "Ġang le</w>",
      "Ġer o",
      "H eart</w>",
      "c hing</w>",
      "e mia</w>",
      "k in",
      "ra te</w>",
      "Ġl ytic</w>",
      "Ġb l",
      "Ġsh ar",
      "Ġnot ching</w>",
      "Ġex panded</w>",
      "li sion</w>",
      "Ġero sion</w>",
      "Ġc lips</w>",
      "Ġ .</w>",
      "es othe",
      "Ġm esothe",
      "Ġstr ess</w>",
      "li oma</w>",
      "Ġepisod es</w>",
      "Ġmalignan cies</w>",
      "ĠMediastin al</w>",
      "Ġshar p</w>",
      "Ġmesothe lioma</w>",
      "I V</w>",
      "l ying</w>",
      "Ġdi ab",
      "Ġden sity</w>",
      "Ġmyel oma</w>",
      "ol ar</w>",
      "n ormal</w>",
      "s y</w>",
      "ĠD yspnea</w>",
      "W eakness</w>",
      "o sity</w>",
      "Ġo ut",
      "Ġre f",
      "ĠLo cation</w>",
      "2 8</w>",
      "ĠPo sitive</w>",
      "n i",
      "Ġb yp",
      "re g",
      "yp ical</w>",
      "urg ical</w>",
      "Ġextre mity</w>",
      "Ġbyp ass</w>",
      "t al</w>",
      "hi c</w>",
      "Ġunder g",
      "Ġt reat",
      "st er",
      "at or</w>",
      "Ġtreat ment</w>",
      "r reg",
      "s ures</w>",
      "Ġpres sures</w>",
      "Ġare as</w>",
      "Ġperiphe ral</w>",
      "fic ally</w>",
      "Ġc ystic</w>",
      "fi br",
      "p at",
      "Ġ A</w>",
      "he a</w>",
      "er b",
      "Ġb lee",
      "Ġdi arr",
      "ac erb",
      "enc y</w>",
      "Ġblee ding</w>",
      "Ġdiarr hea</w>",
      "ti te</w>",
      "or g",
      "Ġb ut</w>",
      "Ġappe tite</w>",
      "ond y",
      "Ġabo ut</w>",
      "l osis</w>",
      "Ġsp ondy",
      "smok er</w>",
      "b dom",
      "Ġr ha",
      "Ġwee k</w>",
      "bdom yoma</w>",
      "Ġrha bdomyoma</w>",
      "Ġs hi",
      "Ġspondy losis</w>",
      "sp ected</w>",
      "oc y",
      "ĠP reoperative</w>",
      "lad der</w>",
      "Ġpregn ant</w>",
      "s o</w>",
      "Ġ V",
      "Ġ 60</w>",
      "Ġt achycardia</w>",
      "es s",
      "ĠH y",
      "a de",
      "r ight</w>",
      "ĠN od",
      "c in",
      "Ġv entilation</w>",
      "te ly</w>",
      "per fusion</w>",
      "Ġle uk",
      "Ġcol lision</w>",
      "cin osis</w>",
      "Ġal so</w>",
      "in ning</w>",
      "Ġf urther</w>",
      "ot omy</w>",
      "Lymp homa</w>",
      "Ġc row",
      "ve olar</w>",
      "p neumonia</w>",
      "ilat eral</w>",
      "Ġcarcin oid</w>",
      "Ġn eur",
      "Ġap pro",
      "u spected</w>",
      "Ġdex troc",
      "orre lation</w>",
      "T his</w>",
      "r ule</w>",
      "Ġre qu",
      "th roat</w>",
      "Ġpro state</w>",
      "Ġelev ation</w>",
      "mon st",
      "ec t</w>",
      "hora cic</w>",
      "Ġcrow ding</w>",
      "Ġti p</w>",
      "ĠCardi omediastinal</w>",
      "c c",
      "t ent</w>",
      "v ascular</w>",
      "f ection</w>",
      "Ġ 6</w>",
      "Ġa m",
      "Di fficulty</w>",
      "di opat",
      "Ġi diopat",
      "Ġex acerb",
      "mit tent</w>",
      "Ġidiopat hic</w>",
      "ĠC on",
      "Ġwor sening</w>",
      "Ġdefor mity</w>",
      "t ation</w>",
      "Ġ 4",
      "Ġexacerb ation</w>",
      "c y</w>",
      "er sistent</w>",
      "oug hing</w>",
      "Ġbroncho vascular</w>",
      "M elanoma</w>",
      "str ess</w>",
      "ent ly</w>",
      "asi a</w>",
      "Ġmedi cal</w>",
      "i z",
      "o ing</w>",
      "Ġre ac",
      "Ġcal cinosis</w>",
      "lo ss</w>",
      "ĠI t</w>",
      "e ma",
      "g kin</w>",
      "Ġso re</w>",
      "lan k</w>",
      "od gkin</w>",
      "Ġ4 0</w>",
      ", .<</w>",
      "ar ing</w>",
      "In fection</w>",
      "re vi",
      "op l",
      "Ġg ast",
      "Ġosteop hy",
      "S i",
      "o kin",
      "yncop al</w>",
      "Ġover lying</w>",
      "Ġcholecyst okin",
      "Ġshi el",
      "Ġcholecystokin in</w>",
      "m ild</w>",
      "Ġ 7</w>",
      "ve l</w>",
      "ep hal",
      "Ġbl un",
      "V C</w>",
      "c orrelation</w>",
      "t osis</w>",
      "Ġmidl ung</w>",
      "ous ly</w>",
      "ocy tosis</w>",
      "Si x</w>",
      "ĠI f</w>",
      "igh the",
      "Ġsuspici ous</w>",
      "ĠNod ule</w>",
      "d ness</w>",
      "Ġal veolar</w>",
      "ade dness</w>",
      "Ġdextroc ardia</w>",
      "ighthe adedness</w>",
      "p art",
      "Ġa s",
      "as ing</w>",
      "Ġhyperex panded</w>",
      "Ġgast ro",
      "w ar",
      "et es</w>",
      "he d</w>",
      "Ġs l",
      "ar ding</w>",
      "Ġreg arding</w>",
      "Ġo therwise</w>",
      "at tered</w>",
      "Ġg ra",
      "Ġhy d",
      "ib asilar</w>",
      "Ġimm un",
      "ema ker</w>",
      "r ib</w>",
      "Ġ +</w>",
      "Ġn on</w>",
      "Ġen c",
      "war d</w>",
      "s ation</w>",
      "Ġstern otomy</w>",
      "pro state</w>",
      "Ġgastro esophageal</w>",
      "Ġatheroscle rotic</w>",
      "Ġimp lan",
      "on g</w>",
      "Ġf ol",
      "ast ric</w>",
      "Ġcomplain ing</w>",
      "Ġpat chy</w>",
      "Ġfol low",
      "Ġex po",
      "Ġha ve</w>",
      "Ġexpo sure</w>",
      "t ain</w>",
      "omp lain",
      "Ġl ine</w>",
      "oble m</w>",
      "Ġspeci fied</w>",
      "ĠS c",
      "i et",
      "Ġsig ni",
      "oc hond",
      "Ġsigni fic",
      "Ġr ing</w>",
      "Ġo cc",
      "d le</w>",
      "x ima",
      "Ġp alpitations</w>",
      "Ġi rreg",
      "en ts</w>",
      "Ġdi st",
      "Ġhy p",
      "lu x</w>",
      "Ġmid dle</w>",
      "Ġmo de",
      "Ġref lux</w>",
      "Ġunderg oing</w>",
      "Ġappro xima",
      "Ġgra ft</w>",
      "t ly</w>",
      "Ġb rac",
      "Ġbrac hi",
      "P ersistent</w>",
      "Ġnodul ar</w>",
      "ec h",
      "ec urr",
      "ĠH odgkin</w>",
      "Ġrequ ir",
      "L o",
      "Ġt ypical</w>",
      "Ġv ar",
      "Ġcardi op",
      "ig astric</w>",
      "an cre",
      "Lo ss</w>",
      "Ġcardiop ulmonary</w>",
      "Ġde monst",
      "iz ure</w>",
      "S ymptoms</w>",
      "y mm",
      "ct ur",
      "Ġcer tain</w>",
      "ymm et",
      "Ġleuk ocytosis</w>",
      "pla ced</w>",
      "Ġvar ices</w>",
      "E dema</w>",
      "W heezing</w>",
      "Ġple uritic</w>",
      "Ġpro j",
      "eg ative</w>",
      "omat osis</w>",
      "Ġpat ent</w>",
      "Ġnec rosis</w>",
      "Ġapproxima tely</w>",
      "e sity</w>",
      "f lank</w>",
      "r oma</w>",
      "u se</w>",
      "Ġab use</w>",
      "ur ing</w>",
      "Ġob esity</w>",
      "Ġha d</w>",
      "Ġt ech",
      "Ġs qu",
      "Ġb ibasilar</w>",
      "agn i</w>",
      "Ġsp asm</w>",
      "ĠM org",
      "Ġdef ect</w>",
      "am ous</w>",
      "Ġsqu amous</w>",
      "ĠMorg agni</w>",
      "ar enc",
      "Ġl ast</w>",
      "Ġhe a",
      "Ġpr oblem</w>",
      "Ġper fo",
      "arenc hy",
      "Ġperfo ration</w>",
      "> -</w>",
      "h omalacia</w>",
      "y lo",
      "ti lity</w>",
      "Ġp lu",
      "Ġc asts</w>",
      "Ġth inning</w>",
      "Ġm uc",
      "ati d</w>",
      "ges tive</w>",
      "ĠD e",
      "ronc homalacia</w>",
      "Ġtracheob ronchomalacia</w>",
      "Ġlip os",
      "Ġinc re",
      "Ġpost part",
      "Ġhemangi oma</w>",
      "Ġspa ces</w>",
      "ode sis</w>",
      "Ġaden oid</w>",
      "Ġpleur odesis</w>",
      "Ġam ylo",
      "Ġhyd atid</w>",
      "Ġplu gs</w>",
      "Ġmuc us</w>",
      "Ġlipos arcoma</w>",
      "Ġpostpart um</w>",
      "Ġamylo idosis</w>",
      "C on",
      "u s",
      "Ġf o",
      "Ġpr od",
      "Ġsho w</w>",
      "ĠS p",
      "Ġprod uction</w>",
      "M ale</w>",
      "o ar",
      "p atient</w>",
      "Ġf lat",
      "C linical</w>",
      "c on",
      "t horacic</w>",
      "che s</w>",
      "Ġblun ting</w>",
      "ĠH IV</w>",
      "gen e",
      "hi lar</w>",
      "k ele",
      "Ġc lavic",
      "ma l</w>",
      "kele tal</w>",
      "he adache</w>",
      "Ġb ases</w>",
      "Ġcon fusion</w>",
      "Ġinclu ding</w>",
      "Ġs keletal</w>",
      "Ġb i",
      "Ġpromin ent</w>",
      "Ġn ormal",
      "0 1</w>",
      "m ental</w>",
      "Ġr el",
      "at es</w>",
      "ho ulder</w>",
      "ster nal</w>",
      "Ġrel ated</w>",
      "c er",
      "o uld</w>",
      "Ġtortu osity</w>",
      "Ġrepres ent</w>",
      ". ..<</w>",
      "V ehicle</w>",
      "Ġfe w</w>",
      "Ġo v",
      "ti v",
      "ra in</w>",
      "Ġw ould</w>",
      "Ġb rain</w>",
      "in s</w>",
      "Ġcholecyst ectomy</w>",
      "Ġr es",
      "ĠDe generative</w>",
      "Ġclavic le</w>",
      "d ay</w>",
      "or sening</w>",
      "Ġthora c",
      "ak y</w>",
      "g mental</w>",
      "le ft</w>",
      "Ġen d</w>",
      "Ġma ke</w>",
      "era t",
      "g ia</w>",
      "Ġs arcoma</w>",
      "Ġs yncopal</w>",
      "ou t",
      "se gmental</w>",
      "ill ator</w>",
      "fibr illator</w>",
      "el l",
      "os ed</w>",
      "Ġmode rate</w>",
      "g y</w>",
      "st age</w>",
      "at uration</w>",
      "Ġstru ctur",
      "Ġhyperinf lated</w>",
      "ĠE valuate</w>",
      "out ine</w>",
      "Ġstructur esosseous</w>",
      "1 4</w>",
      "V omiting</w>",
      "i ency</w>",
      "ct al</w>",
      "Ġlimit ed</w>",
      "A n",
      "Ġth an</w>",
      "Ġcon gestive</w>",
      "Ġnot hing</w>",
      "Ġun der</w>",
      "Ġdiab etes</w>",
      "i al</w>",
      "Ġ Ċ</w>",
      "le t</w>",
      "Ġh ours</w>",
      "op hy</w>",
      "v ing</w>",
      "Ġ y",
      "ot or</w>",
      "Ġsub segmental</w>",
      "S uspected</w>",
      "h osis</w>",
      "ac emaker</w>",
      "ĠB ony</w>",
      "om e</w>",
      "ci ous",
      "ati ble</w>",
      "Ġcons cious",
      "Ġcomp atible</w>",
      "Ġnon productive</w>",
      "Ġconscious ness</w>",
      "t a",
      "Ġac tive</w>",
      "Ġad enopathy</w>",
      "s w",
      "Ġe ating</w>",
      "og enic</w>",
      "] .<</w>",
      "Ġp acemaker</w>",
      "Ġac tiv",
      "Ġne e",
      "Ġactiv ity</w>",
      "M otor</w>",
      "c tion</w>",
      "Ġex c",
      "iv er</w>",
      "ĠP leural</w>",
      "Ġsen sation</w>",
      "Ġfo od</w>",
      "k le</w>",
      "v ol",
      "Ġp ast</w>",
      "Ġsc attered</w>",
      "Ġen dom",
      "Ġasp iration</w>",
      "Ġendom et",
      "Ġst ent</w>",
      "Ġshiel ded</w>",
      "s arcoidosis</w>",
      "Ġan kle</w>",
      "Ġdi stress</w>",
      "ig h</w>",
      "Ġsignific ant</w>",
      "arenchy mal</w>",
      "g ed</w>",
      "h d",
      "Ġi ma",
      "at ri",
      "Ġre ma",
      "c ute</w>",
      "Ġp ancre",
      "er m</w>",
      "Ġin vol",
      "Ġst ar",
      "Ġsilhouet tes</w>",
      "pat hy</w>",
      "g u",
      "Ġcont act</w>",
      "eci fically</w>",
      "Ġosteophy tes</w>",
      "ĠSp ecifically</w>",
      "s urgical</w>",
      "Ġt e",
      "Ġin gu",
      "Ġair w",
      "ing ling</w>",
      "Ġlob ectomy</w>",
      "Ġingu inal</w>",
      "l ine</w>",
      "ar et",
      "sp iration</w>",
      "oc ardi",
      "Ġinf lated</w>",
      "valu ation</w>",
      "Ġthr omb",
      "aret te</w>",
      "Ġt he",
      "es ter",
      "uri sy</w>",
      "ecurr ent</w>",
      "Ġnormal ly</w>",
      "Ġy ester",
      "Ġyester day</w>",
      "c om",
      "k ing</w>",
      "s ed</w>",
      "ati tis</w>",
      "ĠC hronic</w>",
      "Ġfibr il",
      "Ġfibril lation</w>",
      "e p</w>",
      "Ġde ep</w>",
      "Ġflu id</w>",
      "Ġneur o",
      "b one</w>",
      "Ġs lee",
      "Ġm elanoma</w>",
      "st ectomy</w>",
      "Ġma stectomy</w>",
      "Ġap nea</w>",
      "ĠR ecent</w>",
      "Ġatheroscle rosis</w>",
      "Ġslee p</w>",
      "t esticular</w>",
      "Ġm ultiple</w>",
      "rat ed</w>",
      "b ladder</w>",
      "it one",
      "Ġst re",
      "Ġtes ts</w>",
      "Ġsuggest ed</w>",
      "ell ular</w>",
      "Ġpr e</w>",
      "ne c",
      "n ical</w>",
      "p igastric</w>",
      "un t</w>",
      "al gia</w>",
      "ort ed</w>",
      "Ġle g</w>",
      "oin f",
      "Ġal tered</w>",
      "Ġirreg ul",
      "Ġnee ds</w>",
      "H ep",
      "P neumonia</w>",
      "t ening</w>",
      "Ġ ur",
      "mal ign",
      "al lo",
      "Ġap ical</w>",
      "Ġhyp oinf",
      "Ġstre aky</w>",
      "malign ant</w>",
      "b ly</w>",
      "s f",
      "Ġ esophag",
      "Ġs aturation</w>",
      "un ction</w>",
      "ĠT his</w>",
      "Ġdis placed</w>",
      "Ġrequir es</w>",
      "ĠC oronary</w>",
      "urr ed</w>",
      "Ġcomp le",
      "Ġreg i",
      "Ġflat tening</w>",
      "m ities</w>",
      "Ġ -",
      "ti b",
      "re c",
      "ĠI n",
      "etast atic</w>",
      "Ġradi ates</w>",
      "ĠS yncope</w>",
      "B ronchi",
      "s si",
      "Ġa ches</w>",
      "si ties</w>",
      "Ġappe aring</w>",
      "Ġwe d",
      "Ġden sities</w>",
      "Ġm e",
      "b ar</w>",
      "v ated</w>",
      "Ġe ct",
      "al ity</w>",
      "ast y</w>",
      "Ġdevic e</w>",
      "Ġu p</w>",
      "Ġf al",
      "es t</w>",
      "Ġl ightheadedness</w>",
      "ĠB ilateral</w>",
      "Ġtech nical</w>",
      "Ġt ubercul",
      "an ce</w>",
      "E x",
      "E pigastric</w>",
      "m ultiple</w>",
      "w heezing</w>",
      "a le",
      "h i</w>",
      "o ti",
      "re qu",
      "sp eci",
      "ĠC omplain",
      "olum bar</w>",
      "os cop",
      "Ġpromin ence</w>",
      "Ġthorac olumbar</w>",
      "requ ent</w>",
      "Ġno w</w>",
      "Ġpr oc",
      "Ġg erm</w>",
      "Ġqu ality</w>",
      "Ġ s</w>",
      "Ġa us",
      "cul tation</w>",
      "oc arcin",
      "Ġpo ssi",
      "Ġinter mittent</w>",
      "ĠNot hing</w>",
      "esp on",
      "Ġaden ocarcin",
      "Ġaus cultation</w>",
      "Ġadenocarcin oma</w>",
      "o wn</w>",
      "ten sive</w>",
      "Ġout let</w>",
      "H e",
      "f requent</w>",
      "p leural</w>",
      "igh tly</w>",
      "Ġco uld</w>",
      "asi onal</w>",
      "Ġperi hilar</w>",
      "Ġpossi bly</w>",
      "I C",
      "Ġfi l",
      "Ġac hal",
      "Ġachal asia</w>",
      ". .</w>",
      "Ġin spiration</w>",
      "al ysis</w>",
      "Ġde pression</w>",
      "Ġvi e",
      "urr ently</w>",
      "Ġreac tion</w>",
      "s arcoma</w>",
      "w n",
      "di tion</w>",
      "Ġf aci",
      "Ġple urisy</w>",
      "yo sarcoma</w>",
      "ur v",
      "Ġd ys",
      "ĠP revi",
      "ĠN one</w>",
      "Ġdo wn",
      "cardi ac</w>",
      "Ġleiom yosarcoma</w>",
      "Ġfaci lity</w>",
      "S t",
      "an d</w>",
      "ĠS urgical</w>",
      "cer n</w>",
      "Ġo r",
      "ig arette</w>",
      "ind clinical</w>",
      "ac ute</w>",
      "Ab normal</w>",
      "Ġfollow ing</w>",
      "itone al</w>",
      "o re</w>",
      "Ġh and</w>",
      "Ġper sist",
      "ig rant</w>",
      "Ġarr est</w>",
      "ephal opathy</w>",
      "Ġenc ephalopathy</w>",
      "Ġcomple ted</w>",
      "Ġtubercul in</w>",
      "in ation</w>",
      "Ġp ar",
      "le ged</w>",
      "Ġre ctal</w>",
      "Ġun able</w>",
      "Ġcomplain t</w>",
      "Ġag ain</w>",
      "Ġhea d</w>",
      "An terior</w>",
      "Ġregi on</w>",
      "R ecurrent</w>",
      "l l</w>",
      "le uritic</w>",
      "ol og",
      "tra n",
      "era ted</w>",
      "Ġposi ti",
      "S houlder</w>",
      "u al</w>",
      "en ia</w>",
      "al s</w>",
      "fic iency</w>",
      "Ġde hy",
      "ode ficiency</w>",
      "Ġimmun odeficiency</w>",
      "ĠPrevi ously</w>",
      "Ġdehy d",
      ") <</w>",
      "T achycardia</w>",
      "T hed</w>",
      "i t</w>",
      "n e</w>",
      "rap y</w>",
      "Ġpro stat",
      "Ġsten ts</w>",
      "Ġspeci fically</w>",
      "Ġremo ved</w>",
      "ta ined</w>",
      "Ġprostat ectomy</w>",
      "l uc",
      "t algia</w>",
      "Ġo talgia</w>",
      "le rg",
      "le vel</w>",
      "Ġs ymmet",
      "ronchi al</w>",
      "ulti level</w>",
      "Ġdist ention</w>",
      "lerg ic</w>",
      "Ġsi ded</w>",
      "Ġb ladder</w>",
      "um a</w>",
      "et o",
      "Ġle vel</w>",
      "Ġcom m",
      "ĠM ultiple</w>",
      "pan sion</w>",
      "Ġincre asing</w>",
      "Ġhypoinf lated</w>",
      "x iet",
      "Ġhe pat",
      "ati sf",
      "ter mittent</w>",
      "oc ellular</w>",
      "act ory</w>",
      "xiet y</w>",
      "Ġhepat ocellular</w>",
      "atisf actory</w>",
      "' t</w>",
      "a cid",
      "e tic</w>",
      "h aling</w>",
      "or b",
      "ar ities</w>",
      "ci sion</w>",
      "ur m",
      "Ġd r",
      "oc e",
      "Ġpres yncope</w>",
      "th ritis</w>",
      "Ġk yp",
      "Ġk eto",
      "ĠCardi o</w>",
      "Ġdiab etic</w>",
      "Ġreac tive</w>",
      "con dition</w>",
      "Ġirregul arities</w>",
      "acid osis</w>",
      "Ġketo acidosis</w>",
      "V A</w>",
      "b ilateral</w>",
      "di fficulty</w>",
      "ĠL ow</w>",
      "gen cy</w>",
      "Ġbe low</w>",
      "Ġare a</w>",
      "r espon",
      "Ġe t",
      "Ġe ar</w>",
      "Ġin haling</w>",
      "Ġr outine</w>",
      "mon th</w>",
      "Ġv acc",
      "Ġh al",
      "id al</w>",
      "tra lo",
      "Ġd ay</w>",
      "Ġmid back</w>",
      "ĠCardi omegaly</w>",
      "Ġoste oar",
      "ĠF allo",
      "tran splant</w>",
      "respon sive</w>",
      "tralo gy</w>",
      "Ġosteoar thritis</w>",
      "ĠFallo t</w>",
      "s ophag",
      "ec reased</w>",
      "Ġconfi g",
      "oc ephal",
      "agn osis</w>",
      "oug hout</w>",
      "od y</w>",
      "Ġprevi ously</w>",
      "Ġthr oughout</w>",
      "Ġsl ightly</w>",
      "Ġbrachi ocephal",
      "Ġpersist ing</w>",
      "Ġbrachiocephal ic</w>",
      "M VA</w>",
      "w it",
      "ra in",
      "st omy</w>",
      "Ġdis orders</w>",
      "Ġcost ochond",
      "cre asing</w>",
      "o p</w>",
      "s atisfactory</w>",
      "at ure</w>",
      "ĠC lear</w>",
      "ĠN egative</w>",
      "Ġwh ite</w>",
      "pox emia</w>",
      "Ġco unt</w>",
      "Ġindic ating</w>",
      "Ġwed ge</w>",
      "sophag eal</w>",
      "F ollow</w>",
      "R ecent</w>",
      "k nee</w>",
      "n ausea</w>",
      "s al</w>",
      "v omiting</w>",
      "Ġ .<</w>",
      "ob ronchial</w>",
      "Ġinter nal</w>",
      "Po st",
      "In termittent</w>",
      "smok ing</w>",
      "Ġhyperex pansion</w>",
      "Con gestion</w>",
      "sw eats</w>",
      "Ġfal ling</w>",
      "Ġproc ess</w>",
      "Ġconfig uration</w>",
      "v ement</w>",
      "order line</w>",
      "Ġun satisfactory</w>",
      "Ġdemonst rated</w>",
      "mb er</w>",
      "Ġosteop enia</w>",
      "Ġpositi oned</w>",
      "o su",
      "Ġc au",
      "le ed</w>",
      "st ance</w>",
      "pp le</w>",
      "Ġimmun osu",
      "Ġme as",
      "Ġimmunosu p",
      "Ġ 1",
      "Ġ 4</w>",
      "Ġc hem",
      "ĠA d",
      "Ġv ess",
      "Ġu p",
      "ect ing</w>",
      "Ġend pl",
      "opl asty</w>",
      "Ġexc lu",
      "urv ature</w>",
      "Ġvess els</w>",
      "M etastatic</w>",
      "P alpitations</w>",
      "orma tions</w>",
      "op arenchymal</w>",
      "oc hd",
      "Ġj unction</w>",
      "Ġhyper tr",
      "Ġval v",
      "Ġon ly</w>",
      "Ġoste ochond",
      "Ġbronc hi</w>",
      "Ġmusc le</w>",
      "ĠF ollow</w>",
      "Ġpleur oparenchymal</w>",
      "ĠHy pertension</w>",
      "ale k</w>",
      "ĠComplain t</w>",
      "ochd alek</w>",
      "Ġhypertr ophy</w>",
      "e ins</w>",
      "j or</w>",
      "Ġt erat",
      "Ġs mo",
      "Ġr ings</w>",
      "at ely</w>",
      "Ġv eins</w>",
      "ub le</w>",
      "Ġtrache omalacia</w>",
      "Ġhyper pla",
      "Ġdiagn osed</w>",
      "Ġlip omatosis</w>",
      "Ġal ong</w>",
      "Ġdo uble</w>",
      "Ġmalignan cy</w>",
      "Ġneur ogenic</w>",
      "Ġup ward</w>",
      "Ġterat oma</w>",
      "Ġhyperpla sia</w>",
      "or oscop",
      "Ġin d",
      "Ġd uring</w>",
      "Ġcol on</w>",
      "Ġmid thoracic</w>",
      "ric ally</w>",
      "mat ous</w>",
      "Ġflu oroscop",
      "hond roma</w>",
      "Ġenc hondroma</w>",
      "Ġsymmet rically</w>",
      "Ġfluoroscop y</w>",
      "d ure</w>",
      "i pple</w>",
      "Ġa de",
      "Ġs tra",
      "Ġhern i",
      "Ġlymphangi tic</w>",
      "Ġproj ecting</w>",
      "Ġte mp",
      "Ġkyp hosis</w>",
      "Ġade qu",
      "l iver</w>",
      "er s</w>",
      "Ġfe e",
      "Ġsc ar</w>",
      "ĠW orsening</w>",
      "Ġmedi al</w>",
      "Ġimp act",
      "Ġairw ay</w>",
      "Ġendpl ate</w>",
      "Ġvalv ular</w>",
      "Ġimpact ed</w>",
      "B one</w>",
      "D ecreased</w>",
      "T ran",
      "Z en",
      "b s</w>",
      "h at",
      "k i</w>",
      "m en</w>",
      "x us</w>",
      "z ki</w>",
      "Ġ Zen",
      "Ġa gene",
      "Ġp al",
      "ul as</w>",
      "Ġf ora",
      "Ġf usion</w>",
      "Ġple xus</w>",
      "es e</w>",
      "ol us</w>",
      "Ġb olus</w>",
      "Ġdi stribu",
      "Ġdi lat",
      "ĠT iet",
      "Ġfibr oma</w>",
      "per sistent</w>",
      "ri osis</w>",
      "Ġwe bs</w>",
      "Ġmo tility</w>",
      "Ġintra cardiac</w>",
      "mo tility</w>",
      "ĠB ochdalek</w>",
      "Ġcarcin omatosis</w>",
      "Ġmyo pathy</w>",
      "Ġfist ulas</w>",
      "Ġdiverticul um</w>",
      "Ġresp iration</w>",
      "Ġgranulomat osis</w>",
      "Ġmalf ormations</w>",
      "Ġcha mber</w>",
      "Ġfibroelast osis</w>",
      "Ġend ocardi",
      "Ġend obronchial</w>",
      "ĠSc hat",
      "Ġbrachi al</w>",
      "Ġov ale</w>",
      "Ġendomet riosis</w>",
      "Ġthromb us</w>",
      "Ġesophag itis</w>",
      "Ġfil ter</w>",
      "Ġdys motility</w>",
      "Ġdown ward</w>",
      "Ġcostochond ritis</w>",
      "Ġosteochond roma</w>",
      "Ġstra in</w>",
      "Ġherni ation</w>",
      "Ġadequ ately</w>",
      "ĠZen ker</w>",
      "Ġagene sis</w>",
      "Ġpal sy</w>",
      "Ġfora men</w>",
      "Ġdistribu tions</w>",
      "Ġdilat ation</w>",
      "ĠTiet ze</w>",
      "Ġendocardi tis</w>",
      "ĠSchat zki</w>",
      "d de",
      "h ly</w>",
      "l ined</w>",
      "w here</w>",
      "Ġsu dde",
      "Ġr ot",
      "Ġdis or",
      "ot hly</w>",
      "Ġinf arct",
      "Ġmo ving</w>",
      "Ġwid ening</w>",
      "ĠH ow</w>",
      "Ġout lined</w>",
      "Ġbi g</w>",
      "Ġvie w</w>",
      "Ġsmo othly</w>",
      "Ġsudde n</w>",
      "Ġinfarct s</w>",
      "q ue</w>",
      "Ġc ar",
      "Ġm ultilevel</w>",
      "de fibrillator</w>",
      "Ġdis c</w>",
      "an n",
      "umb ar</w>",
      "ĠO b",
      "Ġne opl",
      "Ġsuspici on</w>",
      "Ġocc asional</w>",
      "Ġ t</w>",
      "or ly</w>",
      "Ġw ound</w>",
      "ic atri",
      "ĠDi s",
      "Ġnon smoker</w>",
      "icatri x</w>",
      "h w",
      "u ma",
      "Ġ T</w>",
      "ar ent</w>",
      "Ġma jor</w>",
      "Ġsc hw",
      "Ġarth r",
      "Ġvi r",
      "Ġpost operative</w>",
      "fibr oma</w>",
      "ĠHy poxia</w>",
      "Ġneuro fibroma</w>",
      "ann oma</w>",
      "Ġschw annoma</w>",
      "e e",
      "Ġc urrently</w>",
      "en ding</w>",
      "str uctive</w>",
      "Ġpo unds</w>",
      "gene ic</w>",
      "Ġneopl asm</w>",
      "H IV</w>",
      "u r</w>",
      "Ġt ingling</w>",
      "Ġdi aphragms</w>",
      "Ġh uma",
      "Ġwe re</w>",
      "Ġsp inal</w>",
      "mok ing</w>",
      "Ġsin us</w>",
      "Ġarthr oplasty</w>",
      "Ġvir us</w>",
      "Ġhuma n</w>",
      "P r",
      "h s</w>",
      "p en",
      "t ter</w>",
      "Ġt en",
      "Ġc icatrix</w>",
      "Ġn egative</w>",
      "Ġh av",
      "pp ed</w>",
      "ss ure</w>",
      "Ġsp ee",
      "Ġflu tter</w>",
      "Ġfollow ed</w>",
      "ĠOb structive</w>",
      "ĠDis ease</w>",
      "Ġhav ing</w>",
      "Ġspee ch</w>",
      "ĠA theroscle",
      "Ġdis e",
      "tra c",
      "ha ge</w>",
      "Ġapp arent</w>",
      "Ġevid ent</w>",
      "Ġobs c",
      "ĠM inimal</w>",
      "s h",
      "Ġcon cern</w>",
      "Ġv entral</w>",
      "Ġhe aring</w>",
      "Ġsw al",
      "Ġradiograp hs</w>",
      "Ġmedi c",
      "Ġmedi cation</w>",
      "Ġect asia</w>",
      "2 6</w>",
      "C oughing</w>",
      "L ightheadedness</w>",
      "S ore</w>",
      "S moking</w>",
      "a in",
      "c t</w>",
      "h x</w>",
      "Ġ C</w>",
      "pr oce",
      "Ġc oughing</w>",
      "Ġf ace</w>",
      "Ġse izure</w>",
      "Ġsc le",
      "Ġcollec tion</w>",
      "Ġcont usion</w>",
      "Bronchi tis</w>",
      "proce dure</w>",
      "u pper</w>",
      "at us</w>",
      "Ġon ce</w>",
      "Ġad r",
      "ymmet ric</w>",
      "Ġdehyd ration</w>",
      "Ġ1 2</w>",
      "t ory</w>",
      "Ġl uc",
      "Ġl umbar</w>",
      "Ġfe ver",
      "Ġg lan",
      "ri tic</w>",
      "Ġstar ting</w>",
      "Ġfever s</w>",
      "Ġglan d</w>",
      "A cute</w>",
      "C omplain",
      "M VC</w>",
      "d o",
      "ti on",
      "ra di",
      "Ġin s",
      "Ġmid sternal</w>",
      "ĠS uspected</w>",
      "Ġass ess",
      "Ġas ymmetric</w>",
      "nec k</w>",
      "Ġmeas uring</w>",
      "f or",
      "x ation</w>",
      "Ġp ol",
      "ĠA t",
      "ĠA sthma</w>",
      "ne ous</w>",
      "Ġg reat",
      "erte r</w>",
      "Ġinflamma tory</w>",
      "ov erter</w>",
      "Ġdist al</w>",
      "Ġdise ases</w>",
      ": .<</w>",
      "A B",
      "A ss",
      "C hills</w>",
      "S arcoidosis</w>",
      "c ough</w>",
      "e ating</w>",
      "f ollow</w>",
      "g ra",
      "ra e</w>",
      "di stress</w>",
      "Ġn ear</w>",
      "Ġle a",
      "Ġverteb rae</w>",
      "Ġint o</w>",
      "ab normal</w>",
      "Ġpost surgical</w>",
      "Ġima g",
      "Hep atitis</w>",
      "AB G</w>",
      "y th",
      "Ġf ain",
      "Ġr ec",
      "der ness</w>",
      "ĠW ell</w>",
      "Ġlin g",
      "ĠDi agnosis</w>",
      "ĠV i",
      "Ġten derness</w>",
      "radi ating</w>",
      "Ġfain ting</w>",
      "ra m</w>",
      "he art</w>",
      "ul ting</w>",
      "ĠD uration</w>",
      "Ġpres ent",
      "an tly</w>",
      "Ġhyper tensive</w>",
      "og ram</w>",
      "ĠPo ssible</w>",
      "Ġur gency</w>",
      "Ġins er",
      "i ke</w>",
      "r op",
      "w e",
      "ĠT ortu",
      "ex panded</w>",
      "ele vated</w>",
      "Ex panded</w>",
      "oti d</w>",
      "ĠVi sualized</w>",
      "en ess</w>",
      "Ġabn ormal</w>",
      "Ġsub c",
      "ĠW eakness</w>",
      "ĠAb dominal</w>",
      "Ġthyro idectomy</w>",
      "Ġosteophy te</w>",
      "Ġincre ase</w>",
      "b leed</w>",
      "o b</w>",
      "s ob</w>",
      "in creasing</w>",
      "Ġn an</w>",
      "ĠA l",
      "Ġv er",
      "ub stance</w>",
      "Ġfi xation</w>",
      "ys ubstance</w>",
      "ĠS mall</w>",
      "Ġemphyse matous</w>",
      "Ġimmunosup pres",
      "Ġpol ysubstance</w>",
      "gra de</w>",
      "Ġs ome</w>",
      "Ġan tib",
      "ĠD own</w>",
      "Ġim pro",
      "Ġdefor mities</w>",
      "orb id</w>",
      "Ġantib i",
      "n o</w>",
      "er i",
      "ĠC T</w>",
      "ron tal</w>",
      "Ġob tained</w>",
      "ĠO therwise</w>",
      "s olid",
      "larg ed</w>",
      "su s</w>",
      "ĠR ule</w>",
      "Ġqu es",
      "Ġshiel ding</w>",
      "ĠAd ditional</w>",
      "Ġver sus</w>",
      "solid ation</w>",
      "c ated</w>",
      "Ġh um",
      "op er",
      "ve re</w>",
      "Ġdemonst rate</w>",
      "Ġgreat er</w>",
      "Ġlea ds</w>",
      "1 8</w>",
      "1 5</w>",
      "E sophageal</w>",
      "m orbid</w>",
      "pr e</w>",
      "Ġc h",
      "Ġc urvature</w>",
      "Ġsugges ts</w>",
      "Ġarth ritic</w>",
      "ĠAb normal</w>",
      "Hy poxemia</w>",
      "olog y</w>",
      "Tran splant</w>",
      "m en",
      "t rosc",
      "w elling</w>",
      "Ġv ein</w>",
      "Ġpr ob",
      "escrib ed</w>",
      "Ġhea led</w>",
      "Ġluc ency</w>",
      "Ġinser ted</w>",
      "S VC</w>",
      "o s</w>",
      "en erali",
      "Ġw he",
      "ardi ac</w>",
      "per itoneal</w>",
      "Ġre troc",
      "Ġintra peritoneal</w>",
      "ĠDi zziness</w>",
      "ĠO sseous</w>",
      "enerali zed</w>",
      "Ġretroc ardiac</w>",
      "l um</w>",
      "si zed</w>",
      "Ġin str",
      "ap ical</w>",
      "Ġd escribed</w>",
      "mp hyse",
      "Ġhi lum</w>",
      "Ġre v",
      "ĠLo ss</w>",
      "trosc oliosis</w>",
      "a di",
      "g org",
      "Ġs ul",
      "Ġf rontal</w>",
      "es ses</w>",
      "ĠA cute</w>",
      "Ġb ac",
      "Ġse qu",
      "igh t",
      "Ġen gorg",
      "Ġarteri es</w>",
      "Ġbac k",
      "o l</w>",
      "Ġl um",
      "Ġm in",
      "um ents</w>",
      "othora x</w>",
      "an g",
      "ĠP neumonia</w>",
      "Ġstern um</w>",
      "Ġlob es</w>",
[...]
