{
  "version": "1.0",
  "truncation": null,
  "padding": null,
  "added_tokens": [
    {
      "id": 0,
      "special": true,
      "content": "<PAD>",
      "single_word": false,
      "lstrip": false,
      "rstrip": false,
      "normalized": false
    },
    {
      "id": 1,
      "special": true,
      "content": "<UNK>",
      "single_word": false,
      "lstrip": false,
      "rstrip": false,
      "normalized": false
    },
    {
      "id": 2,
      "special": true,
      "content": "[CLS]",
      "single_word": false,
      "lstrip": false,
      "rstrip": false,
      "normalized": false
    },
    {
      "id": 3,
      "special": true,
      "content": "[SEP]",
      "single_word": false,
      "lstrip": false,
      "rstrip": false,
      "normalized": false
    },
    {
      "id": 4,
      "special": true,
      "content": "<s>",
      "single_word": false,
      "lstrip": false,
      "rstrip": false,
      "normalized": false
    },
    {
      "id": 5,
      "special": true,
      "content": "<MASK>",
      "single_word": false,
      "lstrip": false,
      "rstrip": false,
      "normalized": false
    },
    {
      "id": 6,
      "special": true,
      "content": "<size>",
      "single_word": false,
      "lstrip": false,
      "rstrip": false,
      "normalized": false
    },
    {
      "id": 7,
      "special": true,
      "content": "<ind>",
      "single_word": false,
      "lstrip": false,
      "rstrip": false,
      "normalized": false
    },
    {
      "id": 8,
      "special": true,
      "content": "<prompt>",
      "single_word": false,
      "lstrip": false,
      "rstrip": false,
      "normalized": false
    },
    {
      "id": 9,
      "special": true,
      "content": "T1",
      "single_word": false,
      "lstrip": false,
      "rstrip": false,
      "normalized": false
    },
    {
      "id": 10,
      "special": true,
      "content": "T2",
      "single_word": false,
      "lstrip": false,
      "rstrip": false,
      "normalized": false
    },
    {
      "id": 11,
      "special": true,
      "content": "T3",
      "single_word": false,
      "lstrip": false,
      "rstrip": false,
      "normalized": false
    },
    {
      "id": 12,
      "special": true,
      "content": "T4",
      "single_word": false,
      "lstrip": false,
      "rstrip": false,
      "normalized": false
    },
    {
      "id": 13,
      "special": true,
      "content": "T5",
      "single_word": false,
      "lstrip": false,
      "rstrip": false,
      "normalized": false
    },
    {
      "id": 14,
      "special": true,
      "content": "T6",
      "single_word": false,
      "lstrip": false,
      "rstrip": false,
      "normalized": false
    },
    {
      "id": 15,
      "special": true,
      "content": "T7",
      "single_word": false,
      "lstrip": false,
      "rstrip": false,
      "normalized": false
    },
    {
      "id": 16,
      "special": true,
      "content": "T8",
      "single_word": false,
      "lstrip": false,
      "rstrip": false,
      "normalized": false
    },
    {
      "id": 17,
      "special": true,
      "content": "T9",
      "single_word": false,
      "lstrip": false,
      "rstrip": false,
      "normalized": false
    },
    {
      "id": 18,
      "special": true,
      "content": "T10",
      "single_word": false,
      "lstrip": false,
      "rstrip": false,
      "normalized": false
    },
    {
      "id": 19,
      "special": true,
      "content": "T11",
      "single_word": false,
      "lstrip": false,
      "rstrip": false,
      "normalized": false
    },
    {
      "id": 20,
      "special": true,
      "content": "T12",
      "single_word": false,
      "lstrip": false,
      "rstrip": false,
      "normalized": false
    },
    {
      "id": 21,
      "special": true,
      "content": "1",
      "single_word": false,
      "lstrip": false,
      "rstrip": false,
      "normalized": false
    },
    {
      "id": 22,
      "special": true,
      "content": "2",
      "single_word": false,
      "lstrip": false,
      "rstrip": false,
      "normalized": false
    },
    {
      "id": 23,
      "special": true,
      "content": "3",
      "single_word": false,
      "lstrip": false,
      "rstrip": false,
      "normalized": false
    },
    {
      "id": 24,
      "special": true,
      "content": "4",
      "single_word": false,
      "lstrip": false,
      "rstrip": false,
      "normalized": false
    },
    {
      "id": 25,
      "special": true,
      "content": "5",
      "single_word": false,
      "lstrip": false,
      "rstrip": false,
      "normalized": false
    },
    {
      "id": 26,
      "special": true,
      "content": "6",
      "single_word": false,
      "lstrip": false,
      "rstrip": false,
      "normalized": false
    },
    {
      "id": 27,
      "special": true,
      "content": "7",
      "single_word": false,
      "lstrip": false,
      "rstrip": false,
      "normalized": false
    },
    {
      "id": 28,
      "special": true,
      "content": "8",
      "single_word": false,
      "lstrip": false,
      "rstrip": false,
      "normalized": false
    },
    {
      "id": 29,
      "special": true,
      "content": "9",
      "single_word": false,
      "lstrip": false,
      "rstrip": false,
      "normalized": false
    },
    {
      "id": 30,
      "special": true,
      "content": "0",
      "single_word": false,
      "lstrip": false,
      "rstrip": false,
      "normalized": false
    },
    {
      "id": 31,
      "special": true,
      "content": "<loc0>",
      "single_word": false,
      "lstrip": false,
      "rstrip": false,
      "normalized": false
    },
    {
      "id": 32,
      "special": true,
      "content": "<loc1>",
      "single_word": false,
      "lstrip": false,
      "rstrip": false,
      "normalized": false
    },
    {
      "id": 33,
      "special": true,
      "content": "<loc2>",
      "single_word": false,
      "lstrip": false,
      "rstrip": false,
      "normalized": false
    },
    {
      "id": 34,
      "special": true,
      "content": "<loc00>",
      "single_word": false,
      "lstrip": false,
      "rstrip": false,
      "normalized": false
    },
    {
      "id": 35,
      "special": true,
      "content": "<loc01>",
      "single_word": false,
      "lstrip": false,
      "rstrip": false,
      "normalized": false
    },
    {
      "id": 36,
      "special": true,
      "content": "<loc02>",
      "single_word": false,
      "lstrip": false,
      "rstrip": false,
      "normalized": false
    },
    {
      "id": 37,
      "special": true,
      "content": "<loc10>",
      "single_word": false,
      "lstrip": false,
      "rstrip": false,
      "normalized": false
    },
    {
      "id": 38,
      "special": true,
      "content": "<loc11>",
      "single_word": false,
      "lstrip": false,
      "rstrip": false,
      "normalized": false
    },
    {
      "id": 39,
      "special": true,
      "content": "<loc12>",
      "single_word": false,
      "lstrip": false,
      "rstrip": false,
      "normalized": false
    },
    {
      "id": 40,
      "special": true,
      "content": "<loc20>",
      "single_word": false,
      "lstrip": false,
      "rstrip": false,
      "normalized": false
    },
    {
      "id": 41,
      "special": true,
      "content": "<loc21>",
      "single_word": false,
      "lstrip": false,
      "rstrip": false,
      "normalized": false
    },
    {
      "id": 42,
      "special": true,
      "content": "<loc22>",
      "single_word": false,
      "lstrip": false,
      "rstrip": false,
      "normalized": false
    },
    {
      "id": 43,
      "special": true,
      "content": "<loc02><loc22>",
      "single_word": false,
      "lstrip": false,
      "rstrip": false,
      "normalized": false
    },
    {
      "id": 44,
      "special": true,
      "content": "<loc0><loc2>",
      "single_word": false,
      "lstrip": false,
      "rstrip": false,
      "normalized": false
    },
    {
      "id": 45,
      "special": true,
      "content": "<rib1>",
      "single_word": false,
      "lstrip": false,
      "rstrip": false,
      "normalized": false
    },
    {
      "id": 46,
      "special": true,
      "content": "<rib2>",
      "single_word": false,
      "lstrip": false,
      "rstrip": false,
      "normalized": false
    },
    {
      "id": 47,
      "special": true,
      "content": "<rib3>",
      "single_word": false,
      "lstrip": false,
      "rstrip": false,
      "normalized": false
    },
    {
      "id": 48,
      "special": true,
      "content": "<rib4>",
      "single_word": false,
      "lstrip": false,
      "rstrip": false,
      "normalized": false
    },
    {
      "id": 49,
      "special": true,
      "content": "<rib5>",
      "single_word": false,
      "lstrip": false,
      "rstrip": false,
      "normalized": false
    },
    {
      "id": 50,
      "special": true,
      "content": "<rib6>",
      "single_word": false,
      "lstrip": false,
      "rstrip": false,
      "normalized": false
    },
    {
      "id": 51,
      "special": true,
      "content": "<rib7>",
      "single_word": false,
      "lstrip": false,
      "rstrip": false,
      "normalized": false
    },
    {
      "id": 52,
      "special": true,
      "content": "<rib8>",
      "single_word": false,
      "lstrip": false,
      "rstrip": false,
      "normalized": false
    },
    {
      "id": 53,
      "special": true,
      "content": "<rib9>",
      "single_word": false,
      "lstrip": false,
      "rstrip": false,
      "normalized": false
    },
    {
      "id": 54,
      "special": true,
      "content": "<rib10>",
      "single_word": false,
      "lstrip": false,
      "rstrip": false,
      "normalized": false
    },
    {
      "id": 55,
      "special": true,
      "content": "<rib11>",
      "single_word": false,
      "lstrip": false,
      "rstrip": false,
      "normalized": false
    },
    {
      "id": 56,
      "special": true,
      "content": "<rib12>",
      "single_word": false,
      "lstrip": false,
      "rstrip": false,
      "normalized": false
    }
  ],
  "normalizer": {
    "type": "BertNormalizer",
    "clean_text": true,
    "handle_chinese_chars": true,
    "strip_accents": true,
    "lowercase": false
  },
  "pre_tokenizer": {
    "type": "BertPreTokenizer"
  },
  "post_processor": null,
  "decoder": null,
  "model": {
    "type": "WordPiece",
    "unk_token": "<UNK>",
    "continuing_subword_prefix": "##",
    "max_input_chars_per_word": 7,
    "vocab": {
      "<PAD>": 0,
      "<UNK>": 1,
      "[CLS]": 2,
      "[SEP]": 3,
      "<s>": 4,
      "<MASK>": 5,
      "<size>": 6,
      "<ind>": 7,
      "<prompt>": 8,
      "T1": 9,
      "T2": 10,
      "T3": 11,
      "T4": 12,
      "T5": 13,
      "T6": 14,
      "T7": 15,
      "T8": 16,
      "T9": 17,
      "T10": 18,
      "T11": 19,
      "T12": 20,
      "1": 21,
      "2": 22,
      "3": 23,
      "4": 24,
      "5": 25,
      "6": 26,
      "7": 27,
      "8": 28,
      "9": 29,
      "0": 30,
      "<loc0>": 31,
      "<loc1>": 32,
      "<loc2>": 33,
      "<loc00>": 34,
      "<loc01>": 35,
      "<loc02>": 36,
      "<loc10>": 37,
      "<loc11>": 38,
      "<loc12>": 39,
      "<loc20>": 40,
      "<loc21>": 41,
      "<loc22>": 42,
      "<loc02><loc22>": 43,
      "<loc0><loc2>": 44,
      "<rib1>": 45,
      "<rib2>": 46,
      "<rib3>": 47,
      "<rib4>": 48,
      "<rib5>": 49,
      "<rib6>": 50,
      "<rib7>": 51,
      "<rib8>": 52,
      "<rib9>": 53,
      "<rib10>": 54,
      "<rib11>": 55,
      "<rib12>": 56,
      "\"": 57,
      "$": 58,
      "%": 59,
      "&": 60,
      "'": 61,
      "(": 62,
      ")": 63,
      "+": 64,
      ",": 65,
      "-": 66,
      ".": 67,
      "/": 68,
      ":": 69,
      ";": 70,
      "<": 71,
      "=": 72,
      ">": 73,
      "?": 74,
      "A": 75,
      "B": 76,
      "C": 77,
      "D": 78,
      "E": 79,
      "F": 80,
      "G": 81,
      "H": 82,
      "I": 83,
      "J": 84,
      "K": 85,
      "L": 86,
      "M": 87,
      "N": 88,
      "O": 89,
      "P": 90,
      "Q": 91,
      "R": 92,
      "S": 93,
      "T": 94,
      "U": 95,
      "V": 96,
      "W": 97,
      "X": 98,
      "Y": 99,
      "Z": 100,
      "[": 101,
      "]": 102,
      "a": 103,
      "b": 104,
      "c": 105,
      "d": 106,
      "e": 107,
      "f": 108,
      "g": 109,
      "h": 110,
      "i": 111,
      "j": 112,
      "k": 113,
      "l": 114,
      "m": 115,
      "n": 116,
      "o": 117,
      "p": 118,
      "q": 119,
      "r": 120,
      "s": 121,
      "t": 122,
      "u": 123,
      "v": 124,
      "w": 125,
      "x": 126,
      "y": 127,
      "z": 128,
      "##e": 129,
      "##n": 130,
      "##s": 131,
      "##a": 132,
      "##k": 133,
      "##u": 134,
      "##t": 135,
      "##i": 136,
      "##o": 137,
      "##b": 138,
      "##l": 139,
      "##r": 140,
      "##g": 141,
      "##c": 142,
      "##p": 143,
      "##h": 144,
      "##y": 145,
      "##3": 146,
      "##v": 147,
      "##w": 148,
      "##m": 149,
      "##d": 150,
      "##f": 151,
      "##x": 152,
      "##q": 153,
      "##A": 154,
      "##C": 155,
      "##S": 156,
      "##z": 157,
      "##V": 158,
      "##D": 159,
      "##7": 160,
      "##0": 161,
      "##1": 162,
      "##8": 163,
      "##R": 164,
      "##F": 165,
      "##9": 166,
      "##P": 167,
      "##j": 168,
      "##4": 169,
      "##M": 170,
      "##I": 171,
      "##6": 172,
      "##G": 173,
      "##T": 174,
      "##N": 175,
      "##B": 176,
      "##2": 177,
      "##5": 178,
      "##K": 179,
      "##H": 180,
      "##E": 181,
      "##L": 182,
      "##O": 183,
      "##X": 184,
      "##U": 185,
      "in": 186,
      "##om": 187,
      "##ti": 188,
      "##re": 189,
      "##on": 190,
      "##al": 191,
      "ind": 192,
      "##he": 193,
      "pr": 194,
      "##pt": 195,
      "prom": 196,
      "prompt": 197,
      "of": 198,
      "##ar": 199,
      "##es": 200,
      "the": 201,
      "##in": 202,
      "##as": 203,
      "##ig": 204,
      "##ul": 205,
      "or": 206,
      "##or": 207,
      "##ns": 208,
      "##ati": 209,
      "##le": 210,
      "sig": 211,
      "##is": 212,
      "signs": 213,
      "##er": 214,
      "##ic": 215,
      "##en": 216,
      "No": 217,
      "an": 218,
      "##ed": 219,
      "##ation": 220,
      "##ur": 221,
      "##th": 222,
      "no": 223,
      "there": 224,
      "##ural": 225,
      "ple": 226,
      "pleural": 227,
      "##ra": 228,
      "any": 229,
      "##ng": 230,
      "Are": 231,
      "##ear": 232,
      "##st": 233,
      "##ing": 234,
      "##mal": 235,
      "##os": 236,
      "##ia": 237,
      "##ma": 238,
      "wi": 239,
      "##um": 240,
      "##iti": 241,
      "##ion": 242,
      "with": 243,
      "##ication": 244,
      "##ent": 245,
      "##ld": 246,
      "##ou": 247,
      "are": 248,
      "su": 249,
      "##ung": 250,
      "##ain": 251,
      "##osis": 252,
      "##ve": 253,
      "##cul": 254,
      "year": 255,
      "##at": 256,
      "ab": 257,
      "old": 258,
      "pain": 259,
      "##ormal": 260,
      "##ge": 261,
      "is": 262,
      "##ce": 263,
      "lung": 264,
      "con": 265,
      "##sion": 266,
      "##ne": 267,
      "##hest": 268,
      "##ary": 269,
      "##an": 270,
      "th": 271,
      "##ch": 272,
      "##mon": 273,
      "##ulmon": 274,
      "##res": 275,
      "##ard": 276,
      "The": 277,
      "##if": 278,
      "chest": 279,
      "##la": 280,
      "##ulmonary": 281,
      "##id": 282,
      "pulmonary": 283,
      "dis": 284,
      "##oc": 285,
      "##ct": 286,
      "cal": 287,
      "##ased": 288,
      "##mage": 289,
      "##ities": 290,
      "##ol": 291,
      "##ph": 292,
      "based": 293,
      "##il": 294,
      "##fu": 295,
      "image": 296,
      "as": 297,
      "##fusion": 298,
      "##cif": 299,
      "##ffusion": 300,
      "effusion": 301,
      "##ias": 302,
      "indication": 303,
      "##ib": 304,
      "##ir": 305,
      "##te": 306,
      "you": 307,
      "calcif": 308,
      "##tion": 309,
      "##neum": 310,
      "pneum": 311,
      "##ges": 312,
      "##ence": 313,
      "##tin": 314,
      "25": 315,
      "##edias": 316,
      "##ediastin": 317,
      "##ema": 318,
      "##tive": 319,
      "tra": 320,
      "##ass": 321,
      "##ter": 322,
      "##normal": 323,
      "mass": 324,
      "abnormal": 325,
      "and": 326,
      "calcification": 327,
      "##ess": 328,
      "nod": 329,
      "such": 330,
      "##ble": 331,
      "dia": 332,
      "abnormalities": 333,
      "##ub": 334,
      "##ial": 335,
      "##ys": 336,
      "for": 337,
      "##gges": 338,
      "sugges": 339,
      "##per": 340,
      "##ron": 341,
      "ev": 342,
      "sh": 343,
      "de": 344,
      "normal": 345,
      "ap": 346,
      "##gm": 347,
      "calcifications": 348,
      "There": 349,
      "abs": 350,
      "this": 351,
      "fe": 352,
      "##male": 353,
      "##se": 354,
      "nodul": 355,
      "inf": 356,
      "##tic": 357,
      "##ase": 358,
      "##ercul": 359,
      "##ubercul": 360,
      "##uberculosis": 361,
      "per": 362,
      "female": 363,
      "##cular": 364,
      "##ease": 365,
      "##eart": 366,
      "##che": 367,
      "disease": 368,
      "aor": 369,
      "##pa": 370,
      "card": 371,
      "##ist": 372,
      "##oma": 373,
      "##ure": 374,
      "##ut": 375,
      "Can": 376,
      "##ction": 377,
      "##oth": 378,
      "loc": 379,
      "aortic": 380,
      "##icard": 381,
      "mal": 382,
      "pericard": 383,
      "out": 384,
      "masses": 385,
      "##tas": 386,
      "##iac": 387,
      "##ragm": 388,
      "##phragm": 389,
      "##ular": 390,
      "nodules": 391,
      "heart": 392,
      "##ibr": 393,
      "rul": 394,
      "##ora": 395,
      "male": 396,
      "mediastin": 397,
      "fibr": 398,
      "vas": 399,
      "trache": 400,
      "##tra": 401,
      "##str": 402,
      "diaphragm": 403,
      "##atic": 404,
      "se": 405,
      "cardiac": 406,
      "##vic": 407,
      "##mp": 408,
      "##ting": 409,
      "##ym": 410,
      "fibrosis": 411,
      "Is": 412,
      "##ures": 413,
      "diaphragmatic": 414,
      "##ness": 415,
      "conf": 416,
      "##irm": 417,
      "confirm": 418,
      "##one": 419,
      "pro": 420,
      "##itis": 421,
      "##ind": 422,
      "##ctures": 423,
      "##iz": 424,
      "##el": 425,
      "##ory": 426,
      "ob": 427,
      "re": 428,
      "##orax": 429,
      "air": 430,
      "##ronch": 431,
      "bre": 432,
      "##hat": 433,
      "pneumoth": 434,
      "##ment": 435,
      "not": 436,
      "pneumothorax": 437,
      "cons": 438,
      "##ort": 439,
      "##ression": 440,
      "##ts": 441,
      "##ings": 442,
      "suggesting": 443,
      "##nea": 444,
      "##able": 445,
      "absence": 446,
      "##pnea": 447,
      "##yspnea": 448,
      "##ral": 449,
      "st": 450,
      "##ath": 451,
      "breath": 452,
      "##istory": 453,
      "##indings": 454,
      "tuberculosis": 455,
      "##ft": 456,
      "can": 457,
      "app": 458,
      "##tes": 459,
      "##iltra": 460,
      "infiltra": 461,
      "li": 462,
      "evid": 463,
      "evidence": 464,
      "dyspnea": 465,
      "col": 466,
      "##ize": 467,
      "##ue": 468,
      "to": 469,
      "##lavic": 470,
      "infiltrates": 471,
      "##yc": 472,
      "##ortness": 473,
      "##oin": 474,
      "##lavicular": 475,
      "mediastinal": 476,
      "##blem": 477,
      "size": 478,
      "join": 479,
      "pres": 480,
      "##omb": 481,
      "Do": 482,
      "##blems": 483,
      "##ative": 484,
      "ar": 485,
      "hone": 486,
      "##ycomb": 487,
      "honeycomb": 488,
      "honeycombing": 489,
      "vascular": 490,
      "##atient": 491,
      "##igh": 492,
      "##der": 493,
      "##ors": 494,
      "hy": 495,
      "##ight": 496,
      "tum": 497,
      "##mation": 498,
      "ruling": 499,
      "pericardial": 500,
      "problems": 501,
      "tumors": 502,
      "what": 503,
      "ra": 504,
      "##uc": 505,
      "me": 506,
      "##pac": 507,
      "sc": 508,
      "##omediastin": 509,
      "##di": 510,
      "##ctas": 511,
      "tb": 512,
      "##ow": 513,
      "opac": 514,
      "##ctasis": 515,
      "##uctive": 516,
      "##dema": 517,
      "en": 518,
      "suggestive": 519,
      "history": 520,
      "edema": 521,
      "##it": 522,
      "hyper": 523,
      "##olid": 524,
      "##olidation": 525,
      "bronch": 526,
      "consolidation": 527,
      "metas": 528,
      "fra": 529,
      "##ern": 530,
      "##ous": 531,
      "##culat": 532,
      "hema": 533,
      "##ie": 534,
      "obstr": 535,
      "##arge": 536,
      "##gn": 537,
      "##omas": 538,
      "##ap": 539,
      "hern": 540,
      "if": 541,
      "tracheal": 542,
      "metastas": 543,
      "##ell": 544,
      "pla": 545,
      "fa": 546,
      "be": 547,
      "##ues": 548,
      "fractures": 549,
      "##ticular": 550,
      "##ices": 551,
      "enl": 552,
      "##ied": 553,
      "opacities": 554,
      "##ilure": 555,
      "##tial": 556,
      "failure": 557,
      "obstructive": 558,
      "hemat": 559,
      "##lear": 560,
      "apices": 561,
      "metastases": 562,
      "##lap": 563,
      "##cess": 564,
      "diagn": 565,
      "##lapse": 566,
      "clear": 567,
      "abscess": 568,
      "present": 569,
      "##perative": 570,
      "ver": 571,
      "diagnosis": 572,
      "emp": 573,
      "##yema": 574,
      "empyema": 575,
      "##ctions": 576,
      "pericarditis": 577,
      "##teb": 578,
      "pneumomediastin": 579,
      "pneumomediastinum": 580,
      "verteb": 581,
      "##operative": 582,
      "Imp": 583,
      "##us": 584,
      "Findings": 585,
      "##ine": 586,
      "Impression": 587,
      "right": 588,
      "vertebral": 589,
      "##argement": 590,
      "enlargement": 591,
      "pos": 592,
      "disse": 593,
      "dissection": 594,
      "rib": 595,
      "joint": 596,
      "##reoperative": 597,
      "formation": 598,
      "##oclavicular": 599,
      "##pp": 600,
      "thym": 601,
      "plaq": 602,
      "shortness": 603,
      "plaques": 604,
      "##ictive": 605,
      "constr": 606,
      "constrictive": 607,
      "collapse": 608,
      "reticular": 609,
      "Tuberculosis": 610,
      "##omp": 611,
      "trapp": 612,
      "trapping": 613,
      "he": 614,
      "ac": 615,
      "##ot": 616,
      "##onia": 617,
      "le": 618,
      "str": 619,
      "comp": 620,
      "pneumonia": 621,
      "##ening": 622,
      "Chest": 623,
      "##ost": 624,
      "##out": 625,
      "##ior": 626,
      "whe": 627,
      "##ined": 628,
      "loc2": 629,
      "##alu": 630,
      "##ob": 631,
      "appear": 632,
      "##den": 633,
      "stru": 634,
      "##the": 635,
      "structures": 636,
      "##pace": 637,
      "##ran": 638,
      "location": 639,
      "65": 640,
      "ch": 641,
      "positi": 642,
      "rule": 643,
      "without": 644,
      "so": 645,
      "##iv": 646,
      "noted": 647,
      "##ymph": 648,
      "ex": 649,
      "##ther": 650,
      "##ick": 651,
      "thick": 652,
      "thickening": 653,
      "##ater": 654,
      "##space": 655,
      "##tens": 656,
      "##rom": 657,
      "airspace": 658,
      "##entr": 659,
      "##ronic": 660,
      "patient": 661,
      "##tension": 662,
      "due": 663,
      "noti": 664,
      "notice": 665,
      "##ranul": 666,
      "lymph": 667,
      "granul": 668,
      "##iss": 669,
      "##oul": 670,
      "on": 671,
      "tiss": 672,
      "##yst": 673,
      "##icable": 674,
      "def": 675,
      "##licable": 676,
      "applicable": 677,
      "##ity": 678,
      "mediastinum": 679,
      "soft": 680,
      "compression": 681,
      "mid": 682,
      "lungs": 683,
      "##cement": 684,
      "loc0": 685,
      "evalu": 686,
      "##pl": 687,
      "where": 688,
      "##oulder": 689,
      "##ign": 690,
      "##ore": 691,
      "left": 692,
      "##ren": 693,
      "##vi": 694,
      "val": 695,
      "other": 696,
      "##tele": 697,
      "conges": 698,
      "##telectasis": 699,
      "shoulder": 700,
      "##eur": 701,
      "atelectasis": 702,
      "calcified": 703,
      "valve": 704,
      "cyst": 705,
      "we": 706,
      "bo": 707,
      "ray": 708,
      "findings": 709,
      "Patient": 710,
      "##ical": 711,
      "##ta": 712,
      "##istent": 713,
      "vasculat": 714,
      "vasculature": 715,
      "hypertension": 716,
      "congestion": 717,
      "preoperative": 718,
      "##terior": 719,
      "##ysm": 720,
      "obs": 721,
      "##not": 722,
      "infe": 723,
      "##gh": 724,
      "##ough": 725,
      "##ted": 726,
      "obser": 727,
      "aneur": 728,
      "aneurysm": 729,
      "##pla": 730,
      "##iff": 731,
      "anterior": 732,
      "##tal": 733,
      "les": 734,
      "lesion": 735,
      "tissue": 736,
      "##entration": 737,
      "ele": 738,
      "eventration": 739,
      "##ree": 740,
      "cysts": 741,
      "##obronch": 742,
      "##un": 743,
      "hernia": 744,
      "appears": 745,
      "fore": 746,
      "##olum": 747,
      "inter": 748,
      "##oph": 749,
      "granuloma": 750,
      "##dies": 751,
      "sp": 752,
      "##gen": 753,
      "foreign": 754,
      "evaluation": 755,
      "bodies": 756,
      "tracheobronch": 757,
      "##thr": 758,
      "##placement": 759,
      "lip": 760,
      "radi": 761,
      "##ocation": 762,
      "cough": 763,
      "##pi": 764,
      "##ly": 765,
      "volum": 766,
      "by": 767,
      "##pira": 768,
      "##ac": 769,
      "##urg": 770,
      "midl": 771,
      "arthr": 772,
      "position": 773,
      "##iectasis": 774,
      "ven": 775,
      "nodes": 776,
      "##sti": 777,
      "sub": 778,
      "##stitial": 779,
      "interstitial": 780,
      "bronchiectasis": 781,
      "##lation": 782,
      "##iven": 783,
      "cannot": 784,
      "free": 785,
      "##iosis": 786,
      "##location": 787,
      "dislocation": 788,
      "given": 789,
      "##mo": 790,
      "arthritis": 791,
      "bul": 792,
      "Sh": 793,
      "lesions": 794,
      "hematoma": 795,
      "ster": 796,
      "Lung": 797,
      "consolidations": 798,
      "##entral": 799,
      "midline": 800,
      "##oliosis": 801,
      "consistent": 802,
      "##lae": 803,
      "shap": 804,
      "Yes": 805,
      "sw": 806,
      "##order": 807,
      "##og": 808,
      "bullae": 809,
      "##gment": 810,
      "shape": 811,
      "scap": 812,
      "##age": 813,
      "well": 814,
      "tub": 815,
      "intra": 816,
      "##ines": 817,
      "Shortness": 818,
      "##ro": 819,
      "##ocal": 820,
      "##et": 821,
      "scoliosis": 822,
      "##cer": 823,
      "displacement": 824,
      "focal": 825,
      "##ely": 826,
      "##athe": 827,
      "scapular": 828,
      "##atheter": 829,
      "##ield": 830,
      "tracheobronchial": 831,
      "central": 832,
      "catheter": 833,
      "colle": 834,
      "shun": 835,
      "stern": 836,
      "lines": 837,
      "infections": 838,
      "cancer": 839,
      "shunts": 840,
      "##orders": 841,
      "clavicular": 842,
      "##ili": 843,
      "wom": 844,
      "woman": 845,
      "##iatal": 846,
      "segment": 847,
      "hematomas": 848,
      "hiatal": 849,
      "mater": 850,
      "material": 851,
      "lo": 852,
      "##par": 853,
      "##ulmonic": 854,
      "aspira": 855,
      "aspirated": 856,
      "sternoclavicular": 857,
      "##iliary": 858,
      "##culated": 859,
      "loculated": 860,
      "subp": 861,
      "collections": 862,
      "miliary": 863,
      "lik": 864,
      "##upt": 865,
      "subpulmonic": 866,
      "rupt": 867,
      "rupture": 868,
      "lipomas": 869,
      "Ker": 870,
      "##ley": 871,
      "Kerley": 872,
      "##ention": 873,
      "likely": 874,
      "##co": 875,
      "borders": 876,
      "defined": 877,
      "widen": 878,
      "widened": 879,
      "##viation": 880,
      "thymic": 881,
      "##ogra": 882,
      "##aling": 883,
      "volume": 884,
      "What": 885,
      "hernias": 886,
      "within": 887,
      "##ible": 888,
      "deviation": 889,
      "##ograph": 890,
      "##ang": 891,
      "intram": 892,
      "intramural": 893,
      "joints": 894,
      "##inf": 895,
      "surg": 896,
      "##eren": 897,
      "##ifferen": 898,
      "mention": 899,
      "field": 900,
      "fields": 901,
      "thymoma": 902,
      "##ifferential": 903,
      "##lus": 904,
      "callus": 905,
      "hyperinf": 906,
      "##ioclavicular": 907,
      "##romioclavicular": 908,
      "seen": 909,
      "healing": 910,
      "lim": 911,
      "##ophage": 912,
      "##ophageal": 913,
      "radiograph": 914,
      "History": 915,
      "acromioclavicular": 916,
      "separ": 917,
      "separation": 918,
      "devic": 919,
      "venous": 920,
      "##elling": 921,
      "swelling": 922,
      "elect": 923,
      "most": 924,
      "tubes": 925,
      "hyperinflation": 926,
      "##its": 927,
      "devices": 928,
      "limits": 929,
      "electronic": 930,
      "that": 931,
      "##PD": 932,
      "##ery": 933,
      "surgery": 934,
      "inc": 935,
      "##term": 936,
      "##ant": 937,
      "bronchial": 938,
      "##ved": 939,
      "##to": 940,
      "determ": 941,
      "low": 942,
      "arter": 943,
      "chang": 944,
      "trachea": 945,
      "nodule": 946,
      "##tr": 947,
      "##ate": 948,
      "up": 949,
      "observed": 950,
      "##pe": 951,
      "confirmed": 952,
      "##orac": 953,
      "##ek": 954,
      "##dom": 955,
      "##lu": 956,
      "cardi": 957,
      "vis": 958,
      "un": 959,
      "##oss": 960,
      "changes": 961,
      "##ack": 962,
      "differential": 963,
      "50": 964,
      "##ies": 965,
      "##tour": 966,
      "es": 967,
      "contour": 968,
      "al": 969,
      "artery": 970,
      "note": 971,
      "Preoperative": 972,
      "determined": 973,
      "sil": 974,
      "##hou": 975,
      "silhou": 976,
      "silhouet": 977,
      "back": 978,
      "##enc": 979,
      "##ver": 980,
      "##rong": 981,
      "wrong": 982,
      "##ated": 983,
      "Ab": 984,
      "both": 985,
      "##ast": 986,
      "##yn": 987,
      "##omal": 988,
      "notable": 989,
      "spine": 990,
      "esophageal": 991,
      "thorac": 992,
      "##ienc": 993,
      "mentioned": 994,
      "##lin": 995,
      "##de": 996,
      "##ak": 997,
      "##linical": 998,
      "##nspl": 999,
      "##nsplant": 1000,
      "silhouette": 1001,
      "it": 1002,
      "##ided": 1003,
      "transplant": 1004,
      "week": 1005,
      "##ild": 1006,
      "tes": 1007,
      "##perienc": 1008,
      "experienc": 1009,
      "##ptom": 1010,
      "##ymptom": 1011,
      "thoracic": 1012,
      "##mok": 1013,
      "##omy": 1014,
      "##all": 1015,
      "experiencing": 1016,
      "##inal": 1017,
      "cor": 1018,
      "anomal": 1019,
      "anomalies": 1020,
      "##ysis": 1021,
      "Heart": 1022,
      "##ute": 1023,
      "sens": 1024,
      "##arr": 1025,
      "30": 1026,
      "##ive": 1027,
      "##ynco": 1028,
      "visible": 1029,
      "##oes": 1030,
      "##ormation": 1031,
      "smok": 1032,
      "sign": 1033,
      "##enting": 1034,
      "inclu": 1035,
      "stat": 1036,
      "acute": 1037,
      "weeks": 1038,
      "Not": 1039,
      "sense": 1040,
      "##tact": 1041,
      "##arc": 1042,
      "##ateral": 1043,
      "##onary": 1044,
      "my": 1045,
      "presenting": 1046,
      "post": 1047,
      "##akness": 1048,
      "pre": 1049,
      "##ad": 1050,
      "find": 1051,
      "lower": 1052,
      "##omediastinal": 1053,
      "##erative": 1054,
      "##dominal": 1055,
      "##thma": 1056,
      "##generative": 1057,
      "see": 1058,
      "da": 1059,
      "##omiti": 1060,
      "##omiting": 1061,
      "chronic": 1062,
      "##yncope": 1063,
      "##ark": 1064,
      "coronary": 1065,
      "sided": 1066,
      "positive": 1067,
      "intact": 1068,
      "bone": 1069,
      "xra": 1070,
      "xray": 1071,
      "observe": 1072,
      "mild": 1073,
      "from": 1074,
      "##ide": 1075,
      "Hy": 1076,
      "Both": 1077,
      "PPD": 1078,
      "##ony": 1079,
      "##sence": 1080,
      "##opa": 1081,
      "Absence": 1082,
      "Le": 1083,
      "days": 1084,
      "##ymptoms": 1085,
      "degenerative": 1086,
      "##hic": 1087,
      "loss": 1088,
      "##rem": 1089,
      "whats": 1090,
      "##led": 1091,
      "Left": 1092,
      "clinical": 1093,
      "Ex": 1094,
      "deta": 1095,
      "cardiomediastinal": 1096,
      "upper": 1097,
      "##iled": 1098,
      "detailed": 1099,
      "##lung": 1100,
      "suggestinglung": 1101,
      "vomiting": 1102,
      "Card": 1103,
      "##ip": 1104,
      "weakness": 1105,
      "bony": 1106,
      "##tif": 1107,
      "lob": 1108,
      "CO": 1109,
      "COPD": 1110,
      "information": 1111,
      "test": 1112,
      "##ult": 1113,
      "##opath": 1114,
      "##po": 1115,
      "iden": 1116,
      "identif": 1117,
      "identified": 1118,
      "status": 1119,
      "alone": 1120,
      "symptoms": 1121,
      "presents": 1122,
      "##plain": 1123,
      "##own": 1124,
      "##ilateral": 1125,
      "##od": 1126,
      "asthma": 1127,
      "Explain": 1128,
      "##pox": 1129,
      "##ec": 1130,
      "lobe": 1131,
      "##oun": 1132,
      "##reased": 1133,
      "##seous": 1134,
      "##zing": 1135,
      "##arcin": 1136,
      "im": 1137,
      "smoking": 1138,
      "include": 1139,
      "mon": 1140,
      "##am": 1141,
      "10": 1142,
      "##ocard": 1143,
      "##vious": 1144,
      "abdominal": 1145,
      "##ezing": 1146,
      "arm": 1147,
      "##low": 1148,
      "poss": 1149,
      "##ehic": 1150,
      "##ehicle": 1151,
      "##use": 1152,
      "##poxia": 1153,
      "month": 1154,
      "stable": 1155,
      "bilateral": 1156,
      "##remark": 1157,
      "##ollow": 1158,
      "##remarkable": 1159,
      "##ula": 1160,
      "##opathy": 1161,
      "##ilar": 1162,
      "##arrow": 1163,
      "##lain": 1164,
      "##nown": 1165,
      "##ctomy": 1166,
      "wall": 1167,
      "##ound": 1168,
      "does": 1169,
      "##ition": 1170,
      "unremarkable": 1171,
      "Fe": 1172,
      "contours": 1173,
      "marrow": 1174,
      "opacity": 1175,
      "##ating": 1176,
      "em": 1177,
      "##rh": 1178,
      "par": 1179,
      "Notable": 1180,
      "##ls": 1181,
      "##ductive": 1182,
      "carcin": 1183,
      "##dition": 1184,
      "possible": 1185,
      "hem": 1186,
      "Female": 1187,
      "rep": 1188,
      "age": 1189,
      "elev": 1190,
      "##entric": 1191,
      "##ome": 1192,
      "kne": 1193,
      "af": 1194,
      "previous": 1195,
      "knee": 1196,
      "after": 1197,
      "##idosis": 1198,
      "##ste": 1199,
      "arch": 1200,
      "one": 1201,
      "##red": 1202,
      "ventric": 1203,
      "##aliz": 1204,
      "##rib": 1205,
      "hemo": 1206,
      "##ay": 1207,
      "mot": 1208,
      "##ause": 1209,
      "##ausea": 1210,
      "has": 1211,
      "effusions": 1212,
      "Tra": 1213,
      "wheezing": 1214,
      "Ev": 1215,
      "over": 1216,
      "##iness": 1217,
      "##ital": 1218,
      "##ziness": 1219,
      "##izziness": 1220,
      "follow": 1221,
      "vehicle": 1222,
      "inj": 1223,
      "injur": 1224,
      "atr": 1225,
      "##genital": 1226,
      "##ygen": 1227,
      "##xygen": 1228,
      "ventricular": 1229,
      "congenital": 1230,
      "Evalu": 1231,
      "##dy": 1232,
      "##ident": 1233,
      "ad": 1234,
      "45": 1235,
      "oste": 1236,
      "aorta": 1237,
      "complain": 1238,
      "Cardiac": 1239,
      "acc": 1240,
      "##icult": 1241,
      "##ifficult": 1242,
      "Pro": 1243,
      "##ifficulty": 1244,
      "oxygen": 1245,
      "##ptysis": 1246,
      "hemoptysis": 1247,
      "abnormality": 1248,
      "##gue": 1249,
      "##go": 1250,
      "cer": 1251,
      "its": 1252,
      "injury": 1253,
      "atrial": 1254,
      "accident": 1255,
      "Trache": 1256,
      "Evaluate": 1257,
      "Problems": 1258,
      "##alysis": 1259,
      "spe": 1260,
      "paralysis": 1261,
      "##atigue": 1262,
      "large": 1263,
      "productive": 1264,
      "prote": 1265,
      "breathing": 1266,
      "##aly": 1267,
      "##ination": 1268,
      "##galy": 1269,
      "##omegaly": 1270,
      "breast": 1271,
      "##and": 1272,
      "Trachea": 1273,
      "Dyspnea": 1274,
      "Differential": 1275,
      "##les": 1276,
      "##ified": 1277,
      "der": 1278,
      "dil": 1279,
      "pur": 1280,
      "##op": 1281,
      "##ivative": 1282,
      "protein": 1283,
      "derivative": 1284,
      "purified": 1285,
      "##ab": 1286,
      "##roat": 1287,
      "Syncope": 1288,
      "##uction": 1289,
      "##sseous": 1290,
      "immage": 1291,
      "vascularity": 1292,
      "elevated": 1293,
      "##umb": 1294,
      "res": 1295,
      "##esc": 1296,
      "kid": 1297,
      "kidne": 1298,
      "kidney": 1299,
      "##ioma": 1300,
      "infection": 1301,
      "##pair": 1302,
      "repair": 1303,
      "specif": 1304,
      "myocard": 1305,
      "fever": 1306,
      "##ect": 1307,
      "rec": 1308,
      "Hyper": 1309,
      "report": 1310,
      "throat": 1311,
      "##kin": 1312,
      "increased": 1313,
      "pa": 1314,
      "##itation": 1315,
      "##asal": 1316,
      "carcinoma": 1317,
      "osseous": 1318,
      "weight": 1319,
      "##ache": 1320,
      "at": 1321,
      "wh": 1322,
      "70": 1323,
      "nasal": 1324,
      "##arco": 1325,
      "##vical": 1326,
      "reg": 1327,
      "##arcoidosis": 1328,
      "##plan": 1329,
      "cardiomegaly": 1330,
      "##omat": 1331,
      "##tered": 1332,
      "explan": 1333,
      "explanation": 1334,
      "give": 1335,
      "##alized": 1336,
      "motor": 1337,
      "mo": 1338,
      "##ged": 1339,
      "##itive": 1340,
      "exam": 1341,
      "##escrib": 1342,
      "vascul": 1343,
      "Give": 1344,
      "fist": 1345,
      "prov": 1346,
      "##lo": 1347,
      "cervical": 1348,
      "Pos": 1349,
      "ph": 1350,
      "##iaphragm": 1351,
      "Positive": 1352,
      "months": 1353,
      "dilation": 1354,
      "Hypoxia": 1355,
      "##sistent": 1356,
      "##oesophageal": 1357,
      "radiating": 1358,
      "defect": 1359,
      "##umbness": 1360,
      "numbness": 1361,
      "##ental": 1362,
      "Hypertension": 1363,
      "Ch": 1364,
      "##iver": 1365,
      "mental": 1366,
      "Lungs": 1367,
      "##ini": 1368,
      "head": 1369,
      "difficulty": 1370,
      "Normal": 1371,
      "##qu": 1372,
      "##tric": 1373,
      "syncope": 1374,
      "##enosis": 1375,
      "stenosis": 1376,
      "##io": 1377,
      "placement": 1378,
      "##known": 1379,
      "years": 1380,
      "##ution": 1381,
      "wor": 1382,
      "##ualized": 1383,
      "ins": 1384,
      "examination": 1385,
      "Describ": 1386,
      "sarcoidosis": 1387,
      "Describe": 1388,
      "tissues": 1389,
      "recent": 1390,
      "was": 1391,
      "##ticul": 1392,
      "non": 1393,
      "##nset": 1394,
      "pleur": 1395,
      "infiltrate": 1396,
      "who": 1397,
      "leve": 1398,
      "diver": 1399,
      "volumes": 1400,
      "diverticul": 1401,
      "##up": 1402,
      "condition": 1403,
      "ca": 1404,
      "fistula": 1405,
      "ep": 1406,
      "ass": 1407,
      "ago": 1408,
      "##pand": 1409,
      "##panded": 1410,
      "unknown": 1411,
      "press": 1412,
      "##ress": 1413,
      "##phys": 1414,
      "##renic": 1415,
      "##physema": 1416,
      "che": 1417,
      "##ale": 1418,
      "obstruction": 1419,
      "evaluate": 1420,
      "##idiaphragm": 1421,
      "hemidiaphragm": 1422,
      "##kup": 1423,
      "workup": 1424,
      "show": 1425,
      "Al": 1426,
      "loc22": 1427,
      "##tory": 1428,
      "Right": 1429,
      "visualized": 1430,
      "nec": 1431,
      "smoker": 1432,
      "##yth": 1433,
      "arrh": 1434,
      "hemang": 1435,
      "##ythm": 1436,
      "arrhythm": 1437,
      "arrhythmias": 1438,
      "##anc": 1439,
      "infar": 1440,
      "##oar": 1441,
      "##lam": 1442,
      "inflam": 1443,
      "##ep": 1444,
      "Age": 1445,
      "cell": 1446,
      "dizziness": 1447,
      "emphysema": 1448,
      "headache": 1449,
      "##oid": 1450,
      "prost": 1451,
      "loc02": 1452,
      "##dul": 1453,
      "includ": 1454,
      "##30": 1455,
      "ind30": 1456,
      "##ortu": 1457,
      "base": 1458,
      "##ills": 1459,
      "bronchitis": 1460,
      "Pulmonary": 1461,
      "mus": 1462,
      "##cle": 1463,
      "ruled": 1464,
      "diverticula": 1465,
      "Th": 1466,
      "##cture": 1467,
      "nausea": 1468,
      "##tatic": 1469,
      "In": 1470,
      "Rib": 1471,
      "##arged": 1472,
      "##aria": 1473,
      "prostate": 1474,
      "##bol": 1475,
      "prior": 1476,
      "##itic": 1477,
      "##acco": 1478,
      "levels": 1479,
      "Un": 1480,
      "fracture": 1481,
      "epis": 1482,
      "##day": 1483,
      "##xoma": 1484,
      "enlarged": 1485,
      "myxoma": 1486,
      "Clinical": 1487,
      "granulomat": 1488,
      "bilaterally": 1489,
      "remo": 1490,
      "##iffu": 1491,
      "myocardial": 1492,
      "##iffuse": 1493,
      "##uma": 1494,
      "##erior": 1495,
      "defects": 1496,
      "##ulti": 1497,
      "##mall": 1498,
      "use": 1499,
      "##itral": 1500,
      "mitral": 1501,
      "##piratory": 1502,
      "##arring": 1503,
      "##bacco": 1504,
      "##asilar": 1505,
      "tobacco": 1506,
      "##denopathy": 1507,
      "embol": 1508,
      "##ism": 1509,
      "20": 1510,
      "St": 1511,
      "fall": 1512,
      "embolism": 1513,
      "##ance": 1514,
      "scarring": 1515,
      "respiratory": 1516,
      "##arcoma": 1517,
      "inflammation": 1518,
      "##chy": 1519,
      "##ill": 1520,
      "diffuse": 1521,
      "el": 1522,
      "hip": 1523,
      "conditions": 1524,
      "As": 1525,
      "malign": 1526,
      "replacement": 1527,
      "tortu": 1528,
      "##tures": 1529,
      "cav": 1530,
      "med": 1531,
      "##bow": 1532,
      "elbow": 1533,
      "under": 1534,
      "Fatigue": 1535,
      "persistent": 1536,
      "Sig": 1537,
      "##ysical": 1538,
      "Signs": 1539,
      "testicular": 1540,
      "determine": 1541,
      "Chronic": 1542,
      "known": 1543,
      "hypoxia": 1544,
      "baria": 1545,
      "bariatric": 1546,
      "Abdominal": 1547,
      "##enal": 1548,
      "found": 1549,
      "specific": 1550,
      "Male": 1551,
      "nose": 1552,
      "ne": 1553,
      "us": 1554,
      "cho": 1555,
      "##ix": 1556,
      "##orrh": 1557,
      "##ck": 1558,
      "##ictures": 1559,
      "strictures": 1560,
      "lymphang": 1561,
      "##ptal": 1562,
      "septal": 1563,
      "dens": 1564,
      "Nausea": 1565,
      "cheek": 1566,
      "cra": 1567,
      "55": 1568,
      "indic": 1569,
      "##lated": 1570,
      "chills": 1571,
      "fl": 1572,
      "##ertion": 1573,
      "pai": 1574,
      "##formation": 1575,
      "malformation": 1576,
      "##domen": 1577,
      "##lood": 1578,
      "sin": 1579,
      "nd": 1580,
      "states": 1581,
      "end": 1582,
      "small": 1583,
      "##ple": 1584,
      "metastatic": 1585,
      "##ven": 1586,
      "##odes": 1587,
      "##ision": 1588,
      "presence": 1589,
      "##osseous": 1590,
      "hemorrh": 1591,
      "##ditional": 1592,
      "physical": 1593,
      "assa": 1594,
      "infarction": 1595,
      "been": 1596,
      "Size": 1597,
      "abdomen": 1598,
      "prolapse": 1599,
      "tube": 1600,
      "##oscle": 1601,
      "lateral": 1602,
      "qu": 1603,
      "##eat": 1604,
      "##ging": 1605,
      "granulomatous": 1606,
      "##rant": 1607,
      "Symptom": 1608,
      "##cted": 1609,
      "renal": 1610,
      "##ex": 1611,
      "##ounds": 1612,
      "osteop": 1613,
      "mark": 1614,
      "##rosis": 1615,
      "##theroscle": 1616,
      "Mild": 1617,
      "fibro": 1618,
      "provided": 1619,
      "pat": 1620,
      "##lec": 1621,
      "loc00": 1622,
      "cost": 1623,
      "hilar": 1624,
      "super": 1625,
      "##atory": 1626,
      "##ach": 1627,
      "##ling": 1628,
      "##ultiple": 1629,
      "##ycard": 1630,
      "##iomy": 1631,
      "posterior": 1632,
      "##achycard": 1633,
      "##uration": 1634,
      "lab": 1635,
      "##nula": 1636,
      "##cles": 1637,
      "cannula": 1638,
      "##urgitation": 1639,
      "regurgitation": 1640,
      "inside": 1641,
      "muscles": 1642,
      "using": 1643,
      "##venous": 1644,
      "##mia": 1645,
      "apex": 1646,
      "##iomas": 1647,
      "##oratory": 1648,
      "hemangiomas": 1649,
      "laboratory": 1650,
      "Rec": 1651,
      "cholec": 1652,
      "Con": 1653,
      "coar": 1654,
      "Dizziness": 1655,
      "lymphoma": 1656,
      "exertion": 1657,
      "vena": 1658,
      "Altered": 1659,
      "cava": 1660,
      "##wo": 1661,
      "fatigue": 1662,
      "##ckles": 1663,
      "crackles": 1664,
      "##idectomy": 1665,
      "##inimal": 1666,
      "dec": 1667,
      "today": 1668,
      "##ious": 1669,
      "includes": 1670,
      "##ophy": 1671,
      "Asthma": 1672,
      "##orsening": 1673,
      "##ode": 1674,
      "leiomy": 1675,
      "shows": 1676,
      "side": 1677,
      "tight": 1678,
      "tightness": 1679,
      "35": 1680,
      "tumor": 1681,
      "body": 1682,
      "Onset": 1683,
      "##ise": 1684,
      "cholecyst": 1685,
      "##orm": 1686,
      "assault": 1687,
      "##pir": 1688,
      "##piration": 1689,
      "##elast": 1690,
      "fibroelast": 1691,
      "blood": 1692,
      "may": 1693,
      "stu": 1694,
      "##ond": 1695,
      "##eats": 1696,
      "##yro": 1697,
      "##anoma": 1698,
      "##elanoma": 1699,
      "##alp": 1700,
      "complaints": 1701,
      "##pic": 1702,
      "##trib": 1703,
      "distrib": 1704,
      "##utum": 1705,
      "sputum": 1706,
      "lymphangioma": 1707,
      "pressure": 1708,
      "superior": 1709,
      "gr": 1710,
      "##ke": 1711,
      "distribution": 1712,
      "syn": 1713,
      "vasculitis": 1714,
      "vasculopathy": 1715,
      "##adenopathy": 1716,
      "##cified": 1717,
      "This": 1718,
      "##hesion": 1719,
      "adhesion": 1720,
      "adhesions": 1721,
      "bra": 1722,
      "granulomas": 1723,
      "arterio": 1724,
      "motion": 1725,
      "malignanc": 1726,
      "arteriovenous": 1727,
      "##ossly": 1728,
      "##ctation": 1729,
      "tracheoesophageal": 1730,
      "bronchoesophageal": 1731,
      "##achycardia": 1732,
      "coarctation": 1733,
      "##chedul": 1734,
      "##ically": 1735,
      "##iphe": 1736,
      "##cheduled": 1737,
      "tracheobronchitis": 1738,
      "##toid": 1739,
      "metastasis": 1740,
      "appearance": 1741,
      "Poss": 1742,
      "three": 1743,
      "##min": 1744,
      "thyro": 1745,
      "neck": 1746,
      "##rent": 1747,
      "##alpitation": 1748,
      "additional": 1749,
      "Rul": 1750,
      "Rule": 1751,
      "##rex": 1752,
      "##etr": 1753,
      "Cardi": 1754,
      "Possible": 1755,
      "ble": 1756,
      "bleed": 1757,
      "Stable": 1758,
      "atheroscle": 1759,
      "##thing": 1760,
      "##ection": 1761,
      "##ipheral": 1762,
      "Lymph": 1763,
      "cm": 1764,
      "##perex": 1765,
      "grossly": 1766,
      "Pain": 1767,
      "notic": 1768,
      "noticed": 1769,
      "cl": 1770,
      "space": 1771,
      "dist": 1772,
      "##ophrenic": 1773,
      "Unable": 1774,
      "synd": 1775,
      "two": 1776,
      "since": 1777,
      "We": 1778,
      "##pical": 1779,
      "ext": 1780,
      "lipoma": 1781,
      "Weakness": 1782,
      "hemidiaphragms": 1783,
      "total": 1784,
      "rhe": 1785,
      "##umatoid": 1786,
      "rheumatoid": 1787,
      "##rome": 1788,
      "syndrome": 1789,
      "study": 1790,
      "sweats": 1791,
      "##tain": 1792,
      "##val": 1793,
      "##oidectomy": 1794,
      "hemorrhoidectomy": 1795,
      "##orosis": 1796,
      "##ortic": 1797,
      "imm": 1798,
      "extrem": 1799,
      "red": 1800,
      "##ding": 1801,
      "Cannot": 1802,
      "Aortic": 1803,
      "Bre": 1804,
      "Cal": 1805,
      "##othe": 1806,
      "osteoporosis": 1807,
      "surgical": 1808,
      "##be": 1809,
      "markings": 1810,
      "ang": 1811,
      "Mediastin": 1812,
      "sounds": 1813,
      "suggest": 1814,
      "costophrenic": 1815,
      "sus": 1816,
      "##ystic": 1817,
      "##adrant": 1818,
      "removal": 1819,
      "quadrant": 1820,
      "hyperex": 1821,
      "ribs": 1822,
      "Tes": 1823,
      "tre": 1824,
      "peripheral": 1825,
      "expanded": 1826,
      "Testicular": 1827,
      "##lely": 1828,
      "dex": 1829,
      "solely": 1830,
      "br": 1831,
      "imp": 1832,
      "whic": 1833,
      "which": 1834,
      "##ag": 1835,
      "##illary": 1836,
      "minimal": 1837,
      "aden": 1838,
      "di": 1839,
      "##asm": 1840,
      "provide": 1841,
      "suspic": 1842,
      "##inite": 1843,
      "##lad": 1844,
      "definite": 1845,
      "scheduled": 1846,
      "##our": 1847,
      "promin": 1848,
      "deform": 1849,
      "change": 1850,
      "decreased": 1851,
      "##ker": 1852,
      "##osarcoma": 1853,
      "##chond": 1854,
      "scan": 1855,
      "Breast": 1856,
      "er": 1857,
      "rh": 1858,
      "cr": 1859,
      "sore": 1860,
      "##alpitations": 1861,
      "dextr": 1862,
      "##gular": 1863,
      "sl": 1864,
      "##ascular": 1865,
      "thorax": 1866,
      "##ytic": 1867,
      "60": 1868,
      "ha": 1869,
      "Per": 1870,
      "pap": 1871,
      "##ould": 1872,
      "mildly": 1873,
      "##alization": 1874,
      "fibroelastoma": 1875,
      "papillary": 1876,
      "##cin": 1877,
      "##asia": 1878,
      "myel": 1879,
      "##thes": 1880,
      "##esthes": 1881,
      "anesthes": 1882,
      "anesthesia": 1883,
      "Recent": 1884,
      "##ips": 1885,
      "##eralization": 1886,
      "##idging": 1887,
      "demin": 1888,
      "##rotic": 1889,
      "demineralization": 1890,
      "am": 1891,
      "te": 1892,
      "##50": 1893,
      "ind50": 1894,
      "bridging": 1895,
      "gra": 1896,
      "##wise": 1897,
      "basilar": 1898,
      "ner": 1899,
      "##istrib": 1900,
      "repres": 1901,
      "indicated": 1902,
      "redistrib": 1903,
      "nerve": 1904,
      "redistribution": 1905,
      "Most": 1906,
      "##ator": 1907,
      "lymphadenopathy": 1908,
      "Calcified": 1909,
      "##chondr": 1910,
      "It": 1911,
      "##acia": 1912,
      "##omalacia": 1913,
      "tissuesosseous": 1914,
      "thyroid": 1915,
      "night": 1916,
      "myocarditis": 1917,
      "tortuous": 1918,
      "tear": 1919,
      "##urther": 1920,
      "phrenic": 1921,
      "wing": 1922,
      "thr": 1923,
      "onset": 1924,
      "##tling": 1925,
      "##mit": 1926,
      "mottling": 1927,
      "leiomyoma": 1928,
      "winging": 1929,
      "skin": 1930,
      "pneumothorac": 1931,
      "episode": 1932,
      "pneumothoraces": 1933,
      "##tilation": 1934,
      "sca": 1935,
      "more": 1936,
      "corre": 1937,
      "complains": 1938,
      "bl": 1939,
      "##reas": 1940,
      "##arp": 1941,
      "pregn": 1942,
      "scans": 1943,
      "##asts": 1944,
      "##osion": 1945,
      "angle": 1946,
      "erosion": 1947,
      "lytic": 1948,
      "##lision": 1949,
      "##ching": 1950,
      "sharp": 1951,
      "notching": 1952,
      "##ning": 1953,
      "clips": 1954,
      "Mediastinal": 1955,
      "mes": 1956,
      "##lioma": 1957,
      "stress": 1958,
      "leu": 1959,
      "episodes": 1960,
      "malignancies": 1961,
      "##othelioma": 1962,
      "mesothelioma": 1963,
      "HI": 1964,
      "diabe": 1965,
      "##lying": 1966,
      "density": 1967,
      "myeloma": 1968,
      "HIV": 1969,
      "##olar": 1970,
      "##ov": 1971,
      "##urrent": 1972,
      "Location": 1973,
      "multiple": 1974,
      "##osity": 1975,
      "ref": 1976,
      "28": 1977,
      "Loss": 1978,
      "##pass": 1979,
      "##ypical": 1980,
      "##regular": 1981,
      "bypass": 1982,
      "extremity": 1983,
      "##ced": 1984,
      "stent": 1985,
      "##pected": 1986,
      "ir": 1987,
      "##atment": 1988,
      "treatment": 1989,
      "flu": 1990,
      "areas": 1991,
      "pressures": 1992,
      "##cc": 1993,
      "cystic": 1994,
      "##ases": 1995,
      "undergo": 1996,
      "##bation": 1997,
      "##hea": 1998,
      "##erbation": 1999,
      "exac": 2000,
      "##arrhea": 2001,
      "bleeding": 2002,
      "diarrhea": 2003,
      "exacerbation": 2004,
      "but": 2005,
      "worsening": 2006,
      "##eti": 2007,
      "##ondy": 2008,
      "about": 2009,
      "appeti": 2010,
      "spondy": 2011,
      "appetite": 2012,
      "spondyl": 2013,
      "perf": 2014,
      "spondylosis": 2015,
      "Difficulty": 2016,
      "Six": 2017,
      "##yoma": 2018,
      "##domyoma": 2019,
      "##abdomyoma": 2020,
      "rhabdomyoma": 2021,
      "##pos": 2022,
      "##ank": 2023,
      "##ocy": 2024,
      "##ladder": 2025,
      "pregnant": 2026,
      "tachycardia": 2027,
      "MV": 2028,
      "##xi": 2029,
      "perfusion": 2030,
      "collision": 2031,
      "loc20": 2032,
      "ventilation": 2033,
      "##cinosis": 2034,
      "##ving": 2035,
      "pleuritic": 2036,
      "Lymphoma": 2037,
      "bladder": 2038,
      "##so": 2039,
      "also": 2040,
      "further": 2041,
      "##inning": 2042,
      "Melanoma": 2043,
      "Sus": 2044,
      "fo": 2045,
      "##opl": 2046,
      "##veolar": 2047,
      "crow": 2048,
      "carcinoid": 2049,
      "neur": 2050,
      "appro": 2051,
      "Suspected": 2052,
      "Ple": 2053,
      "##mate": 2054,
      "correlation": 2055,
      "##erm": 2056,
      "requ": 2057,
      "elevation": 2058,
      "Inf": 2059,
      "crowding": 2060,
      "tip": 2061,
      "##notomy": 2062,
      "Cardiomediastinal": 2063,
      "Pneum": 2064,
      "Vehicle": 2065,
      "De": 2066,
      "##tent": 2067,
      "represent": 2068,
      "##ovascular": 2069,
      "Infection": 2070,
      "idi": 2071,
      "##opathic": 2072,
      "idiopathic": 2073,
      "deformity": 2074,
      "bronchovascular": 2075,
      "Persistent": 2076,
      "medical": 2077,
      "distress": 2078,
      "Pr": 2079,
      "calcinosis": 2080,
      "40": 2081,
      "Hod": 2082,
      "Whe": 2083,
      "##gkin": 2084,
      "obes": 2085,
      "Hodgkin": 2086,
      "Wheezing": 2087,
      "Nodul": 2088,
      "osteophy": 2089,
      "tortuosity": 2090,
      "blun": 2091,
      "Pre": 2092,
      "midlung": 2093,
      "synco": 2094,
      "##okin": 2095,
      "##pal": 2096,
      "shield": 2097,
      "overlying": 2098,
      "cholecystokin": 2099,
      "syncopal": 2100,
      "cholecystokinin": 2101,
      "##act": 2102,
      "##ceph": 2103,
      "##cephal": 2104,
      "##kocy": 2105,
      "##tosis": 2106,
      "##kocytosis": 2107,
      "If": 2108,
      "var": 2109,
      "##head": 2110,
      "##ighthead": 2111,
      "suspicious": 2112,
      "##ightheaded": 2113,
      "Mor": 2114,
      "Nodule": 2115,
      "alveolar": 2116,
      "##ocardia": 2117,
      "dextrocardia": 2118,
      "##ightheadedness": 2119,
      "##part": 2120,
      "hyperexpanded": 2121,
      "##reasing": 2122,
      "leukocytosis": 2123,
      "##ward": 2124,
      "stage": 2125,
      "rel": 2126,
      "##astric": 2127,
      "##urgical": 2128,
      "##arding": 2129,
      "regarding": 2130,
      "##maker": 2131,
      "##attered": 2132,
      "##cemaker": 2133,
      "##ibasilar": 2134,
      "hyd": 2135,
      "otherwise": 2136,
      "need": 2137,
      "immun": 2138,
      "##py": 2139,
      "##ong": 2140,
      "sternotomy": 2141,
      "An": 2142,
      "gast": 2143,
      "##esophageal": 2144,
      "##icant": 2145,
      "##ificant": 2146,
      "##roesophageal": 2147,
      "gastroesophageal": 2148,
      "atherosclerotic": 2149,
      "impl": 2150,
      "Comp": 2151,
      "complaining": 2152,
      "pacemaker": 2153,
      "patchy": 2154,
      "Edema": 2155,
      "expos": 2156,
      "have": 2157,
      "exposure": 2158,
      "line": 2159,
      "##pro": 2160,
      "specified": 2161,
      "Complain": 2162,
      "##lux": 2163,
      "nonpro": 2164,
      "nonproductive": 2165,
      "##stra": 2166,
      "##monstra": 2167,
      "nodular": 2168,
      "##iet": 2169,
      "Abnormal": 2170,
      "significant": 2171,
      "Symptoms": 2172,
      "Vomiting": 2173,
      "ring": 2174,
      "##derate": 2175,
      "Follow": 2176,
      "occ": 2177,
      "##opulmonary": 2178,
      "Pneumonia": 2179,
      "palpitations": 2180,
      "##dle": 2181,
      "middle": 2182,
      "graft": 2183,
      "reflux": 2184,
      "irregular": 2185,
      "undergoing": 2186,
      "approxi": 2187,
      "##ll": 2188,
      "##chn": 2189,
      "demonstra": 2190,
      "##placed": 2191,
      "brach": 2192,
      "##reak": 2193,
      "certain": 2194,
      "hour": 2195,
      "typical": 2196,
      "##metr": 2197,
      "##igastric": 2198,
      "cardiopulmonary": 2199,
      "##izure": 2200,
      "flank": 2201,
      "##gative": 2202,
      "##ins": 2203,
      "##ymmetr": 2204,
      "Ac": 2205,
      "##agn": 2206,
      "##til": 2207,
      "varices": 2208,
      "spasm": 2209,
      "perfor": 2210,
      "proj": 2211,
      "##omatosis": 2212,
      "necrosis": 2213,
      "patent": 2214,
      "##mately": 2215,
      "approximately": 2216,
      "Sc": 2217,
      "had": 2218,
      "##uring": 2219,
      "abuse": 2220,
      "rad": 2221,
      "##chondroma": 2222,
      "obesity": 2223,
      "bibasilar": 2224,
      "squ": 2225,
      "##gagn": 2226,
      "##esis": 2227,
      "##paces": 2228,
      "##amous": 2229,
      "techn": 2230,
      "Morgagn": 2231,
      "squamous": 2232,
      "Morgagni": 2233,
      "last": 2234,
      "problem": 2235,
      "##renchy": 2236,
      "perforation": 2237,
      "casts": 2238,
      "muc": 2239,
      "plu": 2240,
      "spaces": 2241,
      "##gs": 2242,
      "##ylo": 2243,
      "##atid": 2244,
      "thinning": 2245,
      "tracheobronchomalacia": 2246,
      "liposarcoma": 2247,
      "postpart": 2248,
      "pleurodes": 2249,
      "hemangioma": 2250,
      "adenoid": 2251,
      "amylo": 2252,
      "neuro": 2253,
      "hydatid": 2254,
      "##tility": 2255,
      "mucus": 2256,
      "plugs": 2257,
      "postpartum": 2258,
      "pleurodesis": 2259,
      "amyloidosis": 2260,
      "##ipp": 2261,
      "blunting": 2262,
      "related": 2263,
      "Dia": 2264,
      "##sis": 2265,
      "##pon": 2266,
      "##duction": 2267,
      "##att": 2268,
      "production": 2269,
      "increasing": 2270,
      "flatt": 2271,
      "requi": 2272,
      "prominent": 2273,
      "##hilar": 2274,
      "clavic": 2275,
      "##letal": 2276,
      "##keletal": 2277,
      "##ectomy": 2278,
      "bases": 2279,
      "##usion": 2280,
      "confusion": 2281,
      "including": 2282,
      "skeletal": 2283,
      "##ernal": 2284,
      "##ogy": 2285,
      "##fic": 2286,
      "loc01": 2287,
      "##atr": 2288,
      "disc": 2289,
      "few": 2290,
      "would": 2291,
      "##tis": 2292,
      "brain": 2293,
      "hep": 2294,
      "##pecif": 2295,
      "cholecystectomy": 2296,
      "Degenerative": 2297,
      "clavicle": 2298,
      "ear": 2299,
      "##que": 2300,
      "##ester": 2301,
      "##gmental": 2302,
      "##reaky": 2303,
      "mak": 2304,
      "exc": 2305,
      "limit": 2306,
      "He": 2307,
      "make": 2308,
      "sarcoma": 2309,
      "ve": 2310,
      "##gia": 2311,
      "##segmental": 2312,
      "##ibrill": 2313,
      "##ibrillator": 2314,
      "##osed": 2315,
      "moderate": 2316,
      "Previous": 2317,
      "ov": 2318,
      "##tine": 2319,
      "##outine": 2320,
      "##aturation": 2321,
      "structuresosseous": 2322,
      "hyperinflated": 2323,
      "14": 2324,
      "##ctal": 2325,
      "##iency": 2326,
      "##ficiency": 2327,
      "limited": 2328,
      "Multiple": 2329,
      "uns": 2330,
      "nothing": 2331,
      "than": 2332,
      "congestive": 2333,
      "subsegmental": 2334,
      "diabetes": 2335,
      "fluid": 2336,
      "x1": 2337,
      "##let": 2338,
      "inflated": 2339,
      "hours": 2340,
      "Mot": 2341,
      "Motor": 2342,
      "Bony": 2343,
      "##ual": 2344,
      "liver": 2345,
      "operative": 2346,
      "##cious": 2347,
      "##atible": 2348,
      "conscious": 2349,
      "compatible": 2350,
      "slight": 2351,
      "consciousness": 2352,
      "adenopathy": 2353,
      "##ches": 2354,
      "active": 2355,
      "##genic": 2356,
      "osteo": 2357,
      "eating": 2358,
      "##vel": 2359,
      "Se": 2360,
      "##vity": 2361,
      "##tivity": 2362,
      "proc": 2363,
      "aspiration": 2364,
      "activity": 2365,
      "##oracic": 2366,
      "##are": 2367,
      "sensation": 2368,
      "infarct": 2369,
      "food": 2370,
      "Pleural": 2371,
      "past": 2372,
      "scattered": 2373,
      "endom": 2374,
      "intrac": 2375,
      "endometr": 2376,
      "inv": 2377,
      "##als": 2378,
      "##ature": 2379,
      "shielded": 2380,
      "##kle": 2381,
      "ankle": 2382,
      "##renchymal": 2383,
      "rema": 2384,
      "Low": 2385,
      "germ": 2386,
      "panc": 2387,
      "star": 2388,
      "silhouettes": 2389,
      "osteophytes": 2390,
      "Acute": 2391,
      "invol": 2392,
      "Cor": 2393,
      "Specif": 2394,
      "contact": 2395,
      "Specifically": 2396,
      "Worsening": 2397,
      "ting": 2398,
      "##uinal": 2399,
      "##guinal": 2400,
      "##yph": 2401,
      "inguinal": 2402,
      "airw": 2403,
      "lobectomy": 2404,
      "Bronch": 2405,
      "com": 2406,
      "##tte": 2407,
      "##line": 2408,
      "##igare": 2409,
      "thromb": 2410,
      "##igarette": 2411,
      "ach": 2412,
      "yester": 2413,
      "##alasia": 2414,
      "##isy": 2415,
      "dep": 2416,
      "normally": 2417,
      "malignant": 2418,
      "achalasia": 2419,
      "yesterday": 2420,
      "##nal": 2421,
      "##ze": 2422,
      "##atitis": 2423,
      "##illation": 2424,
      "fibrillation": 2425,
      "scle": 2426,
      "##aste": 2427,
      "deep": 2428,
      "defibrillator": 2429,
      "atherosclerosis": 2430,
      "##astectomy": 2431,
      "melanoma": 2432,
      "mastectomy": 2433,
      "sle": 2434,
      "ventral": 2435,
      "apnea": 2436,
      "MVC": 2437,
      "sleep": 2438,
      "Hep": 2439,
      "##cern": 2440,
      "##cell": 2441,
      "suggested": 2442,
      "##perit": 2443,
      "tests": 2444,
      "##ount": 2445,
      "##cellular": 2446,
      "##peritone": 2447,
      "##sternal": 2448,
      "##king": 2449,
      "##gestion": 2450,
      "Ep": 2451,
      "##poin": 2452,
      "leg": 2453,
      "altered": 2454,
      "through": 2455,
      "needs": 2456,
      "Epigastric": 2457,
      "##poinf": 2458,
      "Post": 2459,
      "ur": 2460,
      "apical": 2461,
      "seizure": 2462,
      "streaky": 2463,
      "hypoinf": 2464,
      "saturation": 2465,
      "displaced": 2466,
      "comple": 2467,
      "##unction": 2468,
      "##ophag": 2469,
      "requires": 2470,
      "##urred": 2471,
      "Coronary": 2472,
      "tubercul": 2473,
      "appearing": 2474,
      "esophag": 2475,
      "Cardio": 2476,
      "region": 2477,
      "implant": 2478,
      "flattening": 2479,
      "inh": 2480,
      "##tib": 2481,
      "##iates": 2482,
      "presyncope": 2483,
      "day": 2484,
      "radiates": 2485,
      "aches": 2486,
      "wed": 2487,
      "##emia": 2488,
      "##ibly": 2489,
      "densities": 2490,
      "Diagn": 2491,
      "Bone": 2492,
      "Bilateral": 2493,
      "##tation": 2494,
      "##ately": 2495,
      "Head": 2496,
      "##ality": 2497,
      "##osco": 2498,
      "device": 2499,
      "##asty": 2500,
      "lightheadedness": 2501,
      "##nge": 2502,
      "##ility": 2503,
      "technical": 2504,
      "##gain": 2505,
      "cardio": 2506,
      "##dequ": 2507,
      "down": 2508,
      "fre": 2509,
      "##ihilar": 2510,
      "##bar": 2511,
      "##end": 2512,
      "##olumbar": 2513,
      "thoracolumbar": 2514,
      "##quent": 2515,
      "prominence": 2516,
      "frequent": 2517,
      "fil": 2518,
      "now": 2519,
      "##iew": 2520,
      "quality": 2521,
      "Anterior": 2522,
      "aus": 2523,
      "Nothing": 2524,
      "##cultation": 2525,
      "##ocarcin": 2526,
      "perihilar": 2527,
      "intermit": 2528,
      "possibly": 2529,
      "adenocarcin": 2530,
      "auscultation": 2531,
      "intermittent": 2532,
      "adenocarcinoma": 2533,
      "outlet": 2534,
      "##tensive": 2535,
      "Shoulder": 2536,
      "Inc": 2537,
      "depression": 2538,
      "could": 2539,
      "##asion": 2540,
      "Complaint": 2541,
      "##asional": 2542,
      "ma": 2543,
      "reve": 2544,
      "view": 2545,
      "##action": 2546,
      "##ler": 2547,
      "reaction": 2548,
      "inspiration": 2549,
      "sinus": 2550,
      "Recurrent": 2551,
      "Cardiomegaly": 2552,
      "##urrently": 2553,
      "##oplasm": 2554,
      "None": 2555,
      "##cility": 2556,
      "##urv": 2557,
      "##umer": 2558,
      "##ialysis": 2559,
      "##pans": 2560,
      "facility": 2561,
      "pleurisy": 2562,
      "leiomyosarcoma": 2563,
      "##oplasty": 2564,
      "Cough": 2565,
      "Surgical": 2566,
      "How": 2567,
      "Tachycardia": 2568,
      "##clinical": 2569,
      "indclinical": 2570,
      "following": 2571,
      "##peritoneal": 2572,
      "gl": 2573,
      "hand": 2574,
      "ter": 2575,
      "##rest": 2576,
      "##igrant": 2577,
      "##uritic": 2578,
      "arrest": 2579,
      "encephal": 2580,
      "immigrant": 2581,
      "completed": 2582,
      "tuberculin": 2583,
      "Coughing": 2584,
      "encephalopathy": 2585,
      "again": 2586,
      "some": 2587,
      "##leged": 2588,
      "rectal": 2589,
      "unable": 2590,
      "complaint": 2591,
      "##ike": 2592,
      "##erated": 2593,
      "coughing": 2594,
      "nons": 2595,
      "assess": 2596,
      "Dec": 2597,
      "Me": 2598,
      "##hy": 2599,
      "##enia": 2600,
      "dehy": 2601,
      "retr": 2602,
      "admit": 2603,
      "##odeficiency": 2604,
      "immunodeficiency": 2605,
      "Previously": 2606,
      "process": 2607,
      "dehyd": 2608,
      "gre": 2609,
      "##rapy": 2610,
      "Thed": 2611,
      "specifically": 2612,
      "prostatectomy": 2613,
      "removed": 2614,
      "medication": 2615,
      "##tained": 2616,
      "stents": 2617,
      "otal": 2618,
      "symmetr": 2619,
      "##gic": 2620,
      "##level": 2621,
      "##ultilevel": 2622,
      "distention": 2623,
      "##lergic": 2624,
      "otalgia": 2625,
      "bel": 2626,
      "##osc": 2627,
      "trauma": 2628,
      "##ized": 2629,
      "bronchi": 2630,
      "level": 2631,
      "hypoinflated": 2632,
      "##pansion": 2633,
      "mor": 2634,
      "##sf": 2635,
      "##ite": 2636,
      "##ocellular": 2637,
      "##xiet": 2638,
      "##atisf": 2639,
      "##atocellular": 2640,
      "##ittent": 2641,
      "##termittent": 2642,
      "Intermittent": 2643,
      "##actory": 2644,
      "hepatocellular": 2645,
      "##xiety": 2646,
      "##atisfactory": 2647,
      "dr": 2648,
      "ket": 2649,
      "kyph": 2650,
      "pol": 2651,
      "##oac": 2652,
      "##bid": 2653,
      "##rectomy": 2654,
      "##urm": 2655,
      "##tastatic": 2656,
      "reac": 2657,
      "##thritis": 2658,
      "diabetic": 2659,
      "irregularities": 2660,
      "Metastatic": 2661,
      "##oscoliosis": 2662,
      "ketoac": 2663,
      "reactive": 2664,
      "ketoacidosis": 2665,
      "Clear": 2666,
      "Es": 2667,
      "##cy": 2668,
      "##urr": 2669,
      "area": 2670,
      "colon": 2671,
      "##gency": 2672,
      "Congestion": 2673,
      "MVA": 2674,
      "below": 2675,
      "Fall": 2676,
      "routine": 2677,
      "vac": 2678,
      "##sive": 2679,
      "##im": 2680,
      "##back": 2681,
      "##respon": 2682,
      "##ralogy": 2683,
      "scar": 2684,
      "midback": 2685,
      "##etralogy": 2686,
      "osteoar": 2687,
      "inhaling": 2688,
      "Fallot": 2689,
      "##responsive": 2690,
      "osteoarthritis": 2691,
      "dys": 2692,
      "concern": 2693,
      "persis": 2694,
      "config": 2695,
      "previously": 2696,
      "##iocephal": 2697,
      "demonstrated": 2698,
      "brachiocephal": 2699,
      "slightly": 2700,
      "throughout": 2701,
      "Diagnosis": 2702,
      "Decreased": 2703,
      "persisting": 2704,
      "brachiocephalic": 2705,
      "High": 2706,
      "disorders": 2707,
      "loc1": 2708,
      "##ostomy": 2709,
      "costo": 2710,
      "Ne": 2711,
      "Palpitations": 2712,
      "count": 2713,
      "##vement": 2714,
      "cont": 2715,
      "vertebra": 2716,
      "##poxemia": 2717,
      "white": 2718,
      "indicating": 2719,
      "wedge": 2720,
      "Esophageal": 2721,
      "Negative": 2722,
      "##hed": 2723,
      "##ened": 2724,
      "##obronchial": 2725,
      "internal": 2726,
      "falling": 2727,
      "hyperexpansion": 2728,
      "projec": 2729,
      "configuration": 2730,
      "wid": 2731,
      "##orderline": 2732,
      "unsatisfactory": 2733,
      "stra": 2734,
      "vess": 2735,
      "##ber": 2736,
      "##dal": 2737,
      "cham": 2738,
      "positioned": 2739,
      "osteopenia": 2740,
      "vessel": 2741,
      "chamber": 2742,
      "##upp": 2743,
      "##stance": 2744,
      "##osupp": 2745,
      "##ucenc": 2746,
      "meas": 2747,
      "endpl": 2748,
      "immunosupp": 2749,
      "##oscopy": 2750,
      "Ad": 2751,
      "along": 2752,
      "chem": 2753,
      "##ipple": 2754,
      "exclu": 2755,
      "##urvature": 2756,
      "vessels": 2757,
      "Bo": 2758,
      "junction": 2759,
      "##thoracic": 2760,
      "##chdal": 2761,
      "hypertr": 2762,
      "only": 2763,
      "valv": 2764,
      "##oparenchymal": 2765,
      "pleuroparenchymal": 2766,
      "muscle": 2767,
      "Bochdal": 2768,
      "hypertrophy": 2769,
      "Bochdalek": 2770,
      "Mid": 2771,
      "dou": 2772,
      "rings": 2773,
      "smo": 2774,
      "##surgical": 2775,
      "##jor": 2776,
      "##atoma": 2777,
      "tracheomalacia": 2778,
      "hyperpl": 2779,
      "diagnosed": 2780,
      "lipomatosis": 2781,
      "upward": 2782,
      "caus": 2783,
      "medial": 2784,
      "malignancy": 2785,
      "neurogenic": 2786,
      "veins": 2787,
      "teratoma": 2788,
      "double": 2789,
      "smooth": 2790,
      "hyperplasia": 2791,
      "during": 2792,
      "##tous": 2793,
      "##bs": 2794,
      "##oroscopy": 2795,
      "enchondroma": 2796,
      "midthoracic": 2797,
      "impa": 2798,
      "fluoroscopy": 2799,
      "symmetrically": 2800,
      "adequ": 2801,
      "vir": 2802,
      "##ener": 2803,
      "##edure": 2804,
      "##iated": 2805,
      "lymphangitic": 2806,
      "kyphosis": 2807,
      "projecting": 2808,
      "endplate": 2809,
      "Dis": 2810,
      "##ocarditis": 2811,
      "airway": 2812,
      "valvular": 2813,
      "impacted": 2814,
      "Minimal": 2815,
      "Sch": 2816,
      "Tiet": 2817,
      "Zen": 2818,
      "agen": 2819,
      "bol": 2820,
      "dysm": 2821,
      "fusion": 2822,
      "pals": 2823,
      "##ki": 2824,
      "##iation": 2825,
      "##otility": 2826,
      "##xus": 2827,
      "##zki": 2828,
      "##ulas": 2829,
      "plexus": 2830,
      "##atation": 2831,
      "##atzki": 2832,
      "##ardiac": 2833,
      "foram": 2834,
      "fibroma": 2835,
      "herniation": 2836,
      "webs": 2837,
      "myopathy": 2838,
      "carcinomatosis": 2839,
      "dilatation": 2840,
      "respiration": 2841,
      "motility": 2842,
      "fistulas": 2843,
      "diverticulum": 2844,
      "granulomatosis": 2845,
      "malformations": 2846,
      "endobronchial": 2847,
      "endocarditis": 2848,
      "Cons": 2849,
      "fibroelastosis": 2850,
      "distributions": 2851,
      "##chondritis": 2852,
      "brachial": 2853,
      "ovale": 2854,
      "osteochondroma": 2855,
      "intracardiac": 2856,
      "endometriosis": 2857,
      "thrombus": 2858,
      "esophagitis": 2859,
      "downward": 2860,
      "filter": 2861,
      "costochondritis": 2862,
      "strain": 2863,
      "Additional": 2864,
      "adequately": 2865,
      "Schatzki": 2866,
      "Tietze": 2867,
      "Zenker": 2868,
      "agenesis": 2869,
      "bolus": 2870,
      "dysmotility": 2871,
      "palsy": 2872,
      "foramen": 2873,
      "big": 2874,
      "rot": 2875,
      "##lined": 2876,
      "##pr": 2877,
      "##dden": 2878,
      "sudden": 2879,
      "outlined": 2880,
      "##moker": 2881,
      "moving": 2882,
      "infarcts": 2883,
      "widening": 2884,
      "##ucency": 2885,
      "smoothly": 2886,
      "car": 2887,
      "multilevel": 2888,
      "##uf": 2889,
      "##ending": 2890,
      "##ann": 2891,
      "##parent": 2892,
      "##umbar": 2893,
      "suspicion": 2894,
      "occasional": 2895,
      "Bronchitis": 2896,
      "term": 2897,
      "wound": 2898,
      "##icatr": 2899,
      "nonsmoker": 2900,
      "##icatrix": 2901,
      "Lightheadedness": 2902,
      "hx": 2903,
      "sch": 2904,
      "##wann": 2905,
      "##fibr": 2906,
      "hypo": 2907,
      "##uestion": 2908,
      "postoperative": 2909,
      "neurofibr": 2910,
      "pancre": 2911,
      "major": 2912,
      "schwann": 2913,
      "neurofibroma": 2914,
      "schwannoma": 2915,
      "Fl": 2916,
      "Ob": 2917,
      "currently": 2918,
      "pounds": 2919,
      "##eic": 2920,
      "##idual": 2921,
      "##structive": 2922,
      "##geneic": 2923,
      "##logeneic": 2924,
      "neoplasm": 2925,
      "Sore": 2926,
      "Smok": 2927,
      "huma": 2928,
      "##earing": 2929,
      "apparent": 2930,
      "feel": 2931,
      "diaphragms": 2932,
      "were": 2933,
      "spinal": 2934,
      "arthroplasty": 2935,
      "##ressive": 2936,
      "negative": 2937,
      "tingling": 2938,
      "Increased": 2939,
      "virus": 2940,
      "Smoking": 2941,
      "human": 2942,
      "Sarcoidosis": 2943,
      "cigarette": 2944,
      "cicatrix": 2945,
      "##ech": 2946,
      "##utter": 2947,
      "##issure": 2948,
      "followed": 2949,
      "speech": 2950,
      "flutter": 2951,
      "Lymphadenopathy": 2952,
      "slurred": 2953,
      "having": 2954,
      "foot": 2955,
      "##ipped": 2956,
      "Disease": 2957,
      "Obstructive": 2958,
      "Atheroscle": 2959,
      "ima": 2960,
      "dise": 2961,
      "stab": 2962,
      "evident": 2963,
      "obsc": 2964,
      "ectas": 2965,
      "hearing": 2966,
      "##ration": 2967,
      "swall": 2968,
      "radiographs": 2969,
      "ectasia": 2970,
      "swallow": 2971,
      "26": 2972,
      "face": 2973,
      "collection": 2974,
      "partial": 2975,
      "##iotic": 2976,
      "##kemia": 2977,
      "contusion": 2978,
      "12": 2979,
      "des": 2980,
      "##CD": 2981,
      "##rease": 2982,
      "##orted": 2983,
      "once": 2984,
      "adren": 2985,
      "Chills": 2986,
      "##ymmetric": 2987,
      "dehydration": 2988,
      "Well": 2989,
      "lumbar": 2990,
      "##matory": 2991,
      "fevers": 2992,
      "inflammatory": 2993,
      "Ass": 2994,
      "starting": 2995,
      "Hepatitis": 2996,
      "gland": 2997,
      "Diaphragm": 2998,
      "ICD": 2999,
      "Non": 3000,
      "asymmetric": 3001,
      "midsternal": 3002,
      "cardiover": 3003,
      "measuring": 3004,
      "En": 3005,
      "ling": 3006,
      "lum": 3007,
      "##aled": 3008,
      "##neous": 3009,
      "distal": 3010,
      "dysph": 3011,
      "diseases": 3012,
      "CA": 3013,
      "near": 3014,
      "##eating": 3015,
      "##VC": 3016,
      "##BG": 3017,
      "into": 3018,
      "lead": 3019,
      "sweating": 3020,
      "postsurgical": 3021,
      "vertebrae": 3022,
      "CABG": 3023,
      "Small": 3024,
      "Vis": 3025,
      "fain": 3026,
      "ten": 3027,
      "##oom": 3028,
      "##urren": 3029,
      "##derness": 3030,
      "recurren": 3031,
      "morbid": 3032,
      "fainting": 3033,
      "tenderness": 3034,
      "recurrence": 3035,
      "Duration": 3036,
      "Other": 3037,
      "Tortu": 3038,
      "sob": 3039,
      "sized": 3040,
      "##ulting": 3041,
      "hypertensive": 3042,
      "inser": 3043,
      "grade": 3044,
      "urgency": 3045,
      "CT": 3046,
      "##oti": 3047,
      "Expanded": 3048,
      "emphysematous": 3049,
      "implan": 3050,
      "Visualized": 3051,
      "##otid": 3052,
      "##ses": 3053,
      "##vere": 3054,
      "##atus": 3055,
      "increase": 3056,
      "Status": 3057,
      "thyroidectomy": 3058,
      "osteophyte": 3059,
      "Blood": 3060,
      "fix": 3061,
      "nan": 3062,
      "##ubstance": 3063,
      "##ysubstance": 3064,
      "Headache": 3065,
      "polysubstance": 3066,
      "fixation": 3067,
      "18": 3068,
      "15": 3069,
      "Ar": 3070,
      "Col": 3071,
      "##sus": 3072,
      "##wn": 3073,
      "##men": 3074,
      "##icc": 3075,
      "antib": 3076,
      "trans": 3077,
      "Down": 3078,
      "Hypoxemia": 3079,
      "Transplant": 3080,
      "impro": 3081,
      "deformities": 3082,
      "comm": 3083,
      "antibiotic": 3084,
      "##ents": 3085,
      "##rontal": 3086,
      "obtained": 3087,
      "Otherwise": 3088,
      "main": 3089,
      "question": 3090,
      "versus": 3091,
      "shielding": 3092,
      "Consolidation": 3093,
      "##ocardiac": 3094,
      "Evaluation": 3095,
      "demonstrate": 3096,
      "greater": 3097,
      "leads": 3098,
      "SVC": 3099,
      "curvature": 3100,
      "##ient": 3101,
      "##ology": 3102,
      "suggests": 3103,
      "arthritic": 3104,
      "Two": 3105,
      "desc": 3106,
      "describ": 3107,
      "humer": 3108,
      "lucency": 3109,
      "##ique": 3110,
      "##welling": 3111,
      "prob": 3112,
      "healed": 3113,
      "subc": 3114,
      "##arian": 3115,
      "vein": 3116,
      "inserted": 3117,
      "described": 3118,
      "Osseous": 3119,
      "intraperitoneal": 3120,
      "remain": 3121,
      "sclerosis": 3122,
      "retrocardiac": 3123,
      "##eneralized": 3124,
      "hil": 3125,
      "##fo": 3126,
      "instr": 3127,
      "##iapical": 3128,
      "##ments": 3129,
      "hilum": 3130,
      "eng": 3131,
      "frontal": 3132,
      "sul": 3133,
      "##tro": 3134,
      "##ctatic": 3135,
      "seque": 3136,
      "arteries": 3137,
      "Tortuous": 3138,
      "engor": 3139,
      "sulc": 3140,
      "PI": 3141,
      "aerated": 3142,
      "gu": 3143,
      "##ium": 3144,
      "##CC": 3145,
      "##uments": 3146,
      "##othorax": 3147,
      "rev": 3148,
      "scapula": 3149,
      "sternum": 3150,
      "lobes": 3151,
      "remains": 3152,
      "started": 3153,
      "reveal": 3154,
      "assessment": 3155,
      "imaging": 3156,
      "instruments": 3157,
      "PICC": 3158,
      "Pat": 3159,
      "Prom": 3160,
      "Ra": 3161,
      "So": 3162,
      "borderline": 3163,
      "##hot": 3164,
      "##tim": 3165,
      "##oral": 3166,
      "##nshot": 3167,
      "finding": 3168,
      "marker": 3169,
      "implanted": 3170,
      "gunshot": 3171,
      "Patchy": 3172,
      "Promin": 3173,
      "Radi": 3174,
      "Soft": 3175,
      "path": 3176,
      "##ith": 3177,
      "##hol": 3178,
      "##reening": 3179,
      "indwelling": 3180,
      "##arynge": 3181,
      "range": 3182,
      "chf": 3183,
      "##cohol": 3184,
      "alcohol": 3185,
      "ventricle": 3186,
      "Prior": 3187,
      "##aryngeal": 3188,
      "##ystr": 3189,
      "##fort": 3190,
      "##eration": 3191,
      "imageed": 3192,
      "around": 3193,
      "placed": 3194,
      "##pectomy": 3195,
      "alter": 3196,
      "worse": 3197,
      "dextroscoliosis": 3198,
      "perform": 3199,
      "##endent": 3200,
      "lumpectomy": 3201,
      "Radiograph": 3202,
      "##ystrophy": 3203,
      "Res": 3204,
      "dialysis": 3205,
      "laryngeal": 3206,
      "port": 3207,
      "ton": 3208,
      "##gan": 3209,
      "##est": 3210,
      "##ulator": 3211,
      "organ": 3212,
      "sup": 3213,
      "##irrh": 3214,
      "shad": 3215,
      "severe": 3216,
      "##ization": 3217,
      "##pecified": 3218,
      "##dered": 3219,
      "Fever": 3220,
      "resection": 3221,
      "atta": 3222,
      "Scattered": 3223,
      "involvement": 3224,
      "Posterior": 3225,
      "##timulator": 3226,
      "shadow": 3227,
      "Cystic": 3228,
      "Ir": 3229,
      "Rep": 3230,
      "Sin": 3231,
      "##ose": 3232,
      "tract": 3233,
      "subj": 3234,
      "choking": 3235,
      "dense": 3236,
      "hemorrhage": 3237,
      "Since": 3238,
      "Cirrh": 3239,
      "pul": 3240,
      "##air": 3241,
      "##ug": 3242,
      "##gy": 3243,
      "##yel": 3244,
      "##mesis": 3245,
      "##omfort": 3246,
      "therapy": 3247,
      "##ulsion": 3248,
      "ordered": 3249,
      "anxiety": 3250,
      "##chair": 3251,
      "##temesis": 3252,
      "Cancer": 3253,
      "##elchair": 3254,
      "place": 3255,
      "wheelchair": 3256,
      "injuries": 3257,
      "epigastric": 3258,
      "ches": 3259,
      "Alleged": 3260,
      "remote": 3261,
      "Complaints": 3262,
      "Screening": 3263,
      "discomfort": 3264,
      "hepatic": 3265,
      "unspecified": 3266,
      "Seizure": 3267,
      "drug": 3268,
      "End": 3269,
      "##fold": 3270,
      "markers": 3271,
      "portable": 3272,
      "tonight": 3273,
      "attack": 3274,
      "Irregular": 3275,
      "Cirrhosis": 3276,
      "Sep": 3277,
      "Up": 3278,
      "cour": 3279,
      "rate": 3280,
      "##sh": 3281,
      "##beat": 3282,
      "##yar": 3283,
      "##me": 3284,
      "##ulted": 3285,
      "##orient": 3286,
      "##nsation": 3287,
      "disorient": 3288,
      "##ociated": 3289,
      "##utes": 3290,
      "located": 3291,
      "heartbeat": 3292,
      "##ective": 3293,
      "doesn": 3294,
      "associated": 3295,
      "assaulted": 3296,
      "Sensation": 3297,
      "pancreatitis": 3298,
      "revision": 3299,
      "performed": 3300,
      "subjective": 3301,
      "Sepsis": 3302,
      "27": 3303,
      "33": 3304,
      "31": 3305,
      "72": 3306,
      "Ane": 3307,
      "BC": 3308,
      "BN": 3309,
      "Bang": 3310,
      "Burm": 3311,
      "Coc": 3312,
      "Cigarette": 3313,
      "Du": 3314,
      "Hum": 3315,
      "Liver": 3316,
      "Long": 3317,
      "Osh": 3318,
      "Ram": 3319,
      "Routine": 3320,
      "Ste": 3321,
      "Scheduled": 3322,
      "Ting": 3323,
      "Tetralogy": 3324,
      "Year": 3325,
      "dystrophy": 3326,
      "eth": 3327,
      "five": 3328,
      "hall": 3329,
      "kg": 3330,
      "las": 3331,
      "lasts": 3332,
      "min": 3333,
      "natr": 3334,
      "pm": 3335,
      "pus": 3336,
      "pep": 3337,
      "tachycard": 3338,
      "uve": 3339,
      "##nne": 3340,
      "##ade": 3341,
      "##kos": 3342,
      "##ira": 3343,
      "##iure": 3344,
      "##bre": 3345,
      "##ginning": 3346,
      "##cation": 3347,
      "##cination": 3348,
      "##cond": 3349,
      "##ps": 3350,
      "##pendent": 3351,
      "##vulsion": 3352,
      "##wit": 3353,
      "##dose": 3354,
      "initi": 3355,
      "##tide": 3356,
      "##tizing": 3357,
      "##arting": 3358,
      "##ese": 3359,
      "##esh": 3360,
      "##inary": 3361,
      "##ulike": 3362,
      "##oroid": 3363,
      "##lev": 3364,
      "##ergy": 3365,
      "##icine": 3366,
      "##icade": 3367,
      "##urs": 3368,
      "##aine": 3369,
      "ische": 3370,
      "##anol": 3371,
      "asymptom": 3372,
      "##terial": 3373,
      "##seas": 3374,
      "##chenne": 3375,
      "second": 3376,
      "##mping": 3377,
      "##nessed": 3378,
      "confirms": 3379,
      "replaced": 3380,
      "##derma": 3381,
      "hyste": 3382,
      "##ucination": 3383,
      "energy": 3384,
      "hematemesis": 3385,
      "beginning": 3386,
      "##ompression": 3387,
      "##ranial": 3388,
      "radiation": 3389,
      "##pite": 3390,
      "bulging": 3391,
      "##rotizing": 3392,
      "##roderma": 3393,
      "##viations": 3394,
      "backache": 3395,
      "##dependent": 3396,
      "transplantation": 3397,
      "preop": 3398,
      "pretib": 3399,
      "overdose": 3400,
      "overseas": 3401,
      "Choroid": 3402,
      "nondependent": 3403,
      "Allogeneic": 3404,
      "necrotizing": 3405,
      "muscular": 3406,
      "Throat": 3407,
      "Unresponsive": 3408,
      "Unwit": 3409,
      "Starting": 3410,
      "medicine": 3411,
      "cramping": 3412,
      "hemorrhag": 3413,
      "Confusion": 3414,
      "Convulsion": 3415,
      "decompression": 3416,
      "extremities": 3417,
      "treated": 3418,
      "##ladesh": 3419,
      "slipped": 3420,
      "Itchy": 3421,
      "Pleuritic": 3422,
      "represents": 3423,
      "Pruritic": 3424,
      "occurs": 3425,
      "radial": 3426,
      "excision": 3427,
      "osteogenic": 3428,
      "intracranial": 3429,
      "endometrial": 3430,
      "pancreas": 3431,
      "tinged": 3432,
      "comments": 3433,
      "scleroderma": 3434,
      "Hepatic": 3435,
      "urinary": 3436,
      "vaccination": 3437,
      "Flulike": 3438,
      "despite": 3439,
      "adrenal": 3440,
      "Assess": 3441,
      "Arterial": 3442,
      "altercation": 3443,
      "Reported": 3444,
      "pulses": 3445,
      "attacks": 3446,
      "Anemia": 3447,
      "BCG": 3448,
      "BNP": 3449,
      "Bangladesh": 3450,
      "Burmese": 3451,
      "Cocaine": 3452,
      "Duchenne": 3453,
      "Humira": 3454,
      "Oshkos": 3455,
      "Ramicade": 3456,
      "Steps": 3457,
      "Tingling": 3458,
      "ethanol": 3459,
      "hallucination": 3460,
      "lasting": 3461,
      "minutes": 3462,
      "natriure": 3463,
      "pushed": 3464,
      "peptide": 3465,
      "tachycardic": 3466,
      "uveitis": 3467,
      "##breviations": 3468,
      "initiation": 3469,
      "ischemia": 3470,
      "asymptomatic": 3471,
      "hysterectomy": 3472,
      "pretibial": 3473,
      "Choroidal": 3474,
      "Unwitnessed": 3475,
      "hemorrhagic": 3476,
      "Oshkosh": 3477,
      "hallucinations": 3478,
      "natriuretic": 3479,
      "pass": 3480,
      "##dialysis": 3481,
      "##ales": 3482,
      "##arg": 3483,
      "raise": 3484,
      "##ief": 3485,
      "substernal": 3486,
      "hemodialysis": 3487,
      "atrium": 3488,
      "Chief": 3489,
      "peripherally": 3490,
      "exclude": 3491,
      "Upper": 3492,
      "Elev": 3493,
      "cd": 3494,
      "sac": 3495,
      "six": 3496,
      "wal": 3497,
      "##ord": 3498,
      "##cemia": 3499,
      "##cification": 3500,
      "##cheal": 3501,
      "allergic": 3502,
      "technique": 3503,
      "Postoperative": 3504,
      "implantable": 3505,
      "Atherosclerotic": 3506,
      "cardioverter": 3507,
      "Prominent": 3508,
      "58": 3509,
      "CH": 3510,
      "Palpitation": 3511,
      "rales": 3512,
      "##fore": 3513,
      "please": 3514,
      "##ocedure": 3515,
      "dete": 3516,
      "alleged": 3517,
      "prepr": 3518,
      "Allergic": 3519,
      "iritis": 3520,
      "##acter": 3521,
      "reveals": 3522,
      "admitted": 3523,
      "CHF": 3524,
      "preprocedure": 3525,
      "One": 3526,
      "Opac": 3527,
      "round": 3528,
      "##cal": 3529,
      "##inage": 3530,
      "##rainage": 3531,
      "##iring": 3532,
      "intravenous": 3533,
      "radiography": 3534,
      "##trast": 3535,
      "##betes": 3536,
      "leukemia": 3537,
      "requiring": 3538,
      "Diabetes": 3539,
      "supra": 3540,
      "ax": 3541,
      "home": 3542,
      "##ays": 3543,
      "diame": 3544,
      "reported": 3545,
      "representing": 3546,
      "significantly": 3547,
      "pathology": 3548,
      "secondary": 3549,
      "sacro": 3550,
      "detected": 3551,
      "diameter": 3552,
      "7th": 3553,
      "At": 3554,
      "CX": 3555,
      "Coar": 3556,
      "EK": 3557,
      "Mass": 3558,
      "biapical": 3559,
      "drainage": 3560,
      "ju": 3561,
      "war": 3562,
      "##sal": 3563,
      "##ina": 3564,
      "##ostimulator": 3565,
      "##othing": 3566,
      "retro": 3567,
      "spurr": 3568,
      "residual": 3569,
      "studies": 3570,
      "clothing": 3571,
      "##otherapy": 3572,
      "Mediastinum": 3573,
      "neurostimulator": 3574,
      "##imilar": 3575,
      "carotid": 3576,
      "Elevated": 3577,
      "CXR": 3578,
      "EKG": 3579,
      "warran": 3580,
      "spurring": 3581,
      "She": 3582,
      "##ded": 3583,
      "##radi": 3584,
      "before": 3585,
      "anteriorly": 3586,
      "vision": 3587,
      "unfold": 3588,
      "##tifact": 3589,
      "parenchymal": 3590,
      "Thoracic": 3591,
      "blurr": 3592,
      "projection": 3593,
      "flattened": 3594,
      "airways": 3595,
      "lingula": 3596,
      "blurry": 3597,
      "53": 3598,
      "Nipple": 3599,
      "eto": 3600,
      "mig": 3601,
      "murm": 3602,
      "nigh": 3603,
      "##ax": 3604,
      "##aneous": 3605,
      "##utive": 3606,
      "##bing": 3607,
      "##best": 3608,
      "##wal": 3609,
      "##weats": 3610,
      "##dra": 3611,
      "##arm": 3612,
      "##raines": 3613,
      "withdra": 3614,
      "##culi": 3615,
      "calculi": 3616,
      "asbest": 3617,
      "##utaneous": 3618,
      "##elitis": 3619,
      "rever": 3620,
      "##tsweats": 3621,
      "##usal": 3622,
      "##iving": 3623,
      "forearm": 3624,
      "##ogram": 3625,
      "##omyelitis": 3626,
      "##opausal": 3627,
      "osteomyelitis": 3628,
      "Positivekin": 3629,
      "insuf": 3630,
      "Unknown": 3631,
      "neph": 3632,
      "##agia": 3633,
      "soreness": 3634,
      "involved": 3635,
      "Bronchiectasis": 3636,
      "thrombosis": 3637,
      "chemotherapy": 3638,
      "causes": 3639,
      "stabbing": 3640,
      "dysphagia": 3641,
      "descending": 3642,
      "passed": 3643,
      "Coarse": 3644,
      "etoh": 3645,
      "migraines": 3646,
      "murmur": 3647,
      "nightsweats": 3648,
      "withdrawal": 3649,
      "asbestos": 3650,
      "reversal": 3651,
      "insufficiency": 3652,
      "16": 3653,
      "46": 3654,
      "fat": 3655,
      "four": 3656,
      "marg": 3657,
      "similar": 3658,
      "##pation": 3659,
      "##tipation": 3660,
      "indig": 3661,
      "##estion": 3662,
      "constipation": 3663,
      "artifact": 3664,
      "##ressed": 3665,
      "Anxiety": 3666,
      "implantation": 3667,
      "immunosuppressed": 3668,
      "hypotension": 3669,
      "indigestion": 3670,
      "43": 3671,
      "Carcin": 3672,
      "Effusion": 3673,
      "GE": 3674,
      "Ins": 3675,
      "Join": 3676,
      "Ph": 3677,
      "Panc": 3678,
      "Renal": 3679,
      "Room": 3680,
      "Sarcoma": 3681,
      "duration": 3682,
      "ectatic": 3683,
      "gown": 3684,
      "hal": 3685,
      "long": 3686,
      "nipple": 3687,
      "pil": 3688,
      "picc": 3689,
      "tro": 3690,
      "tetralogy": 3691,
      "valu": 3692,
      "xan": 3693,
      "##eze": 3694,
      "##aise": 3695,
      "##iogram": 3696,
      "##rocard": 3697,
      "##cutive": 3698,
      "##RD": 3699,
      "##tia": 3700,
      "##reatic": 3701,
      "##onid": 3702,
      "##inking": 3703,
      "anything": 3704,
      "##ian": 3705,
      "conse": 3706,
      "demen": 3707,
      "malaise": 3708,
      "##mpit": 3709,
      "##mporal": 3710,
      "colostomy": 3711,
      "armpit": 3712,
      "abscesses": 3713,
      "wheeze": 3714,
      "##orectal": 3715,
      "##icals": 3716,
      "catheters": 3717,
      "catheterization": 3718,
      "##iliitis": 3719,
      "electrocard": 3720,
      "unresponsive": 3721,
      "Exertion": 3722,
      "part": 3723,
      "hasn": 3724,
      "recently": 3725,
      "nonradi": 3726,
      "care": 3727,
      "remove": 3728,
      "##cinated": 3729,
      "Recently": 3730,
      "temporal": 3731,
      "##ponin": 3732,
      "drinking": 3733,
      "vaccinated": 3734,
      "chemicals": 3735,
      "Bloody": 3736,
      "Colorectal": 3737,
      "commissure": 3738,
      "antibiotics": 3739,
      "probable": 3740,
      "Resulting": 3741,
      "course": 3742,
      "sacroiliitis": 3743,
      "Atypical": 3744,
      "retroperitoneal": 3745,
      "warrants": 3746,
      "nephrectomy": 3747,
      "Carcinoid": 3748,
      "GERD": 3749,
      "Inside": 3750,
      "Joint": 3751,
      "Physical": 3752,
      "Pancreatic": 3753,
      "Roommate": 3754,
      "half": 3755,
      "pilonid": 3756,
      "troponin": 3757,
      "valuation": 3758,
      "xanax": 3759,
      "consecutive": 3760,
      "dementia": 3761,
      "electrocardiogram": 3762,
      "Exertional": 3763,
      "nonradiating": 3764,
      "pilonidal": 3765,
      "pel": 3766,
      "##gement": 3767,
      "##olog": 3768,
      "lev": 3769,
      "##ops": 3770,
      "engorgement": 3771,
      "##nes": 3772,
      "##mper": 3773,
      "##racheal": 3774,
      "##atracheal": 3775,
      "contrast": 3776,
      "paratracheal": 3777,
      "amnes": 3778,
      "temper": 3779,
      "occurred": 3780,
      "causing": 3781,
      "questionable": 3782,
      "amnesia": 3783,
      "temperature": 3784,
      "high": 3785,
      "##imp": 3786,
      "##ates": 3787,
      "proxi": 3788,
      "##pect": 3789,
      "proximal": 3790,
      "Re": 3791,
      "opa": 3792,
      "zone": 3793,
      "##late": 3794,
      "them": 3795,
      "##inate": 3796,
      "##ull": 3797,
      "##ished": 3798,
      "aspect": 3799,
      "fibrotic": 3800,
      "##minished": 3801,
      "humeral": 3802,
      "top": 3803,
      "marked": 3804,
      "superimp": 3805,
      "coarse": 3806,
      "##position": 3807,
      "##velop": 3808,
      "Pres": 3809,
      "##ague": 3810,
      "##iter": 3811,
      "##vis": 3812,
      "##whe": 3813,
      "##ones": 3814,
      "##her": 3815,
      "inferior": 3816,
      "##ucent": 3817,
      "presentwhe": 3818,
      "overl": 3819,
      "##agg": 3820,
      "diminished": 3821,
      "presentwhere": 3822,
      "##otic": 3823,
      "##rec": 3824,
      "apprec": 3825,
      "##itus": 3826,
      "hyperl": 3827,
      "incision": 3828,
      "underlying": 3829,
      "Midline": 3830,
      "sulcus": 3831,
      "Li": 3832,
      "cuf": 3833,
      "##vian": 3834,
      "##iate": 3835,
      "##lavian": 3836,
      "develop": 3837,
      "##acent": 3838,
      "overt": 3839,
      "##mited": 3840,
      "great": 3841,
      "subclavian": 3842,
      "opacification": 3843,
      "superimposed": 3844,
      "Limited": 3845,
      "cuff": 3846,
      "Aort": 3847,
      "##eterm": 3848,
      "##ier": 3849,
      "##ool": 3850,
      "indeterm": 3851,
      "##osure": 3852,
      "These": 3853,
      "##ternal": 3854,
      "node": 3855,
      "fem": 3856,
      "stool": 3857,
      "lobar": 3858,
      "Def": 3859,
      "require": 3860,
      "procedure": 3861,
      "Aorta": 3862,
      "indeterminate": 3863,
      "6th": 3864,
      "Granul": 3865,
      "##jacent": 3866,
      "##ither": 3867,
      "indicate": 3868,
      "terms": 3869,
      "obscure": 3870,
      "jugular": 3871,
      "Presence": 3872,
      "Central": 3873,
      "Mo": 3874,
      "Main": 3875,
      "##cing": 3876,
      "##what": 3877,
      "##mend": 3878,
      "##ful": 3879,
      "##ommend": 3880,
      "##icardial": 3881,
      "##osternal": 3882,
      "adjacent": 3883,
      "resol": 3884,
      "parenchy": 3885,
      "blunted": 3886,
      "retrosternal": 3887,
      "excluded": 3888,
      "improved": 3889,
      "parenchyma": 3890,
      "Air": 3891,
      "Borderline": 3892,
      "Em": 3893,
      "Further": 3894,
      "aeration": 3895,
      "bsence": 3896,
      "go": 3897,
      "##ever": 3898,
      "##like": 3899,
      "##len": 3900,
      "##illa": 3901,
      "overall": 3902,
      "##andlike": 3903,
      "appropr": 3904,
      "esophagus": 3905,
      "##acterial": 3906,
      "axilla": 3907,
      "levoscoliosis": 3908,
      "Remo": 3909,
      "Emphysema": 3910,
      "appropriate": 3911,
      "9th": 3912,
      "Cl": 3913,
      "Ver": 3914,
      "function": 3915,
      "fissure": 3916,
      "##cending": 3917,
      "ascending": 3918,
      "##derately": 3919,
      "Hyperl": 3920,
      "Three": 3921,
      "project": 3922,
      "somewhat": 3923,
      "appreciated": 3924,
      "Moderate": 3925,
      "Based": 3926,
      "cir": 3927,
      "generalized": 3928,
      "wires": 3929,
      "##entesis": 3930,
      "##itor": 3931,
      "thoracentesis": 3932,
      "Exam": 3933,
      "dilated": 3934,
      "obese": 3935,
      "improvement": 3936,
      "goiter": 3937,
      "With": 3938,
      "co": 3939,
      "less": 3940,
      "##pen": 3941,
      "sever": 3942,
      "stated": 3943,
      "compar": 3944,
      "##lowing": 3945,
      "result": 3946,
      "moderately": 3947,
      "prosthe": 3948,
      "Concern": 3949,
      "hypoven": 3950,
      "Vascular": 3951,
      "amp": 3952,
      "bi": 3953,
      "date": 3954,
      "mm": 3955,
      "sur": 3956,
      "vague": 3957,
      "##vin": 3958,
      "convin": 3959,
      "##ider": 3960,
      "disorder": 3961,
      "##otomy": 3962,
      "Leu": 3963,
      "monitor": 3964,
      "Streaky": 3965,
      "Pneumothorax": 3966,
      "involving": 3967,
      "sequela": 3968,
      "##aggerated": 3969,
      "convincing": 3970,
      "Generalized": 3971,
      "hos": 3972,
      "nor": 3973,
      "tim": 3974,
      "##emon": 3975,
      "##tle": 3976,
      "##bro": 3977,
      "indiv": 3978,
      "##temp": 3979,
      "##ters": 3980,
      "##stration": 3981,
      "liters": 3982,
      "fact": 3983,
      "external": 3984,
      "attemp": 3985,
      "epicardial": 3986,
      "neither": 3987,
      "used": 3988,
      "Mildly": 3989,
      "impression": 3990,
      "correlate": 3991,
      "##umerous": 3992,
      "rotator": 3993,
      "sequelae": 3994,
      "pelvic": 3995,
      "several": 3996,
      "##emonstration": 3997,
      "individual": 3998,
      "attempting": 3999,
      "AM": 4000,
      "AI": 4001,
      "Atr": 4002,
      "ce": 4003,
      "ja": 4004,
      "pound": 4005,
      "##rol": 4006,
      "##gra": 4007,
      "##vascular": 4008,
      "##mb": 4009,
      "int": 4010,
      "##onitis": 4011,
      "sutures": 4012,
      "##iferative": 4013,
      "##ubation": 4014,
      "retained": 4015,
      "lie": 4016,
      "loc21": 4017,
      "##aking": 4018,
      "##idemia": 4019,
      "##ipidemia": 4020,
      "##oprol": 4021,
      "recommend": 4022,
      "indicates": 4023,
      "##pice": 4024,
      "Peripheral": 4025,
      "ovarian": 4026,
      "partially": 4027,
      "rounded": 4028,
      "##ullary": 4029,
      "Hyperlipidemia": 4030,
      "hospice": 4031,
      "AML": 4032,
      "Atrial": 4033,
      "jaw": 4034,
      "##oproliferative": 4035,
      "5th": 4036,
      "Currently": 4037,
      "cou": 4038,
      "ey": 4039,
      "hist": 4040,
      "lack": 4041,
      "rati": 4042,
      "sv": 4043,
      "wors": 4044,
      "##sen": 4045,
      "##adequ": 4046,
      "##ken": 4047,
      "##cum": 4048,
      "##isis": 4049,
      "##ides": 4050,
      "##bleed": 4051,
      "breat": 4052,
      "compressive": 4053,
      "##roken": 4054,
      "mostly": 4055,
      "allogeneic": 4056,
      "specify": 4057,
      "nosebleed": 4058,
      "crisis": 4059,
      "amount": 4060,
      "refer": 4061,
      "Prost": 4062,
      "pancreatic": 4063,
      "##opsy": 4064,
      "femur": 4065,
      "circum": 4066,
      "biopsy": 4067,
      "factors": 4068,
      "couple": 4069,
      "eye": 4070,
      "histoplasm": 4071,
      "ratio": 4072,
      "svc": 4073,
      "worsened": 4074,
      "##adequate": 4075,
      "56": 4076,
      "79": 4077,
      "98": 4078,
      "92": 4079,
      "Basilar": 4080,
      "Bacterial": 4081,
      "Call": 4082,
      "Des": 4083,
      "EC": 4084,
      "ES": 4085,
      "Myel": 4086,
      "Oxygen": 4087,
      "Occ": 4088,
      "Pol": 4089,
      "SB": 4090,
      "Some": 4091,
      "Spon": 4092,
      "aut": 4093,
      "bandlike": 4094,
      "broken": 4095,
      "pills": 4096,
      "pyel": 4097,
      "room": 4098,
      "sed": 4099,
      "syph": 4100,
      "ty": 4101,
      "wr": 4102,
      "##sing": 4103,
      "##iment": 4104,
      "##lous": 4105,
      "##lier": 4106,
      "##ritis": 4107,
      "##gly": 4108,
      "##ythr": 4109,
      "##mis": 4110,
      "##DS": 4111,
      "ingestion": 4112,
      "##omer": 4113,
      "##rebro": 4114,
      "##onged": 4115,
      "induction": 4116,
      "##ulone": 4117,
      "##ergency": 4118,
      "##thral": 4119,
      "##rated": 4120,
      "##veill": 4121,
      "##olonged": 4122,
      "##phritis": 4123,
      "##ilis": 4124,
      "##tern": 4125,
      "depart": 4126,
      "fell": 4127,
      "tracheostomy": 4128,
      "##tracellular": 4129,
      "breasts": 4130,
      "hypoxemia": 4131,
      "memb": 4132,
      "enter": 4133,
      "##itonitis": 4134,
      "hypergly": 4135,
      "##ernight": 4136,
      "presented": 4137,
      "##ranoproliferative": 4138,
      "extensive": 4139,
      "extracellular": 4140,
      "##taneous": 4141,
      "bullous": 4142,
      "##ogressive": 4143,
      "emergency": 4144,
      "Productive": 4145,
      "##ably": 4146,
      "##iaphragmatic": 4147,
      "shower": 4148,
      "Inadequate": 4149,
      "fractured": 4150,
      "synov": 4151,
      "angina": 4152,
      "erythr": 4153,
      "Peritonitis": 4154,
      "##ocyte": 4155,
      "Prolonged": 4156,
      "Progressive": 4157,
      "Morbid": 4158,
      "earlier": 4159,
      "overnight": 4160,
      "sinusitis": 4161,
      "glomer": 4162,
      "dehydrated": 4163,
      "Flank": 4164,
      "feeling": 4165,
      "Atherosclerosis": 4166,
      "swallowed": 4167,
      "dysphasia": 4168,
      "transposition": 4169,
      "shadows": 4170,
      "##yarthral": 4171,
      "disoriented": 4172,
      "unfolding": 4173,
      "requirement": 4174,
      "obscured": 4175,
      "Removed": 4176,
      "Closure": 4177,
      "ampullary": 4178,
      "surveill": 4179,
      "Leukemia": 4180,
      "AIDS": 4181,
      "cerebro": 4182,
      "intubation": 4183,
      "referred": 4184,
      "Prostate": 4185,
      "Desaturation": 4186,
      "ECF": 4187,
      "ESR": 4188,
      "Myeloid": 4189,
      "Occasional": 4190,
      "Polyarthral": 4191,
      "SBP": 4192,
      "Spontaneous": 4193,
      "pyeloplasty": 4194,
      "sediment": 4195,
      "syphilis": 4196,
      "type": 4197,
      "wrist": 4198,
      "##mission": 4199,
      "##ulonephritis": 4200,
      "department": 4201,
      "membranoproliferative": 4202,
      "hyperglycemia": 4203,
      "synovial": 4204,
      "erythrocyte": 4205,
      "Morbidly": 4206,
      "glomerulonephritis": 4207,
      "surveillance": 4208,
      "cerebrovascular": 4209,
      "Polyarthralgia": 4210,
      "sedimentation": 4211,
      "66": 4212,
      "Cer": 4213,
      "IN": 4214,
      "Sl": 4215,
      "Tr": 4216,
      "cx": 4217,
      "lap": 4218,
      "run": 4219,
      "ure": 4220,
      "##ny": 4221,
      "##nation": 4222,
      "##bul": 4223,
      "##lob": 4224,
      "##cti": 4225,
      "##pid": 4226,
      "##mer": 4227,
      "##arosco": 4228,
      "##osing": 4229,
      "abbreviations": 4230,
      "painful": 4231,
      "##ocurvature": 4232,
      "shif": 4233,
      "normalized": 4234,
      "mediastinitis": 4235,
      "fibrosing": 4236,
      "obl": 4237,
      "streak": 4238,
      "rapid": 4239,
      "##cessive": 4240,
      "Impl": 4241,
      "rib6": 4242,
      "excessive": 4243,
      "infecti": 4244,
      "internation": 4245,
      "Abbreviations": 4246,
      "pread": 4247,
      "resulting": 4248,
      "##bolic": 4249,
      "elbowed": 4250,
      "relative": 4251,
      "Scoliosis": 4252,
      "made": 4253,
      "polyar": 4254,
      "obscuration": 4255,
      "Diaphragmatic": 4256,
      "lingular": 4257,
      "disorientation": 4258,
      "##ordination": 4259,
      "##ologous": 4260,
      "coordination": 4261,
      "hypoventilation": 4262,
      "nosebleeds": 4263,
      "autologous": 4264,
      "Cervical": 4265,
      "INR": 4266,
      "Slight": 4267,
      "Tripped": 4268,
      "cxr": 4269,
      "laparosco": 4270,
      "runny": 4271,
      "ureter": 4272,
      "infectious": 4273,
      "international": 4274,
      "preadmission": 4275,
      "polyarticular": 4276,
      "laparoscopic": 4277,
      "Acc": 4278,
      "Ong": 4279,
      "hab": 4280,
      "lad": 4281,
      "##oing": 4282,
      "meta": 4283,
      "bet": 4284,
      "rib7": 4285,
      "rib9": 4286,
      "midc": 4287,
      "subd": 4288,
      "##rop": 4289,
      "##omyopathy": 4290,
      "Hyperinf": 4291,
      "##omatous": 4292,
      "refle": 4293,
      "irregularity": 4294,
      "rotated": 4295,
      "Granulomatous": 4296,
      "Ongoing": 4297,
      "habitus": 4298,
      "ladder": 4299,
      "Atelectasis": 4300,
      "Fa": 4301,
      "Ov": 4302,
      "Skin": 4303,
      "To": 4304,
      "TN": 4305,
      "Tob": 4306,
      "av": 4307,
      "gener": 4308,
      "mam": 4309,
      "open": 4310,
      "taking": 4311,
      "##ai": 4312,
      "##ired": 4313,
      "##onch": 4314,
      "##initis": 4315,
      "##entu": 4316,
      "iss": 4317,
      "##lable": 4318,
      "##seu": 4319,
      "##isted": 4320,
      "living": 4321,
      "being": 4322,
      "##mogra": 4323,
      "shaped": 4324,
      "experienced": 4325,
      "pretra": 4326,
      "hemith": 4327,
      "overlap": 4328,
      "accentu": 4329,
      "assisted": 4330,
      "Unremarkable": 4331,
      "decreasing": 4332,
      "rhonch": 4333,
      "various": 4334,
      "wedging": 4335,
      "film": 4336,
      "medications": 4337,
      "morning": 4338,
      "rotation": 4339,
      "Opacities": 4340,
      "Opacity": 4341,
      "overlies": 4342,
      "entering": 4343,
      "shift": 4344,
      "ureteral": 4345,
      "Failure": 4346,
      "Ovarian": 4347,
      "TNF": 4348,
      "Tobacco": 4349,
      "avai": 4350,
      "mammogra": 4351,
      "hemithorax": 4352,
      "rhonchi": 4353,
      "available": 4354,
      "mammogram": 4355,
      "8th": 4356,
      "Diffuse": 4357,
      "Lumb": 4358,
      "bow": 4359,
      "ful": 4360,
      "fragm": 4361,
      "pulmonic": 4362,
      "##ault": 4363,
      "##ire": 4364,
      "##ove": 4365,
      "##omyc": 4366,
      "above": 4367,
      "##irst": 4368,
      "##neumothorax": 4369,
      "pneumon": 4370,
      "feet": 4371,
      "hypercal": 4372,
      "subtle": 4373,
      "##antable": 4374,
      "Cardiomy": 4375,
      "##entricular": 4376,
      "protected": 4377,
      "pattern": 4378,
      "hydrop": 4379,
      "early": 4380,
      "walking": 4381,
      "##calcified": 4382,
      "Implantable": 4383,
      "subdiaphragmatic": 4384,
      "reflect": 4385,
      "bowel": 4386,
      "fully": 4387,
      "hypercalcemia": 4388,
      "Cardiomyopathy": 4389,
      "hydropneumothorax": 4390,
      "29": 4391,
      "38": 4392,
      "59": 4393,
      "Ca": 4394,
      "Cache": 4395,
      "Eight": 4396,
      "HT": 4397,
      "Hom": 4398,
      "Men": 4399,
      "Mit": 4400,
      "Mus": 4401,
      "Neur": 4402,
      "Nec": 4403,
      "PD": 4404,
      "PM": 4405,
      "Park": 4406,
      "Pseu": 4407,
      "Rap": 4408,
      "UI": 4409,
      "Using": 4410,
      "cutaneous": 4411,
      "dig": 4412,
      "dow": 4413,
      "fal": 4414,
      "hoar": 4415,
      "hicc": 4416,
      "lost": 4417,
      "pp": 4418,
      "sides": 4419,
      "une": 4420,
      "vs": 4421,
      "wounds": 4422,
      "##sg": 4423,
      "##ago": 4424,
      "##ks": 4425,
      "##kines": 4426,
      "##uis": 4427,
      "##tment": 4428,
      "##oper": 4429,
      "##oym": 4430,
      "##bag": 4431,
      "##ltoid": 4432,
      "##rot": 4433,
      "##glob": 4434,
      "##ctic": 4435,
      "##cision": 4436,
      "##cosity": 4437,
      "##ported": 4438,
      "##ventricular": 4439,
      "##went": 4440,
      "##morrh": 4441,
      "##molar": 4442,
      "##fer": 4443,
      "##xplain": 4444,
      "instance": 4445,
      "##tigo": 4446,
      "##titis": 4447,
      "##onas": 4448,
      "##ontin": 4449,
      "##alation": 4450,
      "##ulitis": 4451,
      "ormal": 4452,
      "##nsta": 4453,
      "##nsfer": 4454,
      "anus": 4455,
      "##urisy": 4456,
      "##osmolar": 4457,
      "ablation": 4458,
      "##ceiving": 4459,
      "##ocytic": 4460,
      "##olester": 4461,
      "##irs": 4462,
      "##gestive": 4463,
      "##ystitis": 4464,
      "former": 4465,
      "suggestion": 4466,
      "depl": 4467,
      "deltoid": 4468,
      "##utches": 4469,
      "##othache": 4470,
      "##icarditis": 4471,
      "outn": 4472,
      "seiz": 4473,
      "##eless": 4474,
      "receiving": 4475,
      "airbag": 4476,
      "state": 4477,
      "stones": 4478,
      "##athing": 4479,
      "##ucasia": 4480,
      "##owing": 4481,
      "hyperosmolar": 4482,
      "rib5": 4483,
      "acqu": 4484,
      "cholester": 4485,
      "exaggerated": 4486,
      "lymphocytic": 4487,
      "evaluated": 4488,
      "shoulders": 4489,
      "##unicable": 4490,
      "lipase": 4491,
      "Shield": 4492,
      "tubal": 4493,
      "##domonas": 4494,
      "myotomy": 4495,
      "myoper": 4496,
      "postmen": 4497,
      "hemoglob": 4498,
      "Transfer": 4499,
      "oxygenation": 4500,
      "##abg": 4501,
      "Hypervis": 4502,
      "cervicalgia": 4503,
      "##ups": 4504,
      "##alectomy": 4505,
      "Alveolar": 4506,
      "##ancy": 4507,
      "cellulitis": 4508,
      "Thyro": 4509,
      "Thank": 4510,
      "Aspiration": 4511,
      "underwent": 4512,
      "usual": 4513,
      "cholecystitis": 4514,
      "Congestive": 4515,
      "growing": 4516,
      "Breathing": 4517,
      "bruis": 4518,
      "rhinitis": 4519,
      "crutches": 4520,
      "ambul": 4521,
      "pregnancy": 4522,
      "exacerbations": 4523,
      "Pleurisy": 4524,
      "Complaining": 4525,
      "##inson": 4526,
      "Scrot": 4527,
      "Hemorrh": 4528,
      "14th": 4529,
      "hypoinflation": 4530,
      "inhalation": 4531,
      "Diagnosed": 4532,
      "Incontin": 4533,
      "dyskines": 4534,
      "immunosuppression": 4535,
      "immunosuppressive": 4536,
      "swallowing": 4537,
      "adrenalectomy": 4538,
      "cardioversion": 4539,
      "Headaches": 4540,
      "Collision": 4541,
      "transported": 4542,
      "communicable": 4543,
      "walks": 4544,
      "supraventricular": 4545,
      "Vertigo": 4546,
      "Examination": 4547,
      "##seness": 4548,
      "circumcision": 4549,
      "streaked": 4550,
      "metabolic": 4551,
      "midchest": 4552,
      "Toothache": 4553,
      "issues": 4554,
      "pretransplant": 4555,
      "Lumbago": 4556,
      "Caucasia": 4557,
      "Cachectic": 4558,
      "HTN": 4559,
      "Homeless": 4560,
      "Menopausal": 4561,
      "Mitomyopathy": 4562,
      "Muscle": 4563,
      "Neuropathy": 4564,
      "Neck": 4565,
      "PDR": 4566,
      "PMale": 4567,
      "Parkinson": 4568,
      "Pseudomonas": 4569,
      "Rapid": 4570,
      "UIP": 4571,
      "digital": 4572,
      "downsta": 4573,
      "false": 4574,
      "hoarseness": 4575,
      "hiccups": 4576,
      "ppd": 4577,
      "unexplain": 4578,
      "##sgiving": 4579,
      "##oyment": 4580,
      "deployment": 4581,
      "seizures": 4582,
      "acquired": 4583,
      "cholesterol": 4584,
      "Shielded": 4585,
      "myopericarditis": 4586,
      "postmenopausal": 4587,
      "hemoglobin": 4588,
      "Hyperviscosity": 4589,
      "Thyroid": 4590,
      "Thanksgiving": 4591,
      "bruising": 4592,
      "ambulance": 4593,
      "Scrotal": 4594,
      "Hemorrhage": 4595,
      "Incontinence": 4596,
      "dyskinesia": 4597,
      "Caucasian": 4598,
      "downstairs": 4599,
      "unexplained": 4600,
      "64": 4601,
      "Bibasilar": 4602,
      "Rect": 4603,
      "ben": 4604,
      "cabg": 4605,
      "first": 4606,
      "iron": 4607,
      "palp": 4608,
      "tire": 4609,
      "##oce": 4610,
      "##oatr": 4611,
      "##dular": 4612,
      "##omening": 4613,
      "Nodular": 4614,
      "anemia": 4615,
      "##umatic": 4616,
      "##tinomyc": 4617,
      "##itary": 4618,
      "bullet": 4619,
      "##verter": 4620,
      "##odular": 4621,
      "parotid": 4622,
      "recurrent": 4623,
      "cavoatr": 4624,
      "cavitary": 4625,
      "Conf": 4626,
      "myelomening": 4627,
      "Actinomyc": 4628,
      "##pecific": 4629,
      "Cardioverter": 4630,
      "However": 4631,
      "Assault": 4632,
      "humerus": 4633,
      "hyperlucent": 4634,
      "Defibrillator": 4635,
      "Without": 4636,
      "times": 4637,
      "Accident": 4638,
      "pneumonias": 4639,
      "Rectal": 4640,
      "palpation": 4641,
      "##ocele": 4642,
      "cavoatrial": 4643,
      "myelomeningocele": 4644,
      "Actinomyces": 4645,
      "Oste": 4646,
      "Ster": 4647,
      "aged": 4648,
      "glen": 4649,
      "pl": 4650,
      "##inant": 4651,
      "infra": 4652,
      "cancerind": 4653,
      "cortic": 4654,
      "##idental": 4655,
      "##ectus": 4656,
      "caval": 4657,
      "##perexpanded": 4658,
      "nonspecific": 4659,
      "destr": 4660,
      "recommended": 4661,
      "generator": 4662,
      "Sternotomy": 4663,
      "AP": 4664,
      "Sided": 4665,
      "dual": 4666,
      "ill": 4667,
      "narrow": 4668,
      "##operitone": 4669,
      "##ry": 4670,
      "##inear": 4671,
      "##enesc": 4672,
      "##oses": 4673,
      "calib": 4674,
      "pneumoperitone": 4675,
      "##tinct": 4676,
      "##omach": 4677,
      "conflu": 4678,
      "stomach": 4679,
      "radiographic": 4680,
      "predom": 4681,
      "views": 4682,
      "carina": 4683,
      "sulci": 4684,
      "suprahilar": 4685,
      "projected": 4686,
      "Hyperinflated": 4687,
      "accentuated": 4688,
      "Confirm": 4689,
      "##enescent": 4690,
      "caliber": 4691,
      "pneumoperitoneum": 4692,
      "Fra": 4693,
      "lord": 4694,
      "##lete": 4695,
      "##idence": 4696,
      "diagnoses": 4697,
      "##omplete": 4698,
      "incomplete": 4699,
      "Evidence": 4700,
      "Tracheal": 4701,
      "Acromioclavicular": 4702,
      "Additionally": 4703,
      "subcutaneous": 4704,
      "unfolded": 4705,
      "compartment": 4706,
      "Bl": 4707,
      "Given": 4708,
      "Over": 4709,
      "os": 4710,
      "##side": 4711,
      "##ortion": 4712,
      "##nse": 4713,
      "##istinct": 4714,
      "##tex": 4715,
      "calcific": 4716,
      "##traumatic": 4717,
      "posttraumatic": 4718,
      "pleura": 4719,
      "Calcinosis": 4720,
      "demonstrates": 4721,
      "concerning": 4722,
      "probably": 4723,
      "developed": 4724,
      "fragment": 4725,
      "##inantly": 4726,
      "predominantly": 4727,
      "Blun": 4728,
      "Large": 4729,
      "Multilevel": 4730,
      "numerous": 4731,
      "senescent": 4732,
      "##rete": 4733,
      "##oured": 4734,
      "##vex": 4735,
      "dish": 4736,
      "##ilinear": 4737,
      "##inder": 4738,
      "consolid": 4739,
      "very": 4740,
      "rib8": 4741,
      "noncalcified": 4742,
      "redemonstration": 4743,
      "discrete": 4744,
      "##urvilinear": 4745,
      "contoured": 4746,
      "Consider": 4747,
      "Emphysematous": 4748,
      "histoplasmosis": 4749,
      "benign": 4750,
      "lordotic": 4751,
      "Gr": 4752,
      "##rip": 4753,
      "##we": 4754,
      "indistinct": 4755,
      "##atel": 4756,
      "outside": 4757,
      "recess": 4758,
      "dislocations": 4759,
      "shunt": 4760,
      "like": 4761,
      "Hyperexpanded": 4762,
      "Problem": 4763,
      "atypical": 4764,
      "posteriorly": 4765,
      "angles": 4766,
      "dextrocurvature": 4767,
      "complete": 4768,
      "descrip": 4769,
      "engorged": 4770,
      "margination": 4771,
      "platel": 4772,
      "infrahilar": 4773,
      "Grossly": 4774,
      "description": 4775,
      "platelike": 4776,
      "Question": 4777,
      "fib": 4778,
      "##gos": 4779,
      "##ces": 4780,
      "##ygos": 4781,
      "##zygos": 4782,
      "##aracter": 4783,
      "##atum": 4784,
      "##ronodular": 4785,
      "obvious": 4786,
      "character": 4787,
      "defin": 4788,
      "tubing": 4789,
      "incidental": 4790,
      "##chondral": 4791,
      "Postsurgical": 4792,
      "regions": 4793,
      "termin": 4794,
      "lumen": 4795,
      "fourth": 4796,
      "hyperlucency": 4797,
      "confluent": 4798,
      "Confirmed": 4799,
      "Blunting": 4800,
      "fibronodular": 4801,
      "Red": 4802,
      "Sub": 4803,
      "gas": 4804,
      "portion": 4805,
      "##uous": 4806,
      "##pond": 4807,
      "ort": 4808,
      "##respond": 4809,
      "##olateral": 4810,
      "##uced": 4811,
      "##unne": 4812,
      "loops": 4813,
      "correspond": 4814,
      "diffusely": 4815,
      "needed": 4816,
      "depend": 4817,
      "sclerotic": 4818,
      "tuberculous": 4819,
      "images": 4820,
      "incisions": 4821,
      "resolved": 4822,
      "cortical": 4823,
      "incompletely": 4824,
      "curvilinear": 4825,
      "differen": 4826,
      "lar": 4827,
      "pectus": 4828,
      "##av": 4829,
      "##gr": 4830,
      "##ping": 4831,
      "anter": 4832,
      "contex": 4833,
      "##gest": 4834,
      "rightward": 4835,
      "radiopa": 4836,
      "Tracheostomy": 4837,
      "Abnormalities": 4838,
      "assessed": 4839,
      "measures": 4840,
      "axillary": 4841,
      "overlie": 4842,
      "Slightly": 4843,
      "Overall": 4844,
      "Considering": 4845,
      "largest": 4846,
      "context": 4847,
      "radiopaque": 4848,
      "Biapical": 4849,
      "Cost": 4850,
      "atele": 4851,
      "border": 4852,
      "flowing": 4853,
      "ly": 4854,
      "tunne": 4855,
      "##larged": 4856,
      "convex": 4857,
      "degen": 4858,
      "##seus": 4859,
      "periphe": 4860,
      "##ignment": 4861,
      "unremark": 4862,
      "poster": 4863,
      "clinically": 4864,
      "Extensive": 4865,
      "##abl": 4866,
      "reduced": 4867,
      "Calcification": 4868,
      "symmetric": 4869,
      "pelvis": 4870,
      "resolution": 4871,
      "prosthesis": 4872,
      "better": 4873,
      "destructive": 4874,
      "narrowing": 4875,
      "osseus": 4876,
      "differences": 4877,
      "Costophrenic": 4878,
      "atelectatic": 4879,
      "tunneled": 4880,
      "periphery": 4881,
      "unremarkabl": 4882,
      "Wid": 4883,
      "azygos": 4884,
      "basal": 4885,
      "foc": 4886,
      "ij": 4887,
      "##ture": 4888,
      "##pinal": 4889,
      "suture": 4890,
      "thir": 4891,
      "confirming": 4892,
      "retra": 4893,
      "consider": 4894,
      "##coid": 4895,
      "##anges": 4896,
      "Changes": 4897,
      "##anced": 4898,
      "Seque": 4899,
      "Severe": 4900,
      "Lower": 4901,
      "projects": 4902,
      "Osteop": 4903,
      "Fractures": 4904,
      "third": 4905,
      "Catheter": 4906,
      "Numerous": 4907,
      "On": 4908,
      "eti": 4909,
      "fiss": 4910,
      "full": 4911,
      "how": 4912,
      "##clear": 4913,
      "##tila": 4914,
      "ofthing": 4915,
      "##ulated": 4916,
      "anch": 4917,
      "thin": 4918,
      "##ubitus": 4919,
      "rib1": 4920,
      "##obable": 4921,
      "positioning": 4922,
      "unclear": 4923,
      "allowing": 4924,
      "alignment": 4925,
      "10th": 4926,
      "Probable": 4927,
      "remainder": 4928,
      "Corre": 4929,
      "kyphotic": 4930,
      "marginal": 4931,
      "oblique": 4932,
      "relatively": 4933,
      "betwe": 4934,
      "Redemonstration": 4935,
      "convexity": 4936,
      "posterolateral": 4937,
      "however": 4938,
      "between": 4939,
      "Again": 4940,
      "Ere": 4941,
      "Focal": 4942,
      "##sed": 4943,
      "##ally": 4944,
      "prim": 4945,
      "##arinal": 4946,
      "##eding": 4947,
      "contain": 4948,
      "##olitis": 4949,
      "hyperost": 4950,
      "##tebral": 4951,
      "Impro": 4952,
      "height": 4953,
      "structure": 4954,
      "expected": 4955,
      "##thritic": 4956,
      "##ogastric": 4957,
      "centrally": 4958,
      "visual": 4959,
      "##ormity": 4960,
      "dextro": 4961,
      "bronchiolitis": 4962,
      "Enlarged": 4963,
      "implants": 4964,
      "Arthritic": 4965,
      "glenoid": 4966,
      "definitive": 4967,
      "hyperostosis": 4968,
      "4th": 4969,
      "Apical": 4970,
      "Bul": 4971,
      "Or": 4972,
      "Old": 4973,
      "PA": 4974,
      "Su": 4975,
      "do": 4976,
      "fif": 4977,
      "sit": 4978,
      "tr": 4979,
      "tips": 4980,
      "##em": 4981,
      "##oh": 4982,
      "##nsity": 4983,
      "exce": 4984,
      "splen": 4985,
      "##verse": 4986,
      "Eventration": 4987,
      "Dense": 4988,
      "excav": 4989,
      "##umeral": 4990,
      "colonic": 4991,
      "costochondral": 4992,
      "Tortuosity": 4993,
      "transverse": 4994,
      "margin": 4995,
      "histoplasmoma": 4996,
      "glenoh": 4997,
      "terminating": 4998,
      "ortuous": 4999
    }
  }
}