{
  "version": "1.0",
  "truncation": null,
  "padding": null,
  "added_tokens": [
    {
      "id": 0,
      "special": true,
      "content": "<PAD>",
      "single_word": false,
      "lstrip": false,
      "rstrip": false,
      "normalized": false
    },
    {
      "id": 1,
      "special": true,
      "content": "<UNK>",
      "single_word": false,
      "lstrip": false,
      "rstrip": false,
      "normalized": false
    },
    {
      "id": 2,
      "special": true,
      "content": "[CLS]",
      "single_word": false,
      "lstrip": false,
      "rstrip": false,
      "normalized": false
    },
    {
      "id": 3,
      "special": true,
      "content": "[SEP]",
      "single_word": false,
      "lstrip": false,
      "rstrip": false,
      "normalized": false
    },
    {
      "id": 4,
      "special": true,
      "content": "<s>",
      "single_word": false,
      "lstrip": false,
      "rstrip": false,
      "normalized": false
    },
    {
      "id": 5,
      "special": true,
      "content": "<MASK>",
      "single_word": false,
      "lstrip": false,
      "rstrip": false,
      "normalized": false
    },
    {
      "id": 6,
      "special": true,
      "content": "<size>",
      "single_word": false,
      "lstrip": false,
      "rstrip": false,
      "normalized": false
    },
    {
      "id": 7,
      "special": true,
      "content": "<ind>",
      "single_word": false,
      "lstrip": false,
      "rstrip": false,
      "normalized": false
    },
    {
      "id": 8,
      "special": true,
      "content": "<prompt>",
      "single_word": false,
      "lstrip": false,
      "rstrip": false,
      "normalized": false
    },
    {
      "id": 9,
      "special": true,
      "content": "T1",
      "single_word": false,
      "lstrip": false,
      "rstrip": false,
      "normalized": false
    },
    {
      "id": 10,
      "special": true,
      "content": "T2",
      "single_word": false,
      "lstrip": false,
      "rstrip": false,
      "normalized": false
    },
    {
      "id": 11,
      "special": true,
      "content": "T3",
      "single_word": false,
      "lstrip": false,
      "rstrip": false,
      "normalized": false
    },
    {
      "id": 12,
      "special": true,
      "content": "T4",
      "single_word": false,
      "lstrip": false,
      "rstrip": false,
      "normalized": false
    },
    {
      "id": 13,
      "special": true,
      "content": "T5",
      "single_word": false,
      "lstrip": false,
      "rstrip": false,
      "normalized": false
    },
    {
      "id": 14,
      "special": true,
      "content": "T6",
      "single_word": false,
      "lstrip": false,
      "rstrip": false,
      "normalized": false
    },
    {
      "id": 15,
      "special": true,
      "content": "T7",
      "single_word": false,
      "lstrip": false,
      "rstrip": false,
      "normalized": false
    },
    {
      "id": 16,
      "special": true,
      "content": "T8",
      "single_word": false,
      "lstrip": false,
      "rstrip": false,
      "normalized": false
    },
    {
      "id": 17,
      "special": true,
      "content": "T9",
      "single_word": false,
      "lstrip": false,
      "rstrip": false,
      "normalized": false
    },
    {
      "id": 18,
      "special": true,
      "content": "T10",
      "single_word": false,
      "lstrip": false,
      "rstrip": false,
      "normalized": false
    },
    {
      "id": 19,
      "special": true,
      "content": "T11",
      "single_word": false,
      "lstrip": false,
      "rstrip": false,
      "normalized": false
    },
    {
      "id": 20,
      "special": true,
      "content": "T12",
      "single_word": false,
      "lstrip": false,
      "rstrip": false,
      "normalized": false
    },
    {
      "id": 21,
      "special": true,
      "content": "1",
      "single_word": false,
      "lstrip": false,
      "rstrip": false,
      "normalized": false
    },
    {
      "id": 22,
      "special": true,
      "content": "2",
      "single_word": false,
      "lstrip": false,
      "rstrip": false,
      "normalized": false
    },
    {
      "id": 23,
      "special": true,
      "content": "3",
      "single_word": false,
      "lstrip": false,
      "rstrip": false,
      "normalized": false
    },
    {
      "id": 24,
      "special": true,
      "content": "4",
      "single_word": false,
      "lstrip": false,
      "rstrip": false,
      "normalized": false
    },
    {
      "id": 25,
      "special": true,
      "content": "5",
      "single_word": false,
      "lstrip": false,
      "rstrip": false,
      "normalized": false
    },
    {
      "id": 26,
      "special": true,
      "content": "6",
      "single_word": false,
      "lstrip": false,
      "rstrip": false,
      "normalized": false
    },
    {
      "id": 27,
      "special": true,
      "content": "7",
      "single_word": false,
      "lstrip": false,
      "rstrip": false,
      "normalized": false
    },
    {
      "id": 28,
      "special": true,
      "content": "8",
      "single_word": false,
      "lstrip": false,
      "rstrip": false,
      "normalized": false
    },
    {
      "id": 29,
      "special": true,
      "content": "9",
      "single_word": false,
      "lstrip": false,
      "rstrip": false,
      "normalized": false
    },
    {
      "id": 30,
      "special": true,
      "content": "0",
      "single_word": false,
      "lstrip": false,
      "rstrip": false,
      "normalized": false
    },
    {
      "id": 31,
      "special": true,
      "content": "<loc0>",
      "single_word": false,
      "lstrip": false,
      "rstrip": false,
      "normalized": false
    },
    {
      "id": 32,
      "special": true,
      "content": "<loc1>",
      "single_word": false,
      "lstrip": false,
      "rstrip": false,
      "normalized": false
    },
    {
      "id": 33,
      "special": true,
      "content": "<loc2>",
      "single_word": false,
      "lstrip": false,
      "rstrip": false,
      "normalized": false
    },
    {
      "id": 34,
      "special": true,
      "content": "<loc00>",
      "single_word": false,
      "lstrip": false,
      "rstrip": false,
      "normalized": false
    },
    {
      "id": 35,
      "special": true,
      "content": "<loc01>",
      "single_word": false,
      "lstrip": false,
      "rstrip": false,
      "normalized": false
    },
    {
      "id": 36,
      "special": true,
      "content": "<loc02>",
      "single_word": false,
      "lstrip": false,
      "rstrip": false,
      "normalized": false
    },
    {
      "id": 37,
      "special": true,
      "content": "<loc10>",
      "single_word": false,
      "lstrip": false,
      "rstrip": false,
      "normalized": false
    },
    {
      "id": 38,
      "special": true,
      "content": "<loc11>",
      "single_word": false,
      "lstrip": false,
      "rstrip": false,
      "normalized": false
    },
    {
      "id": 39,
      "special": true,
      "content": "<loc12>",
      "single_word": false,
      "lstrip": false,
      "rstrip": false,
      "normalized": false
    },
    {
      "id": 40,
      "special": true,
      "content": "<loc20>",
      "single_word": false,
      "lstrip": false,
      "rstrip": false,
      "normalized": false
    },
    {
      "id": 41,
      "special": true,
      "content": "<loc21>",
      "single_word": false,
      "lstrip": false,
      "rstrip": false,
      "normalized": false
    },
    {
      "id": 42,
      "special": true,
      "content": "<loc22>",
      "single_word": false,
      "lstrip": false,
      "rstrip": false,
      "normalized": false
    },
    {
      "id": 43,
      "special": true,
      "content": "<loc02><loc22>",
      "single_word": false,
      "lstrip": false,
      "rstrip": false,
      "normalized": false
    },
    {
      "id": 44,
      "special": true,
      "content": "<loc0><loc2>",
      "single_word": false,
      "lstrip": false,
      "rstrip": false,
      "normalized": false
    }
  ],
  "normalizer": null,
  "pre_tokenizer": {
    "type": "ByteLevel",
    "add_prefix_space": false,
    "trim_offsets": true
  },
  "post_processor": {
    "type": "ByteLevel",
    "add_prefix_space": true,
    "trim_offsets": false
  },
  "decoder": {
    "type": "ByteLevel",
    "add_prefix_space": true,
    "trim_offsets": true
  },
  "model": {
    "type": "BPE",
    "dropout": null,
    "unk_token": null,
    "continuing_subword_prefix": null,
    "end_of_word_suffix": "</w>",
    "fuse_unk": false,
    "vocab": {
      "<PAD>": 0,
      "<UNK>": 1,
      "[CLS]": 2,
      "[SEP]": 3,
      "<s>": 4,
      "<MASK>": 5,
      "<size>": 6,
      "<ind>": 7,
      "<prompt>": 8,
      "T1": 9,
      "T2": 10,
      "T3": 11,
      "T4": 12,
      "T5": 13,
      "T6": 14,
      "T7": 15,
      "T8": 16,
      "T9": 17,
      "T10": 18,
      "T11": 19,
      "T12": 20,
      "1": 21,
      "2": 22,
      "3": 23,
      "4": 24,
      "5": 25,
      "6": 26,
      "7": 27,
      "8": 28,
      "9": 29,
      "0": 30,
      "<loc0>": 31,
      "<loc1>": 32,
      "<loc2>": 33,
      "<loc00>": 34,
      "<loc01>": 35,
      "<loc02>": 36,
      "<loc10>": 37,
      "<loc11>": 38,
      "<loc12>": 39,
      "<loc20>": 40,
      "<loc21>": 41,
      "<loc22>": 42,
      "<loc02><loc22>": 43,
      "<loc0><loc2>": 44,
      "\"": 45,
      "$": 46,
      "%": 47,
      "&": 48,
      "'": 49,
      "(": 50,
      ")": 51,
      "+": 52,
      ",": 53,
      "-": 54,
      ".": 55,
      "/": 56,
      ":": 57,
      ";": 58,
      "<": 59,
      "=": 60,
      ">": 61,
      "?": 62,
      "A": 63,
      "B": 64,
      "C": 65,
      "D": 66,
      "E": 67,
      "F": 68,
      "G": 69,
      "H": 70,
      "I": 71,
      "J": 72,
      "K": 73,
      "L": 74,
      "M": 75,
      "N": 76,
      "O": 77,
      "P": 78,
      "Q": 79,
      "R": 80,
      "S": 81,
      "T": 82,
      "U": 83,
      "V": 84,
      "W": 85,
      "X": 86,
      "Y": 87,
      "Z": 88,
      "[": 89,
      "]": 90,
      "a": 91,
      "b": 92,
      "c": 93,
      "d": 94,
      "e": 95,
      "f": 96,
      "g": 97,
      "h": 98,
      "i": 99,
      "j": 100,
      "k": 101,
      "l": 102,
      "m": 103,
      "n": 104,
      "o": 105,
      "p": 106,
      "q": 107,
      "r": 108,
      "s": 109,
      "t": 110,
      "u": 111,
      "v": 112,
      "w": 113,
      "x": 114,
      "y": 115,
      "z": 116,
      "{": 117,
      "}": 118,
      "Ċ": 119,
      "Ġ": 120,
      "c</w>": 121,
      "r</w>": 122,
      "8</w>": 123,
      "y</w>": 124,
      "l</w>": 125,
      "<</w>": 126,
      "e</w>": 127,
      "n</w>": 128,
      "g</w>": 129,
      "k</w>": 130,
      "d</w>": 131,
      "t</w>": 132,
      "m</w>": 133,
      "s</w>": 134,
      "f</w>": 135,
      "w</w>": 136,
      "a</w>": 137,
      ".</w>": 138,
      "h</w>": 139,
      "P</w>": 140,
      "i</w>": 141,
      "S</w>": 142,
      "5</w>": 143,
      "3</w>": 144,
      "4</w>": 145,
      "o</w>": 146,
      "2</w>": 147,
      "x</w>": 148,
      "p</w>": 149,
      "F</w>": 150,
      "0</w>": 151,
      "+</w>": 152,
      "\"</w>": 153,
      "b</w>": 154,
      "D</w>": 155,
      "N</w>": 156,
      "7</w>": 157,
      "C</w>": 158,
      "></w>": 159,
      "]</w>": 160,
      "I</w>": 161,
      "-</w>": 162,
      "A</w>": 163,
      "6</w>": 164,
      "1</w>": 165,
      "&</w>": 166,
      "?</w>": 167,
      "T</w>": 168,
      "{</w>": 169,
      "Ċ</w>": 170,
      "G</w>": 171,
      ";</w>": 172,
      "X</w>": 173,
      "L</w>": 174,
      "9</w>": 175,
      ":</w>": 176,
      ")</w>": 177,
      "Ġ</w>": 178,
      "H</w>": 179,
      ",</w>": 180,
      "B</w>": 181,
      "$</w>": 182,
      "R</w>": 183,
      "/</w>": 184,
      "u</w>": 185,
      "v</w>": 186,
      "V</w>": 187,
      "q</w>": 188,
      "j</w>": 189,
      "'</w>": 190,
      "M</w>": 191,
      "%</w>": 192,
      "=</w>": 193,
      "Q</w>": 194,
      "}</w>": 195,
      "(</w>": 196,
      "[</w>": 197,
      "in": 198,
      "Ġo": 199,
      "Ġt": 200,
      "ro": 201,
      "mp": 202,
      "Ġ<</w>": 203,
      "Ġa": 204,
      "pro": 205,
      "Ġth": 206,
      "promp": 207,
      "prompt</w>": 208,
      "re</w>": 209,
      "si": 210,
      "ti": 211,
      "Ġp": 212,
      "ind</w>": 213,
      "ra": 214,
      "Ġi": 215,
      "ma": 216,
      "Ġof</w>": 217,
      "Ġc": 218,
      "Ġthe</w>": 219,
      "di": 220,
      "le": 221,
      "ns</w>": 222,
      "on</w>": 223,
      "Ġsi": 224,
      "en": 225,
      "ere</w>": 226,
      "es</w>": 227,
      "Ġs": 228,
      "Ġn": 229,
      "ul": 230,
      "Ġor</w>": 231,
      "ar": 232,
      "or": 233,
      "Ġsig": 234,
      "Ġan": 235,
      "Ġsigns</w>": 236,
      "><</w>": 237,
      "Ġthere</w>": 238,
      "es": 239,
      "on": 240,
      "No</w>": 241,
      "as": 242,
      "er": 243,
      "Ġl": 244,
      "tion</w>": 245,
      "Ġf": 246,
      "ral</w>": 247,
      "ed</w>": 248,
      "Ġe": 249,
      "Ġany</w>": 250,
      "ca": 251,
      "ural</w>": 252,
      "Ġw": 253,
      "ar</w>": 254,
      "Ġple": 255,
      "Ġpleural</w>": 256,
      "Ġin</w>": 257,
      "ĠNo</w>": 258,
      "it": 259,
      "ĠA": 260,
      "Ġh": 261,
      "ĠAre</w>": 262,
      "Ġis</w>": 263,
      "ol": 264,
      "orma": 265,
      "un": 266,
      ".<</w>": 267,
      "ing</w>": 268,
      "al</w>": 269,
      "Ġb": 270,
      "Ġin": 271,
      "fi": 272,
      "Ġdi": 273,
      "Ġno</w>": 274,
      "Ġlun": 275,
      "sis</w>": 276,
      "Ġare</w>": 277,
      "ge</w>": 278,
      "Ġm": 279,
      "le</w>": 280,
      "cul": 281,
      "Ġr": 282,
      "Ġwit": 283,
      "Ġab": 284,
      "ce</w>": 285,
      "in</w>": 286,
      "sion</w>": 287,
      "al": 288,
      "mage</w>": 289,
      "Ġimage</w>": 290,
      "ci": 291,
      "la": 292,
      "Ġv": 293,
      "um": 294,
      "Ġcon": 295,
      "Ġsu": 296,
      "om": 297,
      "Ġpa": 298,
      "ye": 299,
      "Ġma": 300,
      "Ġlung</w>": 301,
      "id": 302,
      "Ġno": 303,
      "Th": 304,
      "ent</w>": 305,
      "st": 306,
      "ve</w>": 307,
      "ne": 308,
      "ary</w>": 309,
      "mon": 310,
      "li": 311,
      "at": 312,
      "ulmon": 313,
      "ch": 314,
      "est</w>": 315,
      "Ġwith</w>": 316,
      "year</w>": 317,
      "ardi": 318,
      "old</w>": 319,
      "cation</w>": 320,
      "ic": 321,
      "Ġpain</w>": 322,
      "ast": 323,
      "ha": 324,
      "de": 325,
      "ff": 326,
      "ulmonary</w>": 327,
      "ties</w>": 328,
      "Ġpulmonary</w>": 329,
      "Ġhe": 330,
      "ho": 331,
      "ĠI": 332,
      "ons</w>": 333,
      "ence</w>": 334,
      "tive</w>": 335,
      "ct": 336,
      "norma": 337,
      "ffu": 338,
      "Ġabnorma": 339,
      "ĠIs</w>": 340,
      "Ġeffu": 341,
      "re": 342,
      "Ġdis": 343,
      "tic</w>": 344,
      "cifi": 345,
      "res": 346,
      "ormal</w>": 347,
      "Ġeffusion</w>": 348,
      "Ġnormal</w>": 349,
      "osis</w>": 350,
      "edi": 351,
      "pa": 352,
      "neum": 353,
      "Ġcal": 354,
      "tions</w>": 355,
      "Ġpneum": 356,
      "astin": 357,
      "ediastin": 358,
      "hest</w>": 359,
      "Ġev": 360,
      "ased</w>": 361,
      "ur": 362,
      "lities</w>": 363,
      "Ġabnormalities</w>": 364,
      "Ġindi": 365,
      "ĠTh": 366,
      "Ġand</w>": 367,
      "gs</w>": 368,
      "cular</w>": 369,
      "Ġcalcifi": 370,
      "Ġindication</w>": 371,
      "yo": 372,
      "ot": 373,
      "pp": 374,
      "art</w>": 375,
      "lo": 376,
      "ss": 377,
      "Ġyo": 378,
      "Ġyou</w>": 379,
      "Ġchest</w>": 380,
      "ter": 381,
      "ges": 382,
      "Ġheart</w>": 383,
      "hat</w>": 384,
      "er</w>": 385,
      "Ġnod": 386,
      "based</w>": 387,
      "Ġ.</w>": 388,
      "Ġpro": 389,
      "Ġtra": 390,
      "Ġcardi": 391,
      "or</w>": 392,
      "ch</w>": 393,
      "25</w>": 394,
      "ation</w>": 395,
      "ron": 396,
      "Ġas</w>": 397,
      "ble</w>": 398,
      "ut</w>": 399,
      "Ġa</w>": 400,
      "ase</w>": 401,
      "an</w>": 402,
      "Ġsuch</w>": 403,
      "Ġevid": 404,
      "ub": 405,
      "ess</w>": 406,
      "Ġevidence</w>": 407,
      "Ġdia": 408,
      "tra": 409,
      "ĠC": 410,
      "ble": 411,
      "Ġfi": 412,
      "Ġlo": 413,
      "Ġmediastin": 414,
      "gges": 415,
      "Ġaor": 416,
      "Ġdise": 417,
      "ph": 418,
      "Ġde": 419,
      "ma</w>": 420,
      "et": 421,
      "ig": 422,
      "Ġdisease</w>": 423,
      "Ġd": 424,
      "ze</w>": 425,
      "el": 426,
      "cations</w>": 427,
      "ms</w>": 428,
      "loc</w>": 429,
      "ure</w>": 430,
      "hora": 431,
      "ĠW": 432,
      "Ġcalcifications</w>": 433,
      "te": 434,
      "Ġsugges": 435,
      "ema": 436,
      "othora": 437,
      "is</w>": 438,
      "Ġpneumothora": 439,
      "Ġproble": 440,
      "sp": 441,
      "Ġabs": 442,
      "Ġthis</w>": 443,
      "Ġpneumothorax</w>": 444,
      "Ġsize</w>": 445,
      "oma</w>": 446,
      "ou": 447,
      "emale</w>": 448,
      "ĠWhat</w>": 449,
      "ures</w>": 450,
      "Ġob": 451,
      "Ġre": 452,
      "ercul": 453,
      "ubercul": 454,
      "Ġvas": 455,
      "uberculosis</w>": 456,
      "Ġpres": 457,
      "Ġapp": 458,
      "les</w>": 459,
      "ac</w>": 460,
      "rag": 461,
      "Ġai": 462,
      "Ġper": 463,
      "phrag": 464,
      "Ġfemale</w>": 465,
      "vi": 466,
      "Ġaortic</w>": 467,
      "che": 468,
      "ctures</w>": 469,
      "ted</w>": 470,
      "ft</w>": 471,
      "ru": 472,
      "ment</w>": 473,
      "ules</w>": 474,
      "Ġnodules</w>": 475,
      "Ġproblems</w>": 476,
      "Ġcardiac</w>": 477,
      "ĠThere</w>": 478,
      "ic</w>": 479,
      "Ġst": 480,
      "ĠCan</w>": 481,
      "sses</w>": 482,
      "op": 483,
      "Ġmasses</w>": 484,
      "Ġle": 485,
      "rosis</w>": 486,
      "Ġli": 487,
      "um</w>": 488,
      "icardi": 489,
      "oma": 490,
      "The</w>": 491,
      "te</w>": 492,
      "Ġpericardi": 493,
      "Yes</w>": 494,
      "Ġtrache": 495,
      "Ġout</w>": 496,
      "Ġse": 497,
      "Ġg": 498,
      "Ġfib": 499,
      "ression</w>": 500,
      "ind": 501,
      "mpression</w>": 502,
      "ings</w>": 503,
      "il": 504,
      "ity</w>": 505,
      "Ġmale</w>": 506,
      "igh": 507,
      "cal</w>": 508,
      "th": 509,
      "Ġfibrosis</w>": 510,
      "Ġfor</w>": 511,
      "ec": 512,
      "Ġopa": 513,
      "Ġlungs</w>": 514,
      "Ġrul": 515,
      "Ġdiaphrag": 516,
      "ight</w>": 517,
      "era": 518,
      "matic</w>": 519,
      "Ġconfi": 520,
      "Ġmediastinal</w>": 521,
      "per": 522,
      "ia</w>": 523,
      "ness</w>": 524,
      "ĠThe</w>": 525,
      "Ġcons": 526,
      "ting</w>": 527,
      "Ġconfir": 528,
      "indings</w>": 529,
      "se</w>": 530,
      "tis</w>": 531,
      "olid": 532,
      "Ġconsolid": 533,
      "ronch": 534,
      "ory</w>": 535,
      "Ġto</w>": 536,
      "ĠD": 537,
      "Ġappe": 538,
      "fil": 539,
      "filtra": 540,
      "Ġinfiltra": 541,
      "ement</w>": 542,
      "Ġbre": 543,
      "en</w>": 544,
      "tes</w>": 545,
      "enti": 546,
      "Ġright</w>": 547,
      "Ġdiaphragmatic</w>": 548,
      "ran": 549,
      "ri": 550,
      "Ġhi": 551,
      "Ġabsence</w>": 552,
      "ort": 553,
      "ronchi": 554,
      "nea</w>": 555,
      "ysp": 556,
      "pace</w>": 557,
      "ue</w>": 558,
      "yspnea</w>": 559,
      "ine</w>": 560,
      "Ġpresent</w>": 561,
      "story</w>": 562,
      "omediastin": 563,
      "Ġbreat": 564,
      "Ġco": 565,
      "ts</w>": 566,
      "Ġtuberculosis</w>": 567,
      "asis</w>": 568,
      "Ġinfiltrates</w>": 569,
      "ous</w>": 570,
      "ctasis</w>": 571,
      "Ġen": 572,
      "Ġca": 573,
      "Ġconfirm</w>": 574,
      "Ġar": 575,
      "erative</w>": 576,
      "Ġcol": 577,
      "Ġhy": 578,
      "Ġj": 579,
      "oin": 580,
      "ices</w>": 581,
      "Ġbreath</w>": 582,
      "Ġsp": 583,
      "Ġac": 584,
      "lavi": 585,
      "yc": 586,
      "ss</w>": 587,
      "hort": 588,
      "lavicular</w>": 589,
      "hortness</w>": 590,
      "Ġjoin": 591,
      "arg": 592,
      "one": 593,
      "tient</w>": 594,
      "dema</w>": 595,
      "Ġfra": 596,
      "bing</w>": 597,
      "ĠDo</w>": 598,
      "Ġhone": 599,
      "ombing</w>": 600,
      "ycombing</w>": 601,
      "Ġhoneycombing</w>": 602,
      "larg": 603,
      "Ġedema</w>": 604,
      "Ġbe</w>": 605,
      "Ġenlarg": 606,
      "Ġinf": 607,
      "cities</w>": 608,
      "Ġpo": 609,
      "able</w>": 610,
      "Ġtum": 611,
      "Ġopacities</w>": 612,
      "ser": 613,
      "lear</w>": 614,
      "Ġclear</w>": 615,
      "no": 616,
      "Ġhyper": 617,
      "lu": 618,
      "Ġvascular</w>": 619,
      "culat": 620,
      "Ġobser": 621,
      "ection</w>": 622,
      "chest</w>": 623,
      "Ġleft</w>": 624,
      "ors</w>": 625,
      "Ġair</w>": 626,
      "Ġruling</w>": 627,
      "Ġtumors</w>": 628,
      "ormation</w>": 629,
      "Ġpericardial</w>": 630,
      "Ġconsolidation</w>": 631,
      "Ġfractures</w>": 632,
      "Ġap": 633,
      "teri": 634,
      "qu": 635,
      "Ġsuggesting</w>": 636,
      "ranul": 637,
      "Ġgranul": 638,
      "ctive</w>": 639,
      "ymp": 640,
      "hin</w>": 641,
      "Ġwithin</w>": 642,
      "Ġver": 643,
      "Ġair": 644,
      "Ġstru": 645,
      "teb": 646,
      "Ġwh": 647,
      "Ġtb</w>": 648,
      "gn": 649,
      "omas</w>": 650,
      "Ġverteb": 651,
      "ern": 652,
      "Ġsuggestive</w>": 653,
      "Ġfa": 654,
      "Ġimpression</w>": 655,
      "lap": 656,
      "space</w>": 657,
      "Ġfo": 658,
      "Ġri": 659,
      "mit": 660,
      "Ġairspace</w>": 661,
      "stru": 662,
      "sible</w>": 663,
      "Ġemp": 664,
      "ved</w>": 665,
      "Ġmass</w>": 666,
      "ases</w>": 667,
      "Ġstructures</w>": 668,
      "Ġmet": 669,
      "Ġobstru": 670,
      "Ġhern": 671,
      "Ġcalcified</w>": 672,
      "Ġmetast": 673,
      "Ġcan": 674,
      "lapse</w>": 675,
      "mat": 676,
      "Ġlimit": 677,
      "Ġvi": 678,
      "ars</w>": 679,
      "Ġobserved</w>": 680,
      "Ġif</w>": 681,
      "Ġpla": 682,
      "ora": 683,
      "Ġmediastinum</w>": 684,
      "Ġbronchi": 685,
      "as</w>": 686,
      "Ġtracheal</w>": 687,
      "Ġhistory</w>": 688,
      "Ġind</w>": 689,
      "Ġlimits</w>": 690,
      "Ġrib</w>": 691,
      "Ġfocal</w>": 692,
      "Ġwhat</w>": 693,
      "ticular</w>": 694,
      "Ġobstructive</w>": 695,
      "Ġenlargement</w>": 696,
      "ilure</w>": 697,
      "Ġfailure</w>": 698,
      "Ġon</w>": 699,
      "gnosis</w>": 700,
      "cess</w>": 701,
      "ening</w>": 702,
      "Ġapices</w>": 703,
      "Ġvertebral</w>": 704,
      "Ġdiagnosis</w>": 705,
      "ĠT": 706,
      "Ġhemat": 707,
      "ym": 708,
      "ric": 709,
      "Ġmetastases</w>": 710,
      "operative</w>": 711,
      "ent": 712,
      "Ġappears</w>": 713,
      "onia</w>": 714,
      "Ġabscess</w>": 715,
      "tele": 716,
      "Ġti": 717,
      "Ġpneumomediastin": 718,
      "Ġpneumomediastinum</w>": 719,
      "Ġatele": 720,
      "yema</w>": 721,
      "Ġempyema</w>": 722,
      "Ġthora": 723,
      "Ġatelectasis</w>": 724,
      "Ġex": 725,
      "pla": 726,
      "Ġjoint</w>": 727,
      "Ġpericarditis</w>": 728,
      "section</w>": 729,
      "Ġdissection</w>": 730,
      "ac": 731,
      "clavicular</w>": 732,
      "Ġformation</w>": 733,
      "reoperative</w>": 734,
      "ques</w>": 735,
      "Ġplaques</w>": 736,
      "Ġthym": 737,
      "ng": 738,
      "Ġfindings</w>": 739,
      "Ġpneumonia</w>": 740,
      "ath": 741,
      "Ġsho": 742,
      "Ġso": 743,
      "Ġreticular</w>": 744,
      "rictive</w>": 745,
      "ys": 746,
      "Ġconst": 747,
      "Ġconstrictive</w>": 748,
      "Ġtrapp": 749,
      "sions</w>": 750,
      "cic</w>": 751,
      "ly</w>": 752,
      "hout</w>": 753,
      "Ġtrapping</w>": 754,
      "col": 755,
      "ined</w>": 756,
      "ick": 757,
      "ray</w>": 758,
      "Ġthick": 759,
      "Ġthickening</w>": 760,
      "Ġcha": 761,
      "Ġgranuloma</w>": 762,
      "Ġlocation</w>": 763,
      "hou": 764,
      "Ġwithout</w>": 765,
      "lhou": 766,
      "Ġsilhou": 767,
      "Ġsilhouet": 768,
      "Ġnoted</w>": 769,
      "Ġcont": 770,
      "alu": 771,
      "Ġdyspnea</w>": 772,
      "Ġlymp": 773,
      "Ġvisible</w>": 774,
      "Ġtiss": 775,
      "Ġthoracic</w>": 776,
      "Ġnot</w>": 777,
      "ther</w>": 778,
      "Ġbon": 779,
      "ĠTuberculosis</w>": 780,
      "Ġsilhouette</w>": 781,
      "Ġcollapse</w>": 782,
      "ronic</w>": 783,
      "ds</w>": 784,
      "Ġvasculat": 785,
      "Ġvasculature</w>": 786,
      "Ġspine</w>": 787,
      "fied</w>": 788,
      "ĠP": 789,
      "Ġseen</w>": 790,
      "Ġsoft</w>": 791,
      "olum": 792,
      "Ġvolum": 793,
      "ten": 794,
      "Ġmid": 795,
      "mi": 796,
      "65</w>": 797,
      "ung</w>": 798,
      "Ġinter": 799,
      "der</w>": 800,
      "Ġpatient</w>": 801,
      "Ġdue</w>": 802,
      "Ġnoti": 803,
      "Ġchang": 804,
      "Ġother</w>": 805,
      "Ġposi": 806,
      "Ġrule</w>": 807,
      "gen": 808,
      "Ġchanges</w>": 809,
      "ical</w>": 810,
      "tension</w>": 811,
      "Ġmo": 812,
      "gestion</w>": 813,
      "Ġsca": 814,
      "Ġshortness</w>": 815,
      "Ġevalu": 816,
      "lity</w>": 817,
      "city</w>": 818,
      "lation</w>": 819,
      "sti": 820,
      "Ġfiel": 821,
      "tial</w>": 822,
      "Ġbo": 823,
      "Ġnotice</w>": 824,
      "ular</w>": 825,
      "Ġfields</w>": 826,
      "Ġu": 827,
      "sist": 828,
      "denti": 829,
      "Ġidenti": 830,
      "Ġcompression</w>": 831,
      "Ġcongestion</w>": 832,
      "Ġintersti": 833,
      "Ġidentified</w>": 834,
      "Ġcan</w>": 835,
      "iv": 836,
      "cable</w>": 837,
      "Ġinterstitial</w>": 838,
      "findings</w>": 839,
      "cement</w>": 840,
      "st</w>": 841,
      "licable</w>": 842,
      "Ġapplicable</w>": 843,
      "ations</w>": 844,
      "Ġopacity</w>": 845,
      "Ġra": 846,
      "sistent</w>": 847,
      "ulder</w>": 848,
      "yst": 849,
      "Ġabnormality</w>": 850,
      "der": 851,
      "Ġtissue</w>": 852,
      "Ġcath": 853,
      "ob": 854,
      "Ġval": 855,
      "ely</w>": 856,
      "Ġwhere</w>": 857,
      "ree</w>": 858,
      "terior</w>": 859,
      "Ġlymph</w>": 860,
      "at</w>": 861,
      "Chest</w>": 862,
      "entra": 863,
      "Ġshoulder</w>": 864,
      "ell</w>": 865,
      "id</w>": 866,
      "Ġmidl": 867,
      "Ġvalve</w>": 868,
      "Ġby</w>": 869,
      "pe</w>": 870,
      "Ġele": 871,
      "Ġhernia</w>": 872,
      "Ġradi": 873,
      "be</w>": 874,
      "dyspnea</w>": 875,
      "Ġnodes</w>": 876,
      "Ġsha": 877,
      "ule</w>": 878,
      "Ġx</w>": 879,
      "Ġanterior</w>": 880,
      "ira": 881,
      "Ġhypertension</w>": 882,
      "ore": 883,
      "lec": 884,
      "coli": 885,
      "omediastinal</w>": 886,
      "rg": 887,
      "ign</w>": 888,
      "coliosis</w>": 889,
      "atient</w>": 890,
      "Ġfore": 891,
      "entration</w>": 892,
      "Ġeventration</w>": 893,
      "Ġane": 894,
      "dies</w>": 895,
      "Ġcardiomediastinal</w>": 896,
      "og": 897,
      "ĠL": 898,
      "urys": 899,
      "Ġaneurys": 900,
      "Ġforeign</w>": 901,
      "Ġaneurysm</w>": 902,
      "Ġsub": 903,
      "not</w>": 904,
      "eter</w>": 905,
      "Ġbodies</w>": 906,
      "oth</w>": 907,
      "Ġevaluation</w>": 908,
      "Ġsh": 909,
      "Ġconsolidations</w>": 910,
      "entral</w>": 911,
      "Ġshape</w>": 912,
      "Ġster": 913,
      "Ġwe": 914,
      "thri": 915,
      "oug": 916,
      "Ġcyst": 917,
      "Ġcatheter</w>": 918,
      "Ġcysts</w>": 919,
      "ling</w>": 920,
      "Ġscoliosis</w>": 921,
      "Ġposition</w>": 922,
      "Ġsurg": 923,
      "Ġinc": 924,
      "Ġfree</w>": 925,
      "placement</w>": 926,
      "Ġcentral</w>": 927,
      "Ġbased</w>": 928,
      "Ġtracheob": 929,
      "Ġlip": 930,
      "Ġmidline</w>": 931,
      "Ġven": 932,
      "Ġun": 933,
      "Ġarthri": 934,
      "Ġtub": 935,
      "Ġcannot</w>": 936,
      "Ġdevi": 937,
      "Ġru": 938,
      "de</w>": 939,
      "Ġconsistent</w>": 940,
      "Ġwell</w>": 941,
      "ration</w>": 942,
      "istory</w>": 943,
      "ectasis</w>": 944,
      "ough</w>": 945,
      "Ġlik": 946,
      "Ġcollec": 947,
      "Patient</w>": 948,
      "Ġlikely</w>": 949,
      "iven</w>": 950,
      "pt": 951,
      "Ġbronchiectasis</w>": 952,
      "Ġgiven</w>": 953,
      "ded</w>": 954,
      "Ġtracheobronchi": 955,
      "rk": 956,
      "Ġarthritis</w>": 957,
      "Ġbul": 958,
      "Ġdislo": 959,
      "Ġcough</w>": 960,
      "ute</w>": 961,
      "atal</w>": 962,
      "cal": 963,
      "Ġov": 964,
      "Ġwid": 965,
      "Ġlesions</w>": 966,
      "inf": 967,
      "Ġhiatal</w>": 968,
      "spira": 969,
      "Ġdislocation</w>": 970,
      "Ġlin": 971,
      "order": 972,
      "ogra": 973,
      "lae</w>": 974,
      "Ġhematoma</w>": 975,
      "ta</w>": 976,
      "ential</w>": 977,
      "Ġnodule</w>": 978,
      "Ġbullae</w>": 979,
      "Ġaorta</w>": 980,
      "Ġhyperinf": 981,
      "Ġthat</w>": 982,
      "Ġinfec": 983,
      "ĠYes</w>": 984,
      "nt</w>": 985,
      "fined</w>": 986,
      "wel": 987,
      "welling</w>": 988,
      "Ġ(</w>": 989,
      "generative</w>": 990,
      "Ġintra": 991,
      "defined</w>": 992,
      "Ġborder": 993,
      "eg": 994,
      "Ġaspira": 995,
      "ĠH": 996,
      "ened</w>": 997,
      "Ġscap": 998,
      "Ġvolume</w>": 999,
      "Ġseg": 1000,
      "Shortness</w>": 1001,
      "Ġdisplacement</w>": 1002,
      "Ġinfections</w>": 1003,
      "Ġsegment</w>": 1004,
      "cer</w>": 1005,
      "Ġscapular</w>": 1006,
      "terial</w>": 1007,
      "Ġshun": 1008,
      "hag": 1009,
      "ili": 1010,
      "Ġacute</w>": 1011,
      "Ġcollections</w>": 1012,
      "Ġlines</w>": 1013,
      "Ġtracheobronchial</w>": 1014,
      "Ġappear</w>": 1015,
      "Ġradiogra": 1016,
      "ect": 1017,
      "Ġwidened</w>": 1018,
      "Ġclavicular</w>": 1019,
      "Ġcancer</w>": 1020,
      "Ġshunts</w>": 1021,
      "Ġherni": 1022,
      "Ġmaterial</w>": 1023,
      "culated</w>": 1024,
      "Ġwoma": 1025,
      "Ġwoman</w>": 1026,
      "Ġloculated</w>": 1027,
      "Ġhematomas</w>": 1028,
      "Ġvenous</w>": 1029,
      "ulmonic</w>": 1030,
      "Ġsubp": 1031,
      "ĠK": 1032,
      "Ġaspirated</w>": 1033,
      "noclavicular</w>": 1034,
      "Ġsternoclavicular</w>": 1035,
      "iliary</w>": 1036,
      "ĠB</w>": 1037,
      "ophag": 1038,
      "Ġmiliary</w>": 1039,
      "Ġsubpulmonic</w>": 1040,
      "Ġrupt": 1041,
      "Ġrupture</w>": 1042,
      "eal</w>": 1043,
      "Ġlipomas</w>": 1044,
      "ley</w>": 1045,
      "erley</w>": 1046,
      "Ġtrachea</w>": 1047,
      "ĠKerley</w>": 1048,
      "are</w>": 1049,
      "Ġborders</w>": 1050,
      "Ġch": 1051,
      "aling</w>": 1052,
      "Ġthymic</w>": 1053,
      "oned</w>": 1054,
      "ffer": 1055,
      "Ġjoints</w>": 1056,
      "Ġdegenerative</w>": 1057,
      "Ġdeviation</w>": 1058,
      "ph</w>": 1059,
      "Ġhernias</w>": 1060,
      "fferential</w>": 1061,
      "romi": 1062,
      "esophag": 1063,
      "Ġintram": 1064,
      "oclavicular</w>": 1065,
      "Ġintramural</w>": 1066,
      "Ġmost</w>": 1067,
      "romioclavicular</w>": 1068,
      "Ġspace</w>": 1069,
      "Ġbony</w>": 1070,
      "Ġhyperinflation</w>": 1071,
      "Ġradiograph</w>": 1072,
      "Ġcallu": 1073,
      "Ġcallus</w>": 1074,
      "Ġacromioclavicular</w>": 1075,
      "Ġthymoma</w>": 1076,
      "Ġhealing</w>": 1077,
      "urs</w>": 1078,
      "wer</w>": 1079,
      "pper</w>": 1080,
      "Ġsepa": 1081,
      "Ġseparation</w>": 1082,
      "ty</w>": 1083,
      "ll</w>": 1084,
      "aphrag": 1085,
      "ours</w>": 1086,
      "Ġdev": 1087,
      "calcifi": 1088,
      "Ġmil": 1089,
      "Ġswelling</w>": 1090,
      "esophageal</w>": 1091,
      "Ġlower</w>": 1092,
      "Ġpresen": 1093,
      "Ġelect": 1094,
      "term": 1095,
      "ery</w>": 1096,
      "ĠN": 1097,
      "Ġtubes</w>": 1098,
      "Ġlobe</w>": 1099,
      "su": 1100,
      "ĠLung</w>": 1101,
      "Ġint": 1102,
      "Ġdevices</w>": 1103,
      "Ġupper</w>": 1104,
      "Ġsurgery</w>": 1105,
      "PD</w>": 1106,
      "diaphrag": 1107,
      "arc": 1108,
      "Ġstable</w>": 1109,
      "Ġelectronic</w>": 1110,
      "Ġmenti": 1111,
      "mo": 1112,
      "Ġmentioned</w>": 1113,
      "Ġcontours</w>": 1114,
      "Ġdeterm": 1115,
      "calcification</w>": 1116,
      "Ġbronchial</w>": 1117,
      "dom": 1118,
      "aly</w>": 1119,
      "omeg": 1120,
      "omegaly</w>": 1121,
      "Ġal": 1122,
      "ak": 1123,
      "act</w>": 1124,
      "our</w>": 1125,
      "peri": 1126,
      "med</w>": 1127,
      "Ġreg": 1128,
      "us</w>": 1129,
      "ecifi": 1130,
      "Ġcontour</w>": 1131,
      "ding</w>": 1132,
      "led</w>": 1133,
      "50</w>": 1134,
      "Ġbi": 1135,
      "Ġvascul": 1136,
      "ated</w>": 1137,
      "Ġboth</w>": 1138,
      "po": 1139,
      "Ġconfirmed</w>": 1140,
      "lated</w>": 1141,
      "ĠPro": 1142,
      "enc": 1143,
      "Ġspecifi": 1144,
      "table</w>": 1145,
      "he": 1146,
      "Ġintact</w>": 1147,
      "us": 1148,
      "Ġcardiomegaly</w>": 1149,
      "inal</w>": 1150,
      "Ġproblem</w>": 1151,
      "ĠProble": 1152,
      "Ġflu": 1153,
      "Ġdef": 1154,
      "Ġinclu": 1155,
      "min": 1156,
      "tery</w>": 1157,
      "ĠProblems</w>": 1158,
      "Ġartery</w>": 1159,
      "Ġdifferential</w>": 1160,
      "Ġpreoperative</w>": 1161,
      "Ġmild</w>": 1162,
      "cated</w>": 1163,
      "30</w>": 1164,
      "History</w>": 1165,
      "Ġdetermined</w>": 1166,
      "Ġpresence</w>": 1167,
      "nc": 1168,
      "ack</w>": 1169,
      "lin": 1170,
      "ate</w>": 1171,
      "Ġenlarged</w>": 1172,
      "late": 1173,
      "Ġnote</w>": 1174,
      "Ġfluid</w>": 1175,
      "oes</w>": 1176,
      "one</w>": 1177,
      "Ġk": 1178,
      "Ġnotable</w>": 1179,
      "Ġit</w>": 1180,
      "Ġchronic</w>": 1181,
      "rong</w>": 1182,
      "Ġwrong</w>": 1183,
      "Ġbone</w>": 1184,
      "Ġeffusions</w>": 1185,
      "ĠB": 1186,
      "sity</w>": 1187,
      "linical</w>": 1188,
      "omy</w>": 1189,
      "Ġ50</w>": 1190,
      "Ġcondi": 1191,
      "ympt": 1192,
      "Ġpre": 1193,
      "Ġesophageal</w>": 1194,
      "eous</w>": 1195,
      "rom</w>": 1196,
      "spla": 1197,
      "Ġacc": 1198,
      "arity</w>": 1199,
      "Ġfrom</w>": 1200,
      "Ġ65</w>": 1201,
      "sseous</w>": 1202,
      "ssible</w>": 1203,
      "Ġlar": 1204,
      "Ġmain</w>": 1205,
      "Ġdiaphragm</w>": 1206,
      "splant</w>": 1207,
      "Ġdoes</w>": 1208,
      "Ġtran": 1209,
      "There</w>": 1210,
      "Ġvolumes</w>": 1211,
      "Preoperative</w>": 1212,
      "ĠS": 1213,
      "umul": 1214,
      "Ġaccumul": 1215,
      "ta": 1216,
      "reased</w>": 1217,
      "du": 1218,
      "Ġwee": 1219,
      "Ġaccumulation</w>": 1220,
      "Ġlarge</w>": 1221,
      "Ġexperi": 1222,
      "oph": 1223,
      "Ġrep": 1224,
      "Ġinfection</w>": 1225,
      "Ġexperienc": 1226,
      "mok": 1227,
      "Ġvascularity</w>": 1228,
      "Ġspecific</w>": 1229,
      "ing": 1230,
      "lies</w>": 1231,
      "rkable</w>": 1232,
      "Findings</w>": 1233,
      "Ġcomp": 1234,
      "iz": 1235,
      "Ġexperiencing</w>": 1236,
      "ysis</w>": 1237,
      "Ġbilate": 1238,
      "ense</w>": 1239,
      "Ġanoma": 1240,
      "ĠImpression</w>": 1241,
      "Ġanomalies</w>": 1242,
      "ilar</w>": 1243,
      "Ġtransplant</w>": 1244,
      "sc": 1245,
      "markable</w>": 1246,
      "remarkable</w>": 1247,
      "erall</w>": 1248,
      "preoperative</w>": 1249,
      "diaphragmatic</w>": 1250,
      "ronary</w>": 1251,
      "Ġoverall</w>": 1252,
      "Ġunremarkable</w>": 1253,
      "ats</w>": 1254,
      "ks</w>": 1255,
      "all</w>": 1256,
      "ync": 1257,
      "yncop": 1258,
      "Ġinclude</w>": 1259,
      "Ġmark": 1260,
      "Ġinformation</w>": 1261,
      "Ġad": 1262,
      "the": 1263,
      "lung</w>": 1264,
      "Ġback</w>": 1265,
      "esc": 1266,
      "Ġweeks</w>": 1267,
      "Ġfind": 1268,
      "Ġfinding</w>": 1269,
      "Ġon": 1270,
      "Ġsense</w>": 1271,
      "ee": 1272,
      "ni": 1273,
      "Ġpresenting</w>": 1274,
      "dominal</w>": 1275,
      "ĠM": 1276,
      "Ġcoronary</w>": 1277,
      "sided</w>": 1278,
      "Ġlocated</w>": 1279,
      "akness</w>": 1280,
      "ral": 1281,
      "aran": 1282,
      "Ġappearan": 1283,
      "Ġappearance</w>": 1284,
      "ren": 1285,
      "ĠAb": 1286,
      "oms</w>": 1287,
      "ymptoms</w>": 1288,
      "tri": 1289,
      "sth": 1290,
      "Ġ-</w>": 1291,
      "ĠE": 1292,
      "ys</w>": 1293,
      "Ġpossible</w>": 1294,
      "Ġsign</w>": 1295,
      "Ġfind</w>": 1296,
      "Ġx": 1297,
      "Ġsee</w>": 1298,
      "sthma</w>": 1299,
      "ays</w>": 1300,
      "Ġbase</w>": 1301,
      "yncope</w>": 1302,
      "iting</w>": 1303,
      "omiting</w>": 1304,
      "Ġden": 1305,
      "ste": 1306,
      "Ġmarkings</w>": 1307,
      "asi": 1308,
      "Ġabnormal</w>": 1309,
      "up</w>": 1310,
      "ast</w>": 1311,
      "fica": 1312,
      "renic</w>": 1313,
      "nifica": 1314,
      "Ġosseous</w>": 1315,
      "Ġobserve</w>": 1316,
      "collapse</w>": 1317,
      "Ġxray</w>": 1318,
      "Ġsignifica": 1319,
      "Ġstat": 1320,
      "Ġare": 1321,
      "Ġ25</w>": 1322,
      "escri": 1323,
      "opath": 1324,
      "arr": 1325,
      "hic": 1326,
      "is": 1327,
      "omat": 1328,
      "ĠBoth</w>": 1329,
      "Ġsmok": 1330,
      "ention</w>": 1331,
      "sence</w>": 1332,
      "Ġprevi": 1333,
      "Ġass": 1334,
      "shortness</w>": 1335,
      "Ġdeta": 1336,
      "cardi": 1337,
      "ĠAbsence</w>": 1338,
      "Ġoste": 1339,
      "Ġdetai": 1340,
      "pan": 1341,
      "ting": 1342,
      "Ġwhats</w>": 1343,
      "da": 1344,
      "ortu": 1345,
      "sugges": 1346,
      "Ġsc": 1347,
      "suggesting</w>": 1348,
      "sitive</w>": 1349,
      "Ġdetailed</w>": 1350,
      "Ġalone</w>": 1351,
      "Ġlow</w>": 1352,
      "Ġdays</w>": 1353,
      "OPD</w>": 1354,
      "cin": 1355,
      "ive</w>": 1356,
      "Ġarch</w>": 1357,
      "Ġsuggesting": 1358,
      "Ġsuggestinglung</w>": 1359,
      "rosc": 1360,
      "Ġpri": 1361,
      "Ġsymptoms</w>": 1362,
      "eft</w>": 1363,
      "Ġrelated</w>": 1364,
      "low</w>": 1365,
      "Ġloss</w>": 1366,
      "Ġwall</w>": 1367,
      "Ġprevious</w>": 1368,
      "Ġinfiltrate</w>": 1369,
      "ort</w>": 1370,
      "eral</w>": 1371,
      "escribe</w>": 1372,
      "Ġcost": 1373,
      "Ġelev": 1374,
      "Ġtest</w>": 1375,
      "ow</w>": 1376,
      "Ġmention</w>": 1377,
      "Ġtortu": 1378,
      "Ġgranulomat": 1379,
      "Ġcondition</w>": 1380,
      "Ġ1</w>": 1381,
      "Hy": 1382,
      "wn</w>": 1383,
      "Ġpost": 1384,
      "ction</w>": 1385,
      "ĠEx": 1386,
      "an": 1387,
      "opathy</w>": 1388,
      "ter</w>": 1389,
      "arring</w>": 1390,
      "Ġvomiting</w>": 1391,
      "Ġhas</w>": 1392,
      "Ġdensity</w>": 1393,
      "Ġpresents</w>": 1394,
      "roscle": 1395,
      "ĠChest</w>": 1396,
      "ophrenic</w>": 1397,
      "ws</w>": 1398,
      "theroscle": 1399,
      "Ġreport</w>": 1400,
      "cinosis</w>": 1401,
      "ab": 1402,
      "sed</w>": 1403,
      "lar</w>": 1404,
      "Ġtissu": 1405,
      "plain</w>": 1406,
      "ized</w>": 1407,
      "ĠExplain</w>": 1408,
      "asilar</w>": 1409,
      "Ġincreased</w>": 1410,
      "pox": 1411,
      "Ġscarring</w>": 1412,
      "hing</w>": 1413,
      "Ġhilar</w>": 1414,
      "sual": 1415,
      "hys": 1416,
      "ula</w>": 1417,
      "Ġ3</w>": 1418,
      "Ġgranulomatous</w>": 1419,
      "ati": 1420,
      "zing</w>": 1421,
      "eart</w>": 1422,
      "Ġasthma</w>": 1423,
      "age</w>": 1424,
      "Ġdist": 1425,
      "arcin": 1426,
      "Ġclinical</w>": 1427,
      "Ġcostophrenic</w>": 1428,
      "Ġbronch": 1429,
      "Ġregi": 1430,
      "10</w>": 1431,
      "sualized</w>": 1432,
      "22</w>": 1433,
      "Ġsma": 1434,
      "uri": 1435,
      "ve": 1436,
      "hy": 1437,
      "Ġindica": 1438,
      "Ġcav": 1439,
      "ĠCardi": 1440,
      "ĠNot": 1441,
      "Ġan</w>": 1442,
      "rro": 1443,
      "uld</w>": 1444,
      "ond": 1445,
      "ectomy</w>": 1446,
      "Ġarm</w>": 1447,
      "umb": 1448,
      "Ġpromin": 1449,
      "Ġvisualized</w>": 1450,
      "02</w>": 1451,
      "ected</w>": 1452,
      "mity</w>": 1453,
      "nown</w>": 1454,
      "ehic": 1455,
      "ehicle</w>": 1456,
      "lan": 1457,
      "ĠHeart</w>": 1458,
      "Ġemphys": 1459,
      "poxia</w>": 1460,
      "Ġang": 1461,
      "Ġatheroscle": 1462,
      "panded</w>": 1463,
      "els</w>": 1464,
      "Ġcalcinosis</w>": 1465,
      "th</w>": 1466,
      "vid": 1467,
      "Ġhemi": 1468,
      "Ġbilateral</w>": 1469,
      "COPD</w>": 1470,
      "mal</w>": 1471,
      "Ġhemidiaphrag": 1472,
      "yp": 1473,
      "lain": 1474,
      "ental</w>": 1475,
      "eri": 1476,
      "Ġmon": 1477,
      "Ġshows</w>": 1478,
      "Ġfe": 1479,
      "Ġsmoking</w>": 1480,
      "cture</w>": 1481,
      "Ġstatus</w>": 1482,
      "ov": 1483,
      "rae</w>": 1484,
      "Ġvertebrae</w>": 1485,
      "Ġmarro": 1486,
      "Ġmarrow</w>": 1487,
      "ating</w>": 1488,
      "Ġcer": 1489,
      "Ġprovid": 1490,
      "Ġim": 1491,
      "ĠNotable</w>": 1492,
      "Ġone</w>": 1493,
      "Ġareas</w>": 1494,
      "arding</w>": 1495,
      "Ġregarding</w>": 1496,
      "Ġdefor": 1497,
      "Ġregion</w>": 1498,
      "ĠDi": 1499,
      "dy</w>": 1500,
      "Ġcarcin": 1501,
      "ductive</w>": 1502,
      "Ġpat": 1503,
      "Ġgranulomas</w>": 1504,
      "cid": 1505,
      "Ġvent": 1506,
      "Ġat</w>": 1507,
      "Ġsmall</w>": 1508,
      "Ġmay</w>": 1509,
      "Ġqu": 1510,
      "ative</w>": 1511,
      "Ġinj": 1512,
      "nee</w>": 1513,
      "Female</w>": 1514,
      "ema</w>": 1515,
      "Ġbe": 1516,
      "we": 1517,
      "valu": 1518,
      "Ġatri": 1519,
      "Ġits</w>": 1520,
      "ngi": 1521,
      "ollow</w>": 1522,
      "fter</w>": 1523,
      "Ġafter</w>": 1524,
      "Ġte": 1525,
      "20</w>": 1526,
      "Ġlympha": 1527,
      "tory</w>": 1528,
      "ffi": 1529,
      "ury</w>": 1530,
      "ital</w>": 1531,
      "iness</w>": 1532,
      "Ġsurgical</w>": 1533,
      "ver": 1534,
      "mb": 1535,
      "Ġres": 1536,
      "ziness</w>": 1537,
      "rib": 1538,
      "ces</w>": 1539,
      "Ġthro": 1540,
      "Ġmot": 1541,
      "yg": 1542,
      "Ġinjury</w>": 1543,
      "aus": 1544,
      "ea</w>": 1545,
      "ausea</w>": 1546,
      "ced</w>": 1547,
      "genital</w>": 1548,
      "Ġ2</w>": 1549,
      "ver</w>": 1550,
      "Ġmedi": 1551,
      "ric</w>": 1552,
      "Ġtissues</w>": 1553,
      "ciated</w>": 1554,
      "Ġcongenital</w>": 1555,
      "Ġside</w>": 1556,
      "Ġelevated</w>": 1557,
      "tered</w>": 1558,
      "Ġweakness</w>": 1559,
      "Ġemphysema</w>": 1560,
      "ex": 1561,
      "ribu": 1562,
      "Ġbreast</w>": 1563,
      "Ġwor": 1564,
      "Ġknee</w>": 1565,
      "Ġfracture</w>": 1566,
      "Ġvehicle</w>": 1567,
      "fficul": 1568,
      "lam": 1569,
      "idosis</w>": 1570,
      "Ġrec": 1571,
      "gue</w>": 1572,
      "ill": 1573,
      "Ġinflam": 1574,
      "PPD</w>": 1575,
      "size</w>": 1576,
      "Ġsignificant</w>": 1577,
      "Ġox": 1578,
      "45</w>": 1579,
      "Ġcomplain": 1580,
      "ygen</w>": 1581,
      "ricular</w>": 1582,
      "Ġhem": 1583,
      "erior</w>": 1584,
      "fficulty</w>": 1585,
      "Ġmyo": 1586,
      "ini": 1587,
      "Ġexa": 1588,
      "ir</w>": 1589,
      "tysis</w>": 1590,
      "optysis</w>": 1591,
      "cident</w>": 1592,
      "Ġprior</w>": 1593,
      "od</w>": 1594,
      "Ġasso": 1595,
      "Po": 1596,
      "Ġventricular</w>": 1597,
      "Ġassociated</w>": 1598,
      "Ġoxygen</w>": 1599,
      "Ġwhee": 1600,
      "und</w>": 1601,
      "Ġsten": 1602,
      "Ġangle</w>": 1603,
      "valuate</w>": 1604,
      "Left</w>": 1605,
      "Ġpost</w>": 1606,
      "enopathy</w>": 1607,
      "Ġaccident</w>": 1608,
      "Ġpar": 1609,
      "Ġover": 1610,
      "ĠNo": 1611,
      "Ġabdominal</w>": 1612,
      "rache": 1613,
      "Ġatrial</w>": 1614,
      "oid</w>": 1615,
      "ĠCardiac</w>": 1616,
      "Ġparal": 1617,
      "Ġparalysis</w>": 1618,
      "Ġdeformity</w>": 1619,
      "se": 1620,
      "Ġbreathing</w>": 1621,
      "Ġimp": 1622,
      "ĠTrache": 1623,
      "Ġwheezing</w>": 1624,
      "ut": 1625,
      "vical</w>": 1626,
      "Ġprote": 1627,
      "'s</w>": 1628,
      "Ġperi": 1629,
      "use</w>": 1630,
      "Ġcalcification</w>": 1631,
      "00</w>": 1632,
      "gg": 1633,
      "Ġlat": 1634,
      "ĠDifferential</w>": 1635,
      "Ġconditions</w>": 1636,
      "mation</w>": 1637,
      "ess": 1638,
      "Ġder": 1639,
      "tion": 1640,
      "Ġabo": 1641,
      "Ġprotein</w>": 1642,
      "Ġpuri": 1643,
      "ivative</w>": 1644,
      "Ġcervical</w>": 1645,
      "Ġderivative</w>": 1646,
      "Ġpurified</w>": 1647,
      "inimal</w>": 1648,
      "bs</w>": 1649,
      "ĠTrachea</w>": 1650,
      "usion</w>": 1651,
      "Ġimmage</w>": 1652,
      "Ġlateral</w>": 1653,
      "Ġinflammation</w>": 1654,
      "atic</w>": 1655,
      "ench": 1656,
      "idne": 1657,
      "enchy": 1658,
      "positive</w>": 1659,
      "Ġthan</w>": 1660,
      "Ġtortuous</w>": 1661,
      "chy</w>": 1662,
      "idney</w>": 1663,
      "ld</w>": 1664,
      "pair</w>": 1665,
      "urg": 1666,
      "Ġne": 1667,
      "ps</w>": 1668,
      "Ġtube</w>": 1669,
      "rally</w>": 1670,
      "Ġ10</w>": 1671,
      "Ġold</w>": 1672,
      "Ġbilaterally</w>": 1673,
      "Ġmyocardi": 1674,
      "Ġag": 1675,
      "asal</w>": 1676,
      "ĠG": 1677,
      "esticular</w>": 1678,
      "Ġpositive</w>": 1679,
      "oidosis</w>": 1680,
      "arcoidosis</w>": 1681,
      "Ġprominent</w>": 1682,
      "70</w>": 1683,
      "ging</w>": 1684,
      "ite</w>": 1685,
      "lood</w>": 1686,
      "ĠHistory</w>": 1687,
      "ondy": 1688,
      "Ġcarcinoma</w>": 1689,
      "Ġrepair</w>": 1690,
      "Ġabout</w>": 1691,
      "Ġage</w>": 1692,
      "ari": 1693,
      "Ġfollow</w>": 1694,
      "Ġminimal</w>": 1695,
      "here</w>": 1696,
      "Ġover</w>": 1697,
      "Ġtip</w>": 1698,
      "losis</w>": 1699,
      "Ġbasilar</w>": 1700,
      "ondylosis</w>": 1701,
      "Ġdiffu": 1702,
      "Ġweight</w>": 1703,
      "Ġep": 1704,
      "Ġsuperi": 1705,
      "mination</w>": 1706,
      "Ġexpla": 1707,
      "Ġsugg": 1708,
      "Ġsuggest</w>": 1709,
      "Ġstern": 1710,
      "des</w>": 1711,
      "nation</w>": 1712,
      "Ġexplanation</w>": 1713,
      "ulti": 1714,
      "Ġspondylosis</w>": 1715,
      "rotic</w>": 1716,
      "Ġposterior</w>": 1717,
      "Ġhemidiaphragm</w>": 1718,
      "Ġsk": 1719,
      "Ġblood</w>": 1720,
      "Ġhea": 1721,
      "Ġribs</w>": 1722,
      "Ġha": 1723,
      "Ġnasal</w>": 1724,
      "ĠDescribe</w>": 1725,
      "ying</w>": 1726,
      "Ġ,</w>": 1727,
      "Ġgive</w>": 1728,
      "ths</w>": 1729,
      "ascular</w>": 1730,
      "Ġdilation</w>": 1731,
      "Ġmotor</w>": 1732,
      "?<</w>": 1733,
      "Ġfist": 1734,
      "dly</w>": 1735,
      "row": 1736,
      "Evaluate</w>": 1737,
      "Ġexamination</w>": 1738,
      "ĠGive</w>": 1739,
      "Ġstenosis</w>": 1740,
      "lying</w>": 1741,
      "ĠR": 1742,
      "Ġplacement</w>": 1743,
      "pira": 1744,
      "Ġhyperex": 1745,
      "Ġdiffuse</w>": 1746,
      "lat": 1747,
      "Ġfever</w>": 1748,
      "ribution</w>": 1749,
      "Ġ[</w>": 1750,
      "oesophageal</w>": 1751,
      "Ġproductive</w>": 1752,
      "Syncope</w>": 1753,
      "che</w>": 1754,
      "Ġcaus": 1755,
      "Ġpatchy</w>": 1756,
      "umbness</w>": 1757,
      "Ġnumbness</w>": 1758,
      "Ġmental</w>": 1759,
      "Ġwas</w>": 1760,
      "pertension</w>": 1761,
      "Ġbeen</w>": 1762,
      "ophy": 1763,
      "history</w>": 1764,
      "Ġrespira": 1765,
      "Ġmonths</w>": 1766,
      "lly</w>": 1767,
      "Ġemb": 1768,
      "Ġembol": 1769,
      "sure</w>": 1770,
      "known</w>": 1771,
      "urr": 1772,
      "Ġmildly</w>": 1773,
      "ex</w>": 1774,
      "Ġapex</w>": 1775,
      "ism</w>": 1776,
      "Ġparenchy": 1777,
      "ĊĊ</w>": 1778,
      "Ġmore</w>": 1779,
      "nge</w>": 1780,
      "tal</w>": 1781,
      "Ġsyncope</w>": 1782,
      "Ġchange</w>": 1783,
      "Ġradiating</w>": 1784,
      "Ġembolism</w>": 1785,
      "ĠWhere</w>": 1786,
      "Ġobstruction</w>": 1787,
      "osity</w>": 1788,
      "lips</w>": 1789,
      "Ġindicated</w>": 1790,
      "Ġcause</w>": 1791,
      "tional</w>": 1792,
      "ovascular</w>": 1793,
      "Ġye": 1794,
      "Ġlev": 1795,
      "Ġosteophy": 1796,
      "Ġyears</w>": 1797,
      "ĠI</w>": 1798,
      "Ġclips</w>": 1799,
      "Ġdescribe</w>": 1800,
      "denopathy</w>": 1801,
      "itis</w>": 1802,
      "ticul": 1803,
      "Ġcm</w>": 1804,
      "Ġlob": 1805,
      "Ġme</w>": 1806,
      "lign": 1807,
      "ature</w>": 1808,
      "ir": 1809,
      "Ġaff": 1810,
      "liz": 1811,
      "otomy</w>": 1812,
      "ĠNot</w>": 1813,
      "set</w>": 1814,
      "Ġbl": 1815,
      "Ġsignifican": 1816,
      "ĠHow</w>": 1817,
      "homa</w>": 1818,
      "Ġevaluate</w>": 1819,
      "Ġwho</w>": 1820,
      "Ġ70</w>": 1821,
      "Ġhema": 1822,
      "Ġarr": 1823,
      "Ġfistula</w>": 1824,
      "tly</w>": 1825,
      "Ġsuperior</w>": 1826,
      "Ġbronchovascular</w>": 1827,
      "Ġdec": 1828,
      "Ġgro": 1829,
      "domen</w>": 1830,
      "ĠO": 1831,
      "Ġrepres": 1832,
      "Ġdiver": 1833,
      "dache</w>": 1834,
      "Ġdiverticul": 1835,
      "ĠPPD</w>": 1836,
      "act": 1837,
      "Ġdefin": 1838,
      "Ġago</w>": 1839,
      "pain</w>": 1840,
      "Ġrecent</w>": 1841,
      "oc": 1842,
      "Hypoxia</w>": 1843,
      "range</w>": 1844,
      "Ġsternotomy</w>": 1845,
      "Ġparenchyma</w>": 1846,
      "Ġbody</w>": 1847,
      "Ġatherosclerosis</w>": 1848,
      "Ġrange</w>": 1849,
      "ality</w>": 1850,
      "Ġdefinite</w>": 1851,
      "Ġter": 1852,
      "Ġwo": 1853,
      "ents</w>": 1854,
      "Hypertension</w>": 1855,
      "Ġwork": 1856,
      "ssly</w>": 1857,
      "Ġcould</w>": 1858,
      "Ġworkup</w>": 1859,
      "Ġabdomen</w>": 1860,
      "Ġunder": 1861,
      "ects</w>": 1862,
      "urther</w>": 1863,
      "Ġrespiratory</w>": 1864,
      "Ġblun": 1865,
      "ild</w>": 1866,
      "Ġtech": 1867,
      "ele": 1868,
      "Ġdifficulty</w>": 1869,
      "Ġcrow": 1870,
      "spi": 1871,
      "ditional</w>": 1872,
      "Ġnodular</w>": 1873,
      "Ġgrossly</w>": 1874,
      "Ġvess": 1875,
      "Ġvessels</w>": 1876,
      "Ġyear</w>": 1877,
      "Ġmid</w>": 1878,
      "Ġlevels</w>": 1879,
      "Ġhemangi": 1880,
      "Ġima": 1881,
      "catri": 1882,
      "Ġbronchitis</w>": 1883,
      "catrix</w>": 1884,
      "Dyspnea</w>": 1885,
      "icatrix</w>": 1886,
      "ple</w>": 1887,
      "Ġ5</w>": 1888,
      "Ġvena</w>": 1889,
      "Ġcava</w>": 1890,
      "ale</w>": 1891,
      "Ġtumor</w>": 1892,
      "Ġdetermine</w>": 1893,
      "zziness</w>": 1894,
      "olar</w>": 1895,
      "Ġdizziness</w>": 1896,
      "itation</w>": 1897,
      "Ġruled</w>": 1898,
      "Ġlymphadenopathy</w>": 1899,
      "Age</w>": 1900,
      "Ġ45</w>": 1901,
      "Ġcys": 1902,
      "Ġlesion</w>": 1903,
      "Ġatherosclerotic</w>": 1904,
      "uration</w>": 1905,
      "spici": 1906,
      "olog": 1907,
      "Ġcho": 1908,
      "Ġsuspici": 1909,
      "ills</w>": 1910,
      "day</w>": 1911,
      "Ab": 1912,
      "Ġcicatrix</w>": 1913,
      "Ġsarcoidosis</w>": 1914,
      "veolar</w>": 1915,
      "Ġmus": 1916,
      "Ġremo": 1917,
      "Ġarteri": 1918,
      "Ġprovided</w>": 1919,
      "ultiple</w>": 1920,
      "Ġcrowding</w>": 1921,
      "Ġprovide</w>": 1922,
      "ĠFemale</w>": 1923,
      "Ġquality</w>": 1924,
      "Ġthroat</w>": 1925,
      "uro": 1926,
      "side</w>": 1927,
      "ĠNormal</w>": 1928,
      "dle</w>": 1929,
      "Ġmiddle</w>": 1930,
      "Ġtortuosity</w>": 1931,
      "Ġmedical</w>": 1932,
      "ib</w>": 1933,
      "Ġthorax</w>": 1934,
      "co</w>": 1935,
      "uc": 1936,
      "itral</w>": 1937,
      "acco</w>": 1938,
      "obacco</w>": 1939,
      "Ġcathe": 1940,
      "reat": 1941,
      "reak": 1942,
      "Ġmitral</w>": 1943,
      "Ġdiverticula</w>": 1944,
      "Ġfurther</w>": 1945,
      "Ġreplacement</w>": 1946,
      "Rib</w>": 1947,
      "iso": 1948,
      "Ġepiso": 1949,
      "Un": 1950,
      "tures</w>": 1951,
      "Al": 1952,
      "xoma</w>": 1953,
      "yxoma</w>": 1954,
      "Ġmyxoma</w>": 1955,
      "hyth": 1956,
      "Ġarrhyth": 1957,
      "ters</w>": 1958,
      "Ġused</w>": 1959,
      "Ġalveolar</w>": 1960,
      "Ġdefects</w>": 1961,
      "Ġmyocardial</w>": 1962,
      "Ġsuggests</w>": 1963,
      "Ġpneumothoraces</w>": 1964,
      "Ġosteop": 1965,
      "ĠX</w>": 1966,
      "mias</w>": 1967,
      "Ġarrhythmias</w>": 1968,
      "hilar</w>": 1969,
      "met": 1970,
      "Ġcell</w>": 1971,
      "rant</w>": 1972,
      "Ġmidlung</w>": 1973,
      "ĠLeft</w>": 1974,
      "cally</w>": 1975,
      "hysi": 1976,
      "tro": 1977,
      "Ġshow</w>": 1978,
      "Ġuse</w>": 1979,
      "Ġsin": 1980,
      "Ġhip</w>": 1981,
      "ain</w>": 1982,
      "Ġiss": 1983,
      "back</w>": 1984,
      "Ġnec": 1985,
      "yoma</w>": 1986,
      "Ġknown</w>": 1987,
      "ant</w>": 1988,
      "Ġtobacco</w>": 1989,
      "ress</w>": 1990,
      "Ġindicate</w>": 1991,
      "Ġhemoptysis</w>": 1992,
      "Ġto": 1993,
      "mar": 1994,
      "ency</w>": 1995,
      ").<</w>": 1996,
      "Ġdevice</w>": 1997,
      "Ġdecreased</w>": 1998,
      "Ġprimar": 1999,
      "Ġleak": 2000,
      "arcoma</w>": 2001,
      "reaky</w>": 2002,
      "Tuberculosis</w>": 2003,
      "Ġleakage</w>": 2004,
      "Ġinto</w>": 2005,
      "]-</w>": 2006,
      "lb": 2007,
      "Ġfibro": 2008,
      "Ġexpanded</w>": 2009,
      "Ġarea</w>": 2010,
      "sing</w>": 2011,
      "xi": 2012,
      "ypical</w>": 2013,
      "Ġmusc": 2014,
      "cted</w>": 2015,
      "Ġinfarc": 2016,
      "ĠPatient</w>": 2017,
      "Ġwould</w>": 2018,
      "hysical</w>": 2019,
      "ymmet": 2020,
      "Ġhyperexpanded</w>": 2021,
      "kidney</w>": 2022,
      "Ġro": 2023,
      "Ġperiph": 2024,
      "Ġcatheters</w>": 2025,
      "enal</w>": 2026,
      "Ġbases</w>": 2027,
      "ĠSig": 2028,
      "hronic</w>": 2029,
      "nical</w>": 2030,
      "Ġ20</w>": 2031,
      "Ġelb": 2032,
      "fact": 2033,
      "Ġadditional</w>": 2034,
      "ĠSigns</w>": 2035,
      "Ġfound</w>": 2036,
      "hem": 2037,
      "basilar</w>": 2038,
      "Ġbari": 2039,
      "Ġblunting</w>": 2040,
      "Fati": 2041,
      "atric</w>": 2042,
      "Ġbariatric</w>": 2043,
      "Fatigue</w>": 2044,
      "sia</w>": 2045,
      "paces</w>": 2046,
      "Ġext": 2047,
      "osseous</w>": 2048,
      "Ġspinal</w>": 2049,
      "Ġtechnical</w>": 2050,
      "fusion</w>": 2051,
      "reg": 2052,
      "Ġcholec": 2053,
      "umbar</w>": 2054,
      "sive</w>": 2055,
      "orr": 2056,
      "ce": 2057,
      "rreg": 2058,
      "Ġdiseases</w>": 2059,
      "Ġsuspicious</w>": 2060,
      "Ġpersistent</w>": 2061,
      "ptal</w>": 2062,
      "ĠSi": 2063,
      "ad": 2064,
      "Ġseptal</w>": 2065,
      "state</w>": 2066,
      "aul": 2067,
      "dwelling</w>": 2068,
      "ight": 2069,
      "Ġspaces</w>": 2070,
      "Ġstates</w>": 2071,
      "Ġlymphangi": 2072,
      ").</w>": 2073,
      "eletal</w>": 2074,
      "Ġnon": 2075,
      "Ġprimary</w>": 2076,
      "om</w>": 2077,
      "Ġmal": 2078,
      "Ġdete": 2079,
      "Ġhypoxia</w>": 2080,
      "Ġskeletal</w>": 2081,
      "Ġelbow</w>": 2082,
      "),</w>": 2083,
      "Ġcra": 2084,
      "Ġstreaky</w>": 2085,
      "Ġbibasilar</w>": 2086,
      "Ġdetected</w>": 2087,
      "55</w>": 2088,
      "Ġchee": 2089,
      "Ġcheek</w>": 2090,
      "Ġmalign": 2091,
      "Ġmalf": 2092,
      "Ġnausea</w>": 2093,
      "rate</w>": 2094,
      "Ġsli": 2095,
      "Ġme": 2096,
      "Ġmetastatic</w>": 2097,
      "Ġterm</w>": 2098,
      "Ġnd</w>": 2099,
      "Ġpai</w>": 2100,
      "ology</w>": 2101,
      "Nausea</w>": 2102,
      "ttered</w>": 2103,
      "wo</w>": 2104,
      "Ġphysical</w>": 2105,
      "Ġcholecyst": 2106,
      "Ġstu": 2107,
      "Ġscan</w>": 2108,
      "Ġshi": 2109,
      "ach": 2110,
      "arct": 2111,
      "ise</w>": 2112,
      "ich</w>": 2113,
      "Ġwhich</w>": 2114,
      "neumonia</w>": 2115,
      "Ġ30</w>": 2116,
      "Ġrenal</w>": 2117,
      "Ġinst": 2118,
      "Ġpath": 2119,
      "Ġassaul": 2120,
      "Ġinfarction</w>": 2121,
      "clinical</w>": 2122,
      "Ġoverlying</w>": 2123,
      "Ġhave</w>": 2124,
      "Ġnose</w>": 2125,
      "Ġimplan": 2126,
      "pected</w>": 2127,
      "Ġproj": 2128,
      "Ġhyp": 2129,
      "Ġexpected</w>": 2130,
      "ĠSize</w>": 2131,
      "Ġsmoker</w>": 2132,
      "stat": 2133,
      "Ġprolapse</w>": 2134,
      "ect</w>": 2135,
      "Ġdistribution</w>": 2136,
      "Ġrepresent</w>": 2137,
      "mia</w>": 2138,
      "Ġaffected</w>": 2139,
      "Ġret": 2140,
      "Ġstric": 2141,
      "Ġstrictures</w>": 2142,
      "ck": 2143,
      "Ġsignificance</w>": 2144,
      "sfact": 2145,
      "unds</w>": 2146,
      "ymptom</w>": 2147,
      "atisfact": 2148,
      "atisfactory</w>": 2149,
      "Symptom</w>": 2150,
      ",<</w>": 2151,
      "Ġdex": 2152,
      "weakness</w>": 2153,
      "hemoptysis</w>": 2154,
      "gh": 2155,
      "enous</w>": 2156,
      "sening</w>": 2157,
      "Ġlab": 2158,
      "ug": 2159,
      "Ġincludes</w>": 2160,
      "Ġtypical</w>": 2161,
      "oratory</w>": 2162,
      "Ġusing</w>": 2163,
      "Ġlaboratory</w>": 2164,
      "Ġrema": 2165,
      "ycardi": 2166,
      "Ġbones</w>": 2167,
      "Ġscattered</w>": 2168,
      "Ġregurg": 2169,
      "Positive</w>": 2170,
      "Ġregurgitation</w>": 2171,
      "achycardi": 2172,
      "ĠF": 2173,
      "Ġsy": 2174,
      "Ġinside</w>": 2175,
      "Ġquad": 2176,
      "Ġquadrant</w>": 2177,
      "mental</w>": 2178,
      "Ġfall</w>": 2179,
      "nula</w>": 2180,
      "Ġcannula</w>": 2181,
      "Ġhemidiaphragms</w>": 2182,
      "Ġhemangiomas</w>": 2183,
      "Ġirreg": 2184,
      "Ġindwelling</w>": 2185,
      "ous": 2186,
      "Ġheadache</w>": 2187,
      "tigue</w>": 2188,
      "ass</w>": 2189,
      "Ġfatigue</w>": 2190,
      "Ġmode": 2191,
      "Ġpathology</w>": 2192,
      "Ġexer": 2193,
      "Ġlymphoma</w>": 2194,
      "izziness</w>": 2195,
      "Ġelevation</w>": 2196,
      "ke</w>": 2197,
      "Abdominal</w>": 2198,
      "Ġcollection</w>": 2199,
      "urgical</w>": 2200,
      "me</w>": 2201,
      "Ġdextro": 2202,
      "Ġprominence</w>": 2203,
      "Ġcrack": 2204,
      "Ġexertion</w>": 2205,
      "Ġcrackles</w>": 2206,
      "rum": 2207,
      "Ġchills</w>": 2208,
      "Ġmuscles</w>": 2209,
      "Ġinstrum": 2210,
      "dro": 2211,
      "seg": 2212,
      "idectomy</w>": 2213,
      "Ġtoday</w>": 2214,
      "Ġinstruments</w>": 2215,
      "vel</w>": 2216,
      "Ġcavity</w>": 2217,
      "Ġsligh": 2218,
      "In": 2219,
      "ker</w>": 2220,
      "ĠWhic": 2221,
      "ĠWhich</w>": 2222,
      "ĠUn": 2223,
      "eraliz": 2224,
      "Ġhemorr": 2225,
      "lee": 2226,
      "segmental</w>": 2227,
      "iom": 2228,
      "vic": 2229,
      "Ġleiom": 2230,
      "satisfactory</w>": 2231,
      "Ġunsatisfactory</w>": 2232,
      "Ġtight": 2233,
      "Ġtightness</w>": 2234,
      "nset</w>": 2235,
      "Ġcla": 2236,
      "Ġsince</w>": 2237,
      "Ġclavic": 2238,
      "35</w>": 2239,
      "Ġindicating</w>": 2240,
      "Ġassault</w>": 2241,
      "yro": 2242,
      "Ġmotion</w>": 2243,
      "elast": 2244,
      "Ġsubsegmental</w>": 2245,
      "abdominal</w>": 2246,
      "Ġfibroelast": 2247,
      "01</w>": 2248,
      "ĠCan": 2249,
      "Ġend": 2250,
      "Altered</w>": 2251,
      "Ġflat": 2252,
      "Ġthree</w>": 2253,
      "Ġmonth</w>": 2254,
      "weats</w>": 2255,
      "ril": 2256,
      "lanoma</w>": 2257,
      "utum</w>": 2258,
      "Ġcomplaints</w>": 2259,
      "Ġinv": 2260,
      "otential</w>": 2261,
      "Ġbra": 2262,
      "Ġhyperinflated</w>": 2263,
      "Ġlymphangioma</w>": 2264,
      "orre": 2265,
      "unction</w>": 2266,
      "monst": 2267,
      "Ġtwo</w>": 2268,
      "Ġbut</w>": 2269,
      "Ġmetastasis</w>": 2270,
      "Ġlobes</w>": 2271,
      "Ġimaging</w>": 2272,
      "Ġstudy</w>": 2273,
      "Ġpressure</w>": 2274,
      "Ġlarg": 2275,
      "hesions</w>": 2276,
      "Ġadhesions</w>": 2277,
      "Ġextre": 2278,
      "Ġmalformation</w>": 2279,
      "Ġretro": 2280,
      "Chronic</w>": 2281,
      "par": 2282,
      "ovenous</w>": 2283,
      "Ġarteriovenous</w>": 2284,
      "productive</w>": 2285,
      "Ġappro": 2286,
      "Ġtracheoesophageal</w>": 2287,
      "Ġbronchoesophageal</w>": 2288,
      "achycardia</w>": 2289,
      "Ġthyro": 2290,
      "Ġconc": 2291,
      "chedu": 2292,
      "Ġosteophytes</w>": 2293,
      "cheduled</w>": 2294,
      "Onset</w>": 2295,
      "ĠCo": 2296,
      "Ġref": 2297,
      "thro": 2298,
      "Ġcoarct": 2299,
      "Ġscar</w>": 2300,
      "Ġtracheobronchitis</w>": 2301,
      "Ġcoarctation</w>": 2302,
      "Ġsymmet": 2303,
      "ĠPo": 2304,
      "ĠShortness</w>": 2305,
      "ĠClinical</w>": 2306,
      "uritic</w>": 2307,
      "Ġsyn": 2308,
      "VC</w>": 2309,
      "orosis</w>": 2310,
      "Ġperihilar</w>": 2311,
      "Ġtesticular</w>": 2312,
      "alp": 2313,
      "Ġosteoporosis</w>": 2314,
      "smok": 2315,
      "unknown</w>": 2316,
      "Possible</w>": 2317,
      "Ġout": 2318,
      "lateral</w>": 2319,
      "ezing</w>": 2320,
      "heezing</w>": 2321,
      "val</w>": 2322,
      "Ġactive</w>": 2323,
      "Ġnoticed</w>": 2324,
      "Dizziness</w>": 2325,
      "otal</w>": 2326,
      "asia</w>": 2327,
      "ypass</w>": 2328,
      "illary</w>": 2329,
      "wise</w>": 2330,
      "Ġ6</w>": 2331,
      "leural</w>": 2332,
      "umat": 2333,
      "ĠLo": 2334,
      "Ġnature</w>": 2335,
      "erwise</w>": 2336,
      "Ġluc": 2337,
      "omm": 2338,
      "therwise</w>": 2339,
      "thora": 2340,
      "Ġbypass</w>": 2341,
      "Ġcollap": 2342,
      "thoracic</w>": 2343,
      "lely</w>": 2344,
      "chond": 2345,
      "Ġsolely</w>": 2346,
      "Ġlipoma</w>": 2347,
      "Ġpotential</w>": 2348,
      "eakness</w>": 2349,
      "Ġremoval</w>": 2350,
      "Di": 2351,
      "drome</w>": 2352,
      "Ġsyndrome</w>": 2353,
      "Ġspecifically</w>": 2354,
      "Ġkidney</w>": 2355,
      "Ġrhe": 2356,
      "Ġvasculitis</w>": 2357,
      "umatoid</w>": 2358,
      "Ġrheumatoid</w>": 2359,
      "tation</w>": 2360,
      "Ġperf": 2361,
      "ecting</w>": 2362,
      "Ġvasculopathy</w>": 2363,
      "Ġcollapsed</w>": 2364,
      "fib": 2365,
      "placed</w>": 2366,
      "cardiac</w>": 2367,
      "Ġlimited</w>": 2368,
      "reatment</w>": 2369,
      "ĠA</w>": 2370,
      "hoidectomy</w>": 2371,
      "status</w>": 2372,
      "Ġhemorrhoidectomy</w>": 2373,
      "Ġline</w>": 2374,
      "Ġclavicle</w>": 2375,
      "wing</w>": 2376,
      "Ġmoderate</w>": 2377,
      "Ġsputum</w>": 2378,
      "Ġapical</w>": 2379,
      "ĠCannot</w>": 2380,
      "opulmonary</w>": 2381,
      "os": 2382,
      "Ġsounds</w>": 2383,
      "Ġonly</w>": 2384,
      "Ġdemin": 2385,
      "ĠMale</w>": 2386,
      "Ġosteophyte</w>": 2387,
      "ĠUnable</w>": 2388,
      "eralization</w>": 2389,
      "Ġdemineralization</w>": 2390,
      "Asthma</w>": 2391,
      "Ġthroug": 2392,
      "org": 2393,
      "pansion</w>": 2394,
      "Ġunderg": 2395,
      "Ġlarger</w>": 2396,
      "entilation</w>": 2397,
      "ving</w>": 2398,
      "Ġperipheral</w>": 2399,
      "Bre": 2400,
      "ilateral</w>": 2401,
      "lad": 2402,
      "Ġrequ": 2403,
      "ortic</w>": 2404,
      "esosseous</w>": 2405,
      "Ġtissuesosseous</w>": 2406,
      "Ġneck</w>": 2407,
      "od": 2408,
      "Ġect": 2409,
      "hosis</w>": 2410,
      "Ġgra": 2411,
      "ĠCOPD</w>": 2412,
      "alcifi": 2413,
      "ĠPulmonary</w>": 2414,
      "emaker</w>": 2415,
      "ĠN</w>": 2416,
      "Ġaden": 2417,
      "ues</w>": 2418,
      "Ġ7</w>": 2419,
      "ĠMo": 2420,
      "cemaker</w>": 2421,
      "cies</w>": 2422,
      "Ġcauses</w>": 2423,
      "Ġissues</w>": 2424,
      "Ġscheduled</w>": 2425,
      "ĠNone</w>": 2426,
      "Ġtreatment</w>": 2427,
      "tioned</w>": 2428,
      "aring</w>": 2429,
      "itations</w>": 2430,
      "Ġapproxi": 2431,
      "Ġsuggested</w>": 2432,
      "uk": 2433,
      "Ġcyst</w>": 2434,
      "Testicular</w>": 2435,
      "Ġcardiopulmonary</w>": 2436,
      "Ġsev": 2437,
      "alpitations</w>": 2438,
      "kin</w>": 2439,
      "Ġtotal</w>": 2440,
      "Ġner": 2441,
      "oinf": 2442,
      "ytic</w>": 2443,
      "Ġlea": 2444,
      "Ġpositioned</w>": 2445,
      "Ġhypoinf": 2446,
      "Ġslightly</w>": 2447,
      "Lymp": 2448,
      "rid": 2449,
      "Ġmye": 2450,
      "Ġotherwise</w>": 2451,
      "ong</w>": 2452,
      "60</w>": 2453,
      "Ġbrid": 2454,
      "Ġinvol": 2455,
      "Ġmyel": 2456,
      "Ġbridging</w>": 2457,
      "Ġunknown</w>": 2458,
      "tch": 2459,
      "ĠPain</w>": 2460,
      "Ġnerve</w>": 2461,
      "pillary</w>": 2462,
      "ĠAortic</w>": 2463,
      "Ġpapillary</w>": 2464,
      "Ġfibroelastoma</w>": 2465,
      "Breast</w>": 2466,
      "ype</w>": 2467,
      "Ġtype</w>": 2468,
      "Ġpleuro": 2469,
      "Ġlucency</w>": 2470,
      "Ġanes": 2471,
      "Ġvie": 2472,
      "thesia</w>": 2473,
      "Ġskin</w>": 2474,
      "Ġanesthesia</w>": 2475,
      "so</w>": 2476,
      "Ġhil": 2477,
      "Ġdensi": 2478,
      "Ġph": 2479,
      "Ġtear</w>": 2480,
      "Ġredi": 2481,
      "stribution</w>": 2482,
      "Ġdensities</w>": 2483,
      "Ġredistribution</w>": 2484,
      "urv": 2485,
      "Ġthyroid</w>": 2486,
      "Ġscans</w>": 2487,
      "Ġalso</w>": 2488,
      "Ġcystic</w>": 2489,
      "Ġimplanted</w>": 2490,
      "alcified</w>": 2491,
      "Ġextremity</w>": 2492,
      "Ġas": 2493,
      "Ġero": 2494,
      "urvature</w>": 2495,
      "Rule</w>": 2496,
      "Ġfusion</w>": 2497,
      "Ġshad": 2498,
      "Ġshar": 2499,
      "ĠMost</w>": 2500,
      "line</w>": 2501,
      "cia</w>": 2502,
      "lacia</w>": 2503,
      "omalacia</w>": 2504,
      "Ġerosion</w>": 2505,
      "roma</w>": 2506,
      "Ġsweats</w>": 2507,
      "Ġnight</w>": 2508,
      "asm</w>": 2509,
      "Ġimm": 2510,
      "Ġmyocarditis</w>": 2511,
      "Ġsharp</w>": 2512,
      "asts</w>": 2513,
      "Ġthoracol": 2514,
      "Ġcausing</w>": 2515,
      "Ġphrenic</w>": 2516,
      "Ġthoracolumbar</w>": 2517,
      "Ġwing": 2518,
      "..<</w>": 2519,
      "tling</w>": 2520,
      "Ġcompar": 2521,
      "Ġcompati": 2522,
      "Ġonset</w>": 2523,
      "Ġmottling</w>": 2524,
      "Ġleiomyoma</w>": 2525,
      "Ġwinging</w>": 2526,
      "Ġepisode</w>": 2527,
      "ins</w>": 2528,
      "ending</w>": 2529,
      "mately</w>": 2530,
      "Ġwed": 2531,
      "Ġcompatible</w>": 2532,
      "Ġmeas": 2533,
      "IC": 2534,
      "Ġdisplaced</w>": 2535,
      "mities</w>": 2536,
      "Ġkyp": 2537,
      "ĠMild</w>": 2538,
      "Ġcomplains</w>": 2539,
      "Ġapproximately</w>": 2540,
      "Right</w>": 2541,
      "Ġpregn": 2542,
      "Ġosteo": 2543,
      "ancies</w>": 2544,
      "Ġmalignancies</w>": 2545,
      "Ġlytic</w>": 2546,
      "Ġdiab": 2547,
      "Ġmyeloma</w>": 2548,
      "kin": 2549,
      "Ġnon</w>": 2550,
      "lision</w>": 2551,
      "normal</w>": 2552,
      "erated</w>": 2553,
      "Ġairw": 2554,
      "ĠRight</w>": 2555,
      "ning</w>": 2556,
      "war": 2557,
      "Ġdemonst": 2558,
      "heart</w>": 2559,
      "esot": 2560,
      "itone": 2561,
      "Ġmesot": 2562,
      "Ġnotch": 2563,
      "lioma</w>": 2564,
      "Ġstress</w>": 2565,
      "Ġinflated</w>": 2566,
      "helioma</w>": 2567,
      "Ġepisodes</w>": 2568,
      "Ġgraft</w>": 2569,
      "Ġmesothelioma</w>": 2570,
      "Ġnotching</w>": 2571,
      "IV</w>": 2572,
      "Ġmultiple</w>": 2573,
      "spected</w>": 2574,
      "phy</w>": 2575,
      "ĠDyspnea</w>": 2576,
      "lized</w>": 2577,
      "Ġinser": 2578,
      "Weakness</w>": 2579,
      "uma</w>": 2580,
      "ĠLocation</w>": 2581,
      "28</w>": 2582,
      "ĠPositive</w>": 2583,
      "emia</w>": 2584,
      "tid</w>": 2585,
      "Ġgast": 2586,
      "Ġnear</w>": 2587,
      "ay</w>": 2588,
      "sures</w>": 2589,
      "Ġventilation</w>": 2590,
      "eration</w>": 2591,
      "ously</w>": 2592,
      "Ġdistribu": 2593,
      "Ġworsening</w>": 2594,
      "ladder</w>": 2595,
      "Ġblee": 2596,
      "Ġcardio</w>": 2597,
      "Ġpressures</w>": 2598,
      "ently</w>": 2599,
      "Ġbleeding</w>": 2600,
      "orrelation</w>": 2601,
      "Ġthroughout</w>": 2602,
      "He": 2603,
      "Ġnorma": 2604,
      "erb": 2605,
      "acerb": 2606,
      "Ġhilum</w>": 2607,
      "Ġdiarr": 2608,
      "hea</w>": 2609,
      "ĠNod": 2610,
      "Ġdiarrhea</w>": 2611,
      "right</w>": 2612,
      "tite</w>": 2613,
      "Ġidi": 2614,
      "hab": 2615,
      "Ġappetite</w>": 2616,
      "opathic</w>": 2617,
      "Ġidiopathic</w>": 2618,
      "Ġindicates</w>": 2619,
      "Ġirregul": 2620,
      "smoker</w>": 2621,
      "Ġach": 2622,
      "Ġrhab": 2623,
      "domyoma</w>": 2624,
      "Ġspecified</w>": 2625,
      "Ġweek</w>": 2626,
      "Ġrhabdomyoma</w>": 2627,
      "Ġadenopathy</w>": 2628,
      "ĠCardiomegaly</w>": 2629,
      "Ġpacemaker</w>": 2630,
      "stern": 2631,
      "ĠPreoperative</w>": 2632,
      "Ġpregnant</w>": 2633,
      "ade": 2634,
      "Ġ60</w>": 2635,
      "Ġtachycardia</w>": 2636,
      "ĠCT</w>": 2637,
      "tain</w>": 2638,
      "Ġkyphosis</w>": 2639,
      "Ġprocess</w>": 2640,
      "Ġleuk": 2641,
      "perfusion</w>": 2642,
      "Ġcollision</w>": 2643,
      "ires</w>": 2644,
      "Ġloca": 2645,
      "Ġling": 2646,
      "sternal</w>": 2647,
      "inning</w>": 2648,
      "Ġdiaphragms</w>": 2649,
      "lator</w>": 2650,
      "Ġunderlying</w>": 2651,
      "anc": 2652,
      "surgical</w>": 2653,
      "ĠĊĊ</w>": 2654,
      "ecent</w>": 2655,
      "Ġneuro": 2656,
      "Lymphoma</w>": 2657,
      "elanoma</w>": 2658,
      "Ġdisc</w>": 2659,
      "Ġcarcinoid</w>": 2660,
      "egenerative</w>": 2661,
      "pneumonia</w>": 2662,
      "Ġunder</w>": 2663,
      "Ġwidening</w>": 2664,
      "rillator</w>": 2665,
      "fibrillator</w>": 2666,
      "Ġhypoinflated</w>": 2667,
      "Ġgastro": 2668,
      "uspected</w>": 2669,
      "Ġsilhouettes</w>": 2670,
      "Ġsevere</w>": 2671,
      "Ġlocalized</w>": 2672,
      "rule</w>": 2673,
      "sib": 2674,
      "This</w>": 2675,
      "Ġprostate</w>": 2676,
      "Ġdistal</w>": 2677,
      "throat</w>": 2678,
      "ĠNodule</w>": 2679,
      "astric</w>": 2680,
      "duction</w>": 2681,
      "Ġcholecystectomy</w>": 2682,
      "Con": 2683,
      "fection</w>": 2684,
      "ern</w>": 2685,
      "Ġinde": 2686,
      "Ġincre": 2687,
      "nal</w>": 2688,
      "asing</w>": 2689,
      "Vehicle</w>": 2690,
      "unt</w>": 2691,
      "phal": 2692,
      "ward</w>": 2693,
      "pon": 2694,
      "Ġam": 2695,
      "stomy</w>": 2696,
      "ĠCon": 2697,
      "ĠDoes</w>": 2698,
      "Ġexacerb": 2699,
      "oughing</w>": 2700,
      "Ġangles</w>": 2701,
      "Difficulty</w>": 2702,
      "tent</w>": 2703,
      "Ġ4": 2704,
      "ĠIt</w>": 2705,
      "mittent</w>": 2706,
      "uring</w>": 2707,
      "Ġconfig": 2708,
      "Ġhyperexpansion</w>": 2709,
      "ced": 2710,
      "Ġdo</w>": 2711,
      "Ġsignificantly</w>": 2712,
      "Ġexacerbation</w>": 2713,
      "oing</w>": 2714,
      "Ġimag": 2715,
      "Melanoma</w>": 2716,
      "mild</w>": 2717,
      "Ġconfiguration</w>": 2718,
      "tous</w>": 2719,
      "ematous</w>": 2720,
      "Ġissue</w>": 2721,
      "adache</w>": 2722,
      "Ġsul": 2723,
      "loss</w>": 2724,
      "Ġjunction</w>": 2725,
      "Infection</w>": 2726,
      "Ġcompared</w>": 2727,
      "gkin</w>": 2728,
      "ersistent</w>": 2729,
      "gestive</w>": 2730,
      "Ġevident</w>": 2731,
      "lank</w>": 2732,
      "odgkin</w>": 2733,
      "Ġgastroesophageal</w>": 2734,
      "Ġ40</w>": 2735,
      ",.<</w>": 2736,
      "Ġexc": 2737,
      "Ġsore</w>": 2738,
      "Ġmidthoracic</w>": 2739,
      "Ġnormally</w>": 2740,
      "revi": 2741,
      "thing</w>": 2742,
      "Ġexpo": 2743,
      "Ġexposure</w>": 2744,
      "Si": 2745,
      "okin": 2746,
      "que</w>": 2747,
      "Ġdep": 2748,
      "Ġincluding</w>": 2749,
      "yncopal</w>": 2750,
      "Ġcholecystokin": 2751,
      "Ġshiel": 2752,
      "Ġinserted</w>": 2753,
      "Ġcholecystokinin</w>": 2754,
      "Ġcurvature</w>": 2755,
      "ome</w>": 2756,
      "ĠCalcified</w>": 2757,
      "Ġsulc": 2758,
      "correlation</w>": 2759,
      "tosis</w>": 2760,
      "ytosis</w>": 2761,
      "ocytosis</w>": 2762,
      "Six</w>": 2763,
      "ĠIf</w>": 2764,
      "etes</w>": 2765,
      "ighthe": 2766,
      "ĠHy": 2767,
      "cardia</w>": 2768,
      "Ġdextrocardia</w>": 2769,
      "Ġwedge</w>": 2770,
      "Ġdeformities</w>": 2771,
      "dness</w>": 2772,
      "rated</w>": 2773,
      "Ġcentra": 2774,
      "ens": 2775,
      "Ġtrauma</w>": 2776,
      "Ġcertain</w>": 2777,
      "adedness</w>": 2778,
      "ightheadedness</w>": 2779,
      "Ġcentrally</w>": 2780,
      "ial</w>": 2781,
      "ostomy</w>": 2782,
      "round</w>": 2783,
      "Ġobsc": 2784,
      "part": 2785,
      "Ġcomple": 2786,
      "Ġoc": 2787,
      "uno": 2788,
      "Ġredu": 2789,
      "Ġimmuno": 2790,
      "Ġring</w>": 2791,
      "Ġimpro": 2792,
      "cedure</w>": 2793,
      "Ġdo": 2794,
      "Ġmedial</w>": 2795,
      "lle": 2796,
      "xing</w>": 2797,
      "Ġ+</w>": 2798,
      "tiv": 2799,
      "Ġpara": 2800,
      "pacity</w>": 2801,
      "Ġsymmetri": 2802,
      "Ġindexing</w>": 2803,
      "ollo": 2804,
      "erat": 2805,
      "egative</w>": 2806,
      "ensation</w>": 2807,
      "ssib": 2808,
      "prostate</w>": 2809,
      "Ġfollo": 2810,
      "Ġretrocardiac</w>": 2811,
      "inc": 2812,
      "Ġreduced</w>": 2813,
      "am": 2814,
      "gno": 2815,
      "vement</w>": 2816,
      "Ġcomplaining</w>": 2817,
      "Ġbrach": 2818,
      "ommen": 2819,
      "ĠT</w>": 2820,
      "mplain": 2821,
      "Ġpossib": 2822,
      "Ġemphysematous</w>": 2823,
      "igastric</w>": 2824,
      "Ġconcern</w>": 2825,
      "tening</w>": 2826,
      "Ġtes": 2827,
      "Ġlevel</w>": 2828,
      "Ġectasia</w>": 2829,
      "Ġview</w>": 2830,
      "ICC</w>": 2831,
      "ally</w>": 2832,
      "Ġflattening</w>": 2833,
      "Symptoms</w>": 2834,
      "let</w>": 2835,
      "Ġappearing</w>": 2836,
      "Ġpatent</w>": 2837,
      "Vomiting</w>": 2838,
      "level</w>": 2839,
      "Ġve": 2840,
      "lux</w>": 2841,
      "Ġrecommen": 2842,
      "Ġreflux</w>": 2843,
      "Ġborderline</w>": 2844,
      "ultilevel</w>": 2845,
      "Ġpalpitations</w>": 2846,
      "Ġcongestive</w>": 2847,
      "Ġstents</w>": 2848,
      "Ġundergoing</w>": 2849,
      "Ġfat</w>": 2850,
      "Ġdescri": 2851,
      "ĠStable</w>": 2852,
      "expanded</w>": 2853,
      "Ġaround</w>": 2854,
      "Ġvar": 2855,
      "Ġstent</w>": 2856,
      "ĠHodgkin</w>": 2857,
      "Lo": 2858,
      "Persistent</w>": 2859,
      "Loss</w>": 2860,
      "tensive</w>": 2861,
      "gene": 2862,
      "izure</w>": 2863,
      "Ġnecrosis</w>": 2864,
      "SVC</w>": 2865,
      "esity</w>": 2866,
      "Ġpleur": 2867,
      "allo": 2868,
      "Ġobesity</w>": 2869,
      "Ġend</w>": 2870,
      "Ġshift</w>": 2871,
      "chondroma</w>": 2872,
      "Ġshadow</w>": 2873,
      "Ġleukocytosis</w>": 2874,
      "Edema</w>": 2875,
      "agn": 2876,
      "Ġz": 2877,
      "Ġlumbar</w>": 2878,
      "orgagn": 2879,
      "Ġvarices</w>": 2880,
      "orgagni</w>": 2881,
      "Wheezing</w>": 2882,
      "Ġspasm</w>": 2883,
      "Ġdefect</w>": 2884,
      "Clinical</w>": 2885,
      "her</w>": 2886,
      "Ġpleuritic</w>": 2887,
      "Ġgreat": 2888,
      "ĠMorgagni</w>": 2889,
      "omatosis</w>": 2890,
      "Ġfew</w>": 2891,
      "Ġhad</w>": 2892,
      "flank</w>": 2893,
      "Ġabuse</w>": 2894,
      "oration</w>": 2895,
      "Ġsubc": 2896,
      "Ġperforation</w>": 2897,
      "Ġplu": 2898,
      "Ġsqu": 2899,
      "Ġlast</w>": 2900,
      "Ġmuc": 2901,
      "luded</w>": 2902,
      "urrent</w>": 2903,
      "Ġarteries</w>": 2904,
      "amous</w>": 2905,
      "Ġsquamous</w>": 2906,
      "Ġmucus</w>": 2907,
      "enia</w>": 2908,
      "like</w>": 2909,
      "desis</w>": 2910,
      "pple</w>": 2911,
      "ssure</w>": 2912,
      "Ġleads</w>": 2913,
      "Ġpleurodesis</w>": 2914,
      "itoneal</w>": 2915,
      ">-</w>": 2916,
      "ylo": 2917,
      "Ġ4</w>": 2918,
      "Ġthinning</w>": 2919,
      "tility</w>": 2920,
      "Ġcasts</w>": 2921,
      "stectomy</w>": 2922,
      "ronchomalacia</w>": 2923,
      "Ġhyda": 2924,
      "Ġtracheobronchomalacia</w>": 2925,
      "Ġlipos": 2926,
      "Ġpostpart": 2927,
      "Ġhemangioma</w>": 2928,
      "Ġadenoid</w>": 2929,
      "Ġamylo": 2930,
      "Ġplugs</w>": 2931,
      "Ġhydatid</w>": 2932,
      "Ġliposarcoma</w>": 2933,
      "Ġpostpartum</w>": 2934,
      "Ġamyloidosis</w>": 2935,
      "orted</w>": 2936,
      "Ġmastectomy</w>": 2937,
      "Ġproduction</w>": 2938,
      "tened</w>": 2939,
      "Ġprojecting</w>": 2940,
      "igh</w>": 2941,
      "peritoneal</w>": 2942,
      "Male</w>": 2943,
      "ore</w>": 2944,
      "patient</w>": 2945,
      "left</w>": 2946,
      "Ġhum": 2947,
      "Ġflattened</w>": 2948,
      "ipple</w>": 2949,
      "opl": 2950,
      "ĠHIV</w>": 2951,
      "Ġpatter": 2952,
      "Ġendpla": 2953,
      "Ġat": 2954,
      "Ġnegative</w>": 2955,
      "Ġconfusion</w>": 2956,
      "14</w>": 2957,
      "jac": 2958,
      "Ġbronchi</w>": 2959,
      "jacent</w>": 2960,
      "houlder</w>": 2961,
      "ritis</w>": 2962,
      "Ġpossibly</w>": 2963,
      "ep": 2964,
      "ese</w>": 2965,
      "headache</w>": 2966,
      "Ġdescrib": 2967,
      "Ġgreater</w>": 2968,
      "Ġmultilevel</w>": 2969,
      "Ġdiagno": 2970,
      "dered</w>": 2971,
      "Ġsmalle": 2972,
      "Ġtests</w>": 2973,
      "Ġsmaller</w>": 2974,
      "cent</w>": 2975,
      "path": 2976,
      "erally</w>": 2977,
      "Ġalong</w>": 2978,
      "pathy</w>": 2979,
      "ured</w>": 2980,
      "Ġstructure</w>": 2981,
      "spiration</w>": 2982,
      "ĠOpacity</w>": 2983,
      "Ġrecommended</w>": 2984,
      "...<</w>": 2985,
      "ap": 2986,
      "rontal</w>": 2987,
      "Ġradiograph": 2988,
      "Ġscle": 2989,
      "Ġdistress</w>": 2990,
      "con": 2991,
      "tely</w>": 2992,
      "Ġhealed</w>": 2993,
      "Ġbrain</w>": 2994,
      "Ġdescribed</w>": 2995,
      "Ġremoved</w>": 2996,
      "orsening</w>": 2997,
      "ell": 2998,
      "Ġsever": 2999,
      "Ġesophag": 3000,
      "Ġstruct": 3001,
      "Ġadjacent</w>": 3002,
      "Ġosteopenia</w>": 3003,
      "ancy</w>": 3004,
      "domin": 3005,
      "Ġventric": 3006,
      "Ġlobectomy</w>": 3007,
      "Ġendplate</w>": 3008,
      "Ġstra": 3009,
      "Ġmake</w>": 3010,
      "Ġdense</w>": 3011,
      "Ġpredomin": 3012,
      "Ġdistributed</w>": 3013,
      "gia</w>": 3014,
      "hi": 3015,
      "Ġsarcoma</w>": 3016,
      "Ġsyncopal</w>": 3017,
      "aturation</w>": 3018,
      "trache": 3019,
      "Ġinternal</w>": 3020,
      "Ġirregular</w>": 3021,
      "Ġpattern</w>": 3022,
      "Ġnee": 3023,
      "ciency</w>": 3024,
      "Ġdiabetes</w>": 3025,
      "Ġstructu": 3026,
      "tracheal</w>": 3027,
      "AB": 3028,
      "gy</w>": 3029,
      "Ġthe": 3030,
      "stage</w>": 3031,
      "ctal</w>": 3032,
      "resosseous</w>": 3033,
      "Ġaspiration</w>": 3034,
      "ĠEvaluate</w>": 3035,
      "Ġstructuresosseous</w>": 3036,
      "ABG</w>": 3037,
      "An": 3038,
      "ged</w>": 3039,
      "Ġhyperlu": 3040,
      "Ġatrium</w>": 3041,
      "Ġfil": 3042,
      "Ġpostsurgical</w>": 3043,
      "ad</w>": 3044,
      "Ġnothing</w>": 3045,
      "ates</w>": 3046,
      "Ġsequ": 3047,
      "Ġarthritic</w>": 3048,
      "Co": 3049,
      "ĠĊ</w>": 3050,
      "Ġhours</w>": 3051,
      "ĠBilateral</w>": 3052,
      "Ġhead</w>": 3053,
      "Ġy": 3054,
      "otor</w>": 3055,
      "Ġregions</w>": 3056,
      "Ġparatracheal</w>": 3057,
      "Suspected</w>": 3058,
      "mpo": 3059,
      "Ġpast</w>": 3060,
      "lications</w>": 3061,
      "err": 3062,
      "oth": 3063,
      "genic</w>": 3064,
      "Ġbelow</w>": 3065,
      "Ġmeasures</w>": 3066,
      "cious": 3067,
      "othorax</w>": 3068,
      "Ġless</w>": 3069,
      "Ġconscious": 3070,
      "Ġnonproductive</w>": 3071,
      "Ġimages</w>": 3072,
      "Ġconsciousness</w>": 3073,
      "Ġdilated</w>": 3074,
      "Ġdesc": 3075,
      "Ġtracheostomy</w>": 3076,
      "Ġdescending</w>": 3077,
      "scoliosis</w>": 3078,
      "onal</w>": 3079,
      "Ġeating</w>": 3080,
      "cision</w>": 3081,
      "Ġactiv": 3082,
      "Ġactivity</w>": 3083,
      "].<</w>": 3084,
      "Ġcor": 3085,
      "alysis</w>": 3086,
      "Ġdee": 3087,
      "Ġmod": 3088,
      "Ġade": 3089,
      "ers</w>": 3090,
      "ncre": 3091,
      "Ġseverity</w>": 3092,
      "Ġdeep</w>": 3093,
      "Ġadequ": 3094,
      "Motor</w>": 3095,
      "fol": 3096,
      "ses</w>": 3097,
      "Ġsensation</w>": 3098,
      "Ġfood</w>": 3099,
      "ĠMediastin": 3100,
      "Ġaffecting</w>": 3101,
      "Ġperipherally</w>": 3102,
      "Ġairway</w>": 3103,
      "Ġlingula</w>": 3104,
      "erred</w>": 3105,
      "ungs</w>": 3106,
      "Ġpancre": 3107,
      "etri": 3108,
      "Ġendom": 3109,
      "enchymal</w>": 3110,
      "Ġendometri": 3111,
      "specifi": 3112,
      "ĠPleural</w>": 3113,
      "ĠHas</w>": 3114,
      "parenchymal</w>": 3115,
      "Ġshielded</w>": 3116,
      "Ġventricle</w>": 3117,
      "kle</w>": 3118,
      "sarcoidosis</w>": 3119,
      "wed</w>": 3120,
      "Ġankle</w>": 3121,
      "ility</w>": 3122,
      "Ġpostoperative</w>": 3123,
      "Ġthromb": 3124,
      "bone</w>": 3125,
      "orly</w>": 3126,
      "Ġconsi": 3127,
      "ately</w>": 3128,
      "Ġdisc": 3129,
      "icardial</w>": 3130,
      "ĠDegenerative</w>": 3131,
      "ormed</w>": 3132,
      "erm</w>": 3133,
      "Ġfee": 3134,
      "Ġbet": 3135,
      "Ġinspiration</w>": 3136,
      "respon": 3137,
      "Ġcalcific</w>": 3138,
      "Ġstar": 3139,
      "ĠLungs</w>": 3140,
      "Ġunfol": 3141,
      "ance</w>": 3142,
      "apical</w>": 3143,
      "cute</w>": 3144,
      "gu": 3145,
      "aret": 3146,
      "casi": 3147,
      "Ġcontact</w>": 3148,
      "oce": 3149,
      "arette</w>": 3150,
      "ul</w>": 3151,
      "Ġingu": 3152,
      "ingling</w>": 3153,
      "Ġinguinal</w>": 3154,
      "isy</w>": 3155,
      "valuation</w>": 3156,
      "Ġsulcus</w>": 3157,
      "king</w>": 3158,
      "sidu": 3159,
      "ester": 3160,
      "alasia</w>": 3161,
      "Ġprob": 3162,
      "Ġmalignancy</w>": 3163,
      "Ġyester": 3164,
      "Ġyesterday</w>": 3165,
      "Ġasp": 3166,
      "asty</w>": 3167,
      "Ġfibril": 3168,
      "matory</w>": 3169,
      "Ġpreviously</w>": 3170,
      "Ġsymmetric</w>": 3171,
      "Ġasymmet": 3172,
      "Ġfibrillation</w>": 3173,
      "lasty</w>": 3174,
      "plasty</w>": 3175,
      "Ġresidu": 3176,
      "Ġrequires</w>": 3177,
      "Ġzone</w>": 3178,
      "ellular</w>": 3179,
      "Ġneeds</w>": 3180,
      "Ġor": 3181,
      "ract": 3182,
      "Ġslee": 3183,
      "Ġapart</w>": 3184,
      "Ġapnea</w>": 3185,
      "Ġup</w>": 3186,
      "ĠRecent</w>": 3187,
      "Ġmelanoma</w>": 3188,
      "Ġsleep</w>": 3189,
      "Pneumonia</w>": 3190,
      "testicular</w>": 3191,
      "tib": 3192,
      "Ġnode</w>": 3193,
      "Ġaltered</w>": 3194,
      "Ġinflammatory</w>": 3195,
      "arities</w>": 3196,
      "Ġperformed</w>": 3197,
      "Ġirregularities</w>": 3198,
      "12</w>": 3199,
      "Ġpre</w>": 3200,
      "Ġsome</w>": 3201,
      "Ġfrontal</w>": 3202,
      "Ġsup": 3203,
      "Ġprojection</w>": 3204,
      "Ġdextroscoliosis</w>": 3205,
      "St": 3206,
      "Ġgen": 3207,
      "ronchial</w>": 3208,
      "Ġcaused</w>": 3209,
      "Ġadequately</w>": 3210,
      "Ġ8</w>": 3211,
      "nec": 3212,
      "Ġur": 3213,
      "malign": 3214,
      "Ġsaturation</w>": 3215,
      "est": 3216,
      "Ġleg</w>": 3217,
      "Ġintraperitoneal</w>": 3218,
      "Ġcomplications</w>": 3219,
      "Ġcosto": 3220,
      "malignant</w>": 3221,
      "bladder</w>": 3222,
      "Ġsternum</w>": 3223,
      "Ġremains</w>": 3224,
      "Hepa": 3225,
      "pigastric</w>": 3226,
      "ual</w>": 3227,
      "alcinosis</w>": 3228,
      "Bronchi": 3229,
      "hed</w>": 3230,
      "arly</w>": 3231,
      "Ġfunction</w>": 3232,
      "astatic</w>": 3233,
      "ĠIn": 3234,
      "Ġepicardial</w>": 3235,
      "urred</w>": 3236,
      "sy</w>": 3237,
      "ator</w>": 3238,
      "neumothorax</w>": 3239,
      "Ġfissure</w>": 3240,
      "Ġdys": 3241,
      "Ġarti": 3242,
      "Ġ-": 3243,
      "dition</w>": 3244,
      "Ġinh": 3245,
      "ĠChronic</w>": 3246,
      "Ġradiates</w>": 3247,
      "Ġbiapical</w>": 3248,
      "ĠSyncope</w>": 3249,
      "Ġtechni": 3250,
      "ĠCoronary</w>": 3251,
      "Ġdemonstrated</w>": 3252,
      "py</w>": 3253,
      "Ġtubercul": 3254,
      "rahilar</w>": 3255,
      "erapy</w>": 3256,
      "thritis</w>": 3257,
      "Ġaches</w>": 3258,
      "Ġprocedure</w>": 3259,
      "Ġaspect</w>": 3260,
      "pleural</w>": 3261,
      "Ġfal": 3262,
      "Ġherniation</w>": 3263,
      "calcified</w>": 3264,
      "gorg": 3265,
      "Ġlightheadedness</w>": 3266,
      "Ġnow</w>": 3267,
      "Ġengorg": 3268,
      "Ġdeviated</w>": 3269,
      "roscop": 3270,
      "Ġagain</w>": 3271,
      "Ġcostochond": 3272,
      "Ġnipple</w>": 3273,
      "Ġful": 3274,
      "spine</w>": 3275,
      "Ġblunted</w>": 3276,
      "78": 3277,
      "Epigastric</w>": 3278,
      "meter</w>": 3279,
      "multiple</w>": 3280,
      "wheezing</w>": 3281,
      "als</w>": 3282,
      "Ġdisorder": 3283,
      "Ġasymmetric</w>": 3284,
      "Ġdisorders</w>": 3285,
      "pre": 3286,
      "requ": 3287,
      "ĠComplain": 3288,
      "requent</w>": 3289,
      "ero": 3290,
      "flu": 3291,
      "Ġaus": 3292,
      "cultation</w>": 3293,
      "Ġreac": 3294,
      "Ġgerm</w>": 3295,
      "Ġhumeral</w>": 3296,
      "Ġauscultation</w>": 3297,
      "Ġreaction</w>": 3298,
      "Ġs</w>": 3299,
      "arent</w>": 3300,
      "arse</w>": 3301,
      "Ġintermittent</w>": 3302,
      "arcinoma</w>": 3303,
      "ĠNothing</w>": 3304,
      "ocarcinoma</w>": 3305,
      "Ġadenocarcinoma</w>": 3306,
      "Ġocc": 3307,
      "own</w>": 3308,
      "Ġten": 3309,
      "Ġamo": 3310,
      "Ġshowing</w>": 3311,
      "ĠSurgical</w>": 3312,
      "Ġdistention</w>": 3313,
      "Ġques": 3314,
      "Ġoutlet</w>": 3315,
      "Ġtechnique</w>": 3316,
      "Ġamount</w>": 3317,
      "frequent</w>": 3318,
      "Ġpersist": 3319,
      "Ġvalv": 3320,
      "Ġresol": 3321,
      "Ġexam</w>": 3322,
      "Post": 3323,
      "Ġdepression</w>": 3324,
      "casional</w>": 3325,
      "jor</w>": 3326,
      "vated</w>": 3327,
      "ressive</w>": 3328,
      "Ġdiameter</w>": 3329,
      "Ġfaci": 3330,
      "Abnormal</w>": 3331,
      "Ġairways</w>": 3332,
      "Ġachalasia</w>": 3333,
      "Ġsclerosis</w>": 3334,
      "Ġresidual</w>": 3335,
      "..</w>": 3336,
      "active</w>": 3337,
      "Ġpart</w>": 3338,
      "rain": 3339,
      "arthritis</w>": 3340,
      "ecurrent</w>": 3341,
      "lavian</w>": 3342,
      "urrently</w>": 3343,
      "ired</w>": 3344,
      "Ġrot": 3345,
      "Ġosteoarthritis</w>": 3346,
      "Ġpleurisy</w>": 3347,
      "Ġsubclavian</w>": 3348,
      "Ġfacility</w>": 3349,
      "It</w>": 3350,
      "sarcoma</w>": 3351,
      "wn": 3352,
      "Ġsa": 3353,
      "ither</w>": 3354,
      "cha": 3355,
      "yosarcoma</w>": 3356,
      "igarette</w>": 3357,
      "acute</w>": 3358,
      "ĠPrevi": 3359,
      "and</w>": 3360,
      "Ġlobar</w>": 3361,
      "Ġleiomyosarcoma</w>": 3362,
      "Ġincreasing</w>": 3363,
      "Ġdown": 3364,
      "ear</w>": 3365,
      "Ġpal": 3366,
      "enly</w>": 3367,
      "olic</w>": 3368,
      "neous</w>": 3369,
      "Ġevenly</w>": 3370,
      "taneous</w>": 3371,
      "Ġfollowing</w>": 3372,
      "ful</w>": 3373,
      "Ġapparent</w>": 3374,
      "indclinical</w>": 3375,
      "Ġunable</w>": 3376,
      "Ġprobable</w>": 3377,
      "do": 3378,
      "ot</w>": 3379,
      "pat": 3380,
      "Ġhand</w>": 3381,
      "reasing</w>": 3382,
      "igrant</w>": 3383,
      "Ġrectal</w>": 3384,
      "Ġence": 3385,
      "Ġcolon</w>": 3386,
      "Ġarrest</w>": 3387,
      "Ġincrease</w>": 3388,
      "phalopathy</w>": 3389,
      "Ġcompleted</w>": 3390,
      "Ġtuberculin</w>": 3391,
      "Ġencephalopathy</w>": 3392,
      "ioce": 3393,
      "Ġwere</w>": 3394,
      "Ġmarg": 3395,
      "Ġmetab": 3396,
      "Ġcomplaint</w>": 3397,
      "Ġextent</w>": 3398,
      "phalic</w>": 3399,
      "Ġbrachioce": 3400,
      "Ġbrachiocephalic</w>": 3401,
      "Mild</w>": 3402,
      "Recurrent</w>": 3403,
      "leuritic</w>": 3404,
      "Ġdefibrillator</w>": 3405,
      "Ġsec": 3406,
      "urring</w>": 3407,
      "Shoulder</w>": 3408,
      "dditional</w>": 3409,
      "ne</w>": 3410,
      "Ġt</w>": 3411,
      "ficiency</w>": 3412,
      "Ġmajor</w>": 3413,
      "atri": 3414,
      "deficiency</w>": 3415,
      "Ġhepat": 3416,
      "Ġdehy": 3417,
      "Ġreactive</w>": 3418,
      "Ġopacifi": 3419,
      "Ġspurring</w>": 3420,
      "mber</w>": 3421,
      "Inter": 3422,
      "Ġimmunodeficiency</w>": 3423,
      "ĠPreviously</w>": 3424,
      "Ġdehyd": 3425,
      ")<</w>": 3426,
      "Tachycardia</w>": 3427,
      "Ġaerated</w>": 3428,
      "Ġaeration</w>": 3429,
      "Thed</w>": 3430,
      "Ġprostat": 3431,
      "Ġcharact": 3432,
      "over": 3433,
      "esses</w>": 3434,
      "Anterior</w>": 3435,
      "Ġconsidered</w>": 3436,
      "Ġmetabolic</w>": 3437,
      "Ġprostatectomy</w>": 3438,
      "tal": 3439,
      "Ġotal": 3440,
      "tig": 3441,
      "leged</w>": 3442,
      "orb": 3443,
      "tran": 3444,
      "rgic</w>": 3445,
      "ocellular</w>": 3446,
      "Ġectatic</w>": 3447,
      "Ġsymmetrically</w>": 3448,
      "Ġhepatocellular</w>": 3449,
      "Ġotalgia</w>": 3450,
      "'t</w>": 3451,
      "Pro": 3452,
      "Sc": 3453,
      "etic</w>": 3454,
      "os</w>": 3455,
      "solid": 3456,
      "Ġasc": 3457,
      "Ġsided</w>": 3458,
      "Ġsmo": 3459,
      "Ġbladder</w>": 3460,
      "eto": 3461,
      "etastatic</w>": 3462,
      "Ġsinus</w>": 3463,
      "Ġinvolvement</w>": 3464,
      "Ġimproved</w>": 3465,
      "Ġhyperlucent</w>": 3466,
      "Ġascending</w>": 3467,
      "Cardi": 3468,
      "bilateral</w>": 3469,
      "milar</w>": 3470,
      "ocardi": 3471,
      "titis</w>": 3472,
      "Ġcorre": 3473,
      "Ġdeg": 3474,
      "Ġdegen": 3475,
      "ety</w>": 3476,
      "Ġhypertro": 3477,
      "Ġextensive</w>": 3478,
      "and": 3479,
      "xiety</w>": 3480,
      "Ġirregularity</w>": 3481,
      "Ġdiagnosed</w>": 3482,
      "Ġsecond": 3483,
      "acid": 3484,
      "Ġill</w>": 3485,
      "Ġcom": 3486,
      "Ġhal": 3487,
      "Ġsutures</w>": 3488,
      "urm": 3489,
      "Ġpresyncope</w>": 3490,
      "Ġup": 3491,
      "Ġketo": 3492,
      "Ġdiabetic</w>": 3493,
      "condition</w>": 3494,
      "ĠMediastinal</w>": 3495,
      "acidosis</w>": 3496,
      "Ġketoacidosis</w>": 3497,
      "Follow</w>": 3498,
      "VA</w>": 3499,
      "cy</w>": 3500,
      "Ġcomm": 3501,
      "difficulty</w>": 3502,
      "Ġsimilar</w>": 3503,
      "ecreased</w>": 3504,
      "gency</w>": 3505,
      "Ġsuperimpo": 3506,
      "Ġrepresents</w>": 3507,
      "Ġhypertrophy</w>": 3508,
      "andlike</w>": 3509,
      "Ġsecondary</w>": 3510,
      "Ġcu": 3511,
      "essed</w>": 3512,
      "Ġet": 3513,
      "Ġear</w>": 3514,
      "ormations</w>": 3515,
      "unded</w>": 3516,
      "Ġvac": 3517,
      "idal</w>": 3518,
      "month</w>": 3519,
      "logy</w>": 3520,
      "tralogy</w>": 3521,
      "Ġday</w>": 3522,
      "Ġmidback</w>": 3523,
      "Ġcavitation</w>": 3524,
      "ween</w>": 3525,
      "Ġresul": 3526,
      "utine</w>": 3527,
      "Ġroutine</w>": 3528,
      "ĠFallo": 3529,
      "Ġpleuroparenchymal</w>": 3530,
      "Ġradiographs</w>": 3531,
      "Ġbetween</w>": 3532,
      "responsive</w>": 3533,
      "Ġinhaling</w>": 3534,
      "transplant</w>": 3535,
      "Ġvaccin": 3536,
      "ĠFallot</w>": 3537,
      "CABG</w>": 3538,
      "agnosis</w>": 3539,
      "och": 3540,
      "ody</w>": 3541,
      "sophag": 3542,
      "inate</w>": 3543,
      "lek</w>": 3544,
      "Ġwires</w>": 3545,
      "Ġbandlike</w>": 3546,
      "demonst": 3547,
      "Ġhel": 3548,
      "Ġduring</w>": 3549,
      "Ġcount</w>": 3550,
      "Ġwhite</w>": 3551,
      "dalek</w>": 3552,
      "poxemia</w>": 3553,
      "Ġterms</w>": 3554,
      "Ġslight</w>": 3555,
      "Ġveins</w>": 3556,
      "Ġpersisting</w>": 3557,
      "solidation</w>": 3558,
      "ochdalek</w>": 3559,
      "MVA</w>": 3560,
      "ur</w>": 3561,
      "wit": 3562,
      "Ġax": 3563,
      "Ġreve": 3564,
      "ĠDiaphrag": 3565,
      "Ġmeasuring</w>": 3566,
      "Ġvalvular</w>": 3567,
      "Ġsaid</w>": 3568,
      "Ġreveals</w>": 3569,
      "PICC</w>": 3570,
      "zed</w>": 3571,
      "Ġcar": 3572,
      "ncreased</w>": 3573,
      "ortuosity</w>": 3574,
      "Ġopacification</w>": 3575,
      "sophageal</w>": 3576,
      "Recent</w>": 3577,
      "knee</w>": 3578,
      "nausea</w>": 3579,
      "sweats</w>": 3580,
      "vomiting</w>": 3581,
      "order</w>": 3582,
      "defibrillator</w>": 3583,
      "Ġrelation</w>": 3584,
      "obronchial</w>": 3585,
      "antly</w>": 3586,
      "Ġindicative</w>": 3587,
      "smoking</w>": 3588,
      "Congestion</w>": 3589,
      "Ġfalling</w>": 3590,
      "Intermittent</w>": 3591,
      "tially</w>": 3592,
      "itus</w>": 3593,
      "Ġshould</w>": 3594,
      "supp": 3595,
      "Ġneopl": 3596,
      "Ġimmunosupp": 3597,
      "Ġpredominantly</w>": 3598,
      "Ġdegree</w>": 3599,
      "Ġupward</w>": 3600,
      "ination</w>": 3601,
      "Ġjug": 3602,
      "ĠPICC</w>": 3603,
      "Ġmuscle</w>": 3604,
      "Ġremain</w>": 3605,
      "Ġremarkable</w>": 3606,
      "Ġsymmetrical</w>": 3607,
      "786</w>": 3608,
      "Ġjugular</w>": 3609,
      "Metastatic</w>": 3610,
      "ĠV": 3611,
      "Ġenchondroma</w>": 3612,
      "Ġche": 3613,
      "Ġsuperimposed</w>": 3614,
      "Pulmonary</w>": 3615,
      "so": 3616,
      "mphys": 3617,
      "Ġsuspicion</w>": 3618,
      "Ġrounded</w>": 3619,
      "ĠFollow</w>": 3620,
      "roscopy</w>": 3621,
      "Palpitations</w>": 3622,
      "tortuosity</w>": 3623,
      "Ġmight</w>": 3624,
      "tained</w>": 3625,
      "ĠMultiple</w>": 3626,
      "Ġassess": 3627,
      "Ġpartially</w>": 3628,
      "Ġlead</w>": 3629,
      "Ġexcluded</w>": 3630,
      "ĠHypertension</w>": 3631,
      "ĠComplaint</w>": 3632,
      "46</w>": 3633,
      "Bone</w>": 3634,
      "ct</w>": 3635,
      "oroscopy</w>": 3636,
      "Ġterat": 3637,
      "Ġrings</w>": 3638,
      "Ġdou": 3639,
      "ela</w>": 3640,
      "Ġtracheomalacia</w>": 3641,
      "Ġhyperpla": 3642,
      "Ġchamber</w>": 3643,
      "Ġlipomatosis</w>": 3644,
      "Ġfluoroscopy</w>": 3645,
      "Ġmedication</w>": 3646,
      "Ġlymphangitic</w>": 3647,
      "Ġneurogenic</w>": 3648,
      "Ġsequela</w>": 3649,
      "Ġteratoma</w>": 3650,
      "Ġdouble</w>": 3651,
      "Ġhyperplasia</w>": 3652,
      "Decreased</w>": 3653,
      "mm": 3654,
      "Ġ9</w>": 3655,
      "urrence</w>": 3656,
      "Ġvein</w>": 3657,
      "ram": 3658,
      "Ġcl": 3659,
      "Ġdilat": 3660,
      "sthe": 3661,
      "trast</w>": 3662,
      "persistent</w>": 3663,
      "Ġinferior</w>": 3664,
      "Ġforam": 3665,
      "ĠTi": 3666,
      "Ġpartial</w>": 3667,
      "Ġrespiration</w>": 3668,
      "Ġmalformations</w>": 3669,
      "Ġdegeneration</w>": 3670,
      "Ġdilatation</w>": 3671,
      "xation</w>": 3672,
      "liver</w>": 3673,
      "ĠWorsening</w>": 3674,
      "Ġliver</w>": 3675,
      "Ġversu": 3676,
      "Ġimpact": 3677,
      "Ġwound</w>": 3678,
      "Ġdemonstrate</w>": 3679,
      "Ġesophagitis</w>": 3680,
      "Ġstrain</w>": 3681,
      "Ġversus</w>": 3682,
      "Ġimpacted</w>": 3683,
      "Tran": 3684,
      "Zen": 3685,
      "ki</w>": 3686,
      "where</w>": 3687,
      "xus</w>": 3688,
      "zki</w>": 3689,
      "ĠZen": 3690,
      "Ġagene": 3691,
      "ulas</w>": 3692,
      "Ġplexus</w>": 3693,
      "olus</w>": 3694,
      "Ġbolus</w>": 3695,
      "Ġsurro": 3696,
      "atzki</w>": 3697,
      "chatzki</w>": 3698,
      "den</w>": 3699,
      "ctomy</w>": 3700,
      "etze</w>": 3701,
      "Ġmotility</w>": 3702,
      "Ġwebs</w>": 3703,
      "Ġovale</w>": 3704,
      "Ġintracardiac</w>": 3705,
      "motility</w>": 3706,
      "ĠBochdalek</w>": 3707,
      "ĠSchatzki</w>": 3708,
      "Ġgranulomatosis</w>": 3709,
      "Ġcarcinomatosis</w>": 3710,
      "Ġmyopathy</w>": 3711,
      "Ġfistulas</w>": 3712,
      "Ġdiverticulum</w>": 3713,
      "Ġfibroma</w>": 3714,
      "Ġfibroelastosis</w>": 3715,
      "Ġendocardi": 3716,
      "Ġendobronchial</w>": 3717,
      "Ġosteochondroma</w>": 3718,
      "Ġdistributions</w>": 3719,
      "Ġlingular</w>": 3720,
      "Ġbrachial</w>": 3721,
      "Ġfilter</w>": 3722,
      "Ġendometriosis</w>": 3723,
      "Ġthrombus</w>": 3724,
      "Ġdysmotility</w>": 3725,
      "Ġcostochondritis</w>": 3726,
      "Ġdownward</w>": 3727,
      "Ġpalsy</w>": 3728,
      "Ġforamen</w>": 3729,
      "ĠTietze</w>": 3730,
      "ĠZenker</w>": 3731,
      "Ġagenesis</w>": 3732,
      "Ġendocarditis</w>": 3733,
      "Degenerative</w>": 3734,
      "dden</w>": 3735,
      "lined</w>": 3736,
      "ped</w>": 3737,
      "Ġsudden</w>": 3738,
      "hage</w>": 3739,
      "Ġrev": 3740,
      "Ġinfarct": 3741,
      "Ġmoving</w>": 3742,
      "terminate</w>": 3743,
      "Ġbig</w>": 3744,
      "Ġretrosternal</w>": 3745,
      "Ġoutlined</w>": 3746,
      "Ġobscured</w>": 3747,
      "Ġimprovement</w>": 3748,
      "othly</w>": 3749,
      "Ġsmoothly</w>": 3750,
      "Ġinfarcts</w>": 3751,
      "21</w>": 3752,
      "opa": 3753,
      "Ġcurrently</w>": 3754,
      "Ġman": 3755,
      "Ġarthro": 3756,
      "Ġinterv": 3757,
      "ĠOb": 3758,
      "Ġshado": 3759,
      "Ġoccasional</w>": 3760,
      "Ġneoplasm</w>": 3761,
      "mot": 3762,
      "no</w>": 3763,
      "pneumothorax</w>": 3764,
      "sized</w>": 3765,
      "Ġpol": 3766,
      "rately</w>": 3767,
      "ĠDis": 3768,
      "Ġinferred</w>": 3769,
      "Ġoverla": 3770,
      "Ġhaving</w>": 3771,
      "Ġnonsmoker</w>": 3772,
      "Ġconcluded</w>": 3773,
      "mote</w>": 3774,
      "18</w>": 3775,
      "15</w>": 3776,
      "cesses</w>": 3777,
      "noma</w>": 3778,
      "uma": 3779,
      "wan": 3780,
      "Ġsw": 3781,
      "Ġsch": 3782,
      "Ġrela": 3783,
      "Ġplaced</w>": 3784,
      "fibroma</w>": 3785,
      "Ġinvolving</w>": 3786,
      "Ġneurofibroma</w>": 3787,
      "ĠHypoxia</w>": 3788,
      "Ġarthroplasty</w>": 3789,
      "Ġshadows</w>": 3790,
      "wannoma</w>": 3791,
      "Ġschwannoma</w>": 3792,
      "mul": 3793,
      "upper</w>": 3794,
      "ina</w>": 3795,
      "sition</w>": 3796,
      "ones</w>": 3797,
      "pped</w>": 3798,
      "Ġfixation</w>": 3799,
      "Ġpounds</w>": 3800,
      "structive</w>": 3801,
      "geneic</w>": 3802,
      "specific</w>": 3803,
      "Ġreveal</w>": 3804,
      "HIV</w>": 3805,
      "pful</w>": 3806,
      "tter</w>": 3807,
      "Ġtingling</w>": 3808,
      "Ġcoughing</w>": 3809,
      "Ġhuma": 3810,
      "unding</w>": 3811,
      "atus</w>": 3812,
      "Ġcardiover": 3813,
      "rus</w>": 3814,
      "Ġvirus</w>": 3815,
      "derness</w>": 3816,
      "moking</w>": 3817,
      "Ġfollowed</w>": 3818,
      "Ġtenderness</w>": 3819,
      "Ġhelpful</w>": 3820,
      "Ġassessment</w>": 3821,
      "Ġsurrounding</w>": 3822,
      "Ġhuman</w>": 3823,
      "ease</w>": 3824,
      "lurred</w>": 3825,
      "ali": 3826,
      "hadenopathy</w>": 3827,
      "Ġspee": 3828,
      "Ġexpansion</w>": 3829,
      "Ġtrapped</w>": 3830,
      "ogram</w>": 3831,
      "Ġflutter</w>": 3832,
      "therosclerosis</w>": 3833,
      "Ġmoderately</w>": 3834,
      "Ġfully</w>": 3835,
      "ĠObstructive</w>": 3836,
      "ĠDisease</w>": 3837,
      "mulator</w>": 3838,
      "Ġspeech</w>": 3839,
      "Ġdialysis</w>": 3840,
      "trac": 3841,
      "Ġcontusion</w>": 3842,
      "Ġremain": 3843,
      "Ġmodali": 3844,
      "Ġmodalities</w>": 3845,
      "58</w>": 3846,
      "ĠC</w>": 3847,
      "Ġventral</w>": 3848,
      "Ġvari": 3849,
      "Ġhearing</w>": 3850,
      "Ġredemonst": 3851,
      "Ġappre": 3852,
      "entation</w>": 3853,
      "Ġadren": 3854,
      "ability</w>": 3855,
      "Cardiomegaly</w>": 3856,
      "26</w>": 3857,
      "Coughing</w>": 3858,
      "Lightheadedness</w>": 3859,
      "Sore</w>": 3860,
      "Smoking</w>": 3861,
      "elo": 3862,
      "hx</w>": 3863,
      "Ġ12</w>": 3864,
      "Ġop": 3865,
      "procedure</w>": 3866,
      "radi": 3867,
      "ĠThis</w>": 3868,
      "Ġseizure</w>": 3869,
      "Ġglan": 3870,
      "Ġface</w>": 3871,
      "Ġdevelo": 3872,
      "Ġviews</w>": 3873,
      "Bronchitis</w>": 3874,
      "Heart</w>": 3875,
      "ague</w>": 3876,
      "cs</w>": 3877,
      "hills</w>": 3878,
      "Ġav": 3879,
      "entions</w>": 3880,
      "losure</w>": 3881,
      "load</w>": 3882,
      "oper": 3883,
      "Ġcour": 3884,
      "Ġonce</w>": 3885,
      "Ġmonit": 3886,
      "Ġexagg": 3887,
      "Ġstudies</w>": 3888,
      "Ġoutside</w>": 3889,
      "Ġdehydration</w>": 3890,
      "Ġorg": 3891,
      "larged</w>": 3892,
      "Ġfever": 3893,
      "Ġoverload</w>": 3894,
      "Ġstarting</w>": 3895,
      "Ġgland</w>": 3896,
      "Ġfevers</w>": 3897,
      "Acute</w>": 3898,
      "MVC</w>": 3899,
      "dist": 3900,
      "estig": 3901,
      "Ġben": 3902,
      "Ġcontrast</w>": 3903,
      "Ġhemit": 3904,
      "horax</w>": 3905,
      "Ġhypo": 3906,
      "Ġmidsternal</w>": 3907,
      "ĠSuspected</w>": 3908,
      "Ġmarkers</w>": 3909,
      "tionable</w>": 3910,
      "Ġinvestig": 3911,
      "itoneum</w>": 3912,
      "Complain": 3913,
      "Ġsuprahilar</w>": 3914,
      "neck</w>": 3915,
      "operitoneum</w>": 3916,
      "Ġhemithorax</w>": 3917,
      "Ass": 3918,
      "ang": 3919,
      "io": 3920,
      "ĠAsthma</w>": 3921,
      "Ġhigh</w>": 3922,
      "umn</w>": 3923,
      "Ġobtained</w>": 3924,
      "Ġcolumn</w>": 3925,
      "Ġevaluating</w>": 3926,
      "Ġmarked</w>": 3927,
      "Ġovert</w>": 3928,
      "tibio": 3929,
      "Ġquestionable</w>": 3930,
      ":.<</w>": 3931,
      "Chills</w>": 3932,
      "Sarcoidosis</w>": 3933,
      "co": 3934,
      "cough</w>": 3935,
      "follow</w>": 3936,
      "nd</w>": 3937,
      "Ġ.<</w>": 3938,
      "Ġalign": 3939,
      "tious</w>": 3940,
      "lergic</w>": 3941,
      "abnormal</w>": 3942,
      "weating</w>": 3943,
      "Ġrepresen": 3944,
      "cep": 3945,
      "oplas": 3946,
      "Hepatitis</w>": 3947,
      "distress</w>": 3948,
      "inting</w>": 3949,
      "Ġsac": 3950,
      "Ġantibio": 3951,
      "Ġfainting</w>": 3952,
      "ĠDiagnosis</w>": 3953,
      "elevated</w>": 3954,
      "eralized</w>": 3955,
      "Ġexclu": 3956,
      "radiating</w>": 3957,
      "Ġrepresenting</w>": 3958,
      "fact</w>": 3959,
      "sca": 3960,
      "Ġbac": 3961,
      "Ġdimin": 3962,
      "Ġpneumoperitoneum</w>": 3963,
      "ĠDuration</w>": 3964,
      "Ġhypertensive</w>": 3965,
      "Ġexcep": 3966,
      "Ġtop</w>": 3967,
      "Ġunfolded</w>": 3968,
      "Ġurgency</w>": 3969,
      "Ġartifact</w>": 3970,
      "Ġcharacter": 3971,
      "mphysema</w>": 3972,
      "Ġback": 3973,
      "rotid</w>": 3974,
      "Ġcle": 3975,
      "eness</w>": 3976,
      "Ġsom": 3977,
      "Ġho": 3978,
      "Ġproxi": 3979,
      "Ġfibrotic</w>": 3980,
      "Ġsulci</w>": 3981,
      "increasing</w>": 3982,
      "Multiple</w>": 3983,
      "gra": 3984,
      "stance</w>": 3985,
      "stoplas": 3986,
      "ĠWeakness</w>": 3987,
      "Ġinfectious</w>": 3988,
      "ĠAbdominal</w>": 3989,
      "ished</w>": 3990,
      "ĠCardiomediastinal</w>": 3991,
      "Ġthyroidectomy</w>": 3992,
      "stoplasm": 3993,
      "?}</w>": 3994,
      "Ġport": 3995,
      "Ġvague</w>": 3996,
      "ubstance</w>": 3997,
      "bleed</w>": 3998,
      "Ġfact": 3999,
      "ysubstance</w>": 4000,
      "sob</w>": 4001,
      "Ġpolysubstance</w>": 4002,
      "Ġexcept</w>": 4003,
      "Ġproximal</w>": 4004,
      "grade</w>": 4005,
      "ai": 4006,
      "Ġeither</w>": 4007,
      "lable</w>": 4008,
      "pation</w>": 4009,
      "ĠDown</w>": 4010,
      "oracic</w>": 4011,
      "Ġpleura</w>": 4012,
      "orbid</w>": 4013,
      "Ġavai": 4014,
      "Ġhypov": 4015,
      "Ġavailable</w>": 4016,
      "adi": 4017,
      "fy</w>": 4018,
      "what</w>": 4019,
      "yng": 4020,
      "rophy</w>": 4021,
      "Ġtherapy</w>": 4022,
      "reated</w>": 4023,
      "lous</w>": 4024,
      "ystrophy</w>": 4025,
      "Ġworse</w>": 4026,
      "Ġround</w>": 4027,
      "Ġfactors</w>": 4028,
      "yngeal</w>": 4029,
      "Ar": 4030,
      "ewhat</w>": 4031,
      "end": 4032,
      "Ġincision</w>": 4033,
      "rec": 4034,
      "ĠPneumonia</w>": 4035,
      "Ġsubsternal</w>": 4036,
      "Ġresection</w>": 4037,
      "ĠRule</w>": 4038,
      "ĠPossible</w>": 4039,
      "Ġrequi": 4040,
      "ICD</w>": 4041,
      "Ġshielding</w>": 4042,
      "Ġengorgement</w>": 4043,
      "ĠDiaphragm</w>": 4044,
      "Ġsomewhat</w>": 4045,
      "Ġlu": 4046,
      "ĠCalcinosis</w>": 4047,
      "ĠTe": 4048,
      "mit</w>": 4049,
      "inflated</w>": 4050,
      "Ġlaryngeal</w>": 4051,
      "Ġabove</w>": 4052,
      "Ġepigastric</w>": 4053,
      "fluid</w>": 4054,
      "Ġmonitor</w>": 4055,
      "Ġdiminished</w>": 4056,
      "endent</w>": 4057,
      "Esophageal</w>": 4058,
      "Increased</w>": 4059,
      "fo": 4060,
      "it</w>": 4061,
      "me": 4062,
      "morbid</w>": 4063,
      "pre</w>": 4064,
      "sened</w>": 4065,
      "mpectomy</w>": 4066,
      "ĠAdditional</w>": 4067,
      "Ġcoarse</w>": 4068,
      "ĠAbnormal</w>": 4069,
      "Hypoxemia</w>": 4070,
      "Ġbeing</w>": 4071,
      "Ġrecurrence</w>": 4072,
      "Ġunfolding</w>": 4073,
      "Transplant</w>": 4074,
      "Ġappreciated</w>": 4075,
      "Ġlumpectomy</w>": 4076,
      "imm": 4077,
      "sho": 4078,
      "tle</w>": 4079,
      "art": 4080,
      "unsho": 4081,
      "cisions</w>": 4082,
      "Ġabnormally</w>": 4083,
      "ternal</w>": 4084,
      "tero": 4085,
      "Ġhypero": 4086,
      "rainage</w>": 4087,
      "Ġorgan</w>": 4088,
      "unshot</w>": 4089,
      "fore</w>": 4090,
      "op</w>": 4091,
      "ure": 4092,
      "determinate</w>": 4093,
      "ĠDizziness</w>": 4094,
      "Ġhistoplasm": 4095,
      "Ġhydro": 4096,
      "Ġbullous</w>": 4097,
      "Ġneed</w>": 4098,
      "Ġmodality</w>": 4099,
      "Ġbenign</w>": 4100,
      "Ġexclude</w>": 4101,
      "Ġhydropneumothorax</w>": 4102,
      "16</w>": 4103,
      "elae</w>": 4104,
      "omp": 4105,
      "indeterminate</w>": 4106,
      "Ġincisions</w>": 4107,
      "related</w>": 4108,
      "Ġdrainage</w>": 4109,
      "Ġstability</w>": 4110,
      "Ġdislocations</w>": 4111,
      "Ġalter": 4112,
      "Ġreported</w>": 4113,
      "Ġhemorrhage</w>": 4114,
      "ĠLoss</w>": 4115,
      "erator</w>": 4116,
      "Ġgenerator</w>": 4117,
      "Ġalignment</w>": 4118,
      "adiogra": 4119,
      "Based</w>": 4120,
      "Calcified</w>": 4121,
      "ag": 4122,
      "Ġfor": 4123,
      "Ġprosthe": 4124,
      "Ġsubtle</w>": 4125,
      "Ġaffect</w>": 4126,
      "oscoliosis</w>": 4127,
      "Ġresolved</w>": 4128,
      "HF</w>": 4129,
      "Ġpel": 4130,
      "ĠAcute</w>": 4131,
      "Ġborder</w>": 4132,
      "Ġtract</w>": 4133,
      "Ġdual</w>": 4134,
      "Hyper": 4135,
      "Ġlevoscoliosis</w>": 4136,
      "irr": 4137,
      "Ġradiographic</w>": 4138,
      "Ġstarted</w>": 4139,
      "Two</w>": 4140,
      "be": 4141,
      "inu": 4142,
      "enlarged</w>": 4143,
      "Ġhemo": 4144,
      "entu": 4145,
      "ystic</w>": 4146,
      "Ġinterpre": 4147,
      "Ġaccentu": 4148,
      "Ġbefore</w>": 4149,
      "Ġparenchymal</w>": 4150,
      "ologi": 4151,
      "Ġthrough</w>": 4152,
      "Ġseveral</w>": 4153,
      "Ġsequelae</w>": 4154,
      "Ġordered</w>": 4155,
      "Ġrotated</w>": 4156,
      "Ġportable</w>": 4157,
      "Calcinosis</w>": 4158,
      "Se": 4159,
      "venous</w>": 4160,
      "Ġcur": 4161,
      "onitis</w>": 4162,
      "itary</w>": 4163,
      "reening</w>": 4164,
      "Ġrevi": 4165,
      "Ġplace</w>": 4166,
      "Ġintravenous</w>": 4167,
      "Ġchf</w>": 4168,
      "Ġalco": 4169,
      "uries</w>": 4170,
      "Ġinjuries</w>": 4171,
      "Ġundergone</w>": 4172,
      "Ġthey</w>": 4173,
      "Ġfeeding</w>": 4174,
      "Ġexaggerated</w>": 4175,
      "Ġclearly</w>": 4176,
      "foot</w>": 4177,
      "eed</w>": 4178,
      "Ġtreated</w>": 4179,
      "Ġpul": 4180,
      "mate</w>": 4181,
      "dialysis</w>": 4182,
      "leno": 4183,
      "ension</w>": 4184,
      "ĠAtherosclerosis</w>": 4185,
      "ĠThoracic</w>": 4186,
      "lower</w>": 4187,
      "omatic</w>": 4188,
      "Ġgleno": 4189,
      "Ġthorac": 4190,
      "Ġradiation</w>": 4191,
      "ĠMass</w>": 4192,
      "rowing</w>": 4193,
      "ĠRadiogra": 4194,
      "Ġimageed</w>": 4195,
      "Ġpredominant</w>": 4196,
      "Ġcardioverter</w>": 4197,
      "Ġhemodialysis</w>": 4198,
      "Cho": 4199,
      "ever</w>": 4200,
      "ically</w>": 4201,
      "jec": 4202,
      "ĠVehicle</w>": 4203,
      "Ġton": 4204,
      "Ġpas": 4205,
      "Ġnar": 4206,
      "ulsion</w>": 4207,
      "Ġhab": 4208,
      "atchy</w>": 4209,
      "Ġhepa": 4210,
      "hol</w>": 4211,
      "Ġremote</w>": 4212,
      "Ġstoma": 4213,
      "Ġexternal</w>": 4214,
      "ectus</w>": 4215,
      "Ġtransp": 4216,
      "stero": 4217,
      "Ġimplantable</w>": 4218,
      "Ġprojected</w>": 4219,
      "Ġclavicles</w>": 4220,
      "Ġreferred</w>": 4221,
      "Ġobscuration</w>": 4222,
      "Ġatt": 4223,
      "specified</w>": 4224,
      "irrhosis</w>": 4225,
      "Ġalcohol</w>": 4226,
      "Ġhabitus</w>": 4227,
      "Ġstomach</w>": 4228,
      "fort</w>": 4229,
      "sely</w>": 4230,
      "Ġ7": 4231,
      "ince</w>": 4232,
      "tics</w>": 4233,
      "Ġcigarette</w>": 4234,
      "arran": 4235,
      "Ġwarran": 4236,
      "omfort</w>": 4237,
      "ster": 4238,
      "Ġheart": 4239,
      "logeneic</w>": 4240,
      "out": 4241,
      "Ġinflation</w>": 4242,
      "ymptomatic</w>": 4243,
      "scle": 4244,
      "atitis</w>": 4245,
      "Ġchoking</w>": 4246,
      "rregular</w>": 4247,
      "Ġasymptomatic</w>": 4248,
      "Ġpancreatitis</w>": 4249,
      "Ġdiscomfort</w>": 4250,
      "Ġcourse</w>": 4251,
      "air": 4252,
      "eel": 4253,
      "ntation</w>": 4254,
      "Ġis": 4255,
      "Ġanxiety</w>": 4256,
      "esp": 4257,
      "esn</w>": 4258,
      "Ġini": 4259,
      "yelo": 4260,
      "Ġdru": 4261,
      "teme": 4262,
      "Ġwheel": 4263,
      "Ġsubdiaphragmatic</w>": 4264,
      "ĠHum": 4265,
      "splantation</w>": 4266,
      "Ġtransplantation</w>": 4267,
      "ĠMVC</w>": 4268,
      "Ġinfarct</w>": 4269,
      "ĠCancer</w>": 4270,
      "Ġhypoinflation</w>": 4271,
      "Ġimmigrant</w>": 4272,
      "Ġdoesn</w>": 4273,
      "Ġdiagnoses</w>": 4274,
      "Ġesophagus</w>": 4275,
      "Ġoccurs</w>": 4276,
      "chair</w>": 4277,
      "Ġadrenal</w>": 4278,
      "uretic</w>": 4279,
      "Ġtonight</w>": 4280,
      "Ġhepatic</w>": 4281,
      "Ġdrug</w>": 4282,
      "temesis</w>": 4283,
      "Ġwheelchair</w>": 4284,
      "yar": 4285,
      "roder": 4286,
      "mall</w>": 4287,
      "Ġslurred</w>": 4288,
      "ori": 4289,
      "ĠAP</w>": 4290,
      "Ġdisori": 4291,
      "pacemaker</w>": 4292,
      "ĠCABG</w>": 4293,
      "acks</w>": 4294,
      "Ġrate</w>": 4295,
      "Ġraise</w>": 4296,
      "Ġsubjec": 4297,
      "Ġcavitary</w>": 4298,
      "arian</w>": 4299,
      "Ġassaulted</w>": 4300,
      "Ġwedging</w>": 4301,
      "epsis</w>": 4302,
      "Ġresult</w>": 4303,
      "Ġcarina</w>": 4304,
      "beat</w>": 4305,
      "Ġrevision</w>": 4306,
      "Ġheartbeat</w>": 4307,
      "outine</w>": 4308,
      "roderma</w>": 4309,
      "Ġsubjective</w>": 4310,
      "27</w>": 4311,
      "33</w>": 4312,
      "31</w>": 4313,
      "72</w>": 4314,
      ")-</w>": 4315,
      "BN": 4316,
      "CG</w>": 4317,
      "Cystic</w>": 4318,
      "Year</w>": 4319,
      "ami": 4320,
      "ache</w>": 4321,
      "aerated</w>": 4322,
      "brevi": 4323,
      "cine</w>": 4324,
      "days</w>": 4325,
      "ef</w>": 4326,
      "hk": 4327,
      "ike</w>": 4328,
      "lul": 4329,
      "nessed</w>": 4330,
      "ompression</w>": 4331,
      "pendent</w>": 4332,
      "ruritic</w>": 4333,
      "sal</w>": 4334,
      "sha": 4335,
      "symptoms</w>": 4336,
      "shk": 4337,
      "tb</w>": 4338,
      "tchy</w>": 4339,
      "uch": 4340,
      "vulsion</w>": 4341,
      "ĠYear</w>": 4342,
      "inary</w>": 4343,
      "Ġtachycardi": 4344,
      "roti": 4345,
      "roat</w>": 4346,
      "roidal</w>": 4347,
      "mping</w>": 4348,
      "tiation</w>": 4349,
      "tide</w>": 4350,
      "Ġpm</w>": 4351,
      "Ġpus": 4352,
      "Ġpep": 4353,
      "enne</w>": 4354,
      "Ġnatri": 4355,
      "arting</w>": 4356,
      "Ġanteri": 4357,
      "esh</w>": 4358,
      "ergy</w>": 4359,
      "Ġlast": 4360,
      "Ġlasts</w>": 4361,
      "caine</w>": 4362,
      "cade</w>": 4363,
      "olyar": 4364,
      "Ġbeg": 4365,
      "Ġminu": 4366,
      "umen</w>": 4367,
      "nemia</w>": 4368,
      "hano": 4369,
      "dependent</w>": 4370,
      "ĠItchy</w>": 4371,
      "Ġfive</w>": 4372,
      "Ġdystrophy</w>": 4373,
      "Ġdesp": 4374,
      "teps</w>": 4375,
      "Ġrever": 4376,
      "Ġreplaced</w>": 4377,
      "chemia</w>": 4378,
      "Ġconfirms</w>": 4379,
      "ranial</w>": 4380,
      "Ġenergy</w>": 4381,
      "Ġhyster": 4382,
      "lucin": 4383,
      "mitted</w>": 4384,
      "ĠTingling</w>": 4385,
      "Ġexcision</w>": 4386,
      "iver</w>": 4387,
      "Ġradial</w>": 4388,
      "Ġunspecified</w>": 4389,
      "Ġbulging</w>": 4390,
      "hagic</w>": 4391,
      "Ġches</w>": 4392,
      "Ġkg</w>": 4393,
      "ĠBang": 4394,
      "ĠBCG</w>": 4395,
      "Ġpretib": 4396,
      "Ġpreop</w>": 4397,
      "Ġadmit</w>": 4398,
      "tinged</w>": 4399,
      "veitis</w>": 4400,
      "eriorly</w>": 4401,
      "Ġmedicine</w>": 4402,
      "Ġoverse": 4403,
      "Ġoverdo": 4404,
      "ĠRep": 4405,
      "ira</w>": 4406,
      "iring</w>": 4407,
      "Ġhematemesis</w>": 4408,
      "Ġdecompression</w>": 4409,
      "ĠOshk": 4410,
      "Ġmuscular</w>": 4411,
      "Ġrotation</w>": 4412,
      "Ġnondependent</w>": 4413,
      "Ġcramping</w>": 4414,
      "Ġslipped</w>": 4415,
      "Ġextremities</w>": 4416,
      "ĠCocaine</w>": 4417,
      "osh</w>": 4418,
      "Ġundergo</w>": 4419,
      "ladesh</w>": 4420,
      "Ġrequiring</w>": 4421,
      "Ġosteogenic</w>": 4422,
      "ĠConfusion</w>": 4423,
      "ĠConvulsion</w>": 4424,
      "otherapy</w>": 4425,
      "Ġpancreas</w>": 4426,
      "Ġendometrial</w>": 4427,
      "Ġfeel</w>": 4428,
      "Status</w>": 4429,
      "Ġurinary</w>": 4430,
      "Ġhallucin": 4431,
      "urmese</w>": 4432,
      "Ġcomments</w>": 4433,
      "Ġethano": 4434,
      "Ġvaccination</w>": 4435,
      "witnessed</w>": 4436,
      "Complaints</w>": 4437,
      "Ġbackache</w>": 4438,
      "ĠTetralogy</w>": 4439,
      "Ġaltercation</w>": 4440,
      "Ġpulses</w>": 4441,
      "ĠRadiograph</w>": 4442,
      "Ġattacks</w>": 4443,
      "Ġischemia</w>": 4444,
      "Ġinitiation</w>": 4445,
      "ĠHumira</w>": 4446,
      "BNP</w>": 4447,
      "amicade</w>": 4448,
      "breviations</w>": 4449,
      "lulike</w>": 4450,
      "uchenne</w>": 4451,
      "Ġtachycardic</w>": 4452,
      "rotizing</w>": 4453,
      "Ġpushed</w>": 4454,
      "Ġpeptide</w>": 4455,
      "Ġnatriuretic</w>": 4456,
      "Ġanteriorly</w>": 4457,
      "Ġlasting</w>": 4458,
      "Ġbeginning</w>": 4459,
      "Ġminutes</w>": 4460,
      "Ġdespite</w>": 4461,
      "Ġhysterectomy</w>": 4462,
      "ĠBangladesh</w>": 4463,
      "Ġpretibial</w>": 4464,
      "Ġoverseas</w>": 4465,
      "Ġoverdose</w>": 4466,
      "ĠReported</w>": 4467,
      "ĠOshkosh</w>": 4468,
      "Ġhallucinations</w>": 4469,
      "Ġethanol</w>": 4470,
      "CHF</w>": 4471,
      "Routine</w>": 4472,
      "Upper</w>": 4473,
      "ra</w>": 4474,
      "utive</w>": 4475,
      "zation</w>": 4476,
      "zyg": 4477,
      "roili": 4478,
      "mplan": 4479,
      "Ġazyg": 4480,
      "omyo": 4481,
      "othing</w>": 4482,
      "Ġdest": 4483,
      "Ġinvolved</w>": 4484,
      "tively</w>": 4485,
      "hief</w>": 4486,
      "Ġswallo": 4487,
      "Ġvarious</w>": 4488,
      "Ġsacroili": 4489,
      "Ġazygos</w>": 4490,
      "Ġdestru": 4491,
      "Anemia</w>": 4492,
      "Burmese</w>": 4493,
      "Cigarette</w>": 4494,
      "Duchenne</w>": 4495,
      "Evaluation</w>": 4496,
      "End</w>": 4497,
      "Flulike</w>": 4498,
      "High</w>": 4499,
      "KG</w>": 4500,
      "Long</w>": 4501,
      "Liver</w>": 4502,
      "Pre</w>": 4503,
      "Pleuritic</w>": 4504,
      "Pruritic</w>": 4505,
      "Ramicade</w>": 4506,
      "Scheduled</w>": 4507,
      "Sensation</w>": 4508,
      "Since</w>": 4509,
      "Sepsis</w>": 4510,
      "Steps</w>": 4511,
      "body</w>": 4512,
      "pula</w>": 4513,
      "pleuritic</w>": 4514,
      "syncopal</w>": 4515,
      "utaneous</w>": 4516,
      "uveitis</w>": 4517,
      "ventral</w>": 4518,
      "Ġ14</w>": 4519,
      "Ġ:.<</w>": 4520,
      "intrac": 4521,
      "Ġcd</w>": 4522,
      "unne": 4523,
      "Ġmig": 4524,
      "Throat</w>": 4525,
      "chills</w>": 4526,
      "recent</w>": 4527,
      "lowing</w>": 4528,
      "sputum</w>": 4529,
      "rib</w>": 4530,
      "Ġenter": 4531,
      "Ġvertebra</w>": 4532,
      "Ġexhi": 4533,
      "Ġincomp": 4534,
      "Unresponsive</w>": 4535,
      "Unwitnessed</w>": 4536,
      "Alleged</w>": 4537,
      "Allogeneic</w>": 4538,
      "hemorr": 4539,
      "Lymphadenopathy</w>": 4540,
      "Consolidation</w>": 4541,
      "Ġcompletely</w>": 4542,
      "Starting</w>": 4543,
      "necrotizing</w>": 4544,
      "Hepatic</w>": 4545,
      "Ġ-..<</w>": 4546,
      "Ġengorged</w>": 4547,
      "Posterior</w>": 4548,
      "Screening</w>": 4549,
      "Ġintervention</w>": 4550,
      "Ġinvestigations</w>": 4551,
      "Assess</w>": 4552,
      "scapula</w>": 4553,
      "Arterial</w>": 4554,
      "immigrant</w>": 4555,
      "Seizure</w>": 4556,
      "Choroidal</w>": 4557,
      "scleroderma</w>": 4558,
      "Ġreversal</w>": 4559,
      "intracranial</w>": 4560,
      "Ġexhib": 4561,
      "Ġincomple": 4562,
      "hemorrhagic</w>": 4563,
      "cency</w>": 4564,
      "ey</w>": 4565,
      "for": 4566,
      "oatri": 4567,
      "Ġsix</w>": 4568,
      "Ġso</w>": 4569,
      "Ġlong</w>": 4570,
      "Ġplease</w>": 4571,
      "ressed</w>": 4572,
      "Ġprog": 4573,
      "Ġrales</w>": 4574,
      "Ġelectro": 4575,
      "Ġalleged</w>": 4576,
      "Ġadmitted</w>": 4577,
      "ĠRec": 4578,
      "alpitation</w>": 4579,
      "Ġthrombosis</w>": 4580,
      "Ġartifact": 4581,
      "Ġhypoventilation</w>": 4582,
      "shaped</w>": 4583,
      "omyopathy</w>": 4584,
      "oatrial</w>": 4585,
      ",,</w>": 4586,
      "Other</w>": 4587,
      "eci": 4588,
      "erus</w>": 4589,
      "Ġbasal</w>": 4590,
      "Ġabscesses</w>": 4591,
      "vilin": 4592,
      "Ġevaluated</w>": 4593,
      "Ġradiography</w>": 4594,
      "Ġdefini": 4595,
      "abetes</w>": 4596,
      "Ġleukemia</w>": 4597,
      "inct</w>": 4598,
      "vilinear</w>": 4599,
      "Irregular</w>": 4600,
      "best": 4601,
      "ib": 4602,
      "Ġo</w>": 4603,
      "Ġre</w>": 4604,
      "Ġclosure</w>": 4605,
      "ortion</w>": 4606,
      "Ġhe</w>": 4607,
      "Ġhome</w>": 4608,
      "ffusion</w>": 4609,
      "ĠClear</w>": 4610,
      "ĠChief</w>": 4611,
      "Ġstage</w>": 4612,
      "stimulator</w>": 4613,
      "ĠSh": 4614,
      "illa</w>": 4615,
      "Ġneph": 4616,
      "Ġasbest": 4617,
      "Ġneurostimulator</w>": 4618,
      "Ġsubcutaneous</w>": 4619,
      "Ġhyperlucency</w>": 4620,
      "Ġaxilla</w>": 4621,
      "Ġclothing</w>": 4622,
      "Ġdevelop": 4623,
      "Ġasbestos</w>": 4624,
      "Ex": 4625,
      "XR</w>": 4626,
      "pri": 4627,
      "shoulder</w>": 4628,
      "tical</w>": 4629,
      "Ġper</w>": 4630,
      "Ġpectus</w>": 4631,
      "Ġsti": 4632,
      "Ġsyst": 4633,
      "Ġrh": 4634,
      "ctly</w>": 4635,
      "Ġcalib": 4636,
      "ĠCXR</w>": 4637,
      "Ġdysp": 4638,
      "Ġreas": 4639,
      "Ġcarotid</w>": 4640,
      "geneous</w>": 4641,
      "ences</w>": 4642,
      "fficiency</w>": 4643,
      "Ġhumerus</w>": 4644,
      "Ġstraight</w>": 4645,
      "Ġcord</w>": 4646,
      "Postoperative</w>": 4647,
      "Ġantibiotics</w>": 4648,
      "Ġsyste": 4649,
      "Ġcaliber</w>": 4650,
      "Pain</w>": 4651,
      "Palpitation</w>": 4652,
      "Worsening</w>": 4653,
      "motherapy</w>": 4654,
      "rin": 4655,
      "ture</w>": 4656,
      "typical</w>": 4657,
      "Ġsides</w>": 4658,
      "Ġinsu": 4659,
      "Ġmm</w>": 4660,
      "term</w>": 4661,
      "terization</w>": 4662,
      "Ġvision</w>": 4663,
      "Ġplate": 4664,
      "ĠLymp": 4665,
      "Ġbullet</w>": 4666,
      "post</w>": 4667,
      "ĠBasilar</w>": 4668,
      "Ġcaval</w>": 4669,
      "Ġoverlies</w>": 4670,
      "seizure</w>": 4671,
      "urry</w>": 4672,
      "Ġblurry</w>": 4673,
      "Ġcatheterization</w>": 4674,
      "Head</w>": 4675,
      "preprocedure</w>": 4676,
      "erous</w>": 4677,
      "Ġaxillary</w>": 4678,
      "Ġchemotherapy</w>": 4679,
      "ecify</w>": 4680,
      "ĠShe</w>": 4681,
      "Ġinsufficiency</w>": 4682,
      "53</w>": 4683,
      "ER": 4684,
      "GER": 4685,
      "dra": 4686,
      "hdra": 4687,
      "vinc": 4688,
      "wal</w>": 4689,
      "siti": 4690,
      "enopa": 4691,
      "Ġsor": 4692,
      "arm</w>": 4693,
      "esul": 4694,
      "Ġmurm": 4695,
      "culi</w>": 4696,
      "Ġconvinc": 4697,
      "omye": 4698,
      "litis</w>": 4699,
      "Ġcalculi</w>": 4700,
      "ily</w>": 4701,
      "Ġcare</w>": 4702,
      "oint</w>": 4703,
      "erning</w>": 4704,
      "Ġbowe": 4705,
      "iving</w>": 4706,
      "Ġforearm</w>": 4707,
      "ĠLow</w>": 4708,
      "hagia</w>": 4709,
      "ĠNon</w>": 4710,
      "usal</w>": 4711,
      "Ġassess</w>": 4712,
      "Ġosteomye": 4713,
      "abbing</w>": 4714,
      "vekin</w>": 4715,
      "Ġcavoatrial</w>": 4716,
      "Ġfeature</w>": 4717,
      "Positi": 4718,
      "Ġaged</w>": 4719,
      "ĠOne</w>": 4720,
      "Ġtermin": 4721,
      "Ġprimarily</w>": 4722,
      "ightsweats</w>": 4723,
      "Ġimplants</w>": 4724,
      "ĠUnknown</w>": 4725,
      "Ġappropri": 4726,
      "odular</w>": 4727,
      "Ġzones</w>": 4728,
      "Ġ-></w>": 4729,
      "raines</w>": 4730,
      "Ġcurvilinear</w>": 4731,
      "Ġmigraines</w>": 4732,
      "Ġdysphagia</w>": 4733,
      "GERD</w>": 4734,
      "hdrawal</w>": 4735,
      "enopausal</w>": 4736,
      "Ġsoreness</w>": 4737,
      "Ġmurmur</w>": 4738,
      "Ġconvincing</w>": 4739,
      "Ġbowel</w>": 4740,
      "Ġosteomyelitis</w>": 4741,
      "Positivekin</w>": 4742,
      "Nipple</w>": 4743,
      "lumen</w>": 4744,
      "tipation</w>": 4745,
      "Ġlor": 4746,
      "Ġfrag": 4747,
      "Ġearly</w>": 4748,
      "ĠAc": 4749,
      "umerous</w>": 4750,
      "Ġindist": 4751,
      "Ġindigestion</w>": 4752,
      "otension</w>": 4753,
      "lob": 4754,
      "loody</w>": 4755,
      "Ġfiss": 4756,
      "Ġconstipation</w>": 4757,
      "Ġspecify</w>": 4758,
      "Ġinfrahilar</w>": 4759,
      "Ġshunt</w>": 4760,
      "Ġtempo": 4761,
      "Ġnonspecific</w>": 4762,
      "Ġimplantation</w>": 4763,
      "Ġhypotension</w>": 4764,
      "ĠConsolidation</w>": 4765,
      "Ġsclerotic</w>": 4766,
      "Bronchiectasis</w>": 4767,
      "Ġcommon</w>": 4768,
      "Ġimmunosuppressed</w>": 4769,
      "Ġoptions</w>": 4770,
      "Ġtemporal</w>": 4771,
      "An</w>": 4772,
      "EKG</w>": 4773,
      "Joint</w>": 4774,
      "Renal</w>": 4775,
      "ax</w>": 4776,
      "menti": 4777,
      "non": 4778,
      "oh</w>": 4779,
      "oom": 4780,
      "oft</w>": 4781,
      "pres": 4782,
      "ything</w>": 4783,
      "Ġ$</w>": 4784,
      "Ġtro": 4785,
      "mpit</w>": 4786,
      "Ġanything</w>": 4787,
      "onidal</w>": 4788,
      "asn</w>": 4789,
      "ertional</w>": 4790,
      "ĠAtypical</w>": 4791,
      "Ġhasn</w>": 4792,
      "olore": 4793,
      "late</w>": 4794,
      "laise</w>": 4795,
      "Ġmalaise</w>": 4796,
      "idline</w>": 4797,
      "stable</w>": 4798,
      "reatic</w>": 4799,
      "repair</w>": 4800,
      "rectomy</w>": 4801,
      "trauma</w>": 4802,
      "ĠCarcin": 4803,
      "Ġdementi": 4804,
      "Ġduration</w>": 4805,
      "Ġdrin": 4806,
      "rup": 4807,
      "Ġgown</w>": 4808,
      "ilonidal</w>": 4809,
      "ecutive</w>": 4810,
      "Ġconsecutive</w>": 4811,
      "Ġarmpit</w>": 4812,
      "Ġcolostomy</w>": 4813,
      "Ġfoc": 4814,
      "mical": 4815,
      "missure</w>": 4816,
      "Ġchanged</w>": 4817,
      "Ġunilateral</w>": 4818,
      "Ġunresponsive</w>": 4819,
      "ĠHigh</w>": 4820,
      "sual</w>": 4821,
      "minent</w>": 4822,
      "Ġxan": 4823,
      "cardiomegaly</w>": 4824,
      "cardiogram</w>": 4825,
      "Ġtetralogy</w>": 4826,
      "Ġwheeze</w>": 4827,
      "Ġremove</w>": 4828,
      "Ġnonradiating</w>": 4829,
      "Ġretroperitoneal</w>": 4830,
      "Ġconcerning</w>": 4831,
      "ancreatic</w>": 4832,
      "ponin</w>": 4833,
      "Ġthem</w>": 4834,
      "Ġcommissure</w>": 4835,
      "Ġhalf</w>": 4836,
      "Ġetoh</w>": 4837,
      "Ġvaccinated</w>": 4838,
      "Ġchemical": 4839,
      "Ġpassed</w>": 4840,
      "Ġwarrants</w>": 4841,
      "Ġsacroiliitis</w>": 4842,
      "Ġelectrocardiogram</w>": 4843,
      "ĠRecently</w>": 4844,
      "Ġnephrectomy</w>": 4845,
      "esulting</w>": 4846,
      "nonproductive</w>": 4847,
      "oommate</w>": 4848,
      "Ġtroponin</w>": 4849,
      "olorectal</w>": 4850,
      "ĠCarcinoid</w>": 4851,
      "Ġdementia</w>": 4852,
      "Ġdrinking</w>": 4853,
      "Ġxanax</w>": 4854,
      "Ġchemicals</w>": 4855,
      "Ca": 4856,
      "Effusion</w>": 4857,
      "Surgical</w>": 4858,
      "ente": 4859,
      "ented</w>": 4860,
      "Ġconflu": 4861,
      "sterior</w>": 4862,
      "position</w>": 4863,
      "ĠMinimal</w>": 4864,
      "Ġmalignant</w>": 4865,
      "Coarse</w>": 4866,
      "Ġaccentuated</w>": 4867,
      "entesis</w>": 4868,
      "43</w>": 4869,
      "Bloody</w>": 4870,
      "Colorectal</w>": 4871,
      "Mid</w>": 4872,
      "Physical</w>": 4873,
      "Previ": 4874,
      "Pancreatic</w>": 4875,
      "Resulting</w>": 4876,
      "Roommate</w>": 4877,
      "Sarcoma</w>": 4878,
      "ff</w>": 4879,
      "isualized</w>": 4880,
      "ken</w>": 4881,
      "oo": 4882,
      "pic": 4883,
      "pilonidal</w>": 4884,
      "sweating</w>": 4885,
      "total</w>": 4886,
      "Ġ...<</w>": 4887,
      "roken</w>": 4888,
      "mperat": 4889,
      "Ġla": 4890,
      "They</w>": 4891,
      "stosis</w>": 4892,
      "stabbing</w>": 4893,
      "nesia</w>": 4894,
      "Ġstoo": 4895,
      "Ġtime</w>": 4896,
      "ĠPatchy</w>": 4897,
      "lect</w>": 4898,
      "ĠHe": 4899,
      "therosclerotic</w>": 4900,
      "Ġtemperat": 4901,
      "Ġworsened</w>": 4902,
      "tioning</w>": 4903,
      "Ġdiffusely</w>": 4904,
      "Inside</w>": 4905,
      "Ġlargest</w>": 4906,
      "Ġreflect</w>": 4907,
      "Ġamnesia</w>": 4908,
      "congestion</w>": 4909,
      "Anxiety</w>": 4910,
      "Ġgeneralized</w>": 4911,
      "Ġoccurred</w>": 4912,
      "withdrawal</w>": 4913,
      "ĠVisualized</w>": 4914,
      "Ġredemonstrated</w>": 4915,
      "recently</w>": 4916,
      "Ġthoracentesis</w>": 4917,
      "Exertional</w>": 4918,
      "Ġsystem</w>": 4919,
      "Ġindistinct</w>": 4920,
      "Previous</w>": 4921,
      "picc</w>": 4922,
      "Ġstool</w>": 4923,
      "Ġtemperature</w>": 4924,
      "curvature</w>": 4925,
      "emo": 4926,
      "Ġcir": 4927,
      "enesc": 4928,
      "Ġdiffer": 4929,
      "Ġgunshot</w>": 4930,
      "Ġtubing</w>": 4931,
      "Ġwidth</w>": 4932,
      "Ġtrans": 4933,
      "Ġposteriorly</w>": 4934,
      "erial</w>": 4935,
      "ĠOtherwise</w>": 4936,
      "acterial</w>": 4937,
      "Ġcrowded</w>": 4938,
      "Ġdextrocurvature</w>": 4939,
      "Ġexces": 4940,
      "Ġrotator</w>": 4941,
      "Ġcuff</w>": 4942,
      "Ġreason</w>": 4943,
      "Ġappropriate</w>": 4944,
      "cer": 4945,
      "Ġthese</w>": 4946,
      "Ġincid": 4947,
      "Ġnor</w>": 4948,
      "Ġobj": 4949,
      "Ġgas</w>": 4950,
      "Ġchanging</w>": 4951,
      "ization</w>": 4952,
      "Ġmedications</w>": 4953,
      "Ġneither</w>": 4954,
      "Ġnoncalcified</w>": 4955,
      "Ġdemonstra": 4956,
      "ĠIndwelling</w>": 4957,
      "Ġremainder</w>": 4958,
      "ained</w>": 4959,
      "Ġap</w>": 4960,
      "Ġbroken</w>": 4961,
      "Ġmentions</w>": 4962,
      "Ġsur": 4963,
      "ether</w>": 4964,
      "Ġsuggestion</w>": 4965,
      "Ġgrow": 4966,
      "Ġwhether</w>": 4967,
      "ĠSp": 4968,
      "Ġcompressive</w>": 4969,
      "Ġassessed</w>": 4970,
      "Ġcomplete</w>": 4971,
      "ĠMediastinum</w>": 4972,
      "Ġhyperostosis</w>": 4973,
      "Ġplatelike</w>": 4974,
      "enescent</w>": 4975,
      "Ġexcessive</w>": 4976,
      "Additional</w>": 4977,
      "ution</w>": 4978,
      "umatic</w>": 4979,
      "Ġfinal</w>": 4980,
      "ĠWell</w>": 4981,
      "Ġobli": 4982,
      "Ġpresent": 4983,
      "Ġgo": 4984,
      "Ġcage</w>": 4985,
      "ograms</w>": 4986,
      "posterior</w>": 4987,
      "ably</w>": 4988,
      "Ġbronchograms</w>": 4989,
      "verse</w>": 4990,
      "Ġimpa": 4991,
      "dotic</w>": 4992,
      "Ġhistoplasmosis</w>": 4993,
      "Ġtransverse</w>": 4994,
      "Ġpresentwhere</w>": 4995,
      "levated</w>": 4996,
      "Ġsupp": 4997,
      "atum</w>": 4998,
      "ctatic</w>": 4999,
      "rete</w>": 5000,
      "Ġproper": 5001,
      "omata</w>": 5002,
      "Ġacqu": 5003,
      "Ġgranulomata</w>": 5004,
      "Ġatelectatic</w>": 5005,
      "Ġshif": 5006,
      "Ġdiscrete</w>": 5007,
      "Ġrelative</w>": 5008,
      "Ġrequire</w>": 5009,
      "ologist</w>": 5010,
      "Ġproperly</w>": 5011,
      "Ġacquired</w>": 5012,
      "11</w>": 5013,
      "De": 5014,
      "equ": 5015,
      "Ġcri": 5016,
      "Ġsatisfactory</w>": 5017,
      "Ġretra": 5018,
      "the</w>": 5019,
      "filled</w>": 5020,
      "tebral</w>": 5021,
      "telectasis</w>": 5022,
      "athe": 5023,
      "Ġretained</w>": 5024,
      "ĠFurther</w>": 5025,
      "Ġcorrespon": 5026,
      "Ġbetter</w>": 5027,
      "Ġquestion</w>": 5028,
      "Ġremaining</w>": 5029,
      "Ġinterpretation</w>": 5030,
      "Ġlordotic</w>": 5031,
      "ments</w>": 5032,
      "mur</w>": 5033,
      "ĠL</w>": 5034,
      "Ġtak": 5035,
      "Ġaut": 5036,
      "ensity</w>": 5037,
      "Ġantero": 5038,
      "atures</w>": 5039,
      "Ġindivid": 5040,
      "Ġdate</w>": 5041,
      "rior</w>": 5042,
      "ĠPres": 5043,
      "pose</w>": 5044,
      "ĠScoliosis</w>": 5045,
      "ĠExa": 5046,
      "Ġrequired</w>": 5047,
      "Ġcorrectly</w>": 5048,
      "Ġcorrelate</w>": 5049,
      "Ġoverlap</w>": 5050,
      "Ġcharacterized</w>": 5051,
      "Ġfragment</w>": 5052,
      "atheters</w>": 5053,
      "gl": 5054,
      "lon": 5055,
      "Ġtunne": 5056,
      "ractures</w>": 5057,
      "Ġeff": 5058,
      "Ġhom": 5059,
      "hotic</w>": 5060,
      "pacities</w>": 5061,
      "pping</w>": 5062,
      "Ġcardiophrenic</w>": 5063,
      "ubitus</w>": 5064,
      "traumatic</w>": 5065,
      "opsy</w>": 5066,
      "Ġfield</w>": 5067,
      "Ġradiopa": 5068,
      "ĠSmall</w>": 5069,
      "Ġfemur</w>": 5070,
      "wever</w>": 5071,
      "Ġfilm</w>": 5072,
      "Ġrelatively</w>": 5073,
      "agement</w>": 5074,
      "Ġconfluent</w>": 5075,
      "Ġindividual</w>": 5076,
      "Ġtunneled</w>": 5077,
      "Ġhomo": 5078,
      "Ġradiopaque</w>": 5079,
      "Low</w>": 5080,
      "Potential</w>": 5081,
      "uted</w>": 5082,
      "Ġ;</w>": 5083,
      "ĠVomiting</w>": 5084,
      "Ġtyp": 5085,
      "tio</w>": 5086,
      "Ġportion</w>": 5087,
      "ony</w>": 5088,
      "Ġdire": 5089,
      "atele": 5090,
      "Ġindications</w>": 5091,
      "Ġobese</w>": 5092,
      "Ġconsequ": 5093,
      "Ġvery</w>": 5094,
      "Ġratio</w>": 5095,
      "Ġovoid</w>": 5096,
      "ĠSt": 5097,
      "ĠMain</w>": 5098,
      "ĠMidline</w>": 5099,
      "Ġredemonstration</w>": 5100,
      "Ġform</w>": 5101,
      "ĠPresence</w>": 5102,
      "atelectasis</w>": 5103,
      "?}": 5104,
      "Atelectasis</w>": 5105,
      "lness</w>": 5106,
      "Ġcorrelation</w>": 5107,
      "Ġnan</w>": 5108,
      "its</w>": 5109,
      "iter</w>": 5110,
      "ĠAl": 5111,
      "Ġbsence</w>": 5112,
      "idly</w>": 5113,
      "reat</w>": 5114,
      "Ġdisorder</w>": 5115,
      "Ġbreasts</w>": 5116,
      "entially</w>": 5117,
      "Ġusual</w>": 5118,
      "Ġtowar": 5119,
      "Ġdepen": 5120,
      "Ġcortical</w>": 5121,
      "Ġmargination</w>": 5122,
      "orbidly</w>": 5123,
      "Ġcomb": 5124,
      "Ġnarrowing</w>": 5125,
      "Ġfissures</w>": 5126,
      "Ġdemonstrates</w>": 5127,
      "Ġgoiter</w>": 5128,
      "Ġimpaired</w>": 5129,
      "?}{</w>": 5130,
      "Ġtowards</w>": 5131,
      "nati": 5132,
      "ĠFindings</w>": 5133,
      "Ġ28</w>": 5134,
      "Ġij</w>": 5135,
      "Ġcurrent</w>": 5136,
      "Ġsenescent</w>": 5137,
      "Ġfun": 5138,
      "cattered</w>": 5139,
      "Ġwal": 5140,
      "Ġhour</w>": 5141,
      "Ġconve": 5142,
      "ĠCatheters</w>": 5143,
      "Ġstri": 5144,
      "Ġstated</w>": 5145,
      "Ġgreat</w>": 5146,
      "ĠPrior</w>": 5147,
      "Ġradiologist</w>": 5148,
      "ĠBased</w>": 5149,
      "ĠBone</w>": 5150,
      "Ġposttraumatic</w>": 5151,
      "Ġfeatures</w>": 5152,
      "Ġinsertion</w>": 5153,
      "Ġresolution</w>": 5154,
      "Ġprosthesis</w>": 5155,
      "Ġstripe</w>": 5156,
      "cum": 5157,
      "ferative</w>": 5158,
      "osition</w>": 5159,
      "ry</w>": 5160,
      "wal": 5161,
      "ygen": 5162,
      "proli": 5163,
      "Ġnumerous</w>": 5164,
      "ĠAlle": 5165,
      "Ġprocesses</w>": 5166,
      "ubation</w>": 5167,
      "Ġobl": 5168,
      "ranulomat": 5169,
      "ĠPer": 5170,
      "dering</w>": 5171,
      "Ġdistorted</w>": 5172,
      "Ġhila</w>": 5173,
      "Ġfullness</w>": 5174,
      "Ġmargin</w>": 5175,
      "Ġinterventions</w>": 5176,
      "formity</w>": 5177,
      "proliferative</w>": 5178,
      "ranulomatous</w>": 5179,
      "mass</w>": 5180,
      "Ġmor": 5181,
      "derate</w>": 5182,
      "Ġloop": 5183,
      "mited</w>": 5184,
      "ĠLe": 5185,
      "vertebral</w>": 5186,
      "Ġoxygen": 5187,
      "Ġchole": 5188,
      "Ġcompart": 5189,
      "Ġcostochondral</w>": 5190,
      "Ġcharacteri": 5191,
      "Ġresulting</w>": 5192,
      "Ġclarity</w>": 5193,
      "Ġexhibits</w>": 5194,
      "Ġcombination</w>": 5195,
      "Ġloops</w>": 5196,
      "Ġoxygenation</w>": 5197,
      "emphysema</w>": 5198,
      "hum": 5199,
      "imited</w>": 5200,
      "rd</w>": 5201,
      "vis</w>": 5202,
      "Ġenti": 5203,
      "tila": 5204,
      "onic</w>": 5205,
      "Ġlack</w>": 5206,
      "ĠIncreased</w>": 5207,
      "Ġpneumonitis</w>": 5208,
      "ediastinal</w>": 5209,
      "ĠThree</w>": 5210,
      "ronodular</w>": 5211,
      "pheral</w>": 5212,
      "ĠWheezing</w>": 5213,
      "vities</w>": 5214,
      "Ġlie</w>": 5215,
      "Ġfibronodular</w>": 5216,
      "Ġcavities</w>": 5217,
      "orderline</w>": 5218,
      "ography</w>": 5219,
      "ĠProminent</w>": 5220,
      "ĠBi": 5221,
      "trial</w>": 5222,
      "ĠEsophageal</w>": 5223,
      "Ġdetail</w>": 5224,
      "mbran": 5225,
      "Ġmembran": 5226,
      "Ġprojects</w>": 5227,
      "ĠFrontal</w>": 5228,
      "Ġmany</w>": 5229,
      "Ġglenohum": 5230,
      "Ġdestructive</w>": 5231,
      "Ġstimulator</w>": 5232,
      "Ġshifted</w>": 5233,
      "ĠLeuk": 5234,
      "Ġglenohumeral</w>": 5235,
      "bro": 5236,
      "hind</w>": 5237,
      "pid": 5238,
      "yte</w>": 5239,
      "mpting</w>": 5240,
      "Ġphysi": 5241,
      "Ġcou": 5242,
      "encies</w>": 5243,
      "Ġsweating</w>": 5244,
      "Ġlit": 5245,
      "Ġmade</w>": 5246,
      "lipid": 5247,
      "Ġdisrup": 5248,
      "ĠThese</w>": 5249,
      "tempting</w>": 5250,
      "vic</w>": 5251,
      "Ġja": 5252,
      "Ġtips</w>": 5253,
      "Ġpositioning</w>": 5254,
      "Ġallergic</w>": 5255,
      "Ġbiopsy</w>": 5256,
      "Ġbehind</w>": 5257,
      "Ġnew</w>": 5258,
      "Ġperiphery</w>": 5259,
      "Ġlucencies</w>": 5260,
      "Ġdown</w>": 5261,
      "Ġattempting</w>": 5262,
      "Ġpancreatic</w>": 5263,
      "ĠDiaphragmatic</w>": 5264,
      "Ġpelvis</w>": 5265,
      "Ġpelvic</w>": 5266,
      "Ġoblique</w>": 5267,
      "Ġcouple</w>": 5268,
      "Ġliters</w>": 5269,
      "lipidemia</w>": 5270,
      "Ap": 5271,
      "Implan": 5272,
      "ML</w>": 5273,
      "Pleural</w>": 5274,
      "Pneumothorax</w>": 5275,
      "amp": 5276,
      "ace</w>": 5277,
      "agno": 5278,
      "bronchial</w>": 5279,
      "face</w>": 5280,
      "lary</w>": 5281,
      "ssion</w>": 5282,
      "Ġ9": 5283,
      "Ġer": 5284,
      "sitis</w>": 5285,
      "Ġpa</w>": 5286,
      "Ġiritis</w>": 5287,
      "eneralized</w>": 5288,
      "ullary</w>": 5289,
      "eses</w>": 5290,
      "Ġfour</w>": 5291,
      "Ġflowing</w>": 5292,
      "ĠAtrial</w>": 5293,
      "unting</w>": 5294,
      "stly</w>": 5295,
      "ĠIn</w>": 5296,
      "Ġprosth": 5297,
      "ĠCoughing</w>": 5298,
      "ĠCirrhosis</w>": 5299,
      "eling</w>": 5300,
      "Ġobvi": 5301,
      "Ġstate</w>": 5302,
      "Ġcolonic</w>": 5303,
      "quate</w>": 5304,
      "mission</w>": 5305,
      "Ġinterposition</w>": 5306,
      "Ġmostly</w>": 5307,
      "ogastric</w>": 5308,
      "Ġovarian</w>": 5309,
      "ortuous</w>": 5310,
      "seu": 5311,
      "spice</w>": 5312,
      "ĠSix</w>": 5313,
      "ĠFever</w>": 5314,
      "adequate</w>": 5315,
      "Ġatypical</w>": 5316,
      "chang": 5317,
      "Ġhospice</w>": 5318,
      "Ġartifacts</w>": 5319,
      "Ġincidental</w>": 5320,
      "Ġretraction</w>": 5321,
      "Ġhomogeneous</w>": 5322,
      "ĠAllergic</w>": 5323,
      "Ġjaw</w>": 5324,
      "Ġprostheses</w>": 5325,
      "66</w>": 5326,
      "ES": 5327,
      "Peri": 5328,
      "by</w>": 5329,
      "cell</w>": 5330,
      "cern</w>": 5331,
      "gressive</w>": 5332,
      "tu": 5333,
      "ye</w>": 5334,
      "ĠS</w>": 5335,
      "Ġv</w>": 5336,
      "arby</w>": 5337,
      "cav": 5338,
      "ĠAr": 5339,
      "unced</w>": 5340,
      "allow</w>": 5341,
      "Ġsuture</w>": 5342,
      "Ġnose": 5343,
      "Ġheight</w>": 5344,
      "ffuse</w>": 5345,
      "tern": 5346,
      "Ġprono": 5347,
      "teral</w>": 5348,
      "Ġrecess</w>": 5349,
      "Ġbreat</w>": 5350,
      "Ġpostero": 5351,
      "Ġfoot</w>": 5352,
      "Ġexten": 5353,
      "Ġlympho": 5354,
      "ĠPar": 5355,
      "ĠDiabetes</w>": 5356,
      "Ġnearby</w>": 5357,
      "Scarring</w>": 5358,
      "Ġcutaneous</w>": 5359,
      "Ġswallow</w>": 5360,
      "Ġdeveloped</w>": 5361,
      "airspace</w>": 5362,
      "Ġincomplete</w>": 5363,
      "ĠLymphadenopathy</w>": 5364,
      "Ġcrisis</w>": 5365,
      "changed</w>": 5366,
      "Ġpronounced</w>": 5367,
      "56</w>": 5368,
      "69</w>": 5369,
      "AML</w>": 5370,
      "BP</w>": 5371,
      "CF</w>": 5372,
      "CD</w>": 5373,
      "DS</w>": 5374,
      "Emphysema</w>": 5375,
      "ECF</w>": 5376,
      "Fever</w>": 5377,
      "IDS</w>": 5378,
      "SBP</w>": 5379,
      "coughing</w>": 5380,
      "ccasional</w>": 5381,
      "cyte</w>": 5382,
      "ebro": 5383,
      "lom": 5384,
      "mer": 5385,
      "mentation</w>": 5386,
      "mediastinal</w>": 5387,
      "oproliferative</w>": 5388,
      "usitis</w>": 5389,
      "vascular</w>": 5390,
      "xity</w>": 5391,
      "xygen</w>": 5392,
      "ythro": 5393,
      "ingestion</w>": 5394,
      "Ġpills</w>": 5395,
      "Ġpyelo": 5396,
      "Ġsedi": 5397,
      "ulone": 5398,
      "arli": 5399,
      "arinal</w>": 5400,
      "esaturation</w>": 5401,
      "ervical</w>": 5402,
      "erulone": 5403,
      "Ġfell</w>": 5404,
      "Ġemer": 5405,
      "Ġearli": 5406,
      "Ġwri": 5407,
      "itonitis</w>": 5408,
      "ĠAort": 5409,
      "ĠAir</w>": 5410,
      "ĠAIDS</w>": 5411,
      "Ġinduction</w>": 5412,
      "Ġsuspected</w>": 5413,
      "hasia</w>": 5414,
      "ffing</w>": 5415,
      "ĠICD</w>": 5416,
      "rement</w>": 5417,
      "phili": 5418,
      "phritis</w>": 5419,
      "Ġdepart": 5420,
      "Ġda": 5421,
      "vial</w>": 5422,
      "Ġglom": 5423,
      "illan": 5424,
      "thral": 5425,
      "ycemia</w>": 5426,
      "Ġpound</w>": 5427,
      "novial</w>": 5428,
      "Ġhypergl": 5429,
      "ernight</w>": 5430,
      "ĠTortuous</w>": 5431,
      "Ġextrac": 5432,
      "ngoing</w>": 5433,
      "Ġshower</w>": 5434,
      "Ġunstable</w>": 5435,
      "Ġovernight</w>": 5436,
      "Ġpresented</w>": 5437,
      "ĠNegative</w>": 5438,
      "Ġintubation</w>": 5439,
      "ĠProductive</w>": 5440,
      "ĠBacterial</w>": 5441,
      "ĠSpon": 5442,
      "Ġexperienced</w>": 5443,
      "ĠMyelo": 5444,
      "veillan": 5445,
      "Ġangina</w>": 5446,
      "Ġfeeling</w>": 5447,
      "Ġcerebro": 5448,
      "Ġhaziness</w>": 5449,
      "ĠOccasional</w>": 5450,
      "ĠOxygen</w>": 5451,
      "Ġsinusitis</w>": 5452,
      "Ġroom</w>": 5453,
      "Ġsyphili": 5454,
      "Ġsynovial</w>": 5455,
      "Ġsupra": 5456,
      "ĠInadequate</w>": 5457,
      "Ġdehydrated</w>": 5458,
      "Ġcuffing</w>": 5459,
      "Ġrequirement</w>": 5460,
      "Ġprosthetic</w>": 5461,
      "Ġtransposition</w>": 5462,
      "Ġ79</w>": 5463,
      "Ġdisoriented</w>": 5464,
      "olyarthral": 5465,
      "Ġswallowed</w>": 5466,
      "Ġentering</w>": 5467,
      "emoved</w>": 5468,
      "Ġsurveillan": 5469,
      "longed</w>": 5470,
      "Ġconvexity</w>": 5471,
      "ĠPeritonitis</w>": 5472,
      "Ġcompartment</w>": 5473,
      "Ġmembranoproliferative</w>": 5474,
      "ĠLeukemia</w>": 5475,
      "Apart</w>": 5476,
      "Ġ98</w>": 5477,
      "Ġerythro": 5478,
      "ESR</w>": 5479,
      "Ġpyeloplasty</w>": 5480,
      "Ġsedimentation</w>": 5481,
      "erulonephritis</w>": 5482,
      "Ġemergency</w>": 5483,
      "Ġearlier</w>": 5484,
      "Ġwrist</w>": 5485,
      "ĠAorta</w>": 5486,
      "Ġdepartment</w>": 5487,
      "Ġglomerulonephritis</w>": 5488,
      "Ġhyperglycemia</w>": 5489,
      "Ġextracellular</w>": 5490,
      "ĠSpontaneous</w>": 5491,
      "ĠMyeloid</w>": 5492,
      "Ġcerebrovascular</w>": 5493,
      "Ġsyphilis</w>": 5494,
      "olyarthralgia</w>": 5495,
      "Ġsurveillance</w>": 5496,
      "Ġerythrocyte</w>": 5497,
      "76</w>": 5498,
      "Generalized</w>": 5499,
      "IN": 5500,
      "dination</w>": 5501,
      "eds</w>": 5502,
      "eye</w>": 5503,
      "ny</w>": 5504,
      "owed</w>": 5505,
      "pid</w>": 5506,
      "sv": 5507,
      "sk</w>": 5508,
      "xr</w>": 5509,
      "Ġ786</w>": 5510,
      "Ġpulmonic</w>": 5511,
      "Ġclin": 5512,
      "Ġcxr</w>": 5513,
      "ordination</w>": 5514,
      "Ġeti": 5515,
      "unny</w>": 5516,
      "Ġrunny</w>": 5517,
      "Ġabbreviations</w>": 5518,
      "omen": 5519,
      "rease</w>": 5520,
      "reteral</w>": 5521,
      "Ġdish</w>": 5522,
      "paroscop": 5523,
      "bleeds</w>": 5524,
      "Ġmediastinitis</w>": 5525,
      "ripped</w>": 5526,
      "Ġcoordination</w>": 5527,
      "Ġrisk</w>": 5528,
      "ĠPersistent</w>": 5529,
      "Ġinternati": 5530,
      "Ġrapid</w>": 5531,
      "ĠLimited</w>": 5532,
      "Ġunchanged</w>": 5533,
      "inful</w>": 5534,
      "Ġpread": 5535,
      "Ġrecurrent</w>": 5536,
      "initis</w>": 5537,
      "Ġimpact</w>": 5538,
      "Ġdecubitus</w>": 5539,
      "ĠOste": 5540,
      "ĠOnset</w>": 5541,
      "ologous</w>": 5542,
      "Abbreviations</w>": 5543,
      "Ġfibrosing</w>": 5544,
      "Ġelbowed</w>": 5545,
      "Ġretention</w>": 5546,
      "Ġnormalized</w>": 5547,
      "Ġobscure</w>": 5548,
      "Ġmanagement</w>": 5549,
      "Ġglenoid</w>": 5550,
      "sterol</w>": 5551,
      "Ġdisorientation</w>": 5552,
      "Ġlaparoscop": 5553,
      "Ġautologous</w>": 5554,
      "Ġcholesterol</w>": 5555,
      "Ġnosebleeds</w>": 5556,
      "INR</w>": 5557,
      "svc</w>": 5558,
      "Ġinternational</w>": 5559,
      "Ġpreadmission</w>": 5560,
      "Ġlaparoscopic</w>": 5561,
      "92</w>": 5562,
      ")?</w>": 5563,
      "-...<</w>": 5564,
      "Atherosclerotic</w>": 5565,
      "Call</w>": 5566,
      "Closure</w>": 5567,
      "Cirrhosis</w>": 5568,
      "Desaturation</w>": 5569,
      "Elevated</w>": 5570,
      "Flank</w>": 5571,
      "Hodgkin</w>": 5572,
      "Morbidly</w>": 5573,
      "Non</w>": 5574,
      "Ongoing</w>": 5575,
      "Polyarthralgia</w>": 5576,
      "Removed</w>": 5577,
      "Tripped</w>": 5578,
      "dysp": 5579,
      "evaluate</w>": 5580,
      "female</w>": 5581,
      "garette</w>": 5582,
      "polyar": 5583,
      "sore</w>": 5584,
      "slurred</w>": 5585,
      "Ġlad": 5586,
      "olitis</w>": 5587,
      "cigarette</w>": 5588,
      "Ġpads</w>": 5589,
      "remote</w>": 5590,
      "painful</w>": 5591,
      "other</w>": 5592,
      "ĠCurrently</w>": 5593,
      "Ġconsolidating</w>": 5594,
      "sert</w>": 5595,
      "entricular</w>": 5596,
      "ĠPA</w>": 5597,
      "Ġuse": 5598,
      "ĠBony</w>": 5599,
      "hypoxemia</w>": 5600,
      "eries</w>": 5601,
      "ĠOpacities</w>": 5602,
      "Ġassist": 5603,
      "Ġkyphotic</w>": 5604,
      "Concern</w>": 5605,
      "increased</w>": 5606,
      "Ġtestes</w>": 5607,
      "allogeneic</w>": 5608,
      "Ġtheir</w>": 5609,
      "Prostate</w>": 5610,
      "Progressive</w>": 5611,
      "Prolonged</w>": 5612,
      "Hyperlipidemia</w>": 5613,
      "Ġdeveloping</w>": 5614,
      "ampullary</w>": 5615,
      "Ġposterolateral</w>": 5616,
      "dysphasia</w>": 5617,
      "polyarticular</w>": 5618,
      "Ġladder</w>": 5619,
      "Ġuseful</w>": 5620,
      "Further</w>": 5621,
      "NF</w>": 5622,
      "Treatment</w>": 5623,
      "],</w>": 5624,
      "ab</w>": 5625,
      "ale": 5626,
      "ailure</w>": 5627,
      "breat": 5628,
      "cle</w>": 5629,
      "varian</w>": 5630,
      "Ġul": 5631,
      "Ġ58</w>": 5632,
      "insert</w>": 5633,
      "tium</w>": 5634,
      "Ġcru": 5635,
      "Ġcell": 5636,
      "Ġsing": 5637,
      "Ġnightsweats</w>": 5638,
      "ard": 5639,
      "Ġanat": 5640,
      "onch": 5641,
      "Ġhard": 5642,
      "Ġright": 5643,
      "lant</w>": 5644,
      "Ġmamm": 5645,
      "lie</w>": 5646,
      "ĠWit": 5647,
      "Ġstab</w>": 5648,
      "Ġliving</w>": 5649,
      "ildly</w>": 5650,
      "Ġvisib": 5651,
      "Ġureteral</w>": 5652,
      "Ġinterstitium</w>": 5653,
      "Ġuncalcified</w>": 5654,
      "ĠSc": 5655,
      "ising</w>": 5656,
      "hyper": 5657,
      "Ġprominently</w>": 5658,
      "Ġoverlie</w>": 5659,
      "Ġimplant</w>": 5660,
      "Ġinstance</w>": 5661,
      "ĠFailure</w>": 5662,
      "Diagnosis</w>": 5663,
      "Ġgraf": 5664,
      "ĠHyper": 5665,
      "Ġprobably</w>": 5666,
      "Ġimmunosuppressive</w>": 5667,
      "Ġswallowing</w>": 5668,
      "Ġrhonch": 5669,
      "Ġcircum": 5670,
      "Ġsupplying</w>": 5671,
      "Ġtaking</w>": 5672,
      "Ġconsequences</w>": 5673,
      "Ġmorning</w>": 5674,
      "Implantable</w>": 5675,
      "Ġclinically</w>": 5676,
      "Ġassisted</w>": 5677,
      "breath</w>": 5678,
      "Ġsingle</w>": 5679,
      "Ġrightward</w>": 5680,
      "Ġmammogram</w>": 5681,
      "Ġrhonchi</w>": 5682,
      "Opacity</w>": 5683,
      "ups</w>": 5684,
      "Ġthin</w>": 5685,
      "Ġpur": 5686,
      "oni": 5687,
      "omyc": 5688,
      "listhe": 5689,
      "Ġhetero": 5690,
      "cting</w>": 5691,
      "ctured</w>": 5692,
      "spinal</w>": 5693,
      "Ġgal": 5694,
      "Ġconsolidated</w>": 5695,
      "Ġsple": 5696,
      "Ġfractured</w>": 5697,
      "Ġexcav": 5698,
      "ĠLumb": 5699,
      "calce": 5700,
      "ĠSome</w>": 5701,
      "Ġprotected</w>": 5702,
      "Ġdecrease</w>": 5703,
      "ault</w>": 5704,
      "Ġparaspinal</w>": 5705,
      "Ġpossibility</w>": 5706,
      "Ġfeet</w>": 5707,
      "Ġcartila": 5708,
      "Ġopen</w>": 5709,
      "Ġantibiotic</w>": 5710,
      "Ġform": 5711,
      "Ġenteric</w>": 5712,
      "Ġprogression</w>": 5713,
      "ĠHeadache</w>": 5714,
      "ĠAltered</w>": 5715,
      "Ġobvious</w>": 5716,
      "listhesis</w>": 5717,
      "Ġexcavatum</w>": 5718,
      "calcemia</w>": 5719,
      "29</w>": 5720,
      "38</w>": 5721,
      "59</w>": 5722,
      "746</w>": 5723,
      "90</w>": 5724,
      "011</w>": 5725,
      "DR</w>": 5726,
      "IP</w>": 5727,
      "Ple": 5728,
      "PDR</w>": 5729,
      "TN</w>": 5730,
      "UB</w>": 5731,
      "Using</w>": 5732,
      "UIP</w>": 5733,
      "ag</w>": 5734,
      "ada": 5735,
      "bag</w>": 5736,
      "ctic</w>": 5737,
      "clear</w>": 5738,
      "comm": 5739,
      "cytic</w>": 5740,
      "creasing</w>": 5741,
      "cups</w>": 5742,
      "euro": 5743,
      "esia</w>": 5744,
      "evaluation</w>": 5745,
      "eiving</w>": 5746,
      "fer</w>": 5747,
      "gital</w>": 5748,
      "growing</w>": 5749,
      "giving</w>": 5750,
      "icable</w>": 5751,
      "ks": 5752,
      "lt": 5753,
      "molar</w>": 5754,
      "morr": 5755,
      "menopausal</w>": 5756,
      "oot": 5757,
      "port</w>": 5758,
      "son</w>": 5759,
      "seness</w>": 5760,
      "sfer</w>": 5761,
      "smolar</w>": 5762,
      "to</w>": 5763,
      "tin": 5764,
      "tuberculosis</w>": 5765,
      "tomy</w>": 5766,
      "ucasi": 5767,
      "ventricular</w>": 5768,
      "went</w>": 5769,
      "yment</w>": 5770,
      "Ġ78": 5771,
      "Ġ..</w>": 5772,
      "Ġ011</w>": 5773,
      "ĠUsing</w>": 5774,
      "rotal</w>": 5775,
      "Ġamb": 5776,
      "mally</w>": 5777,
      "leed</w>": 5778,
      "ulder": 5779,
      "ulitis</w>": 5780,
      "ulance</w>": 5781,
      "arseness</w>": 5782,
      "onas</w>": 5783,
      "ontin": 5784,
      "ertig": 5785,
      "iteration</w>": 5786,
      "itomyopathy</w>": 5787,
      "Ġhic": 5788,
      "ollision</w>": 5789,
      "unicable</w>": 5790,
      "Ġbru": 5791,
      "Ġbleed</w>": 5792,
      "fication</w>": 5793,
      "Ġdigital</w>": 5794,
      "Ġablation</w>": 5795,
      "alation</w>": 5796,
      "Ġvs</w>": 5797,
      "omele": 5798,
      "streak": 5799,
      "stair": 5800,
      "months</w>": 5801,
      "ligh": 5802,
      "ches</w>": 5803,
      "hache</w>": 5804,
      "decreasing</w>": 5805,
      "normalities</w>": 5806,
      "urisy</w>": 5807,
      "ĠThan": 5808,
      "ppd</w>": 5809,
      "loyment</w>": 5810,
      "ĠCollision</w>": 5811,
      "Ġlost</w>": 5812,
      "Ġdelt": 5813,
      "elded</w>": 5814,
      "vical": 5815,
      "visc": 5816,
      "chectic</w>": 5817,
      "Ġstones</w>": 5818,
      "icarditis</w>": 5819,
      "Ġseiz": 5820,
      "eck</w>": 5821,
      "pericarditis</w>": 5822,
      "Ġairbag</w>": 5823,
      "ĠTNF</w>": 5824,
      "Ġtim": 5825,
      "plained</w>": 5826,
      "athing</w>": 5827,
      "Ġshoulder": 5828,
      "ystitis</w>": 5829,
      "ĠPseu": 5830,
      "Ġmidchest</w>": 5831,
      "mid</w>": 5832,
      "oglob": 5833,
      "Ġlipase</w>": 5834,
      "Ġtubal</w>": 5835,
      "Ġlike</w>": 5836,
      "ĠKUB</w>": 5837,
      "domonas</w>": 5838,
      "uscle</w>": 5839,
      "ncontin": 5840,
      "Ġpretransplant</w>": 5841,
      "ĠSoft</w>": 5842,
      "ĠMenopausal</w>": 5843,
      "Ġpostmenopausal</w>": 5844,
      "anus</w>": 5845,
      "Ġcervical": 5846,
      "Ġmediport</w>": 5847,
      "explained</w>": 5848,
      "Ġreceiving</w>": 5849,
      "Ġhemoglob": 5850,
      "Ġmyotomy</w>": 5851,
      "Ġmyopericarditis</w>": 5852,
      "ĠOsseous</w>": 5853,
      "Ġwounds</w>": 5854,
      "Ġunderwent</w>": 5855,
      "Ġcholecystitis</w>": 5856,
      "yroid</w>": 5857,
      "Ġoutn</w>": 5858,
      "ĠModerate</w>": 5859,
      "Ġinvolve</w>": 5860,
      "tches</w>": 5861,
      "Ġpregnancy</w>": 5862,
      "kinesia</w>": 5863,
      "kinson</w>": 5864,
      "Congestive</w>": 5865,
      "Ġdeployment</w>": 5866,
      "apid</w>": 5867,
      "hielded</w>": 5868,
      "Ġdyskinesia</w>": 5869,
      "Ġinhalation</w>": 5870,
      "Ġfalse</w>": 5871,
      "ĠComplaining</w>": 5872,
      "Ġdownstair": 5873,
      "Ġimmunosuppression</w>": 5874,
      "Ġcardioversion</w>": 5875,
      "Ġadrenale": 5876,
      "Ġinvestigation</w>": 5877,
      "Ġhoarseness</w>": 5878,
      "recurrence</w>": 5879,
      "Ġhyperosmolar</w>": 5880,
      "Ġhistoplasmoma</w>": 5881,
      "ago</w>": 5882,
      "Ġtransported</w>": 5883,
      "Ġ746</w>": 5884,
      "Ġincompletely</w>": 5885,
      "Ġdefinition</w>": 5886,
      "Ġdevelopment</w>": 5887,
      "Ġrhinitis</w>": 5888,
      "Ġobjects</w>": 5889,
      "Ġgrowth</w>": 5890,
      "ĠExamination</w>": 5891,
      "Ġdepend</w>": 5892,
      "Ġwalks</w>": 5893,
      "Ġobliteration</w>": 5894,
      "agnosed</w>": 5895,
      "Ġlymphocytic</w>": 5896,
      "ĠParkinson</w>": 5897,
      "Ġsupraventricular</w>": 5898,
      "Ġcrutches</w>": 5899,
      "Ġcellulitis</w>": 5900,
      "Ġcircumcision</w>": 5901,
      "ĠLumbago</w>": 5902,
      "Ġformer</w>": 5903,
      "adaches</w>": 5904,
      "communicable</w>": 5905,
      "europathy</w>": 5906,
      "ksgiving</w>": 5907,
      "morrhage</w>": 5908,
      "oothache</w>": 5909,
      "ucasian</w>": 5910,
      "Ġ783</w>": 5911,
      "Ġambulance</w>": 5912,
      "ertigo</w>": 5913,
      "Ġhiccups</w>": 5914,
      "Ġbruising</w>": 5915,
      "omeless</w>": 5916,
      "streaked</w>": 5917,
      "ĠThanksgiving</w>": 5918,
      "Ġdeltoid</w>": 5919,
      "viscosity</w>": 5920,
      "Ġseizures</w>": 5921,
      "Ġshoulders</w>": 5922,
      "ĠPseudomonas</w>": 5923,
      "ncontinence</w>": 5924,
      "Ġcervicalgia</w>": 5925,
      "Ġhemoglobin</w>": 5926,
      "Ġdownstairs</w>": 5927,
      "Ġadrenalectomy</w>": 5928,
      "64</w>": 5929,
      "Aspiration</w>": 5930,
      "Atherosclerosis</w>": 5931,
      "Cervical</w>": 5932,
      "Minimal</w>": 5933,
      "bg</w>": 5934,
      "lunting</w>": 5935,
      "worsening</w>": 5936,
      "inomyc": 5937,
      "ron</w>": 5938,
      "rac": 5939,
      "Ġiron</w>": 5940,
      "ulated</w>": 5941,
      "Ġhor": 5942,
      "Ġdifficul": 5943,
      "Ġparotid</w>": 5944,
      "ĠImplan": 5945,
      "ctinomyc": 5946,
      "Ġpneumoni": 5947,
      "Ġcardiovascular</w>": 5948,
      "traso": 5949,
      "ils</w>": 5950,
      "Ġcabg</w>": 5951,
      "Ġtire</w>": 5952,
      "Ġanemia</w>": 5953,
      "thritic</w>": 5954,
      "ectal</w>": 5955,
      "ĠBorderline</w>": 5956,
      "ingoce": 5957,
      "Ġscars</w>": 5958,
      "ĠCardiover": 5959,
      "Ġperibronchial</w>": 5960,
      "ĠCould</w>": 5961,
      "Ġmyelomen": 5962,
      "Ġindeterminate</w>": 5963,
      "Ġdiscoid</w>": 5964,
      "Ġsupine</w>": 5965,
      "Ġpalpation</w>": 5966,
      "Ġterminating</w>": 5967,
      "ĠAccident</w>": 5968,
      "Ġfocus</w>": 5969,
      "Defibrillator</w>": 5970,
      "Ġeffect</w>": 5971,
      "ĠBibasilar</w>": 5972,
      "Ġultraso": 5973,
      "Ġtimes</w>": 5974,
      "ctinomyces</w>": 5975,
      "Ġpneumonias</w>": 5976,
      "ingocele</w>": 5977,
      "ĠCardioverter</w>": 5978,
      "Ġmyelomeningocele</w>": 5979,
      "Ġultrasound</w>": 5980,
      "Actinomyces</w>": 5981,
      "Blood</w>": 5982,
      "Eight</w>": 5983,
      "HTN</w>": 5984,
      "Homeless</w>": 5985,
      "Incontinence</w>": 5986,
      "Mitomyopathy</w>": 5987,
      "Muscle</w>": 5988,
      "Neck</w>": 5989,
      "Neuropathy</w>": 5990,
      "Ovarian</w>": 5991,
      "PMale</w>": 5992,
      "Rapid</w>": 5993,
      "Rectal</w>": 5994,
      "Scoliosis</w>": 5995,
      "Skin</w>": 5996,
      "Soft</w>": 5997,
      "Shielded</w>": 5998,
      "Tobacco</w>": 5999,
      "Toothache</w>": 6000,
      "Vertigo</w>": 6001,
      "central</w>": 6002,
      "des": 6003,
      "edly</w>": 6004,
      "fract": 6005,
      "ges</w>": 6006,
      "germ</w>": 6007,
      "gunshot</w>": 6008,
      "hma</w>": 6009,
      "iritis</w>": 6010,
      "jury</w>": 6011,
      "nightsweats</w>": 6012,
      "injury</w>": 6013,
      "sides</w>": 6014,
      "leuk": 6015,
      "arsened</w>": 6016,
      "Ġanother</w>": 6017,
      "ĠAn": 6018,
      "unexplained</w>": 6019,
      "fir": 6020,
      "alli": 6021,
      "allergic</w>": 6022,
      "Thyroid</w>": 6023,
      "asthma</w>": 6024,
      "filtrate</w>": 6025,
      "Ġcancer": 6026,
      "Ġintervertebral</w>": 6027,
      "Ġsubph": 6028,
      "Ġaddition</w>": 6029,
      "hypoxia</w>": 6030,
      "exacerb": 6031,
      "inimally</w>": 6032,
      "ĠGranulomatous</w>": 6033,
      "Unable</w>": 6034,
      "Alveolar</w>": 6035,
      "Allergic</w>": 6036,
      "metastatic</w>": 6037,
      "achalasia</w>": 6038,
      "Ġhypera": 6039,
      "Diabetes</w>": 6040,
      "Diagnosed</w>": 6041,
      "Breathing</w>": 6042,
      "Headache</w>": 6043,
      "Headaches</w>": 6044,
      "Hemorrhage</w>": 6045,
      "Ġneeded</w>": 6046,
      "Ġormal</w>": 6047,
      "Streaky</w>": 6048,
      "Ġ-<</w>": 6049,
      "Scrotal</w>": 6050,
      "Cardiomyopathy</w>": 6051,
      "Transfer</w>": 6052,
      "Complaint</w>": 6053,
      "Assault</w>": 6054,
      "Hyperviscosity</w>": 6055,
      "Ġdestruction</w>": 6056,
      "Ġartifactual</w>": 6057,
      "presyncope</w>": 6058,
      "pressure</w>": 6059,
      "Cachectic</w>": 6060,
      "Caucasian</w>": 6061,
      "walking</w>": 6062,
      "Ġentire</w>": 6063,
      "Peripheral</w>": 6064,
      "ternotomy</w>": 6065,
      "Ġdamage</w>": 6066,
      "Ġetiology</w>": 6067,
      "hypercalcemia</w>": 6068,
      "Ġpurpose</w>": 6069,
      "Pleurisy</w>": 6070,
      "fractured</w>": 6071,
      "leukocytosis</w>": 6072,
      "allic</w>": 6073,
      "Ġcancerind</w>": 6074,
      "exacerbations</w>": 6075,
      "Aortic</w>": 6076,
      "ae</w>": 6077,
      "owever</w>": 6078,
      "Ġpot": 6079,
      "dition": 6080,
      "ontal</w>": 6081,
      "ĠAd": 6082,
      "Ġinlet</w>": 6083,
      "stophrenic</w>": 6084,
      "ĠCicatrix</w>": 6085,
      "ickening</w>": 6086,
      "stics</w>": 6087,
      "ĠHowever</w>": 6088,
      "Ġscapula</w>": 6089,
      "Ġsubpleural</w>": 6090,
      "izontal</w>": 6091,
      "Ġmarkedly</w>": 6092,
      "Ġrecesses</w>": 6093,
      "racheal</w>": 6094,
      "Ġepig": 6095,
      "Ġlobulated</w>": 6096,
      "ĠFractures</w>": 6097,
      "ĠConfir": 6098,
      "Ġtension</w>": 6099,
      "Ġoverlapping</w>": 6100,
      "ologies</w>": 6101,
      "Ġtypes</w>": 6102,
      "Ġdirect</w>": 6103,
      "ĠStreaky</w>": 6104,
      "Ġcharacteristics</w>": 6105,
      "ĠWithout</w>": 6106,
      "Ġvisibility</w>": 6107,
      "Ġhorizontal</w>": 6108,
      "ĠImplanted</w>": 6109,
      "Ġpotentially</w>": 6110,
      "ditionally</w>": 6111,
      "In</w>": 6112,
      "Not</w>": 6113,
      "RI</w>": 6114,
      "ave</w>": 6115,
      "ist": 6116,
      "xt</w>": 6117,
      "Ġ{</w>": 6118,
      "Ġpi": 6119,
      "ĠAn</w>": 6120,
      "Ġmi": 6121,
      "Ġminimally</w>": 6122,
      "Ġconte": 6123,
      "hanc": 6124,
      "Ġheal": 6125,
      "Ġreduction</w>": 6126,
      "ĠDe": 6127,
      "Ġexpan": 6128,
      "Ġconta": 6129,
      "Ġuncer": 6130,
      "Ġunclear</w>": 6131,
      "ĠHave</w>": 6132,
      "moph": 6133,
      "posi": 6134,
      "ĠScattered</w>": 6135,
      "Ġaccumulations</w>": 6136,
      "ĠMildly</w>": 6137,
      "ĠMRI</w>": 6138,
      "abdomen</w>": 6139,
      "Ġbesides</w>": 6140,
      "ĠTracheal</w>": 6141,
      "ĠRe": 6142,
      "Ġgross</w>": 6143,
      "ological</w>": 6144,
      "Ġrefers</w>": 6145,
      "Ġsyndes": 6146,
      "Ġgastric</w>": 6147,
      "ĠConsi": 6148,
      "Ġobscuring</w>": 6149,
      "Ġmarginal</w>": 6150,
      "mphysematous</w>": 6151,
      "scar</w>": 6152,
      "Ġexhibit</w>": 6153,
      "ĠAcromioclavicular</w>": 6154,
      "Ġsubphrenic</w>": 6155,
      "Ġcontext</w>": 6156,
      "Ġuncertain</w>": 6157,
      "Ġsyndesmoph": 6158,
      "nic</w>": 6159,
      "otic</w>": 6160,
      "ware</w>": 6161,
      "Ġ55</w>": 6162,
      "Ġtri": 6163,
      "ulae</w>": 6164,
      "erc": 6165,
      "chan": 6166,
      "Ġconsolidative</w>": 6167,
      "ĠDensity</w>": 6168,
      "Ġmetallic</w>": 6169,
      "ĠTwo</w>": 6170,
      "oreign</w>": 6171,
      "coliotic</w>": 6172,
      "Ġscapulae</w>": 6173,
      "ectatic</w>": 6174,
      "istic</w>": 6175,
      "Ġbroncho": 6176,
      "ĠDiffuse</w>": 6177,
      "ĠGiven</w>": 6178,
      "Ġatten": 6179,
      "Ġmargins</w>": 6180,
      "angular</w>": 6181,
      "Ġdifferences</w>": 6182,
      "Ġhardware</w>": 6183,
      "Ġheterogeneous</w>": 6184,
      "Ġsplenic</w>": 6185,
      "Ġcartilages</w>": 6186,
      "Ġtriangular</w>": 6187,
      ",.</w>": 6188,
      "aff": 6189,
      "ground</w>": 6190,
      "mely</w>": 6191,
      "oured</w>": 6192,
      "ption</w>": 6193,
      "ves</w>": 6194,
      "roplasty</w>": 6195,
      "Ġanch": 6196,
      "asogastric</w>": 6197,
      "fications</w>": 6198,
      "cian</w>": 6199,
      "omical</w>": 6200,
      "Ġcoarsened</w>": 6201,
      "Ġju": 6202,
      "onectomy</w>": 6203,
      "Ġcontoured</w>": 6204,
      "Ġvasculatures</w>": 6205,
      "Ġrather</w>": 6206,
      "Ġradiod": 6207,
      "Ġunaff": 6208,
      "most</w>": 6209,
      "Ġincluded</w>": 6210,
      "Ġcompare</w>": 6211,
      "Ġadv": 6212,
      "ison</w>": 6213,
      "Ġextremely</w>": 6214,
      "ĠCostophrenic</w>": 6215,
      "Ġrefle": 6216,
      "ĠPost": 6217,
      "Ġcomparison</w>": 6218,
      "Ġdescription</w>": 6219,
      "Ġfilms</w>": 6220,
      "Ġcharacteristic</w>": 6221,
      "Ġbackground</w>": 6222,
      "Ġterminates</w>": 6223,
      "Ġfoci</w>": 6224,
      "Ġobject</w>": 6225,
      "Ġcorresponds</w>": 6226,
      "Ġanterolisthesis</w>": 6227,
      "Ġanatomical</w>": 6228,
      "Ġhyperaerated</w>": 6229,
      "ĠAdditionally</w>": 6230,
      "Ġunaffected</w>": 6231,
      "CT</w>": 6232,
      "fest": 6233,
      "ocal</w>": 6234,
      "ro</w>": 6235,
      "tro</w>": 6236,
      "vor": 6237,
      "ytes</w>": 6238,
      "Ġof": 6239,
      "Ġtom": 6240,
      "ark": 6241,
      "esse": 6242,
      "ĠAtherosclerotic</w>": 6243,
      "Ġvesse": 6244,
      "Ġmain": 6245,
      "Ġnotes</w>": 6246,
      "ĠCalcifi": 6247,
      "Ġdefined</w>": 6248,
      "ranulomas</w>": 6249,
      "Ġfavor": 6250,
      "Ġcanal</w>": 6251,
      "Ġexpira": 6252,
      "Ġexchan": 6253,
      "Ġcontrib": 6254,
      "Ġuni": 6255,
      "Ġchron": 6256,
      "ĠProblem</w>": 6257,
      "scarring</w>": 6258,
      "ĠDifficulty</w>": 6259,
      "Ġhemothorax</w>": 6260,
      "rowed</w>": 6261,
      "ocurvature</w>": 6262,
      "Ġdextro</w>": 6263,
      "Ġlucent</w>": 6264,
      "anced</w>": 6265,
      "Ġresiduals</w>": 6266,
      "Ġnarrowed</w>": 6267,
      "Ġprogressive</w>": 6268,
      "Ġdefinitive</w>": 6269,
      "Ġgrowths</w>": 6270,
      "Ġfunc": 6271,
      "Ġsyndesmophytes</w>": 6272,
      "Ġvessel</w>": 6273,
      "Ġexchange</w>": 6274,
      "Ġcontribute</w>": 6275,
      "gal</w>": 6276,
      "nlarged</w>": 6277,
      "tu</w>": 6278,
      "uation</w>": 6279,
      "sile</w>": 6280,
      "timal</w>": 6281,
      "Ġsitu</w>": 6282,
      "enhanc": 6283,
      "Ġscoliotic</w>": 6284,
      "arge</w>": 6285,
      "Ġann": 6286,
      "Ġly</w>": 6287,
      "Ġbli": 6288,
      "Ġinn": 6289,
      "ressing</w>": 6290,
      "Ġproced": 6291,
      "phic</w>": 6292,
      "Ġhiatus</w>": 6293,
      "Ġinterface</w>": 6294,
      "stitial</w>": 6295,
      "Ġsubchond": 6296,
      "ecifically</w>": 6297,
      "Ġcomputed</w>": 6298,
      "Ġlevocurvature</w>": 6299,
      "ĠForeign</w>": 6300,
      "ĠUnremarkable</w>": 6301,
      "Ġventricles</w>": 6302,
      "Ġdiscs</w>": 6303,
      "Ġsmooth</w>": 6304,
      "ĠVascular</w>": 6305,
      "Ġmana": 6306,
      "Ġinterpreting</w>": 6307,
      "ĠLymph</w>": 6308,
      "lobular</w>": 6309,
      "Ġlay": 6310,
      "Ġfungal</w>": 6311,
      "Ġphysician</w>": 6312,
      "Ġdisrupted</w>": 6313,
      "ĠOsteophy": 6314,
      "Ġdifficult</w>": 6315,
      "ĠConfirmed</w>": 6316,
      "Ġpierc": 6317,
      "ĠConsidering</w>": 6318,
      "Ġattenuation</w>": 6319,
      "Ġmaintained</w>": 6320,
      "Ġfavored</w>": 6321,
      "Ġprocedures</w>": 6322,
      "Ġsubchondral</w>": 6323,
      "Oste": 6324,
      "gr": 6325,
      "iatal</w>": 6326,
      "Ġadi": 6327,
      "rays</w>": 6328,
      "Ġnasogastric</w>": 6329,
      "Ġlig": 6330,
      "Ġfunne": 6331,
      "Ġech": 6332,
      "oli</w>": 6333,
      "Ġinte": 6334,
      "Ġpneumonectomy</w>": 6335,
      "Ġfir": 6336,
      "openia</w>": 6337,
      "Ġenough</w>": 6338,
      "Ġcapping</w>": 6339,
      "Ġpoorly</w>": 6340,
      "Ġvisual": 6341,
      "Ġbronchiolitis</w>": 6342,
      "Ġcontribu": 6343,
      "Ġsurgeries</w>": 6344,
      "ĠSe": 6345,
      "Ġoverexpanded</w>": 6346,
      "Ġaffects</w>": 6347,
      "Ġrole</w>": 6348,
      "Ġpathologies</w>": 6349,
      "Ġparahilar</w>": 6350,
      "Ġrecommend</w>": 6351,
      "Ġsubcarinal</w>": 6352,
      "Ġseverely</w>": 6353,
      "Ġortu": 6354,
      "ĠInter": 6355,
      "Ġexaggeration</w>": 6356,
      "Ġhowever</w>": 6357,
      "ĠSpecifically</w>": 6358,
      "ĠDeformity</w>": 6359,
      "Ġexpansile</w>": 6360,
      "Ġanchor</w>": 6361,
      "Ġadvanced</w>": 6362,
      "grity</w>": 6363,
      "Ġadipose</w>": 6364,
      "Ġligam": 6365,
      "Ġfunnel</w>": 6366,
      "Ġintegrity</w>": 6367,
      "13</w>": 6368,
      "17</w>": 6369,
      "19</w>": 6370,
      "Fractures</w>": 6371,
      "IVC</w>": 6372,
      "Small</w>": 6373,
      "buted</w>": 6374,
      "ming</w>": 6375,
      "per</w>": 6376,
      "xture</w>": 6377,
      "inatum</w>": 6378,
      "Ġta": 6379,
      "Ġsite</w>": 6380,
      "enic</w>": 6381,
      "ering</w>": 6382,
      "Ġflow</w>": 6383,
      "Ġinspira": 6384,
      "Ġconges": 6385,
      "monly</w>": 6386,
      "atory</w>": 6387,
      "Ġproper</w>": 6388,
      "Ġconfirming</w>": 6389,
      "Ġbreak": 6390,
      "Ġvertebroplasty</w>": 6391,
      "Ġbronchitic</w>": 6392,
      "Ġinterrup": 6393,
      "Ġpositional</w>": 6394,
      "Ġidentify</w>": 6395,
      "ĠHiatal</w>": 6396,
      "moral</w>": 6397,
      "lines</w>": 6398,
      "Ġcompromi": 6399,
      "ĠMultilevel</w>": 6400,
      "ĠAbnormalities</w>": 6401,
      "tributed</w>": 6402,
      "ĠEdema</w>": 6403,
      "ĠEvid": 6404,
      "Ġfemoral</w>": 6405,
      "essary</w>": 6406,
      "essory</w>": 6407,
      "Ġosteopenic</w>": 6408,
      "Ġnecessary</w>": 6409,
      "Ġnondi": 6410,
      "Ġgrade</w>": 6411,
      "Ġapproxima": 6412,
      "Ġpatterns</w>": 6413,
      "Ġattributed</w>": 6414,
      "ĠtheP</w>": 6415,
      "Ġyper": 6416,
      "Ġconsider</w>": 6417,
      "Ġvalves</w>": 6418,
      "chamber</w>": 6419,
      "Ġcommonly</w>": 6420,
      "Ġcarinatum</w>": 6421,
      "Ġvariant</w>": 6422,
      "Ġcharacterization</w>": 6423,
      "Ġthoracotomy</w>": 6424,
      "Ġcorresponding</w>": 6425,
      "Ġtypically</w>": 6426,
      "Ġcontains</w>": 6427,
      "Ġradiodensity</w>": 6428,
      "Ġlayering</w>": 6429,
      "Ġechocardi": 6430,
      "Ġinspiratory</w>": 6431,
      "Ġcongested</w>": 6432,
      "Ġbreaks</w>": 6433,
      "ĠEvidence</w>": 6434,
      "Lung</w>": 6435,
      "Patchy</w>": 6436,
      "Stable</w>": 6437,
      "Scattered</w>": 6438,
      "bronchi": 6439,
      "eus</w>": 6440,
      "lst": 6441,
      "pated</w>": 6442,
      "spaces</w>": 6443,
      "yon": 6444,
      "yle</w>": 6445,
      "Ġere</w>": 6446,
      "Ġoss": 6447,
      "Ġori": 6448,
      "tici": 6449,
      "Ġsol": 6450,
      "ortions</w>": 6451,
      "Ġwe</w>": 6452,
      "Ġdim": 6453,
      "umed</w>": 6454,
      "read</w>": 6455,
      "otracheal</w>": 6456,
      "optimal</w>": 6457,
      "Ġlifest": 6458,
      "entilated</w>": 6459,
      "Ġspread</w>": 6460,
      "Ġplaque</w>": 6461,
      "ĠTesticular</w>": 6462,
      "Ġexact</w>": 6463,
      "Ġinterspace</w>": 6464,
      "Ġnotice": 6465,
      "Ġusual": 6466,
      "Ġtubular</w>": 6467,
      "Ġallowing</w>": 6468,
      "Ġaccessory</w>": 6469,
      "ĠSternotomy</w>": 6470,
      "ĠEvaluation</w>": 6471,
      "Ġosteod": 6472,
      "Ġbeyon": 6473,
      "Ġtexture</w>": 6474,
      "seen</w>": 6475,
      "Ġimport": 6476,
      "Ġprojec": 6477,
      "Ġendotracheal</w>": 6478,
      "Ġleading</w>": 6479,
      "Ġadequate</w>": 6480,
      "Ġtuberculous</w>": 6481,
      "Prominent</w>": 6482,
      "Ġappreci": 6483,
      "Ġcourses</w>": 6484,
      "Deformity</w>": 6485,
      "Ġanteroposterior</w>": 6486,
      "Ġdisruption</w>": 6487,
      "Ġgrafting</w>": 6488,
      "Ġgallst": 6489,
      "Ġexpiration</w>": 6490,
      "Ġblist": 6491,
      "Ġfirst</w>": 6492,
      "Ġapproximating</w>": 6493,
      "Ġechocardiography</w>": 6494,
      "Ġosseus</w>": 6495,
      "ticipated</w>": 6496,
      "Ġlifestyle</w>": 6497,
      "Ġusually</w>": 6498,
      "Ġosteodystrophy</w>": 6499,
      "Ġbeyond</w>": 6500,
      "Both</w>": 6501,
      "Sp": 6502,
      "bable</w>": 6503,
      "flow</w>": 6504,
      "function</w>": 6505,
      "ser</w>": 6506,
      "sligh": 6507,
      "vere</w>": 6508,
      "verall</w>": 6509,
      "xta": 6510,
      "Ġ\"</w>": 6511,
      "Ġ'</w>": 6512,
      "mpro": 6513,
      "Ġall</w>": 6514,
      "ticated</w>": 6515,
      "Ġportions</w>": 6516,
      "Ġnex": 6517,
      "oring</w>": 6518,
      "onodular</w>": 6519,
      "Ġhigh": 6520,
      "Ġbacterial</w>": 6521,
      "cium</w>": 6522,
      "rew</w>": 6523,
      "ressions</w>": 6524,
      "Ġcalcium</w>": 6525,
      "Ġdeposition</w>": 6526,
      "ĠWid": 6527,
      "Ġarterial</w>": 6528,
      "entally</w>": 6529,
      "Ġalve": 6530,
      "Ġcompli": 6531,
      "scop": 6532,
      "ĠMelanoma</w>": 6533,
      "ĠEmphysema</w>": 6534,
      "ĠElevated</w>": 6535,
      "Ġdetails</w>": 6536,
      "Ġscrew</w>": 6537,
      "Ġmedia</w>": 6538,
      "Ġparticul": 6539,
      "Ġsuperiorly</w>": 6540,
      "ticulonodular</w>": 6541,
      "Ġdecreasing</w>": 6542,
      "ĠOn</w>": 6543,
      "lbladder</w>": 6544,
      "Ġpathological</w>": 6545,
      "Diaphrag": 6546,
      "Ġapproximate</w>": 6547,
      "Ġinvolves</w>": 6548,
      "Ġendplates</w>": 6549,
      "Comp": 6550,
      "Ġgeneral</w>": 6551,
      "Ġdysfunction</w>": 6552,
      "Ġcorrelated</w>": 6553,
      "Ġstill</w>": 6554,
      "Ġsurface</w>": 6555,
      "Ġextends</w>": 6556,
      "Ġhealth</w>": 6557,
      "Ġjuxta": 6558,
      "ĠPostsurgical</w>": 6559,
      "Ġtomography</w>": 6560,
      "Ġunifor": 6561,
      "Ġannular</w>": 6562,
      "Ġnext</w>": 6563,
      "Ġalveoli</w>": 6564,
      "Ġparticularly</w>": 6565,
      "Ġjuxtahilar</w>": 6566,
      "gill": 6567,
      "lymp": 6568,
      "Ġsized</w>": 6569,
      "Ġste": 6570,
      "ergill": 6571,
      "Ġfle": 6572,
      "cient</w>": 6573,
      "Ġsuffi": 6574,
      "nees</w>": 6575,
      "astri": 6576,
      "hoid</w>": 6577,
      "cts</w>": 6578,
      "Ġlimit</w>": 6579,
      "Ġcorac": 6580,
      "nod": 6581,
      "Ġsuboptimal</w>": 6582,
      "Ġknees</w>": 6583,
      "splaced</w>": 6584,
      "ĠShoulder</w>": 6585,
      "Ġdensely</w>": 6586,
      "Ġbronchop": 6587,
      "verlying</w>": 6588,
      "irspace</w>": 6589,
      "Ġrepresentation</w>": 6590,
      "Ġunderinflated</w>": 6591,
      "Ġinstability</w>": 6592,
      "Indwelling</w>": 6593,
      "Ġoutflow</w>": 6594,
      "ĠLower</w>": 6595,
      "Ġmeasure</w>": 6596,
      "Ġdependent</w>": 6597,
      "geneity</w>": 6598,
      "Ġgreatest</w>": 6599,
      "Ġaspergill": 6600,
      "Ġorig": 6601,
      "Postsurgical</w>": 6602,
      "ĠVP</w>": 6603,
      "Ġoverlay</w>": 6604,
      "Ġoverlaid</w>": 6605,
      "Ġbene": 6606,
      "ĠTech": 6607,
      "Ġcurved</w>": 6608,
      "Ġcircular</w>": 6609,
      "Ġincidentally</w>": 6610,
      "Ġtaken</w>": 6611,
      "Ġepigastri": 6612,
      "ĠRedemonst": 6613,
      "Ġofthing</w>": 6614,
      "Ġtaper": 6615,
      "Ġinterruption</w>": 6616,
      "Ġdimension</w>": 6617,
      "scopy</w>": 6618,
      "Complications</w>": 6619,
      "Ġstep</w>": 6620,
      "Ġsufficient</w>": 6621,
      "Ġaspergilloma</w>": 6622,
      "Ġepigastrium</w>": 6623,
      "Bochdalek</w>": 6624,
      "bly</w>": 6625,
      "dense</w>": 6626,
      "stic</w>": 6627,
      "Ġess": 6628,
      "rossly</w>": 6629,
      "culation</w>": 6630,
      "cial</w>": 6631,
      "Ġsuit": 6632,
      "Thickening</w>": 6633,
      "ath</w>": 6634,
      "ctum</w>": 6635,
      "edical</w>": 6636,
      "Ġreticulonodular</w>": 6637,
      "Ġrectum</w>": 6638,
      "Ġopaque</w>": 6639,
      "ronchovascular</w>": 6640,
      "Ġspur</w>": 6641,
      "Ġaction</w>": 6642,
      "Ġinferiorly</w>": 6643,
      "lusion</w>": 6644,
      "Ġlimitations</w>": 6645,
      "Ġmidlower</w>": 6646,
      "ĠLuc": 6647,
      "Ġoval</w>": 6648,
      "inflation</w>": 6649,
      "ographic</w>": 6650,
      "Ġregular</w>": 6651,
      "ĠBre": 6652,
      "ĠBlunting</w>": 6653,
      "ĠMark": 6654,
      "ĠMedical</w>": 6655,
      "Ġdenser</w>": 6656,
      "Ġdistortion</w>": 6657,
      "Ġrest": 6658,
      "Ġoverinflated</w>": 6659,
      "ĠOverall</w>": 6660,
      "ĠNodular</w>": 6661,
      "Ġobscures</w>": 6662,
      "Ġcorticated</w>": 6663,
      "Ġdegenerated</w>": 6664,
      "Ġpoly</w>": 6665,
      "Ġmonitoring</w>": 6666,
      "Ġaligned</w>": 6667,
      "Arthritic</w>": 6668,
      "Ġwarranted</w>": 6669,
      "Ġfissural</w>": 6670,
      "ĠSpine</w>": 6671,
      "ĠStatus</w>": 6672,
      "Ġdepends</w>": 6673,
      "walled</w>": 6674,
      "Ġcharacterize</w>": 6675,
      "ĠArthritic</w>": 6676,
      "Ġextend</w>": 6677,
      "ĠScle": 6678,
      "Ġgrafts</w>": 6679,
      "enhanced</w>": 6680,
      "ĠOsteophyte</w>": 6681,
      "Ġappreciable</w>": 6682,
      "Ġbronchopleural</w>": 6683,
      "Ġorigin</w>": 6684,
      "Ġtapering</w>": 6685,
      "Ġessentially</w>": 6686,
      ">></w>": 6687,
      "IS": 6688,
      "Opacities</w>": 6689,
      "ans</w>": 6690,
      "ed": 6691,
      "ile</w>": 6692,
      "lot": 6693,
      "pulmonary</w>": 6694,
      "infiltrate</w>": 6695,
      "Ġcent": 6696,
      "Ġseries</w>": 6697,
      "ulate</w>": 6698,
      "astic</w>": 6699,
      "Ġformations</w>": 6700,
      "ĠAirspace</w>": 6701,
      "Ġblo": 6702,
      "ominate</w>": 6703,
      "Thoracic</w>": 6704,
      "icd</w>": 6705,
      "hang": 6706,
      "ĠIV</w>": 6707,
      "Ġcalcifie</w>": 6708,
      "ubsegmental</w>": 6709,
      "etab": 6710,
      "ĠWas</w>": 6711,
      "othoracic</w>": 6712,
      "Ġabsent</w>": 6713,
      "ĠDecreased</w>": 6714,
      "Ġhips</w>": 6715,
      "Ġarticul": 6716,
      "Ġspi": 6717,
      "Ġinfrac": 6718,
      "Ġobstructing</w>": 6719,
      "Ġvisual</w>": 6720,
      "Ġsubst": 6721,
      "ĠNumerous</w>": 6722,
      "ĠProbable</w>": 6723,
      "ĠBronchi": 6724,
      "Ġprevertebral</w>": 6725,
      "Ġmarker</w>": 6726,
      "ĠEnlarged</w>": 6727,
      "Ġbronchopulmonary</w>": 6728,
      "Ġangulate</w>": 6729,
      "Ġhemiabdomen</w>": 6730,
      "Ġpartly</w>": 6731,
      "Ġlaterally</w>": 6732,
      "Ġheads</w>": 6733,
      "ĠRib</w>": 6734,
      "troscoliosis</w>": 6735,
      "Ġproject</w>": 6736,
      "Ġdepending</w>": 6737,
      "Ġrecommend": 6738,
      "Ġstran": 6739,
      "Coronary</w>": 6740,
      "Ġconside": 6741,
      "ĠInfiltrate</w>": 6742,
      "Ġhelp</w>": 6743,
      "Ġdifferent</w>": 6744,
      "ĠSpinal</w>": 6745,
      "Ġconsequence</w>": 6746,
      "Ġgallbladder</w>": 6747,
      "Ġbronchoscopy</w>": 6748,
      "Ġreflects</w>": 6749,
      "ĠCalcification</w>": 6750,
      "Ġchronically</w>": 6751,
      "Ġinnominate</w>": 6752,
      "Ġvisualization</w>": 6753,
      "Ġortuous</w>": 6754,
      "Ġligament": 6755,
      "bronchiolitis</w>": 6756,
      "Ġgallstones</w>": 6757,
      "ĠWidened</w>": 6758,
      "ĠTechnical</w>": 6759,
      "ĠRedemonstration</w>": 6760,
      "ISH</w>": 6761,
      "hanges</w>": 6762,
      "Ġarticulation</w>": 6763,
      "Ġinfracarinal</w>": 6764,
      "...</w>": 6765,
      "Granulomatous</w>": 6766,
      "Man": 6767,
      "Midline</w>": 6768,
      "Vascular</w>": 6769,
      "ach</w>": 6770,
      "femo": 6771,
      "gh</w>": 6772,
      "gain</w>": 6773,
      "gemia</w>": 6774,
      "mly</w>": 6775,
      "thou": 6776,
      "vely</w>": 6777,
      "wist": 6778,
      "Ġ35</w>": 6779,
      "ĠUpper</w>": 6780,
      "ining</w>": 6781,
      "Ġoli": 6782,
      "Ġtree</w>": 6783,
      "Ġtwist": 6784,
      "Ġamp": 6785,
      "Ġcases</w>": 6786,
      "difications</w>": 6787,
      "Ġset": 6788,
      "ĠAgain</w>": 6789,
      "ficial</w>": 6790,
      "umera": 6791,
      "ched</w>": 6792,
      "Ġcalled</w>": 6793,
      "ĠThickening</w>": 6794,
      "lofemo": 6795,
      "ĠCentral</w>": 6796,
      "Ġdeposi": 6797,
      "Ġdone</w>": 6798,
      "ellofemo": 6799,
      "Ġpresumed</w>": 6800,
      "rum</w>": 6801,
      "ecubitus</w>": 6802,
      "Ġacu": 6803,
      "quely</w>": 6804,
      "Ġwhile</w>": 6805,
      "Ġlimitation</w>": 6806,
      "ĠPneumothorax</w>": 6807,
      "Ġmidabdomen</w>": 6808,
      "Ġmodifications</w>": 6809,
      "ĠBul": 6810,
      "scrib": 6811,
      "ĠMid</w>": 6812,
      "ĠMetastatic</w>": 6813,
      "ĠEmphysematous</w>": 6814,
      "ĠNote</w>": 6815,
      "Ġpatellofemo": 6816,
      "Ġembolization</w>": 6817,
      "xion</w>": 6818,
      "ĠFocal</w>": 6819,
      "Diffuse</w>": 6820,
      "Ġgastrostomy</w>": 6821,
      "Ġimaged</w>": 6822,
      "Ġatta": 6823,
      "Ġesophagogastric</w>": 6824,
      "Ġasymmetry</w>": 6825,
      "Ġpersistently</w>": 6826,
      "Ġresolve</w>": 6827,
      "Ġsame</w>": 6828,
      "Ġresults</w>": 6829,
      "Ġneoplastic</w>": 6830,
      "Ġassessing</w>": 6831,
      "Ġsacs</w>": 6832,
      "Ġsacrum</w>": 6833,
      "Ġdefinitively</w>": 6834,
      "Ġobliquely</w>": 6835,
      "Ġcritical</w>": 6836,
      "Ġoblong</w>": 6837,
      "Ġentire": 6838,
      "Ġphysiology</w>": 6839,
      "ĠHyperinflated</w>": 6840,
      "ĠAnterior</w>": 6841,
      "Ġmanaged</w>": 6842,
      "Ġpiercings</w>": 6843,
      "ĠSevere</w>": 6844,
      "Ġoriented</w>": 6845,
      "Ġblister</w>": 6846,
      "mproved</w>": 6847,
      "Ġhigher</w>": 6848,
      "Ġuniformly</w>": 6849,
      "Ġflexion</w>": 6850,
      "ĠLucency</w>": 6851,
      "ĠBreast</w>": 6852,
      "Ġblock": 6853,
      "Management</w>": 6854,
      "though</w>": 6855,
      "Ġoligemia</w>": 6856,
      "Ġsetting</w>": 6857,
      "umerable</w>": 6858,
      "Ġdeposits</w>": 6859,
      "scribed</w>": 6860,
      "Ġpatellofemoral</w>": 6861,
      "100</w>": 6862,
      "Blunting</w>": 6863,
      "Bronchovascular</w>": 6864,
      "Mo": 6865,
      "basal</w>": 6866,
      "bility</w>": 6867,
      "bony</w>": 6868,
      "borderline</w>": 6869,
      "cen": 6870,
      "cing</w>": 6871,
      "cla": 6872,
      "copulmonary</w>": 6873,
      "etra": 6874,
      "granulomas</w>": 6875,
      "ls</w>": 6876,
      "mid": 6877,
      "oimm": 6878,
      "ssi": 6879,
      "sel": 6880,
      "tubercul": 6881,
      "tact</w>": 6882,
      "tsel": 6883,
      "vation</w>": 6884,
      "Ġ100</w>": 6885,
      "inous</w>": 6886,
      "Ġossi": 6887,
      "tile</w>": 6888,
      "ticopulmonary</w>": 6889,
      "Ġitsel": 6890,
      "Ġcres": 6891,
      "Ġcase</w>": 6892,
      "dicated</w>": 6893,
      "enetra": 6894,
      "Ġshort": 6895,
      "Ġelon": 6896,
      "itely</w>": 6897,
      "une</w>": 6898,
      "Ġbiliary</w>": 6899,
      "lication</w>": 6900,
      "location</w>": 6901,
      "ĠCa": 6902,
      "ĠChanges</w>": 6903,
      "Ġaorticopulmonary</w>": 6904,
      "Ġdedicated</w>": 6905,
      "ets</w>": 6906,
      "tex</w>": 6907,
      "Ġobtain</w>": 6908,
      "Ġstreak": 6909,
      "Ġset</w>": 6910,
      "Ġglobular</w>": 6911,
      "thy</w>": 6912,
      "Ġcapacity</w>": 6913,
      "Ġpock": 6914,
      "luder</w>": 6915,
      "lucent</w>": 6916,
      "Ġairspaces</w>": 6917,
      "Ġviral</w>": 6918,
      "Ġbronchiectatic</w>": 6919,
      "ĠTub": 6920,
      "Ġtib": 6921,
      "Ġthorabony</w>": 6922,
      "Ġthickened</w>": 6923,
      "ystectomy</w>": 6924,
      "Ġelements</w>": 6925,
      "lecystectomy</w>": 6926,
      "ĠLumbar</w>": 6927,
      "Ġscaphoid</w>": 6928,
      "Ġsegmental</w>": 6929,
      "minence</w>": 6930,
      "Ġadd": 6931,
      "Ġposture</w>": 6932,
      "vex</w>": 6933,
      "ondral</w>": 6934,
      "Ġcercla": 6935,
      "Ġprovides</w>": 6936,
      "Ġmedially</w>": 6937,
      "Ġimplications</w>": 6938,
      "Ġimplication</w>": 6939,
      "ĠTracheostomy</w>": 6940,
      "ĠTracheobronchial</w>": 6941,
      "ĠGrossly</w>": 6942,
      "Ġdefinitely</w>": 6943,
      "Abnormalities</w>": 6944,
      "Ġapproach</w>": 6945,
      "convex</w>": 6946,
      "Ġcortex</w>": 6947,
      "Ġortic</w>": 6948,
      "ĠInfection</w>": 6949,
      "Ġoccluder</w>": 6950,
      "Ġrotatory</w>": 6951,
      "ĠVer": 6952,
      "Ġorgans</w>": 6953,
      "Ġhypoventilated</w>": 6954,
      "Ġfragments</w>": 6955,
      "Ġretracted</w>": 6956,
      "Ġautoimm": 6957,
      "Ġeffort</w>": 6958,
      "ĠBiapical</w>": 6959,
      "ĠScarring</w>": 6960,
      "Ġepiglot": 6961,
      "Ġfunctional</w>": 6962,
      "Osteopenia</w>": 6963,
      "Ġcompromise</w>": 6964,
      "Ġimportant</w>": 6965,
      "Ġprojectile</w>": 6966,
      "Ġrestrictive</w>": 6967,
      "ĠSclerosis</w>": 6968,
      "Ġrecommendations</w>": 6969,
      "Ġacuity</w>": 6970,
      "Ġblockage</w>": 6971,
      "Moderate</w>": 6972,
      "centic</w>": 6973,
      "midlung</w>": 6974,
      "tuberculous</w>": 6975,
      "Ġossifications</w>": 6976,
      "Ġitself</w>": 6977,
      "Ġcrescentic</w>": 6978,
      "Ġshortening</w>": 6979,
      "Ġelong": 6980,
      "Ġpockets</w>": 6981,
      "Ġcerclage</w>": 6982,
      "Ġautoimmune</w>": 6983,
      "Ġepiglottis</w>": 6984,
      "Emphysematous</w>": 6985,
      "Multilevel</w>": 6986,
      "Overlying</w>": 6987,
      "Re": 6988,
      "Sternotomy</w>": 6989,
      "].</w>": 6990,
      "aled</w>": 6991,
      "ctions</w>": 6992,
      "dg": 6993,
      "dosis</w>": 6994,
      "dari": 6995,
      "eved</w>": 6996,
      "ewel": 6997,
      "fra": 6998,
      "penetra": 6999,
      "ria</w>": 7000,
      "rcum": 7001,
      "shi": 7002,
      "treated</w>": 7003,
      "xed</w>": 7004,
      "Ġtric": 7005,
      "maged</w>": 7006,
      "Ġcro": 7007,
      "Ġclo": 7008,
      "dis": 7009,
      "lent</w>": 7010,
      "Ġsitu": 7011,
      "ulum</w>": 7012,
      "arre": 7013,
      "ording</w>": 7014,
      "espre": 7015,
      "ere": 7016,
      "Ġlumen</w>": 7017,
      "Ġfold</w>": 7018,
      "Ġegenerative</w>": 7019,
      "Ġell</w>": 7020,
      "cath": 7021,
      "ĠAICD</w>": 7022,
      "ormative</w>": 7023,
      "undari": 7024,
      "Ġindo": 7025,
      "Ġrest</w>": 7026,
      "circum": 7027,
      "Ġsuper": 7028,
      "lieved</w>": 7029,
      "deling</w>": 7030,
      "ĠThey</w>": 7031,
      "Ġtraction</w>": 7032,
      "ĠCHF</w>": 7033,
      "Ġreach": 7034,
      "Ġpresentation</w>": 7035,
      "rilobular</w>": 7036,
      "Ġjewel": 7037,
      "Ġaccess</w>": 7038,
      "Ġacetab": 7039,
      "Ġenlarging</w>": 7040,
      "Ġinformative</w>": 7041,
      "ranuloma</w>": 7042,
      "gni": 7043,
      "Ġtime": 7044,
      "Ġthickness</w>": 7045,
      "Ġchamb": 7046,
      "Ġcontain</w>": 7047,
      "Ġboundari": 7048,
      "ĠLarge</w>": 7049,
      "Ġsubseg": 7050,
      "Ġbulge</w>": 7051,
      "Ġwidespre": 7052,
      "Ġbihilar</w>": 7053,
      "minist": 7054,
      "Ġkidne": 7055,
      "ĠSub": 7056,
      "Ġadminist": 7057,
      "ĠEpigastric</w>": 7058,
      "cidental</w>": 7059,
      "extroscoliosis</w>": 7060,
      "utation</w>": 7061,
      "tionshi": 7062,
      "ĠOld</w>": 7063,
      "Ġunderpenetra": 7064,
      "Ġremodeling</w>": 7065,
      "Ġconclusion</w>": 7066,
      "Ġsymmetry</w>": 7067,
      "Ġimmedi": 7068,
      "Ġinsert</w>": 7069,
      "Ġdepressions</w>": 7070,
      "Ġatria</w>": 7071,
      "Ġtheroscle": 7072,
      "Ġfilling</w>": 7073,
      "Ġgenerally</w>": 7074,
      "Ġcostodiaphragmatic</w>": 7075,
      "Ġtenting</w>": 7076,
      "Ġresolving</w>": 7077,
      "Ġrelationshi": 7078,
      "Ġexclusion</w>": 7079,
      "artmental</w>": 7080,
      "ompartmental</w>": 7081,
      "Ġsacroiliac</w>": 7082,
      "Ġlordosis</w>": 7083,
      "Ġconfluence</w>": 7084,
      "Ġdifferenti": 7085,
      "Ġdirection</w>": 7086,
      "Ġwalls</w>": 7087,
      "ĠAnticipated</w>": 7088,
      "Ġmixed</w>": 7089,
      "Ġfunctioning</w>": 7090,
      "Ġcontributing</w>": 7091,
      "ĠInterstitial</w>": 7092,
      "Spondylosis</w>": 7093,
      "slight</w>": 7094,
      "Diaphragmatic</w>": 7095,
      "nodular</w>": 7096,
      "Ġbeneath</w>": 7097,
      "Ġcentrilobular</w>": 7098,
      "Ġspiculated</w>": 7099,
      "Ġtwisted</w>": 7100,
      "Ġamputation</w>": 7101,
      "Ġattached</w>": 7102,
      "Ġaddressing</w>": 7103,
      "frame</w>": 7104,
      "Ġtricompartmental</w>": 7105,
      "Ġsituated</w>": 7106,
      "catheter</w>": 7107,
      "Ġindolent</w>": 7108,
      "circumscribed</w>": 7109,
      "Ġsuperficial</w>": 7110,
      "Ġjewelry</w>": 7111,
      "Ġacetabulum</w>": 7112,
      "Ġtimeframe</w>": 7113,
      "Ġchambers</w>": 7114,
      "Ġboundaries</w>": 7115,
      "Ġwidespread</w>": 7116,
      "Ġkidneys</w>": 7117,
      "Ġadministration</w>": 7118,
      "Ġrelationship</w>": 7119,
      "Cicatrix</w>": 7120,
      "If</w>": 7121,
      "aus</w>": 7122,
      "ajor</w>": 7123,
      "acatheter</w>": 7124,
      "grow": 7125,
      "hen": 7126,
      "nn": 7127,
      "up": 7128,
      "uous</w>": 7129,
      "Ġ5": 7130,
      "Ġe</w>": 7131,
      "int": 7132,
      "Ġpne": 7133,
      "raded</w>": 7134,
      "Ġir": 7135,
      "Ġcop": 7136,
      "Ġcreased</w>": 7137,
      "Ġsarc": 7138,
      "ularity</w>": 7139,
      "artila": 7140,
      "cating</w>": 7141,
      "itracheal</w>": 7142,
      "Ġmorbidly</w>": 7143,
      "umented</w>": 7144,
      "Ġconsp": 7145,
      "Ġconfined</w>": 7146,
      "Ġpacing</w>": 7147,
      "Ġpann": 7148,
      "Ġmagni": 7149,
      "Ġnota": 7150,
      "litic</w>": 7151,
      "chronic</w>": 7152,
      "icity</w>": 7153,
      "icuous</w>": 7154,
      "ĠIrregular</w>": 7155,
      "rea": 7156,
      "rehen": 7157,
      "Ġcardia</w>": 7158,
      "Ġcardioth": 7159,
      "ĠCho": 7160,
      "ĠCorre": 7161,
      "Ġdoc": 7162,
      "Ġduc": 7163,
      "Ġperitracheal</w>": 7164,
      "vily</w>": 7165,
      "Ġstab": 7166,
      "ĠDense</w>": 7167,
      "Ġarticular</w>": 7168,
      "Ġspondy": 7169,
      "Ġhyperdense</w>": 7170,
      "ymic</w>": 7171,
      "Ġnotified</w>": 7172,
      "Ġnotification</w>": 7173,
      "Ġmobility</w>": 7174,
      "derlying</w>": 7175,
      "Ġuntreated</w>": 7176,
      "Ġalthough</w>": 7177,
      "Ġaccu": 7178,
      "ĠSymptoms</w>": 7179,
      "ĠSarcoidosis</w>": 7180,
      "ĠSligh": 7181,
      "Ġcomprehen": 7182,
      "ĠMotor</w>": 7183,
      "ĠMajor</w>": 7184,
      "ĠEKG</w>": 7185,
      "yphotic</w>": 7186,
      "Ġrese": 7187,
      "Ġrespon": 7188,
      "Ġexams</w>": 7189,
      "ggerated</w>": 7190,
      "Ġheavily</w>": 7191,
      "lization</w>": 7192,
      "Ġgrow</w>": 7193,
      "Ġground</w>": 7194,
      "umatoce": 7195,
      "Ġlocalization</w>": 7196,
      "ances</w>": 7197,
      "ĠContrast</w>": 7198,
      "Ġimproving</w>": 7199,
      "histoplasm": 7200,
      "Ġordering</w>": 7201,
      "ĠIntact</w>": 7202,
      "Ġcorrect</w>": 7203,
      "Ġdegraded</w>": 7204,
      "demonstrated</w>": 7205,
      "Ġcoursing</w>": 7206,
      "counting</w>": 7207,
      "Ġportacatheter</w>": 7208,
      "Ġalternati": 7209,
      "Ġplateaus</w>": 7210,
      "ĠHealed</w>": 7211,
      "ĠExam</w>": 7212,
      "glass</w>": 7213,
      "Ġhomogeneity</w>": 7214,
      "Ġdirectly</w>": 7215,
      "Peribronchial</w>": 7216,
      "ĠArthritis</w>": 7217,
      "ĠOsteopenia</w>": 7218,
      "Ġanatomy</w>": 7219,
      "Ġhealthy</w>": 7220,
      "Ġbronchodi": 7221,
      "Ġchronicity</w>": 7222,
      "Ġmanaging</w>": 7223,
      "Ġpiercing</w>": 7224,
      "Osteophy": 7225,
      "Ġnoticeable</w>": 7226,
      "Ġnoticeably</w>": 7227,
      "Ġcomplicating</w>": 7228,
      "lymph</w>": 7229,
      "Ġcoracoclavicular</w>": 7230,
      "ĠBronchitis</w>": 7231,
      "Ġstreakiness</w>": 7232,
      "ĠTube</w>": 7233,
      "Ġtibial</w>": 7234,
      "Ġsubsegment</w>": 7235,
      "Ġpneumatoce": 7236,
      "Ġcopd</w>": 7237,
      "Ġsarcoid</w>": 7238,
      "Ġconspicuous</w>": 7239,
      "Ġpannus</w>": 7240,
      "Ġnotably</w>": 7241,
      "Ġcardiothymic</w>": 7242,
      "ĠCorrelate</w>": 7243,
      "Ġdocumented</w>": 7244,
      "Ġduct</w>": 7245,
      "Ġstabili": 7246,
      "Ġspondylitic</w>": 7247,
      "Ġcomprehensive</w>": 7248,
      "histoplasmoma</w>": 7249,
      "Ġalternatively</w>": 7250,
      "Ġpneumatoceles</w>": 7251,
      ");</w>": 7252,
      "Calcifi": 7253,
      "DISH</w>": 7254,
      "Decubitus</w>": 7255,
      "Enlarged</w>": 7256,
      "Focal</w>": 7257,
      "Granulomas</w>": 7258,
      "Mark": 7259,
      "Old</w>": 7260,
      "Wit": 7261,
      "bi": 7262,
      "cr": 7263,
      "dal</w>": 7264,
      "ew</w>": 7265,
      "ft": 7266,
      "idi": 7267,
      "lit": 7268,
      "lum": 7269,
      "mor": 7270,
      "ole": 7271,
      "ose</w>": 7272,
      "ount</w>": 7273,
      "sm</w>": 7274,
      "udal</w>": 7275,
      "vitation</w>": 7276,
      "Ġ0</w>": 7277,
      "ĠFatigue</w>": 7278,
      "rostomy</w>": 7279,
      "Ġthose</w>": 7280,
      "Ġpseu": 7281,
      "rations</w>": 7282,
      "Ġiaphrag": 7283,
      "dial</w>": 7284,
      "lecting</w>": 7285,
      "Ġnone</w>": 7286,
      "Ġanticipated</w>": 7287,
      "ered</w>": 7288,
      "Ġeart</w>": 7289,
      "Ġwil": 7290,
      "olution</w>": 7291,
      "Ġbarre": 7292,
      "fissure</w>": 7293,
      "Ġdiure": 7294,
      "Ġconne": 7295,
      "Ġmani": 7296,
      "ĠImproved</w>": 7297,
      "retro": 7298,
      "resolution</w>": 7299,
      "urth</w>": 7300,
      "otated</w>": 7301,
      "ppe": 7302,
      "Ġtrack": 7303,
      "tralum": 7304,
      "ĠClips</w>": 7305,
      "Ġloculation</w>": 7306,
      "Ġdom": 7307,
      "ĠWed": 7308,
      "Ġleft": 7309,
      "thir": 7310,
      "rical</w>": 7311,
      "Ġcaudal</w>": 7312,
      "Ġcollecting</w>": 7313,
      "Ġwhen</w>": 7314,
      "Ġfourth</w>": 7315,
      "Ġextralum": 7316,
      "plate</w>": 7317,
      "acral</w>": 7318,
      "Ġshown</w>": 7319,
      "Ġcontinu": 7320,
      "ĠPeri": 7321,
      "olume</w>": 7322,
      "Ġinterlob": 7323,
      "Ġradiological</w>": 7324,
      "Ġshaped</w>": 7325,
      "ĠLess</w>": 7326,
      "Ġsegments</w>": 7327,
      "perihilar</w>": 7328,
      "Ġbile</w>": 7329,
      "Ġbibasal</w>": 7330,
      "ĠProminence</w>": 7331,
      "lining</w>": 7332,
      "Ġkind</w>": 7333,
      "Ġaccording</w>": 7334,
      "Ġaccount</w>": 7335,
      "ĠSVC</w>": 7336,
      "Ġexperience</w>": 7337,
      "Ġrepe": 7338,
      "Ġcompens": 7339,
      "nism</w>": 7340,
      "dative</w>": 7341,
      "ĠExtensive</w>": 7342,
      "antial</w>": 7343,
      "anterior</w>": 7344,
      "Ġdeformed</w>": 7345,
      "Ġinjection</w>": 7346,
      "Ġbelieved</w>": 7347,
      "Ġparts</w>": 7348,
      "Ġparticular</w>": 7349,
      "ĠGranuloma</w>": 7350,
      "Ġsternal</w>": 7351,
      "Ġtermination</w>": 7352,
      "Ġarterios": 7353,
      "Ġarteriographic</w>": 7354,
      "Underlying</w>": 7355,
      "metry</w>": 7356,
      "Ġmecha": 7357,
      "Ġextreme</w>": 7358,
      "Ġretrolisthesis</w>": 7359,
      "Ġoutlining</w>": 7360,
      "Ġcollapses</w>": 7361,
      "osacral</w>": 7362,
      "Contrast</w>": 7363,
      "ommend</w>": 7364,
      "Ġhump</w>": 7365,
      "hiasis</w>": 7366,
      "Ġconsidering</w>": 7367,
      "Ġasymmetrical</w>": 7368,
      "dofissure</w>": 7369,
      "Ġopacified</w>": 7370,
      "Interstitial</w>": 7371,
      "Ġupon</w>": 7372,
      "Ġhelps</w>": 7373,
      "Ġvaries</w>": 7374,
      "comp": 7375,
      "Ġdiminutive</w>": 7376,
      "focal</w>": 7377,
      "Ġpasses</w>": 7378,
      "ĠRecommend</w>": 7379,
      "Ġterminate</w>": 7380,
      "Ġsuppor": 7381,
      "Ġsupport</w>": 7382,
      "Ġconvex</w>": 7383,
      "agnostic</w>": 7384,
      "Ġdamaged</w>": 7385,
      "Ġhardening</w>": 7386,
      "Ġdifficulties</w>": 7387,
      "Ġreflecting</w>": 7388,
      "ĠCalcifications</w>": 7389,
      "Ġinnumerable</w>": 7390,
      "Ġcontributes</w>": 7391,
      "ĠIntermittent</w>": 7392,
      "Ġcompromised</w>": 7393,
      "Ġnondisplaced</w>": 7394,
      "Ġyperlucent</w>": 7395,
      "Ġsolidi": 7396,
      "Ġsuitable</w>": 7397,
      "Ġsubstantial</w>": 7398,
      "Ġstrandy</w>": 7399,
      "Ġligamentum</w>": 7400,
      "Ġentirely</w>": 7401,
      "ĠVertebral</w>": 7402,
      "Ġelongation</w>": 7403,
      "dislocation</w>": 7404,
      "ready</w>": 7405,
      "Within</w>": 7406,
      "biopsy</w>": 7407,
      "crural</w>": 7408,
      "mordial</w>": 7409,
      "olemia</w>": 7410,
      "Ġpseudofissure</w>": 7411,
      "Ġwill</w>": 7412,
      "Ġbarrel</w>": 7413,
      "Ġdiuretics</w>": 7414,
      "Ġconnective</w>": 7415,
      "retrocrural</w>": 7416,
      "Ġtracking</w>": 7417,
      "ĠWedge</w>": 7418,
      "Ġleftward</w>": 7419,
      "third</w>": 7420,
      "Ġextraluminal</w>": 7421,
      "Ġcontinued</w>": 7422,
      "Ġinterlobar</w>": 7423,
      "Ġcompensatory</w>": 7424,
      "Ġarteriosum</w>": 7425,
      "Ġmechanism</w>": 7426,
      "Ġsolidification</w>": 7427,
      "'.</w>": 7428,
      "):</w>": 7429,
      ",\"</w>": 7430,
      "-<</w>": 7431,
      "Ac": 7432,
      "Ad": 7433,
      "Bi": 7434,
      "Central</w>": 7435,
      "En": 7436,
      "Large</w>": 7437,
      "Subsegmental</w>": 7438,
      "dplate</w>": 7439,
      "eographic</w>": 7440,
      "ginous</w>": 7441,
      "iper": 7442,
      "imal</w>": 7443,
      "mum</w>": 7444,
      "nce</w>": 7445,
      "por": 7446,
      "pical</w>": 7447,
      "picardial</w>": 7448,
      "sw": 7449,
      "set": 7450,
      "tations</w>": 7451,
      "uss": 7452,
      "ventration</w>": 7453,
      "Ġ/</w>": 7454,
      "inant</w>": 7455,
      "Ġtot": 7456,
      "Ġtru": 7457,
      "row</w>": 7458,
      "propor": 7459,
      "Ġthere": 7460,
      "tifact": 7461,
      "Ġpun": 7462,
      "Ġpedi": 7463,
      "Ġpic</w>": 7464,
      "racture</w>": 7465,
      "Ġcas": 7466,
      "Ġcenti": 7467,
      "Ġchin</w>": 7468,
      "Ġng</w>": 7469,
      "ulus</w>": 7470,
      "ared</w>": 7471,
      "Ġanalysis</w>": 7472,
      "Ġansw": 7473,
      "ested</w>": 7474,
      "Ġlumb": 7475,
      "Ġfec": 7476,
      "Ġflank</w>": 7477,
      "ĠApical</w>": 7478,
      "Ġhx</w>": 7479,
      "olit": 7480,
      "ormance</w>": 7481,
      "Ġbest</w>": 7482,
      "Ġinsti": 7483,
      "Ġmulti": 7484,
      "Ġrules</w>": 7485,
      "Ġable</w>": 7486,
      "lating</w>": 7487,
      "Ġvol": 7488,
      "Ġmaxi": 7489,
      "ner</w>": 7490,
      "Ġher</w>": 7491,
      "ctate</w>": 7492,
      "Ġdispropor": 7493,
      "Ġprognosis</w>": 7494,
      "Ġcardiothoracic</w>": 7495,
      "ĠCervical</w>": 7496,
      "ĠWere</w>": 7497,
      "ten</w>": 7498,
      "Ġproblematic</w>": 7499,
      "Ġlimb": 7500,
      "Ġsection</w>": 7501,
      "Ġgeographic</w>": 7502,
      "there</w>": 7503,
      "Ġcoils</w>": 7504,
      "Ġsplin": 7505,
      "luxation</w>": 7506,
      "Ġobservation</w>": 7507,
      "Ġface": 7508,
      "ĠTran": 7509,
      "atheter</w>": 7510,
      "ĠPle": 7511,
      "ĠPalpitations</w>": 7512,
      "tents</w>": 7513,
      "Ġinterspaces</w>": 7514,
      "Ġscant</w>": 7515,
      "entrated</w>": 7516,
      "ĠLing": 7517,
      "ĠLightheadedness</w>": 7518,
      "Ġsubluxation</w>": 7519,
      "Ġwear</w>": 7520,
      "infold</w>": 7521,
      "Ġlinear</w>": 7522,
      "Ġchondral</w>": 7523,
      "ĠNG</w>": 7524,
      "ĠNipple</w>": 7525,
      "sudative</w>": 7526,
      "peripheral</w>": 7527,
      "used</w>": 7528,
      "minimal</w>": 7529,
      "Ġpretracheal</w>": 7530,
      "Ġtransudative</w>": 7531,
      "Ġcomposition</w>": 7532,
      "scured</w>": 7533,
      "Ġmarking</w>": 7534,
      "ĠAbdomen</w>": 7535,
      "ĠEn": 7536,
      "Ġosteoc": 7537,
      "Ġpostradi": 7538,
      "Ġpostop</w>": 7539,
      "ĠExternal</w>": 7540,
      "Ġdistinct</w>": 7541,
      "Ġbronchogram</w>": 7542,
      "Ġcervic": 7543,
      "ĠDimin": 7544,
      "Ġtele": 7545,
      "Ġimpressions</w>": 7546,
      "tionate</w>": 7547,
      "Ġepiper": 7548,
      "Ġskinfold</w>": 7549,
      "ĠRet": 7550,
      "ĠRecurrent</w>": 7551,
      "ĠRemo": 7552,
      "lators</w>": 7553,
      "ĠSignifica": 7554,
      "hemothorax</w>": 7555,
      "Ġextubation</w>": 7556,
      "ĠFor</w>": 7557,
      "Ġdextroconvex</w>": 7558,
      "Ġretrohilar</w>": 7559,
      "ĠCoarse</w>": 7560,
      "Ġreferr": 7561,
      "Ġperformance</w>": 7562,
      "Ġrequested</w>": 7563,
      "Ġnerves</w>": 7564,
      "ĠNodules</w>": 7565,
      "Ġgastroint": 7566,
      "Ġsulcal</w>": 7567,
      "Ġdescribes</w>": 7568,
      "Ġdiagnostic</w>": 7569,
      "racter": 7570,
      "estinal</w>": 7571,
      "ĠIncidental</w>": 7572,
      "Ġtechnically</w>": 7573,
      "fluent</w>": 7574,
      "Ġoccup": 7575,
      "ĠPrevious</w>": 7576,
      "Ġcorrelating</w>": 7577,
      "Ġsuperimposition</w>": 7578,
      "Ġsurrounded</w>": 7579,
      "Ġmanner</w>": 7580,
      "Ġopening</w>": 7581,
      "Ġclearing</w>": 7582,
      "Ġhypovolemia</w>": 7583,
      "Ġinterpretations</w>": 7584,
      "Ġaccentuate</w>": 7585,
      "Ġaccentuating</w>": 7586,
      "Cholecystectomy</w>": 7587,
      "Ġpassive</w>": 7588,
      "Ġnarrow</w>": 7589,
[...]
