{
  "version": "1.0",
  "truncation": null,
  "padding": null,
  "added_tokens": [
    {
      "id": 0,
      "special": true,
      "content": "<PAD>",
      "single_word": false,
      "lstrip": false,
      "rstrip": false,
      "normalized": false
    },
    {
      "id": 1,
      "special": true,
      "content": "<UNK>",
      "single_word": false,
      "lstrip": false,
      "rstrip": false,
      "normalized": false
    },
    {
      "id": 2,
      "special": true,
      "content": "[CLS]",
      "single_word": false,
      "lstrip": false,
      "rstrip": false,
      "normalized": false
    },
    {
      "id": 3,
      "special": true,
      "content": "[SEP]",
      "single_word": false,
      "lstrip": false,
      "rstrip": false,
      "normalized": false
    },
    {
      "id": 4,
      "special": true,
      "content": "<s>",
      "single_word": false,
      "lstrip": false,
      "rstrip": false,
      "normalized": false
    },
    {
      "id": 5,
      "special": true,
      "content": "<MASK>",
      "single_word": false,
      "lstrip": false,
      "rstrip": false,
      "normalized": false
    },
    {
      "id": 6,
      "special": true,
      "content": "<size>",
      "single_word": false,
      "lstrip": false,
      "rstrip": false,
      "normalized": false
    },
    {
      "id": 7,
      "special": true,
      "content": "<ind>",
      "single_word": false,
      "lstrip": false,
      "rstrip": false,
      "normalized": false
    },
    {
      "id": 8,
      "special": true,
      "content": "<prompt>",
      "single_word": false,
      "lstrip": false,
      "rstrip": false,
      "normalized": false
    },
    {
      "id": 9,
      "special": true,
      "content": "T1",
      "single_word": false,
      "lstrip": false,
      "rstrip": false,
      "normalized": false
    },
    {
      "id": 10,
      "special": true,
      "content": "T2",
      "single_word": false,
      "lstrip": false,
      "rstrip": false,
      "normalized": false
    },
    {
      "id": 11,
      "special": true,
      "content": "T3",
      "single_word": false,
      "lstrip": false,
      "rstrip": false,
      "normalized": false
    },
    {
      "id": 12,
      "special": true,
      "content": "T4",
      "single_word": false,
      "lstrip": false,
      "rstrip": false,
      "normalized": false
    },
    {
      "id": 13,
      "special": true,
      "content": "T5",
      "single_word": false,
      "lstrip": false,
      "rstrip": false,
      "normalized": false
    },
    {
      "id": 14,
      "special": true,
      "content": "T6",
      "single_word": false,
      "lstrip": false,
      "rstrip": false,
      "normalized": false
    },
    {
      "id": 15,
      "special": true,
      "content": "T7",
      "single_word": false,
      "lstrip": false,
      "rstrip": false,
      "normalized": false
    },
    {
      "id": 16,
      "special": true,
      "content": "T8",
      "single_word": false,
      "lstrip": false,
      "rstrip": false,
      "normalized": false
    },
    {
      "id": 17,
      "special": true,
      "content": "T9",
      "single_word": false,
      "lstrip": false,
      "rstrip": false,
      "normalized": false
    },
    {
      "id": 18,
      "special": true,
      "content": "T10",
      "single_word": false,
      "lstrip": false,
      "rstrip": false,
      "normalized": false
    },
    {
      "id": 19,
      "special": true,
      "content": "T11",
      "single_word": false,
      "lstrip": false,
      "rstrip": false,
      "normalized": false
    },
    {
      "id": 20,
      "special": true,
      "content": "T12",
      "single_word": false,
      "lstrip": false,
      "rstrip": false,
      "normalized": false
    },
    {
      "id": 21,
      "special": true,
      "content": "1",
      "single_word": false,
      "lstrip": false,
      "rstrip": false,
      "normalized": false
    },
    {
      "id": 22,
      "special": true,
      "content": "2",
      "single_word": false,
      "lstrip": false,
      "rstrip": false,
      "normalized": false
    },
    {
      "id": 23,
      "special": true,
      "content": "3",
      "single_word": false,
      "lstrip": false,
      "rstrip": false,
      "normalized": false
    },
    {
      "id": 24,
      "special": true,
      "content": "4",
      "single_word": false,
      "lstrip": false,
      "rstrip": false,
      "normalized": false
    },
    {
      "id": 25,
      "special": true,
      "content": "5",
      "single_word": false,
      "lstrip": false,
      "rstrip": false,
      "normalized": false
    },
    {
      "id": 26,
      "special": true,
      "content": "6",
      "single_word": false,
      "lstrip": false,
      "rstrip": false,
      "normalized": false
    },
    {
      "id": 27,
      "special": true,
      "content": "7",
      "single_word": false,
      "lstrip": false,
      "rstrip": false,
      "normalized": false
    },
    {
      "id": 28,
      "special": true,
      "content": "8",
      "single_word": false,
      "lstrip": false,
      "rstrip": false,
      "normalized": false
    },
    {
      "id": 29,
      "special": true,
      "content": "9",
      "single_word": false,
      "lstrip": false,
      "rstrip": false,
      "normalized": false
    },
    {
      "id": 30,
      "special": true,
      "content": "0",
      "single_word": false,
      "lstrip": false,
      "rstrip": false,
      "normalized": false
    },
    {
      "id": 31,
      "special": true,
      "content": "<loc0>",
      "single_word": false,
      "lstrip": false,
      "rstrip": false,
      "normalized": false
    },
    {
      "id": 32,
      "special": true,
      "content": "<loc1>",
      "single_word": false,
      "lstrip": false,
      "rstrip": false,
      "normalized": false
    },
    {
      "id": 33,
      "special": true,
      "content": "<loc2>",
      "single_word": false,
      "lstrip": false,
      "rstrip": false,
      "normalized": false
    },
    {
      "id": 34,
      "special": true,
      "content": "<loc00>",
      "single_word": false,
      "lstrip": false,
      "rstrip": false,
      "normalized": false
    },
    {
      "id": 35,
      "special": true,
      "content": "<loc01>",
      "single_word": false,
      "lstrip": false,
      "rstrip": false,
      "normalized": false
    },
    {
      "id": 36,
      "special": true,
      "content": "<loc02>",
      "single_word": false,
      "lstrip": false,
      "rstrip": false,
      "normalized": false
    },
    {
      "id": 37,
      "special": true,
      "content": "<loc10>",
      "single_word": false,
      "lstrip": false,
      "rstrip": false,
      "normalized": false
    },
    {
      "id": 38,
      "special": true,
      "content": "<loc11>",
      "single_word": false,
      "lstrip": false,
      "rstrip": false,
      "normalized": false
    },
    {
      "id": 39,
      "special": true,
      "content": "<loc12>",
      "single_word": false,
      "lstrip": false,
      "rstrip": false,
      "normalized": false
    },
    {
      "id": 40,
      "special": true,
      "content": "<loc20>",
      "single_word": false,
      "lstrip": false,
      "rstrip": false,
      "normalized": false
    },
    {
      "id": 41,
      "special": true,
      "content": "<loc21>",
      "single_word": false,
      "lstrip": false,
      "rstrip": false,
      "normalized": false
    },
    {
      "id": 42,
      "special": true,
      "content": "<loc22>",
      "single_word": false,
      "lstrip": false,
      "rstrip": false,
      "normalized": false
    },
    {
      "id": 43,
      "special": true,
      "content": "<loc02><loc22>",
      "single_word": false,
      "lstrip": false,
      "rstrip": false,
      "normalized": false
    },
    {
      "id": 44,
      "special": true,
      "content": "<loc0><loc2>",
      "single_word": false,
      "lstrip": false,
      "rstrip": false,
      "normalized": false
    },
    {
      "id": 45,
      "special": true,
      "content": "<rib1>",
      "single_word": false,
      "lstrip": false,
      "rstrip": false,
      "normalized": false
    },
    {
      "id": 46,
      "special": true,
      "content": "<rib2>",
      "single_word": false,
      "lstrip": false,
      "rstrip": false,
      "normalized": false
    },
    {
      "id": 47,
      "special": true,
      "content": "<rib3>",
      "single_word": false,
      "lstrip": false,
      "rstrip": false,
      "normalized": false
    },
    {
      "id": 48,
      "special": true,
      "content": "<rib4>",
      "single_word": false,
      "lstrip": false,
      "rstrip": false,
      "normalized": false
    },
    {
      "id": 49,
      "special": true,
      "content": "<rib5>",
      "single_word": false,
      "lstrip": false,
      "rstrip": false,
      "normalized": false
    },
    {
      "id": 50,
      "special": true,
      "content": "<rib6>",
      "single_word": false,
      "lstrip": false,
      "rstrip": false,
      "normalized": false
    },
    {
      "id": 51,
      "special": true,
      "content": "<rib7>",
      "single_word": false,
      "lstrip": false,
      "rstrip": false,
      "normalized": false
    },
    {
      "id": 52,
      "special": true,
      "content": "<rib8>",
      "single_word": false,
      "lstrip": false,
      "rstrip": false,
      "normalized": false
    },
    {
      "id": 53,
      "special": true,
      "content": "<rib9>",
      "single_word": false,
      "lstrip": false,
      "rstrip": false,
      "normalized": false
    },
    {
      "id": 54,
      "special": true,
      "content": "<rib10>",
      "single_word": false,
      "lstrip": false,
      "rstrip": false,
      "normalized": false
    },
    {
      "id": 55,
      "special": true,
      "content": "<rib11>",
      "single_word": false,
      "lstrip": false,
      "rstrip": false,
      "normalized": false
    },
    {
      "id": 56,
      "special": true,
      "content": "<rib12>",
      "single_word": false,
      "lstrip": false,
      "rstrip": false,
      "normalized": false
    }
  ],
  "normalizer": null,
  "pre_tokenizer": {
    "type": "ByteLevel",
    "add_prefix_space": false,
    "trim_offsets": true
  },
  "post_processor": {
    "type": "ByteLevel",
    "add_prefix_space": true,
    "trim_offsets": false
  },
  "decoder": {
    "type": "ByteLevel",
    "add_prefix_space": true,
    "trim_offsets": true
  },
  "model": {
    "type": "BPE",
    "dropout": null,
    "unk_token": null,
    "continuing_subword_prefix": null,
    "end_of_word_suffix": "</w>",
    "fuse_unk": false,
    "vocab": {
      "<PAD>": 0,
      "<UNK>": 1,
      "[CLS]": 2,
      "[SEP]": 3,
      "<s>": 4,
      "<MASK>": 5,
      "<size>": 6,
      "<ind>": 7,
      "<prompt>": 8,
      "T1": 9,
      "T2": 10,
      "T3": 11,
      "T4": 12,
      "T5": 13,
      "T6": 14,
      "T7": 15,
      "T8": 16,
      "T9": 17,
      "T10": 18,
      "T11": 19,
      "T12": 20,
      "1": 21,
      "2": 22,
      "3": 23,
      "4": 24,
      "5": 25,
      "6": 26,
      "7": 27,
      "8": 28,
      "9": 29,
      "0": 30,
      "<loc0>": 31,
      "<loc1>": 32,
      "<loc2>": 33,
      "<loc00>": 34,
      "<loc01>": 35,
      "<loc02>": 36,
      "<loc10>": 37,
      "<loc11>": 38,
      "<loc12>": 39,
      "<loc20>": 40,
      "<loc21>": 41,
      "<loc22>": 42,
      "<loc02><loc22>": 43,
      "<loc0><loc2>": 44,
      "<rib1>": 45,
      "<rib2>": 46,
      "<rib3>": 47,
      "<rib4>": 48,
      "<rib5>": 49,
      "<rib6>": 50,
      "<rib7>": 51,
      "<rib8>": 52,
      "<rib9>": 53,
      "<rib10>": 54,
      "<rib11>": 55,
      "<rib12>": 56,
      "\"": 57,
      "$": 58,
      "%": 59,
      "&": 60,
      "'": 61,
      "(": 62,
      ")": 63,
      "+": 64,
      ",": 65,
      "-": 66,
      ".": 67,
      "/": 68,
      ":": 69,
      ";": 70,
      "<": 71,
      "=": 72,
      ">": 73,
      "?": 74,
      "A": 75,
      "B": 76,
      "C": 77,
      "D": 78,
      "E": 79,
      "F": 80,
      "G": 81,
      "H": 82,
      "I": 83,
      "J": 84,
      "K": 85,
      "L": 86,
      "M": 87,
      "N": 88,
      "O": 89,
      "P": 90,
      "Q": 91,
      "R": 92,
      "S": 93,
      "T": 94,
      "U": 95,
      "V": 96,
      "W": 97,
      "X": 98,
      "Y": 99,
      "Z": 100,
      "[": 101,
      "]": 102,
      "a": 103,
      "b": 104,
      "c": 105,
      "d": 106,
      "e": 107,
      "f": 108,
      "g": 109,
      "h": 110,
      "i": 111,
      "j": 112,
      "k": 113,
      "l": 114,
      "m": 115,
      "n": 116,
      "o": 117,
      "p": 118,
      "q": 119,
      "r": 120,
      "s": 121,
      "t": 122,
      "u": 123,
      "v": 124,
      "w": 125,
      "x": 126,
      "y": 127,
      "z": 128,
      "Ċ": 129,
      "Ġ": 130,
      "e</w>": 131,
      "d</w>": 132,
      "c</w>": 133,
      "s</w>": 134,
      "t</w>": 135,
      "g</w>": 136,
      "V</w>": 137,
      "l</w>": 138,
      "r</w>": 139,
      "y</w>": 140,
      "n</w>": 141,
      "p</w>": 142,
      "m</w>": 143,
      "4</w>": 144,
      "i</w>": 145,
      "o</w>": 146,
      "a</w>": 147,
      "x</w>": 148,
      "\"</w>": 149,
      "h</w>": 150,
      "w</w>": 151,
      "<</w>": 152,
      "b</w>": 153,
      "1</w>": 154,
      "3</w>": 155,
      "B</w>": 156,
      "T</w>": 157,
      "k</w>": 158,
      "8</w>": 159,
      "L</w>": 160,
      "]</w>": 161,
      "D</w>": 162,
      "S</w>": 163,
      "C</w>": 164,
      "0</w>": 165,
      "F</w>": 166,
      "&</w>": 167,
      "2</w>": 168,
      "5</w>": 169,
      "6</w>": 170,
      "M</w>": 171,
      "f</w>": 172,
      ")</w>": 173,
      "9</w>": 174,
      "/</w>": 175,
      "'</w>": 176,
      ".</w>": 177,
      ",</w>": 178,
      "v</w>": 179,
      "-</w>": 180,
      "P</w>": 181,
      "N</w>": 182,
      "></w>": 183,
      "G</w>": 184,
      "A</w>": 185,
      "Ċ</w>": 186,
      "H</w>": 187,
      "7</w>": 188,
      ";</w>": 189,
      "(</w>": 190,
      "[</w>": 191,
      "I</w>": 192,
      "R</w>": 193,
      "j</w>": 194,
      "=</w>": 195,
      "u</w>": 196,
      "+</w>": 197,
      "%</w>": 198,
      "?</w>": 199,
      "X</w>": 200,
      ":</w>": 201,
      "Ġ</w>": 202,
      "O</w>": 203,
      "in": 204,
      "Ġo": 205,
      "om": 206,
      "pr": 207,
      "Ġa": 208,
      "Ġt": 209,
      "Ġ<</w>": 210,
      "ti": 211,
      "si": 212,
      "ind</w>": 213,
      "omp": 214,
      "promp": 215,
      "prompt</w>": 216,
      "re</w>": 217,
      "Ġp": 218,
      "ra": 219,
      "he": 220,
      "Ġof</w>": 221,
      "Ġc": 222,
      "ns</w>": 223,
      "ma": 224,
      "di": 225,
      "Ġsi": 226,
      "ul": 227,
      "Ġor</w>": 228,
      "on</w>": 229,
      "><</w>": 230,
      "es</w>": 231,
      "Ġsig": 232,
      "Ġsigns</w>": 233,
      "le": 234,
      "on": 235,
      "Ġth": 236,
      "Ġs": 237,
      "Ġi": 238,
      "en": 239,
      "or": 240,
      "ar": 241,
      "Ġn": 242,
      "here</w>": 243,
      "as": 244,
      "No</w>": 245,
      "Ġan": 246,
      "er": 247,
      "tion</w>": 248,
      "ral</w>": 249,
      "Ġf": 250,
      "ĠNo</w>": 251,
      "Ġthe</w>": 252,
      "Ġthere</w>": 253,
      "ar</w>": 254,
      "Ġw": 255,
      "ural</w>": 256,
      "ic": 257,
      "Ġple": 258,
      "Ġpleural</w>": 259,
      "es": 260,
      "ed</w>": 261,
      ".<</w>": 262,
      "Ġl": 263,
      "Ġe": 264,
      "ol": 265,
      "al</w>": 266,
      "Ġany</w>": 267,
      "ĠA": 268,
      "ĠAre</w>": 269,
      "ing</w>": 270,
      "it": 271,
      "ation</w>": 272,
      "Ġin": 273,
      "Ġb": 274,
      "Ġdi": 275,
      "sis</w>": 276,
      "mal": 277,
      "ai": 278,
      "un": 279,
      "al": 280,
      "ye": 281,
      "Ġwit": 282,
      "Ġsu": 283,
      "Ġm": 284,
      "Ġr": 285,
      "osis</w>": 286,
      "ain</w>": 287,
      "sion</w>": 288,
      "st</w>": 289,
      "cul": 290,
      "ve</w>": 291,
      "Ġno</w>": 292,
      "Ġare</w>": 293,
      "mon": 294,
      "year</w>": 295,
      "Ġab": 296,
      "Ġpain</w>": 297,
      "old</w>": 298,
      "Ġno": 299,
      "at": 300,
      "st": 301,
      "Ġis</w>": 302,
      "ung</w>": 303,
      "Ġwith</w>": 304,
      "Ġcon": 305,
      "ĠT": 306,
      "Ġv": 307,
      "hest</w>": 308,
      "ci": 309,
      "Ġin</w>": 310,
      "ary</w>": 311,
      "ne": 312,
      "la": 313,
      "ent</w>": 314,
      "cation</w>": 315,
      "ulmon": 316,
      "Ġlung</w>": 317,
      "ce</w>": 318,
      "Ġhe": 319,
      "ardi": 320,
      "ati": 321,
      "ons</w>": 322,
      "tive</w>": 323,
      "de": 324,
      "um": 325,
      "male</w>": 326,
      "ulmonary</w>": 327,
      "ast": 328,
      "Ġh": 329,
      "Ġpulmonary</w>": 330,
      "fi": 331,
      "ge</w>": 332,
      "ff": 333,
      "tic</w>": 334,
      "Ġdis": 335,
      "ased</w>": 336,
      "id": 337,
      "ties</w>": 338,
      "mage</w>": 339,
      "Ġma": 340,
      "orma": 341,
      "Ġimage</w>": 342,
      "yo": 343,
      "ct": 344,
      "Ġindi": 345,
      "ffu": 346,
      "Ġpr": 347,
      "Ġindication</w>": 348,
      "Ġeffu": 349,
      "Ġcal": 350,
      "Ġyo": 351,
      "ho": 352,
      "Ġyou</w>": 353,
      "Ġeffusion</w>": 354,
      "based</w>": 355,
      "ges": 356,
      "Ġchest</w>": 357,
      "Ġpne": 358,
      "ence</w>": 359,
      "re": 360,
      "edi": 361,
      "ur": 362,
      "25</w>": 363,
      "astin": 364,
      "ediastin": 365,
      "Ġcalci": 366,
      "ap": 367,
      "sp": 368,
      "Ġtra": 369,
      "an</w>": 370,
      "ch</w>": 371,
      "ations</w>": 372,
      "Ġmas": 373,
      "Ġand</w>": 374,
      "fic": 375,
      "ormal": 376,
      "Ġas</w>": 377,
      "Ġabn": 378,
      "Ġabnormal": 379,
      "ess</w>": 380,
      "ter": 381,
      "Ġnod": 382,
      "Ġsuch</w>": 383,
      "ities</w>": 384,
      "ĠC": 385,
      "ub": 386,
      "Ġabnormalities</w>": 387,
      "ut</w>": 388,
      "ĠI": 389,
      "or</w>": 390,
      "ot": 391,
      "gges": 392,
      "ron": 393,
      "ormal</w>": 394,
      "Ġev": 395,
      "Ġfi": 396,
      "tra": 397,
      "Ġcalcific": 398,
      "Ġpneum": 399,
      "Ġap": 400,
      "is</w>": 401,
      "Ġcalcifications</w>": 402,
      "Ġnormal</w>": 403,
      "Ġsugges": 404,
      "ha": 405,
      "Ġabs": 406,
      "Ġthis</w>": 407,
      "Ġnodul": 408,
      "Ġfe": 409,
      "Ġa</w>": 410,
      "le</w>": 411,
      "ase</w>": 412,
      "ĠThere</w>": 413,
      "ercul": 414,
      "ubercul": 415,
      "uberculosis</w>": 416,
      "gs</w>": 417,
      "lo": 418,
      "ease</w>": 419,
      "ma</w>": 420,
      "Ġper": 421,
      "Ġdisease</w>": 422,
      "he</w>": 423,
      "hi": 424,
      "Ġaor": 425,
      "art</w>": 426,
      "oma</w>": 427,
      "Ġfemale</w>": 428,
      "Ġcardi": 429,
      "op": 430,
      "te": 431,
      "ure</w>": 432,
      "cular</w>": 433,
      "che": 434,
      "ĠCan</w>": 435,
      "ob": 436,
      "Ġaortic</w>": 437,
      "Ġd": 438,
      "icardi": 439,
      "Ġpericardi": 440,
      "el": 441,
      "ses</w>": 442,
      "mp": 443,
      "hra": 444,
      "aphra": 445,
      "aphrag": 446,
      "Ġmasses</w>": 447,
      "ĠThe</w>": 448,
      "str": 449,
      "ment</w>": 450,
      "ac</w>": 451,
      "Ġde": 452,
      "Ġout</w>": 453,
      "Ġmale</w>": 454,
      "Ġnodules</w>": 455,
      "br": 456,
      "ular</w>": 457,
      "ble</w>": 458,
      "Ġheart</w>": 459,
      "ig": 460,
      "Ġrul": 461,
      "Ġtrache": 462,
      "Ġmediastin": 463,
      "Ġfibr": 464,
      "Ġvas": 465,
      "Ġcardiac</w>": 466,
      "vic": 467,
      "ic</w>": 468,
      "Ġfibrosis</w>": 469,
      "ness</w>": 470,
      "matic</w>": 471,
      "aphragmatic</w>": 472,
      "ĠIs</w>": 473,
      "ec": 474,
      "as</w>": 475,
      "ures</w>": 476,
      "Ġconfi": 477,
      "ou": 478,
      "Ġconfir": 479,
      "Ġfor</w>": 480,
      "tis</w>": 481,
      "pa": 482,
      "Ġlo": 483,
      "ctures</w>": 484,
      "Ġsh": 485,
      "um</w>": 486,
      "ting</w>": 487,
      "hora": 488,
      "Ġob": 489,
      "Ġbre": 490,
      "ronc": 491,
      "ĠD": 492,
      "ory</w>": 493,
      "Ġai": 494,
      "Ġse": 495,
      "othora": 496,
      "ia</w>": 497,
      "pres": 498,
      "Ġpneumothora": 499,
      "Ġdiaphragmatic</w>": 500,
      "oc": 501,
      "Ġpneumothorax</w>": 502,
      "pression</w>": 503,
      "per": 504,
      "Ġhi": 505,
      "ings</w>": 506,
      "Ġre": 507,
      "able</w>": 508,
      "Ġbreat": 509,
      "Ġabsence</w>": 510,
      "ement</w>": 511,
      "ronchi": 512,
      "et": 513,
      "nea</w>": 514,
      "ind": 515,
      "ysp": 516,
      "se</w>": 517,
      "yspnea</w>": 518,
      "ort": 519,
      "Ġtuberculosis</w>": 520,
      "indings</w>": 521,
      "story</w>": 522,
      "ft</w>": 523,
      "fil": 524,
      "trat": 525,
      "filtrat": 526,
      "Ġinfiltrat": 527,
      "Ġapp": 528,
      "Ġli": 529,
      "Ġg": 530,
      "Ġst": 531,
      "Ġevid": 532,
      "Ġconfirm</w>": 533,
      "Ġbreath</w>": 534,
      "hat</w>": 535,
      "Ġevidence</w>": 536,
      "ze</w>": 537,
      "ortness</w>": 538,
      "loc</w>": 539,
      "ue</w>": 540,
      "ms</w>": 541,
      "Ġnot": 542,
      "lavic": 543,
      "Ġinfiltrates</w>": 544,
      "yc": 545,
      "oin": 546,
      "Ġj": 547,
      "lavicular</w>": 548,
      "ts</w>": 549,
      "Ġmediastinal</w>": 550,
      "oble": 551,
      "Ġjoin": 552,
      "Ġpres": 553,
      "one": 554,
      "omb": 555,
      "ĠDo</w>": 556,
      "Ġle": 557,
      "era": 558,
      "Ġar": 559,
      "oblems</w>": 560,
      "Ġhone": 561,
      "ycomb": 562,
      "Ġhoneycomb": 563,
      "Ġhoneycombing</w>": 564,
      "uc": 565,
      "an": 566,
      "er</w>": 567,
      "chest</w>": 568,
      "Ġtum": 569,
      "atient</w>": 570,
      "Ġhy": 571,
      "igh": 572,
      "Ġsize</w>": 573,
      "en</w>": 574,
      "Ġto</w>": 575,
      "ors</w>": 576,
      "Ġruling</w>": 577,
      "Ġpericardial</w>": 578,
      "Ġtumors</w>": 579,
      "Ġcol": 580,
      "Ġproblems</w>": 581,
      "Ġvascular</w>": 582,
      "asis</w>": 583,
      "Ġsuggesting</w>": 584,
      "Ġtb</w>": 585,
      "erative</w>": 586,
      "omediastin": 587,
      "Ġopa": 588,
      "uctive</w>": 589,
      "ormation</w>": 590,
      "ight</w>": 591,
      "ctasis</w>": 592,
      "Ġsc": 593,
      "Ġhyper": 594,
      "teri": 595,
      "dema</w>": 596,
      "Ġen": 597,
      "Ġcons": 598,
      "Ġsuggestive</w>": 599,
      "Ġedema</w>": 600,
      "olid": 601,
      "pp": 602,
      "etast": 603,
      "Ġconsolid": 604,
      "ection</w>": 605,
      "Ġmetast": 606,
      "Ġfra": 607,
      "Ġhema": 608,
      "culat": 609,
      "Ġobstr": 610,
      "qu": 611,
      "il": 612,
      "gn": 613,
      "Ġpo": 614,
      "tions</w>": 615,
      "omas</w>": 616,
      "Ġtracheal</w>": 617,
      "ymp": 618,
      "Ġif</w>": 619,
      "Ġind</w>": 620,
      "Ġemp": 621,
      "rn": 622,
      "Ġhern": 623,
      "Ġcan": 624,
      "ous</w>": 625,
      "agn": 626,
      "Ġmass</w>": 627,
      "Ġbronchi": 628,
      "Ġhistory</w>": 629,
      "Ġwhat</w>": 630,
      "ases</w>": 631,
      "arg": 632,
      "Ġfractures</w>": 633,
      "Ġpla": 634,
      "larg": 635,
      "ices</w>": 636,
      "fied</w>": 637,
      "ticular</w>": 638,
      "Ġopaci": 639,
      "ss": 640,
      "Ġopacities</w>": 641,
      "Ġenlarg": 642,
      "Ġinf": 643,
      "Ġhemat": 644,
      "Ġobstructive</w>": 645,
      "ail": 646,
      "ailure</w>": 647,
      "Ġmetastases</w>": 648,
      "Ġapices</w>": 649,
      "Ġfailure</w>": 650,
      "tial</w>": 651,
      "lear</w>": 652,
      "Ġdiagn": 653,
      "ine</w>": 654,
      "Ġabsc": 655,
      "Ġthy": 656,
      "Ġabscess</w>": 657,
      "Ġclear</w>": 658,
      "ib</w>": 659,
      "erte": 660,
      "Ġdiagnosis</w>": 661,
      "yema</w>": 662,
      "Ġempyema</w>": 663,
      "ac": 664,
      "Ġpericarditis</w>": 665,
      "Ġair</w>": 666,
      "operative</w>": 667,
      "Ġverte": 668,
      "Ġverteb": 669,
      "Ġpneumomediastin": 670,
      "Ġpneumomediastinum</w>": 671,
      "Findings</w>": 672,
      "mpression</w>": 673,
      "Ġenlargement</w>": 674,
      "Ġvertebral</w>": 675,
      "ĠImpression</w>": 676,
      "Ġbe</w>": 677,
      "section</w>": 678,
      "Ġdissection</w>": 679,
      "Ġjoint</w>": 680,
      "oclavicular</w>": 681,
      "Ġformation</w>": 682,
      "Ġthym": 683,
      "lap": 684,
      "ictive</w>": 685,
      "Ġconstr": 686,
      "Ġconstrictive</w>": 687,
      "lapse</w>": 688,
      "ques</w>": 689,
      "Ġplaques</w>": 690,
      "Ġright</w>": 691,
      "Ġreticular</w>": 692,
      "ri": 693,
      "Ġac": 694,
      "pping</w>": 695,
      "Ġtrapping</w>": 696,
      "Ġstr": 697,
      "umon": 698,
      "umonia</w>": 699,
      "Ġrib</w>": 700,
      "ro": 701,
      "ray</w>": 702,
      "ran": 703,
      "ĠTuberculosis</w>": 704,
      "ening</w>": 705,
      "Ġappe": 706,
      "Ġdyspnea</w>": 707,
      "ent": 708,
      "lu": 709,
      "ined</w>": 710,
      "the": 711,
      "Ġpneumonia</w>": 712,
      "alu": 713,
      "hout</w>": 714,
      "Ġso": 715,
      "65</w>": 716,
      "Ġpresent</w>": 717,
      "Ġstru": 718,
      "Ġlocation</w>": 719,
      "Ġwithout</w>": 720,
      "Ġnoti": 721,
      "ungs</w>": 722,
      "Ġair": 723,
      "ys": 724,
      "Ġstructures</w>": 725,
      "th": 726,
      "Ġnoted</w>": 727,
      "no": 728,
      "Ġrule</w>": 729,
      "ace</w>": 730,
      "ten": 731,
      "hortness</w>": 732,
      "ick": 733,
      "Ġthick": 734,
      "Ġthickening</w>": 735,
      "space</w>": 736,
      "Ġairspace</w>": 737,
      "Ġex": 738,
      "ronic</w>": 739,
      "Ġshortness</w>": 740,
      "der</w>": 741,
      "Ġti": 742,
      "tension</w>": 743,
      "Ġdue</w>": 744,
      "Ġnotice</w>": 745,
      "sions</w>": 746,
      "Ġlymp": 747,
      "Ġsho": 748,
      "pla": 749,
      "ranul": 750,
      "Ġcollapse</w>": 751,
      "te</w>": 752,
      "Ġgranul": 753,
      "Ġcom": 754,
      "Chest</w>": 755,
      "Ġpatient</w>": 756,
      "ĠL": 757,
      "iv": 758,
      "Ġtiss": 759,
      "icable</w>": 760,
      "Ġmediastinum</w>": 761,
      "licable</w>": 762,
      "Ġapplicable</w>": 763,
      "Ġmil": 764,
      "ars</w>": 765,
      "Ġcompression</w>": 766,
      "Ġsoft</w>": 767,
      "Ġlungs</w>": 768,
      "vi": 769,
      "Ġposi": 770,
      "Ġon</w>": 771,
      "ter</w>": 772,
      "ther</w>": 773,
      "ulder</w>": 774,
      "Ġevalu": 775,
      "cement</w>": 776,
      "Ġval": 777,
      "Ġwhere</w>": 778,
      "gestion</w>": 779,
      "dyspnea</w>": 780,
      "sist": 781,
      "lectasis</w>": 782,
      "rat": 783,
      "Ġvalve</w>": 784,
      "telectasis</w>": 785,
      "eur": 786,
      "Ġcalcified</w>": 787,
      "Ġcy": 788,
      "Ġatelectasis</w>": 789,
      "Ġshoulder</w>": 790,
      "Ġhypertension</w>": 791,
      "Ġfindings</w>": 792,
      "eoperative</w>": 793,
      "Ġbo": 794,
      "sistent</w>": 795,
      "Ġmid": 796,
      "Ġobs": 797,
      "Ġvasculat": 798,
      "Ġvasculature</w>": 799,
      "Ġother</w>": 800,
      "Ġra": 801,
      "terior</w>": 802,
      "Ġcongestion</w>": 803,
      "ration</w>": 804,
      "Patient</w>": 805,
      "Ġobser": 806,
      "Ġx</w>": 807,
      "Ġaneur": 808,
      "ysm</w>": 809,
      "Ġaneurysm</w>": 810,
      "Ġconsolidation</w>": 811,
      "oli": 812,
      "entra": 813,
      "Ġanterior</w>": 814,
      "Ġleft</w>": 815,
      "ell</w>": 816,
      "entration</w>": 817,
      "Ġeventration</w>": 818,
      "oug": 819,
      "Ġtissue</w>": 820,
      "der": 821,
      "ore": 822,
      "ree</w>": 823,
      "sts</w>": 824,
      "Ġcysts</w>": 825,
      "Ġmo": 826,
      "ity</w>": 827,
      "Ġfore": 828,
      "Ġappears</w>": 829,
      "Ġradi": 830,
      "ign</w>": 831,
      "dies</w>": 832,
      "Ġgranuloma</w>": 833,
      "Ġlip": 834,
      "Ġnot</w>": 835,
      "not</w>": 836,
      "Ġforeign</w>": 837,
      "lation</w>": 838,
      "olum": 839,
      "ritis</w>": 840,
      "Ġtracheob": 841,
      "Ġhernia</w>": 842,
      "Ġinter": 843,
      "Ġbodies</w>": 844,
      "at</w>": 845,
      "placement</w>": 846,
      "Ġevaluation</w>": 847,
      "Ġsp": 848,
      "irat": 849,
      "Ġwe": 850,
      "Ġvolum": 851,
      "Ġarth": 852,
      "ds</w>": 853,
      "ias</w>": 854,
      "pt": 855,
      "oth</w>": 856,
      "Ġmidl": 857,
      "Ġlymph</w>": 858,
      "ectasis</w>": 859,
      "Ġtracheobronchi": 860,
      "ough</w>": 861,
      "Ġnodes</w>": 862,
      "Ġsub": 863,
      "Ġbronchiectasis</w>": 864,
      "ĠP": 865,
      "Ġele": 866,
      "iven</w>": 867,
      "Ġfree</w>": 868,
      "sti": 869,
      "tern": 870,
      "Ġintersti": 871,
      "Ġgiven</w>": 872,
      "Ġdislo": 873,
      "Ġinterstitial</w>": 874,
      "Ġarthritis</w>": 875,
      "Ġdislocation</w>": 876,
      "Ġposition</w>": 877,
      "lec": 878,
      "Ġcough</w>": 879,
      "Shortness</w>": 880,
      "Ġcannot</w>": 881,
      "Ġbul": 882,
      "Ġhematoma</w>": 883,
      "Ġlesions</w>": 884,
      "Ġstern": 885,
      "enti": 886,
      "Ġby</w>": 887,
      "hag": 888,
      "ly</w>": 889,
      "ling</w>": 890,
      "ng": 891,
      "oliosis</w>": 892,
      "ĠY": 893,
      "Ġconsistent</w>": 894,
      "Ġconsolidations</w>": 895,
      "Ġmidline</w>": 896,
      "rom": 897,
      "ĠW": 898,
      "lae</w>": 899,
      "Ġbased</w>": 900,
      "ape</w>": 901,
      "Ġshape</w>": 902,
      "Ġasp": 903,
      "ĠYes</w>": 904,
      "Ġbullae</w>": 905,
      "og": 906,
      "ophag": 907,
      "Ġven": 908,
      "Ġwell</w>": 909,
      "ocal</w>": 910,
      "order": 911,
      "ely</w>": 912,
      "entral</w>": 913,
      "mit": 914,
      "Ġfocal</w>": 915,
      "Ġdisplacement</w>": 916,
      "eal</w>": 917,
      "Ġlin": 918,
      "Ġscoliosis</w>": 919,
      "Ġscap": 920,
      "Ġinfec": 921,
      "Ġsw": 922,
      "Ġintra": 923,
      "Ġscapular</w>": 924,
      "Ġcollec": 925,
      "Ġtub": 926,
      "Ġtracheobronchial</w>": 927,
      "Ġinfections</w>": 928,
      "athe": 929,
      "Ġshun": 930,
      "esophag": 931,
      "gment</w>": 932,
      "Ġcathe": 933,
      "Ġshunts</w>": 934,
      "orders</w>": 935,
      "Ġlines</w>": 936,
      "Ġclavicular</w>": 937,
      "Ġsegment</w>": 938,
      "ulmonic</w>": 939,
      "Ġcentral</w>": 940,
      "atal</w>": 941,
      "Ġhematomas</w>": 942,
      "Ġwid": 943,
      "Ġsubp": 944,
      "Ġsternoclavicular</w>": 945,
      "Ġloculat": 946,
      "Ġloculated</w>": 947,
      "Ġhiatal</w>": 948,
      "terial</w>": 949,
      "Ġcollections</w>": 950,
      "upt": 951,
      "Ġrupt": 952,
      "Ġmaterial</w>": 953,
      "Ġsubpulmonic</w>": 954,
      "Ġrupture</w>": 955,
      "Ġlik": 956,
      "irated</w>": 957,
      "Ġaspirated</w>": 958,
      "Ġlikely</w>": 959,
      "Ġlipomas</w>": 960,
      "are</w>": 961,
      "iary</w>": 962,
      "ened</w>": 963,
      "Ġmiliary</w>": 964,
      "Ġcatheter</w>": 965,
      "Ġcan</w>": 966,
      "ĠK": 967,
      "ĠB</w>": 968,
      "Ġthymic</w>": 969,
      "ley</w>": 970,
      "erley</w>": 971,
      "ĠKerley</w>": 972,
      "oman</w>": 973,
      "Ġwoman</w>": 974,
      "fined</w>": 975,
      "Ġborders</w>": 976,
      "aling</w>": 977,
      "rg": 978,
      "hin</w>": 979,
      "alci": 980,
      "defined</w>": 981,
      "Ġwithin</w>": 982,
      "esophageal</w>": 983,
      "ical</w>": 984,
      "Ġwidened</w>": 985,
      "rap": 986,
      "ĠWhat</w>": 987,
      "Ġhernias</w>": 988,
      "inf": 989,
      "ĠH": 990,
      "one</w>": 991,
      "Ġvolume</w>": 992,
      "cer</w>": 993,
      "Ġdevi": 994,
      "Ġintram": 995,
      "Ġdeviation</w>": 996,
      "Ġintramural</w>": 997,
      "sible</w>": 998,
      "Ġjoints</w>": 999,
      "Ġthymoma</w>": 1000,
      "Ġfiel": 1001,
      "lan": 1002,
      "ffer": 1003,
      "fferen": 1004,
      "Ġfields</w>": 1005,
      "Ġcallu": 1006,
      "Ġcallus</w>": 1007,
      "Ġlimit": 1008,
      "ioclavicular</w>": 1009,
      "Ġhealing</w>": 1010,
      "romioclavicular</w>": 1011,
      "fferential</w>": 1012,
      "Ġcancer</w>": 1013,
      "ograp": 1014,
      "Ġhyperinf": 1015,
      "Ġacromioclavicular</w>": 1016,
      "paration</w>": 1017,
      "Ġseparation</w>": 1018,
      "Ġseen</w>": 1019,
      "elling</w>": 1020,
      "Ġdevic": 1021,
      "Ġ(</w>": 1022,
      "istory</w>": 1023,
      "Ġvenous</w>": 1024,
      "Ġradiograp": 1025,
      "Ġpresen": 1026,
      "Ġsurg": 1027,
      "Ġswelling</w>": 1028,
      "Ġelect": 1029,
      "Ġtubes</w>": 1030,
      "Ġmost</w>": 1031,
      "Ġlimits</w>": 1032,
      "fication</w>": 1033,
      "Ġradiograph</w>": 1034,
      "ĠN": 1035,
      "Ġdevices</w>": 1036,
      "Ġhyperinflation</w>": 1037,
      "Ġelectronic</w>": 1038,
      "arc": 1039,
      "calci": 1040,
      "calcification</w>": 1041,
      "PD</w>": 1042,
      "Ġbronchial</w>": 1043,
      "hang": 1044,
      "Ġthat</w>": 1045,
      "ĠLung</w>": 1046,
      "gen": 1047,
      "ved</w>": 1048,
      "mo": 1049,
      "od": 1050,
      "ery</w>": 1051,
      "Ġsurgery</w>": 1052,
      "term": 1053,
      "Ġinc": 1054,
      "Ġdeterm": 1055,
      "Ġvi": 1056,
      "Ġnodule</w>": 1057,
      "Ġtrachea</w>": 1058,
      "med</w>": 1059,
      "50</w>": 1060,
      "Ġobserved</w>": 1061,
      "dom": 1062,
      "ali": 1063,
      "Ġconfirmed</w>": 1064,
      "ded</w>": 1065,
      "po": 1066,
      "Ġwh": 1067,
      "Ġpreoperative</w>": 1068,
      "ora": 1069,
      "Ġcont": 1070,
      "hanges</w>": 1071,
      "Ġchanges</w>": 1072,
      "us": 1073,
      "de</w>": 1074,
      "30</w>": 1075,
      "us</w>": 1076,
      "Ġthora": 1077,
      "enc": 1078,
      "peri": 1079,
      "Ġdifferential</w>": 1080,
      "ĠB": 1081,
      "tery</w>": 1082,
      "Ġartery</w>": 1083,
      "ack</w>": 1084,
      "History</w>": 1085,
      "ĠS": 1086,
      "Ġun": 1087,
      "Ġesophageal</w>": 1088,
      "Ġal": 1089,
      "su": 1090,
      "Ġnote</w>": 1091,
      "oned</w>": 1092,
      "lin": 1093,
      "ate</w>": 1094,
      "ette</w>": 1095,
      "hou": 1096,
      "lhou": 1097,
      "Ġsilhou": 1098,
      "Ġboth</w>": 1099,
      "Ġdetermined</w>": 1100,
      "linical</w>": 1101,
      "splan": 1102,
      "Ġ50</w>": 1103,
      "rong</w>": 1104,
      "Ġwrong</w>": 1105,
      "Ġnotable</w>": 1106,
      "cic</w>": 1107,
      "splant</w>": 1108,
      "Ġmenti": 1109,
      "Ġmentioned</w>": 1110,
      "reoperative</w>": 1111,
      "Ġ65</w>": 1112,
      "Ġspine</w>": 1113,
      "yn": 1114,
      "hronic</w>": 1115,
      "Ġtran": 1116,
      "mok": 1117,
      "in</w>": 1118,
      "Ġsilhouette</w>": 1119,
      "ĠM": 1120,
      "ympt": 1121,
      "Ġit</w>": 1122,
      "ak": 1123,
      "Ġsen": 1124,
      "Ġwee": 1125,
      "Ġtransplant</w>": 1126,
      "ysis</w>": 1127,
      "inal</w>": 1128,
      "Ġu": 1129,
      "ing": 1130,
      "ks</w>": 1131,
      "omali": 1132,
      "Ġanomali": 1133,
      "Ġanomalies</w>": 1134,
      "Preoperative</w>": 1135,
      "Ġexperi": 1136,
      "Ġexperienc": 1137,
      "Ġthoracic</w>": 1138,
      "ute</w>": 1139,
      "cop": 1140,
      "Ġexperiencing</w>": 1141,
      "eart</w>": 1142,
      "Ġweeks</w>": 1143,
      "Ġk": 1144,
      "id</w>": 1145,
      "Ġtes": 1146,
      "akness</w>": 1147,
      "ats</w>": 1148,
      "diaphragmatic</w>": 1149,
      "Ġvisible</w>": 1150,
      "preoperative</w>": 1151,
      "Ġsense</w>": 1152,
      "ated</w>": 1153,
      "Ġinclu": 1154,
      "oron": 1155,
      "yncop": 1156,
      "oronary</w>": 1157,
      "lung</w>": 1158,
      "Ġback</w>": 1159,
      "act</w>": 1160,
      "hee": 1161,
      "dominal</w>": 1162,
      "wer</w>": 1163,
      "Ġpresenting</w>": 1164,
      "ĠE": 1165,
      "Ġint": 1166,
      "hy": 1167,
      "hy</w>": 1168,
      "ss</w>": 1169,
      "omediastinal</w>": 1170,
      "Ġchronic</w>": 1171,
      "hing</w>": 1172,
      "ty</w>": 1173,
      "generative</w>": 1174,
      "Ġlower</w>": 1175,
      "Ġ-</w>": 1176,
      "Ġsmok": 1177,
      "ĠAb": 1178,
      "Ġacute</w>": 1179,
      "Ġcoronary</w>": 1180,
      "ĠHeart</w>": 1181,
      "Ġfind</w>": 1182,
      "ymptom": 1183,
      "Ġx": 1184,
      "omit": 1185,
      "omiting</w>": 1186,
      "Ġsee</w>": 1187,
      "Ġ25</w>": 1188,
      "up</w>": 1189,
      "all</w>": 1190,
      "Ġmar": 1191,
      "Ġintact</w>": 1192,
      "Ġsign</w>": 1193,
      "Ġobserve</w>": 1194,
      "Ġxray</w>": 1195,
      "Ġhem": 1196,
      "ymptoms</w>": 1197,
      "ĠBoth</w>": 1198,
      "sence</w>": 1199,
      "Ġsuggest": 1200,
      "col": 1201,
      "collapse</w>": 1202,
      "led</w>": 1203,
      "rom</w>": 1204,
      "Ġfrom</w>": 1205,
      "Ġrep": 1206,
      "ony</w>": 1207,
      "yncope</w>": 1208,
      "ect": 1209,
      "Ġvascul": 1210,
      "ĠAbsence</w>": 1211,
      "shortness</w>": 1212,
      "Ġpre": 1213,
      "Ġbone</w>": 1214,
      "sided</w>": 1215,
      "eft</w>": 1216,
      "Ġdegenerative</w>": 1217,
      "ay": 1218,
      "ays</w>": 1219,
      "Ġon": 1220,
      "Ġwhats</w>": 1221,
      "ggesting</w>": 1222,
      "suggesting</w>": 1223,
      "Ġcardiomediastinal</w>": 1224,
      "Ġdet": 1225,
      "Ġdetai": 1226,
      "omy</w>": 1227,
      "Ġdetailed</w>": 1228,
      "Ġpa": 1229,
      "ive</w>": 1230,
      "sitive</w>": 1231,
      "inglung</w>": 1232,
      "Ġsuggestinglung</w>": 1233,
      "atus</w>": 1234,
      "pl": 1235,
      "li": 1236,
      "Ġtest</w>": 1237,
      "ab": 1238,
      "pper</w>": 1239,
      "ssible</w>": 1240,
      "Ġbony</w>": 1241,
      "ĠChest</w>": 1242,
      "Ġad": 1243,
      "ĠCardi": 1244,
      "Ġpresents</w>": 1245,
      "Ġlob": 1246,
      "Ġdays</w>": 1247,
      "ver</w>": 1248,
      "ĠEx": 1249,
      "denti": 1250,
      "Ġidenti": 1251,
      "ast</w>": 1252,
      "Ġidentified</w>": 1253,
      "uri": 1254,
      "hma</w>": 1255,
      "Hy": 1256,
      "Ġsymptoms</w>": 1257,
      "Ġinformation</w>": 1258,
      "OPD</w>": 1259,
      "pox": 1260,
      "our": 1261,
      "Ġdo": 1262,
      "ver": 1263,
      "Ġalone</w>": 1264,
      "icle</w>": 1265,
      "sthma</w>": 1266,
      "Ġvomiting</w>": 1267,
      "Ġdef": 1268,
      "low</w>": 1269,
      "arcin": 1270,
      "ilat": 1271,
      "wn</w>": 1272,
      "Ġpro": 1273,
      "plain</w>": 1274,
      "ĠExplain</w>": 1275,
      "opat": 1276,
      "zing</w>": 1277,
      "eral</w>": 1278,
      "reased</w>": 1279,
      "eh": 1280,
      "ehicle</w>": 1281,
      "Ġupper</w>": 1282,
      "Ġcomp": 1283,
      "sse": 1284,
      "Ġinclude</w>": 1285,
      "ours</w>": 1286,
      "our</w>": 1287,
      "Ġ3</w>": 1288,
      "sseous</w>": 1289,
      "eg": 1290,
      "poxia</w>": 1291,
      "ĠDi": 1292,
      "ĠNot": 1293,
      "heezing</w>": 1294,
      "Ġclinical</w>": 1295,
      "aphragm</w>": 1296,
      "Ġsmoking</w>": 1297,
      "Ġarm</w>": 1298,
      "ib": 1299,
      "ula</w>": 1300,
      "Ġstable</w>": 1301,
      "Ġim": 1302,
      "mar": 1303,
      "row</w>": 1304,
      "Ġmarrow</w>": 1305,
      "Fe": 1306,
      "Ġcontour</w>": 1307,
      "aus": 1308,
      "mark": 1309,
      "remark": 1310,
      "ention</w>": 1311,
      "Ġwall</w>": 1312,
      "COPD</w>": 1313,
      "city</w>": 1314,
      "remarkable</w>": 1315,
      "Ġcarcin": 1316,
      "nown</w>": 1317,
      "lain": 1318,
      "cid": 1319,
      "Ġopacity</w>": 1320,
      "Ġunremarkable</w>": 1321,
      "Ġlobe</w>": 1322,
      "Ġmild</w>": 1323,
      "Ġcontours</w>": 1324,
      "Female</w>": 1325,
      "Ġloss</w>": 1326,
      "ĠNotable</w>": 1327,
      "oductive</w>": 1328,
      "Ġat": 1329,
      "Ġappear</w>": 1330,
      "ric": 1331,
      "eci": 1332,
      "lar</w>": 1333,
      "ding</w>": 1334,
      "10</w>": 1335,
      "Ġbilat": 1336,
      "ea</w>": 1337,
      "ausea</w>": 1338,
      "Ġco": 1339,
      "opathy</w>": 1340,
      "ior</w>": 1341,
      "Ġweakness</w>": 1342,
      "Ġmot": 1343,
      "Ġprevi": 1344,
      "ative</w>": 1345,
      "Ġdoes</w>": 1346,
      "min": 1347,
      "Ġmention</w>": 1348,
      "rial</w>": 1349,
      "ffic": 1350,
      "Ġpossible</w>": 1351,
      "Ġvehicle</w>": 1352,
      "Ġvent": 1353,
      "Ġarch</w>": 1354,
      "yg": 1355,
      "Ġstatus</w>": 1356,
      "Ġone</w>": 1357,
      "fter</w>": 1358,
      "ating</w>": 1359,
      "valu": 1360,
      "Ġafter</w>": 1361,
      "ollow</w>": 1362,
      "Ġinj": 1363,
      "ste": 1364,
      "xyg": 1365,
      "xygen</w>": 1366,
      "cident</w>": 1367,
      "ricular</w>": 1368,
      "gue</w>": 1369,
      "45</w>": 1370,
      "Ġeffusions</w>": 1371,
      "Ġprevious</w>": 1372,
      "fficul": 1373,
      "Ġwor": 1374,
      "Ġoste": 1375,
      "PPD</w>": 1376,
      "ta</w>": 1377,
      "fficulty</w>": 1378,
      "Ġoxygen</w>": 1379,
      "Ġaccident</w>": 1380,
      "Ġpara": 1381,
      "tysis</w>": 1382,
      "optysis</w>": 1383,
      "ury</w>": 1384,
      "Ġaorta</w>": 1385,
      "Ġventricular</w>": 1386,
      "ital</w>": 1387,
      "Ġmyo": 1388,
      "genital</w>": 1389,
      "Ġcongenital</w>": 1390,
      "Ġcer": 1391,
      "Left</w>": 1392,
      "cardi": 1393,
      "Ġinjury</w>": 1394,
      "atigue</w>": 1395,
      "ĠPr": 1396,
      "ĠCardiac</w>": 1397,
      "Ġabnormality</w>": 1398,
      "Ġcomplain": 1399,
      "Ġhas</w>": 1400,
      "Ġatrial</w>": 1401,
      "ad": 1402,
      "Ġasthma</w>": 1403,
      "les</w>": 1404,
      "Ġ1</w>": 1405,
      "ein</w>": 1406,
      "Ġits</w>": 1407,
      "lysis</w>": 1408,
      "Ġpost</w>": 1409,
      "Ġparalysis</w>": 1410,
      "Ġlar": 1411,
      "air</w>": 1412,
      "rache": 1413,
      "Ġabdominal</w>": 1414,
      "Ġdiaphragm</w>": 1415,
      "valuate</w>": 1416,
      "positive</w>": 1417,
      "Ġmal": 1418,
      "ĠProblems</w>": 1419,
      "ĠTrache": 1420,
      "asi": 1421,
      "Ġmon": 1422,
      "Ġlow</w>": 1423,
      "idosis</w>": 1424,
      "size</w>": 1425,
      "umb": 1426,
      "arity</w>": 1427,
      "nee</w>": 1428,
      "Ġwheezing</w>": 1429,
      "ental</w>": 1430,
      "idne": 1431,
      "Ġprot": 1432,
      "roat</w>": 1433,
      "idney</w>": 1434,
      "uction</w>": 1435,
      "Ġlarge</w>": 1436,
      "oid</w>": 1437,
      "atic</w>": 1438,
      "se": 1439,
      "ĠR": 1440,
      "ecent</w>": 1441,
      "iness</w>": 1442,
      "ziness</w>": 1443,
      "Ġpuri": 1444,
      "eriv": 1445,
      "Ġderiv": 1446,
      "Ġprotein</w>": 1447,
      "Ġpurified</w>": 1448,
      "Ġderivative</w>": 1449,
      "ĠTrachea</w>": 1450,
      "zziness</w>": 1451,
      "ĠDifferential</w>": 1452,
      "Ġbreathing</w>": 1453,
      "omeg": 1454,
      "aly</w>": 1455,
      "omegaly</w>": 1456,
      "Ġinfection</w>": 1457,
      "Ġvascularity</w>": 1458,
      "ric</w>": 1459,
      "Ġpositive</w>": 1460,
      "Ġimmage</w>": 1461,
      "zed</w>": 1462,
      "ut": 1463,
      "asal</w>": 1464,
      "Ġsten": 1465,
      "Ġcarcinoma</w>": 1466,
      "esp": 1467,
      "Ġmyocardi": 1468,
      "ĠG": 1469,
      "eakness</w>": 1470,
      "Ġbreast</w>": 1471,
      "Po": 1472,
      "ort</w>": 1473,
      "esc": 1474,
      "Ġ2</w>": 1475,
      "The</w>": 1476,
      "enic</w>": 1477,
      "Ġnasal</w>": 1478,
      "Ġmotor</w>": 1479,
      "Ġrepair</w>": 1480,
      "ĠHistory</w>": 1481,
      "age</w>": 1482,
      "ay</w>": 1483,
      "Ġexa": 1484,
      "Ġspeci": 1485,
      "Ġfist": 1486,
      "vid": 1487,
      "omat": 1488,
      "ster": 1489,
      "cal</w>": 1490,
      "Ġincreased</w>": 1491,
      "Ġknee</w>": 1492,
      "Ġ,</w>": 1493,
      "Ġreg": 1494,
      "pan": 1495,
      "th</w>": 1496,
      "Ġag": 1497,
      "ule</w>": 1498,
      "There</w>": 1499,
      "ot</w>": 1500,
      "oun": 1501,
      "umbness</w>": 1502,
      "ve": 1503,
      "Ġnumbness</w>": 1504,
      "Ġosseous</w>": 1505,
      "Ġfollow</w>": 1506,
      "20</w>": 1507,
      "70</w>": 1508,
      "sc": 1509,
      "ow</w>": 1510,
      "Ġreport</w>": 1511,
      "ĠGive</w>": 1512,
      "escri": 1513,
      "Ġ[</w>": 1514,
      "vical</w>": 1515,
      "plan": 1516,
      "Ġgive</w>": 1517,
      "Ġexplan": 1518,
      "Ġexplanation</w>": 1519,
      "Evaluate</w>": 1520,
      "Ġproductive</w>": 1521,
      "Ġdilation</w>": 1522,
      "?<</w>": 1523,
      "tered</w>": 1524,
      "Ġcardiomegaly</w>": 1525,
      "sity</w>": 1526,
      "Ġprovid": 1527,
      "escrib": 1528,
      "Ġfever</w>": 1529,
      "Ġbronc": 1530,
      "ticul": 1531,
      "Ġstenosis</w>": 1532,
      "yp": 1533,
      "ache</w>": 1534,
      "mination</w>": 1535,
      "Ġcervical</w>": 1536,
      "set</w>": 1537,
      "is": 1538,
      "pertension</w>": 1539,
      "arr": 1540,
      "itis</w>": 1541,
      "Ġ10</w>": 1542,
      "mb": 1543,
      "dy</w>": 1544,
      "Ġdiver": 1545,
      "Ġmental</w>": 1546,
      "Ġdiverticul": 1547,
      "Ġ70</w>": 1548,
      "'s</w>": 1549,
      "oidosis</w>": 1550,
      "arcoidosis</w>": 1551,
      "homa</w>": 1552,
      "ound</w>": 1553,
      "ĠLungs</w>": 1554,
      "Ġep": 1555,
      "Ġelev": 1556,
      "Ġfistula</w>": 1557,
      "ĊĊ</w>": 1558,
      "ĠNormal</w>": 1559,
      "Syncope</w>": 1560,
      "Ġradiating</w>": 1561,
      "Ġexamination</w>": 1562,
      "ĠPPD</w>": 1563,
      "Ġwho</w>": 1564,
      "known</w>": 1565,
      "ĠI</w>": 1566,
      "pain</w>": 1567,
      "Ġye": 1568,
      "Ġyears</w>": 1569,
      "Ġat</w>": 1570,
      "Ġme</w>": 1571,
      "ĠDescrib": 1572,
      "ĠDescribe</w>": 1573,
      "Ġosteop": 1574,
      "Ġtissu": 1575,
      "alized</w>": 1576,
      "Ġinfiltrate</w>": 1577,
      "strib": 1578,
      "stribu": 1579,
      "kup</w>": 1580,
      "Ġarr": 1581,
      "Ġworkup</w>": 1582,
      "Ġwas</w>": 1583,
      "sualized</w>": 1584,
      "Hypoxia</w>": 1585,
      "adache</w>": 1586,
      "Ġhemi": 1587,
      "Ġresp": 1588,
      "ĠNot</w>": 1589,
      "panded</w>": 1590,
      "Ġhemidi": 1591,
      "hr": 1592,
      "hrenic</w>": 1593,
      "Ġsyncope</w>": 1594,
      "Di": 1595,
      "history</w>": 1596,
      "Ġyear</w>": 1597,
      "ced</w>": 1598,
      "Ġobstruction</w>": 1599,
      "ond": 1600,
      "Hypertension</w>": 1601,
      "ep": 1602,
      "urg": 1603,
      "Ġvolumes</w>": 1604,
      "onal</w>": 1605,
      "ale</w>": 1606,
      "ild</w>": 1607,
      "os": 1608,
      "Ġevaluate</w>": 1609,
      "Age</w>": 1610,
      "Ġago</w>": 1611,
      "av": 1612,
      "ima": 1613,
      "rac": 1614,
      "hys": 1615,
      "Ġplacement</w>": 1616,
      "hyse": 1617,
      "Ġbroncho": 1618,
      "Ġhemang": 1619,
      "Ġhemangi": 1620,
      "lly</w>": 1621,
      "Ġdifficulty</w>": 1622,
      "ls</w>": 1623,
      "hil": 1624,
      "Ġmus": 1625,
      "mma": 1626,
      "lamma": 1627,
      "urr": 1628,
      "22</w>": 1629,
      "Ġrecent</w>": 1630,
      "Ġinflamma": 1631,
      "sure</w>": 1632,
      "Ġdiverticula</w>": 1633,
      "ectomy</w>": 1634,
      "ari": 1635,
      "ĠFemale</w>": 1636,
      "ight": 1637,
      "hem": 1638,
      "thm": 1639,
      "hythm": 1640,
      "Ġarrhythm": 1641,
      "ĠO": 1642,
      "Ġthroat</w>": 1643,
      "Ġ45</w>": 1644,
      "Ġarrhythmias</w>": 1645,
      "Ab": 1646,
      "02</w>": 1647,
      "ld</w>": 1648,
      "Ġass": 1649,
      "ĠLeft</w>": 1650,
      "kin</w>": 1651,
      "Rib</w>": 1652,
      "ant</w>": 1653,
      "Ġruled</w>": 1654,
      "Ġcondi": 1655,
      "Ġvisualized</w>": 1656,
      "isod": 1657,
      "Ġepisod": 1658,
      "hills</w>": 1659,
      "ortu": 1660,
      "Ġold</w>": 1661,
      "enal</w>": 1662,
      "ardia</w>": 1663,
      "Ġprior</w>": 1664,
      "Ġweight</w>": 1665,
      "Ġbilateral</w>": 1666,
      "Ġbe": 1667,
      "Ġbase</w>": 1668,
      "stribution</w>": 1669,
      "Un": 1670,
      "iratory</w>": 1671,
      "enopathy</w>": 1672,
      "Ġgranulomat": 1673,
      "Ġbronchitis</w>": 1674,
      "Ġmyocardial</w>": 1675,
      "ted</w>": 1676,
      "Ġemphyse": 1677,
      "Ġrespiratory</w>": 1678,
      "Ġmusc": 1679,
      "acc": 1680,
      "ates</w>": 1681,
      "ects</w>": 1682,
      "yoma</w>": 1683,
      "ĠPulmonary</w>": 1684,
      "ign": 1685,
      "]-</w>": 1686,
      "Ġel": 1687,
      "erally</w>": 1688,
      "Ġconditions</w>": 1689,
      "od</w>": 1690,
      "arring</w>": 1691,
      "Tuberculosis</w>": 1692,
      "Ġcell</w>": 1693,
      "itral</w>": 1694,
      "mall</w>": 1695,
      "Ġlesion</w>": 1696,
      "xoma</w>": 1697,
      "yxoma</w>": 1698,
      "Ġmitral</w>": 1699,
      "Ġmyxoma</w>": 1700,
      "Ġinfarc": 1701,
      "Ġemb": 1702,
      "Ġemboli": 1703,
      "Ġbilaterally</w>": 1704,
      "tures</w>": 1705,
      "back</w>": 1706,
      "kidney</w>": 1707,
      "Ġ5</w>": 1708,
      "hysi": 1709,
      "Ġhemoptysis</w>": 1710,
      ").<</w>": 1711,
      "sm</w>": 1712,
      "Ġage</w>": 1713,
      "ulti": 1714,
      "Ġembolism</w>": 1715,
      "Ġelb": 1716,
      "fic</w>": 1717,
      "Ġdefects</w>": 1718,
      "Fatigue</w>": 1719,
      "hysical</w>": 1720,
      "Ġover</w>": 1721,
      "side</w>": 1722,
      "ov": 1723,
      "Al": 1724,
      "ffuse</w>": 1725,
      "lated</w>": 1726,
      "rosc": 1727,
      "Ġbari": 1728,
      "atric</w>": 1729,
      "Ġinflammation</w>": 1730,
      "Ġbariatric</w>": 1731,
      "Ġscarring</w>": 1732,
      "ill": 1733,
      "tr": 1734,
      "Ġcav": 1735,
      "orr": 1736,
      "Ġmedi": 1737,
      "Ġfound</w>": 1738,
      "ctomy</w>": 1739,
      "mity</w>": 1740,
      "Ġspa": 1741,
      "asilar</w>": 1742,
      "Ġenlarged</w>": 1743,
      "Ġpat": 1744,
      "ictures</w>": 1745,
      "Ġdiffuse</w>": 1746,
      "Ġstrictures</w>": 1747,
      "Ġelbow</w>": 1748,
      "om</w>": 1749,
      "Ġ20</w>": 1750,
      "Ġhypoxia</w>": 1751,
      "arcoma</w>": 1752,
      "Ġchee": 1753,
      "Ġcheek</w>": 1754,
      "Ġknown</w>": 1755,
      "Ġdetermine</w>": 1756,
      "cture</w>": 1757,
      "Dyspnea</w>": 1758,
      "Nausea</w>": 1759,
      "Ġnausea</w>": 1760,
      "Ġpai</w>": 1761,
      "ths</w>": 1762,
      "Ġmonths</w>": 1763,
      "obacc": 1764,
      "obacco</w>": 1765,
      "esticular</w>": 1766,
      "itation</w>": 1767,
      "igns</w>": 1768,
      "ĠSigns</w>": 1769,
      "),</w>": 1770,
      "Ġover": 1771,
      "Ġlymphang": 1772,
      "Ġlymphangi": 1773,
      "Ġus": 1774,
      "Ġsept": 1775,
      "Ġseptal</w>": 1776,
      "sterior</w>": 1777,
      "Ġphysical</w>": 1778,
      "Ġnose</w>": 1779,
      "Ġreplacement</w>": 1780,
      "clinical</w>": 1781,
      "Ġfracture</w>": 1782,
      "ĠSi": 1783,
      "Ġemphysema</w>": 1784,
      "Ġinfarction</w>": 1785,
      "tional</w>": 1786,
      "ally</w>": 1787,
      "Ġsmoker</w>": 1788,
      "In": 1789,
      "Ġmalf": 1790,
      "ĠX</w>": 1791,
      "ĠPatient</w>": 1792,
      "weakness</w>": 1793,
      "sia</w>": 1794,
      "ces</w>": 1795,
      "ex": 1796,
      "Ġdizziness</w>": 1797,
      "neumonia</w>": 1798,
      "Sympt": 1799,
      "arct": 1800,
      "Symptom</w>": 1801,
      "Ġrenal</w>": 1802,
      "Ġuse</w>": 1803,
      "ear</w>": 1804,
      "Ġsmall</w>": 1805,
      "Ġden": 1806,
      "rosis</w>": 1807,
      "Ġtobacco</w>": 1808,
      "Ġsin": 1809,
      "Ġperi": 1810,
      "hemoptysis</w>": 1811,
      "roscle": 1812,
      "els</w>": 1813,
      "ite</w>": 1814,
      "Ġsarcoidosis</w>": 1815,
      "had": 1816,
      "Ġgranulomatous</w>": 1817,
      "pro": 1818,
      "domen</w>": 1819,
      "Ġtortu": 1820,
      "lee": 1821,
      "aphragms</w>": 1822,
      "theroscle": 1823,
      "ir": 1824,
      "nula</w>": 1825,
      "Ġfall</w>": 1826,
      "olap": 1827,
      "Ġinside</w>": 1828,
      "Ġprolap": 1829,
      "Ġcannula</w>": 1830,
      "ach": 1831,
      "Ġmuscles</w>": 1832,
      "Ġusing</w>": 1833,
      "Ġprolapse</w>": 1834,
      "ple</w>": 1835,
      "Ġ30</w>": 1836,
      "state</w>": 1837,
      "Ġmark": 1838,
      "Ġelevated</w>": 1839,
      "55</w>": 1840,
      "Ġheadache</w>": 1841,
      "Ġpresence</w>": 1842,
      "00</w>": 1843,
      "aul": 1844,
      "osseous</w>": 1845,
      "Ġarteri": 1846,
      "ĠSize</w>": 1847,
      "ws</w>": 1848,
      "Ġspecific</w>": 1849,
      "Abdominal</w>": 1850,
      "mat": 1851,
      "Ġlymphoma</w>": 1852,
      "esosseous</w>": 1853,
      "Ġabdomen</w>": 1854,
      "ging</w>": 1855,
      "Ġnec": 1856,
      "des</w>": 1857,
      "Ġfatigue</w>": 1858,
      "ide": 1859,
      "Ġcha": 1860,
      "Ġchills</w>": 1861,
      "Ġfibro": 1862,
      "Ġtod": 1863,
      "Ġnon": 1864,
      "idectomy</w>": 1865,
      "Ġtoday</w>": 1866,
      "Ġsuperi": 1867,
      "Ġcost": 1868,
      "imal</w>": 1869,
      "Ġhilar</w>": 1870,
      "Ġvena</w>": 1871,
      "Ġcava</w>": 1872,
      "table</w>": 1873,
      "usion</w>": 1874,
      "aci": 1875,
      "Ġindic": 1876,
      "enous</w>": 1877,
      "Ġan</w>": 1878,
      "Ġremo": 1879,
      "Ġprovided</w>": 1880,
      "Ġpersistent</w>": 1881,
      "Ġregurg": 1882,
      "Ġregurgitation</w>": 1883,
      "iom": 1884,
      "sening</w>": 1885,
      "Ġleiom": 1886,
      "achyc": 1887,
      "Ġhemangiomas</w>": 1888,
      "ex</w>": 1889,
      "Ġapex</w>": 1890,
      "Ġtracheo": 1891,
      "Ġhemorr": 1892,
      "ĠUn": 1893,
      "Ġtight": 1894,
      "Ġtightness</w>": 1895,
      "35</w>": 1896,
      "nset</w>": 1897,
      "Ġassaul": 1898,
      "Ġlab": 1899,
      "Ġtumor</w>": 1900,
      "iration</w>": 1901,
      "Ġside</w>": 1902,
      "orat": 1903,
      "ultiple</w>": 1904,
      "Ġlaborat": 1905,
      "Ġlaboratory</w>": 1906,
      "creased</w>": 1907,
      "ateral</w>": 1908,
      "Ġstu": 1909,
      "unds</w>": 1910,
      "abdominal</w>": 1911,
      "kles</w>": 1912,
      "Ġcrac": 1913,
      "ditional</w>": 1914,
      "Ġcrackles</w>": 1915,
      "wo</w>": 1916,
      "elan": 1917,
      "ĠCan": 1918,
      "elanoma</w>": 1919,
      "Ġincludes</w>": 1920,
      "Ġlev": 1921,
      "Ġmetastatic</w>": 1922,
      "Ġnd</w>": 1923,
      "Ġshows</w>": 1924,
      "ĠMild</w>": 1925,
      "hadenopathy</w>": 1926,
      "Ġstates</w>": 1927,
      "Ġtissues</w>": 1928,
      "Ġlateral</w>": 1929,
      "Ġqu": 1930,
      "elast": 1931,
      "Ġfibroelast": 1932,
      "mia</w>": 1933,
      "productive</w>": 1934,
      "inimal</w>": 1935,
      "Ġbronchoesophageal</w>": 1936,
      "Ġtracheoesophageal</w>": 1937,
      "ps</w>": 1938,
      "Ġmay</w>": 1939,
      "Onset</w>": 1940,
      "uration</w>": 1941,
      "Ġsuperior</w>": 1942,
      "Ġtube</w>": 1943,
      "cre": 1944,
      "eats</w>": 1945,
      "tre": 1946,
      "Ġthree</w>": 1947,
      "ertion</w>": 1948,
      "Ġmonth</w>": 1949,
      "Ġlymphangioma</w>": 1950,
      "phe": 1951,
      "ĠClinical</w>": 1952,
      "Ġthyro": 1953,
      "Ġblo": 1954,
      "unknown</w>": 1955,
      "Ġposterior</w>": 1956,
      "Ġblood</w>": 1957,
      "Ġmalign": 1958,
      "Ġexertion</w>": 1959,
      "Ġvasculopathy</w>": 1960,
      "Ġvasculitis</w>": 1961,
      "aran": 1962,
      "smok": 1963,
      "arance</w>": 1964,
      "ĠShortness</w>": 1965,
      "Ġare": 1966,
      "hesions</w>": 1967,
      "alp": 1968,
      "Ġadhesions</w>": 1969,
      "utum</w>": 1970,
      ",<</w>": 1971,
      "Ġappearance</w>": 1972,
      "Ġcomplaints</w>": 1973,
      "Ġmalformation</w>": 1974,
      "Ġbeen</w>": 1975,
      "Ġmotion</w>": 1976,
      "Positive</w>": 1977,
      "ovenous</w>": 1978,
      "Ġarteriovenous</w>": 1979,
      "Ġmalignan": 1980,
      "Ġhip</w>": 1981,
      "Ġcoarct": 1982,
      "Ġcoarctation</w>": 1983,
      "Ġsyn": 1984,
      "Ġtracheobronchitis</w>": 1985,
      "Ġsynd": 1986,
      "Ġmetastasis</w>": 1987,
      "Ġpost": 1988,
      "ad</w>": 1989,
      "Ġgranulomas</w>": 1990,
      "ous": 1991,
      "hal": 1992,
      "spic": 1993,
      "Ġlipoma</w>": 1994,
      "Ġatheroscle": 1995,
      "Ġunder": 1996,
      "Ġhemidiaphragms</w>": 1997,
      "achycardia</w>": 1998,
      "his</w>": 1999,
      "zation</w>": 2000,
      "rome</w>": 2001,
      "Ġsyndrome</w>": 2002,
      "erali": 2003,
      "Altered</w>": 2004,
      "Ġstudy</w>": 2005,
      "ross": 2006,
      "ode": 2007,
      "Ġnoticed</w>": 2008,
      "Ġassault</w>": 2009,
      "rossly</w>": 2010,
      "hoidectomy</w>": 2011,
      "Ġhemorrhoidectomy</w>": 2012,
      "Ġkidney</w>": 2013,
      "Ġlevels</w>": 2014,
      "ise</w>": 2015,
      "status</w>": 2016,
      "reat": 2017,
      "Ġpressure</w>": 2018,
      "Ġperiphe": 2019,
      "dly</w>": 2020,
      "ophrenic</w>": 2021,
      "Ġextre": 2022,
      "Ġbody</w>": 2023,
      "ĠRight</w>": 2024,
      "ĠCannot</w>": 2025,
      "Ġcm</w>": 2026,
      "ĠMale</w>": 2027,
      "Asthma</w>": 2028,
      "umat": 2029,
      "heumat": 2030,
      "Ġrheumat": 2031,
      "Ġrheumatoid</w>": 2032,
      "Ġgrossly</w>": 2033,
      "ystic</w>": 2034,
      "Ġmarkings</w>": 2035,
      "ibs</w>": 2036,
      "Ġadditional</w>": 2037,
      "Ġdefin": 2038,
      "Ġtwo</w>": 2039,
      "Ġribs</w>": 2040,
      "ĠLo": 2041,
      "orosis</w>": 2042,
      "Ġsince</w>": 2043,
      "Ġang": 2044,
      "ĠPo": 2045,
      "Ġaden": 2046,
      "Ġspace</w>": 2047,
      "Ġpleuri": 2048,
      "ected</w>": 2049,
      "Ġosteoporosis</w>": 2050,
      "Ġhyperex": 2051,
      "ĠStable</w>": 2052,
      "chy</w>": 2053,
      "hond": 2054,
      "rant</w>": 2055,
      "ker</w>": 2056,
      "lity</w>": 2057,
      "omin": 2058,
      "sive</w>": 2059,
      "reast</w>": 2060,
      "Chronic</w>": 2061,
      "uk": 2062,
      "spici": 2063,
      "Testicular</w>": 2064,
      "ĠMediastin": 2065,
      "am": 2066,
      "fo": 2067,
      "ortic</w>": 2068,
      "ass</w>": 2069,
      "Ġsuspici": 2070,
      "Dizziness</w>": 2071,
      "Ġchan": 2072,
      "Ġtesticular</w>": 2073,
      "ĠUnable</w>": 2074,
      "Lymp": 2075,
      "Ġcyst</w>": 2076,
      "Ġcostophrenic</w>": 2077,
      "Ġchange</w>": 2078,
      "Ġimp": 2079,
      "ĠAortic</w>": 2080,
      "Ġsounds</w>": 2081,
      "60</w>": 2082,
      "Ġpleur": 2083,
      "Ġpromin": 2084,
      "Ġsputum</w>": 2085,
      "ich</w>": 2086,
      "Ġmye": 2087,
      "Ġwhich</w>": 2088,
      "troc": 2089,
      "Ġdefinite</w>": 2090,
      "Breast</w>": 2091,
      "lat": 2092,
      "Ġbr": 2093,
      "low": 2094,
      "Ġdex": 2095,
      "tes</w>": 2096,
      "ĠĊĊ</w>": 2097,
      "Ġmid</w>": 2098,
      "Ġsuggest</w>": 2099,
      "Ġmyel": 2100,
      "ning</w>": 2101,
      "Ġend": 2102,
      "ĠPain</w>": 2103,
      "ĠN</w>": 2104,
      "lely</w>": 2105,
      "Ġsolely</w>": 2106,
      "Ġprovide</w>": 2107,
      "art": 2108,
      "Ġflu": 2109,
      "illary</w>": 2110,
      "Ġner": 2111,
      "othe": 2112,
      "Ġmildly</w>": 2113,
      "Ġnerve</w>": 2114,
      "Ġer": 2115,
      "Ġcalcification</w>": 2116,
      "Ġlymphadenopathy</w>": 2117,
      "Ġdefor": 2118,
      "Rule</w>": 2119,
      "omal": 2120,
      "acia</w>": 2121,
      "Ġthyroid</w>": 2122,
      "omalacia</w>": 2123,
      "lad": 2124,
      "Ġtear</w>": 2125,
      "Ġphrenic</w>": 2126,
      "Ġcho": 2127,
      "ĠCalci": 2128,
      "act": 2129,
      "ke</w>": 2130,
      "Ġminimal</w>": 2131,
      "dul": 2132,
      "ytic</w>": 2133,
      "Ġrepres": 2134,
      "Ġthorax</w>": 2135,
      "Ġonset</w>": 2136,
      "Ġleiomyoma</w>": 2137,
      "rotic</w>": 2138,
      "Ġepisode</w>": 2139,
      "Ġsche": 2140,
      "duled</w>": 2141,
      "Ġscheduled</w>": 2142,
      "val</w>": 2143,
      "asm</w>": 2144,
      "Possible</w>": 2145,
      ").</w>": 2146,
      "Ġne": 2147,
      "ascular</w>": 2148,
      "itations</w>": 2149,
      "Ġimm": 2150,
      "Right</w>": 2151,
      "nal</w>": 2152,
      "Ġpregn": 2153,
      "Ġpap": 2154,
      "uld</w>": 2155,
      "asts</w>": 2156,
      "Ġdecreased</w>": 2157,
      "Ġfibroelastoma</w>": 2158,
      "Ġpapillary</w>": 2159,
      "Ġthr": 2160,
      "alpitations</w>": 2161,
      "lision</w>": 2162,
      "Ġhemidiaphragm</w>": 2163,
      "wise</w>": 2164,
      "idging</w>": 2165,
      "ĠMo": 2166,
      "Ġepisodes</w>": 2167,
      "IV</w>": 2168,
      "rwise</w>": 2169,
      "Ġdiab": 2170,
      "Ġdemin": 2171,
      "row": 2172,
      "therwise</w>": 2173,
      "lips</w>": 2174,
      "eralization</w>": 2175,
      "Ġbridging</w>": 2176,
      "Ġmyeloma</w>": 2177,
      "Ġdemineralization</w>": 2178,
      "ĠMost</w>": 2179,
      "normal</w>": 2180,
      "sy</w>": 2181,
      "ĠF": 2182,
      "Ġredi": 2183,
      "Ġremoval</w>": 2184,
      "Ġredistribution</w>": 2185,
      "urther</w>": 2186,
      "Weakness</w>": 2187,
      "Ġout": 2188,
      "Ġbasilar</w>": 2189,
      "otal</w>": 2190,
      "Ġmyocarditis</w>": 2191,
      "Ġclips</w>": 2192,
      "Ġdistribution</w>": 2193,
      "Ġexpanded</w>": 2194,
      "Ġangle</w>": 2195,
      "Ġwing": 2196,
      "Ġbl": 2197,
      "reg": 2198,
      "tling</w>": 2199,
      "olar</w>": 2200,
      "Ġmottling</w>": 2201,
      "Ġwinging</w>": 2202,
      "fusion</w>": 2203,
      "ĠDyspnea</w>": 2204,
      "Ġtissuesosseous</w>": 2205,
      "Ġunderg": 2206,
      "ĠCalcified</w>": 2207,
      "Ġindicated</w>": 2208,
      "ans</w>": 2209,
      "rreg": 2210,
      "Ġnight</w>": 2211,
      "Ġmore</w>": 2212,
      "Ġsweats</w>": 2213,
      "Ġtortuous</w>": 2214,
      "Ġextremity</w>": 2215,
      "osity</w>": 2216,
      "Ġcystic</w>": 2217,
      "Ġbyp": 2218,
      "hic</w>": 2219,
      "Ġperipheral</w>": 2220,
      "Ġbypass</w>": 2221,
      "Ġscans</w>": 2222,
      "ypical</w>": 2223,
      "mm": 2224,
      "pat": 2225,
      "Ġ.</w>": 2226,
      "erb": 2227,
      "Ġblee": 2228,
      "cies</w>": 2229,
      "Ġpneumothoraces</w>": 2230,
      "acerb": 2231,
      "Ġero": 2232,
      "Ġbleeding</w>": 2233,
      "tite</w>": 2234,
      "Ġskin</w>": 2235,
      "Ġabo": 2236,
      "Ġshar": 2237,
      "Ġappetite</w>": 2238,
      "ching</w>": 2239,
      "Ġlytic</w>": 2240,
      "fibr": 2241,
      "Ġnotching</w>": 2242,
      "Ġerosion</w>": 2243,
      "ĠA</w>": 2244,
      "org": 2245,
      "smoker</w>": 2246,
      "Ġsharp</w>": 2247,
      "esothe": 2248,
      "Ġmesothe": 2249,
      "Ġstress</w>": 2250,
      "lioma</w>": 2251,
      "Ġmalignancies</w>": 2252,
      "Ġmesothelioma</w>": 2253,
      "Ġshi": 2254,
      "ency</w>": 2255,
      "ĠMediastinal</w>": 2256,
      "ess": 2257,
      "spected</w>": 2258,
      "ocy": 2259,
      "Ġareas</w>": 2260,
      "Ġpregnant</w>": 2261,
      "Ġ60</w>": 2262,
      "ni": 2263,
      "ying</w>": 2264,
      "Ġleuk": 2265,
      "Ġcollision</w>": 2266,
      "ondy": 2267,
      "emia</w>": 2268,
      "right</w>": 2269,
      "rate</w>": 2270,
      "losis</w>": 2271,
      "Ġspondy": 2272,
      "inning</w>": 2273,
      "Ġanes": 2274,
      "thesia</w>": 2275,
      "Ġanesthesia</w>": 2276,
      "fically</w>": 2277,
      "Lymphoma</w>": 2278,
      "Ġspondylosis</w>": 2279,
      "ele": 2280,
      "lying</w>": 2281,
      "so</w>": 2282,
      "ĠV": 2283,
      "Ġbut</w>": 2284,
      "pneumonia</w>": 2285,
      "sures</w>": 2286,
      "Ġpressures</w>": 2287,
      "28</w>": 2288,
      "uspected</w>": 2289,
      "flu": 2290,
      "Ġtotal</w>": 2291,
      "Ġalso</w>": 2292,
      "tal</w>": 2293,
      "Ġsurgical</w>": 2294,
      "Ġdensity</w>": 2295,
      "ĠLocation</w>": 2296,
      "bdom": 2297,
      "Ġtreat": 2298,
      "Ġrha": 2299,
      "ilateral</w>": 2300,
      "veolar</w>": 2301,
      "bdomyoma</w>": 2302,
      "Ġtreatment</w>": 2303,
      "Ġrhabdomyoma</w>": 2304,
      "Ġrequ": 2305,
      "cin": 2306,
      "fection</w>": 2307,
      "Ġam": 2308,
      "otomy</w>": 2309,
      "ect</w>": 2310,
      "Ġunknown</w>": 2311,
      "Ġelevation</w>": 2312,
      "Difficulty</w>": 2313,
      "cinosis</w>": 2314,
      "diopat": 2315,
      "Ġidiopat": 2316,
      "Ġfurther</w>": 2317,
      "Ġexacerb": 2318,
      "Ġprostate</w>": 2319,
      "Ġidiopathic</w>": 2320,
      "cc": 2321,
      "Ġworsening</w>": 2322,
      "tation</w>": 2323,
      "tely</w>": 2324,
      "Ġexacerbation</w>": 2325,
      "ersistent</w>": 2326,
      "horacic</w>": 2327,
      "oughing</w>": 2328,
      "Melanoma</w>": 2329,
      "stress</w>": 2330,
      "asia</w>": 2331,
      "Ġabout</w>": 2332,
      "Ġreac": 2333,
      "ently</w>": 2334,
      "Ġcarcinoid</w>": 2335,
      "oing</w>": 2336,
      "ĠCon": 2337,
      "loss</w>": 2338,
      "Ġcomplains</w>": 2339,
      "gkin</w>": 2340,
      "Ġ6</w>": 2341,
      "Ġ7</w>": 2342,
      "Ġcrow": 2343,
      "Ġsore</w>": 2344,
      "Ġtip</w>": 2345,
      "lank</w>": 2346,
      "odgkin</w>": 2347,
      "ladder</w>": 2348,
      "..<</w>": 2349,
      "Ġtachycardia</w>": 2350,
      "Ġappro": 2351,
      "Infection</w>": 2352,
      "Ġdextroc": 2353,
      "ema": 2354,
      "revi": 2355,
      "Ġgast": 2356,
      "Ġmedical</w>": 2357,
      "aring</w>": 2358,
      "yncopal</w>": 2359,
      "Ġshiel": 2360,
      "mild</w>": 2361,
      "opl": 2362,
      "ephal": 2363,
      "tosis</w>": 2364,
      "ĠNod": 2365,
      "ocytosis</w>": 2366,
      "leural</w>": 2367,
      "Ġcrowding</w>": 2368,
      "Ġneck</w>": 2369,
      "Ġas": 2370,
      "monst": 2371,
      "Ġgastro": 2372,
      "VC</w>": 2373,
      "stectomy</w>": 2374,
      "etes</w>": 2375,
      "ĠCardiomediastinal</w>": 2376,
      "vascular</w>": 2377,
      "throat</w>": 2378,
      "war": 2379,
      "arding</w>": 2380,
      "Ġregarding</w>": 2381,
      "Ġosteophy": 2382,
      "Ġcalcinosis</w>": 2383,
      "Ġhyd": 2384,
      "Ġdeformity</w>": 2385,
      "Ġimmun": 2386,
      "emaker</w>": 2387,
      "Ġ+</w>": 2388,
      "Ġenc": 2389,
      "ĠHy": 2390,
      "ward</w>": 2391,
      "sation</w>": 2392,
      "Ġnon</w>": 2393,
      "Ġblun": 2394,
      "This</w>": 2395,
      "Ġalveolar</w>": 2396,
      "Ġbronchovascular</w>": 2397,
      "Ġsuspicious</w>": 2398,
      "Ġgastroesophageal</w>": 2399,
      "tent</w>": 2400,
      "Ġfol": 2401,
      "ĠIt</w>": 2402,
      "ĠPreoperative</w>": 2403,
      "Ġcomplaining</w>": 2404,
      "Ġfollow": 2405,
      "Heart</w>": 2406,
      "omplain": 2407,
      "astric</w>": 2408,
      "Ġgra": 2409,
      "Ġmidlung</w>": 2410,
      "mittent</w>": 2411,
      "Ġhyperexpanded</w>": 2412,
      "Ġexpo": 2413,
      "Ġexposure</w>": 2414,
      "ĠIf</w>": 2415,
      "Ġline</w>": 2416,
      "iet": 2417,
      "ong</w>": 2418,
      "ator</w>": 2419,
      "Ġatherosclerotic</w>": 2420,
      "Ġimplan": 2421,
      "Ġdextrocardia</w>": 2422,
      "Ġring</w>": 2423,
      ",.<</w>": 2424,
      "Ġotherwise</w>": 2425,
      "attered</w>": 2426,
      "Ġsternotomy</w>": 2427,
      "ĠPositive</w>": 2428,
      "iz": 2429,
      "Ġocc": 2430,
      "ochond": 2431,
      "Ġreflu": 2432,
      "Ġhyp": 2433,
      "Ġreflux</w>": 2434,
      "Ġirreg": 2435,
      "Ġbrac": 2436,
      "urgical</w>": 2437,
      "Ġundergoing</w>": 2438,
      "Ġbrachi": 2439,
      "Persistent</w>": 2440,
      "Ġdist": 2441,
      "ĠHodgkin</w>": 2442,
      "Ġspecified</w>": 2443,
      "Lo": 2444,
      "Ġvar": 2445,
      "oblem</w>": 2446,
      "ancre": 2447,
      "ĠSc": 2448,
      "Ġoverlying</w>": 2449,
      "Ġcholec": 2450,
      "Loss</w>": 2451,
      "dle</w>": 2452,
      "Ġmiddle</w>": 2453,
      "ymm": 2454,
      "igastric</w>": 2455,
      "ecurr": 2456,
      "Ġrequir": 2457,
      "ymmet": 2458,
      "ĠCOPD</w>": 2459,
      "Ġleukocytosis</w>": 2460,
      "Ġgraft</w>": 2461,
      "Ġtypical</w>": 2462,
      "ents</w>": 2463,
      "placed</w>": 2464,
      "Ġvarices</w>": 2465,
      "Edema</w>": 2466,
      "Wheezing</w>": 2467,
      "tain</w>": 2468,
      "Ġmode": 2469,
      "ĠNodule</w>": 2470,
      "omatosis</w>": 2471,
      "Ġpatent</w>": 2472,
      "Ġpatchy</w>": 2473,
      "Ġnecrosis</w>": 2474,
      "Ġpleuritic</w>": 2475,
      "esity</w>": 2476,
      "flank</w>": 2477,
      "roma</w>": 2478,
      "Ġobesity</w>": 2479,
      "ighthe": 2480,
      "ibasilar</w>": 2481,
      "ighthea": 2482,
      "Ġsl": 2483,
      "Ġsqu": 2484,
      "Ġneur": 2485,
      "agni</w>": 2486,
      "Ġspasm</w>": 2487,
      "ĠMorg": 2488,
      "Ġdefect</w>": 2489,
      "amous</w>": 2490,
      "Ġsquamous</w>": 2491,
      "ĠMorgagni</w>": 2492,
      "dness</w>": 2493,
      "dedness</w>": 2494,
      "Ġperfo": 2495,
      "ightheadedness</w>": 2496,
      "Ġperforation</w>": 2497,
      "homalacia</w>": 2498,
      "ylo": 2499,
      "tility</w>": 2500,
      "Ġplu": 2501,
      "Ġcasts</w>": 2502,
      "Ġsigni": 2503,
      "Ġthinning</w>": 2504,
      "Ġmuc": 2505,
      "atid</w>": 2506,
      "ech": 2507,
      "ronchomalacia</w>": 2508,
      "Ġlipos": 2509,
      "Ġtracheobronchomalacia</w>": 2510,
      "adrant</w>": 2511,
      "Ġhemangioma</w>": 2512,
      "Ġquadrant</w>": 2513,
      "odesis</w>": 2514,
      "Ġadenoid</w>": 2515,
      "Ġpleurodesis</w>": 2516,
      "Ġamylo": 2517,
      "Ġhydatid</w>": 2518,
      "Ġplugs</w>": 2519,
      "Ġsignific": 2520,
      "Ġmucus</w>": 2521,
      "Ġliposarcoma</w>": 2522,
      "Ġamyloidosis</w>": 2523,
      "Con": 2524,
      "xima": 2525,
      "Ġapproxima": 2526,
      "Ġfo": 2527,
      "Ġprod": 2528,
      "Ġproduction</w>": 2529,
      "Male</w>": 2530,
      "patient</w>": 2531,
      "gestive</w>": 2532,
      "ously</w>": 2533,
      "Clinical</w>": 2534,
      "con": 2535,
      "ctur": 2536,
      "ches</w>": 2537,
      "Ġproj": 2538,
      "egative</w>": 2539,
      "rule</w>": 2540,
      "ĠHIV</w>": 2541,
      "gene": 2542,
      "cy</w>": 2543,
      "Ġproblem</w>": 2544,
      "Ġflat": 2545,
      "Ġnodular</w>": 2546,
      "thoracic</w>": 2547,
      "uring</w>": 2548,
      "Ġcertain</w>": 2549,
      "oar": 2550,
      "ystectomy</w>": 2551,
      "Ġtech": 2552,
      "arenc": 2553,
      "Ġha": 2554,
      "Ġapproximately</w>": 2555,
      "arenchy": 2556,
      "headache</w>": 2557,
      "Ġconfusion</w>": 2558,
      "rib</w>": 2559,
      "mal</w>": 2560,
      "Ġcardiop": 2561,
      "Ġdemonst": 2562,
      "Ġshow</w>": 2563,
      "Ġcardiopulmonary</w>": 2564,
      "ĠDe": 2565,
      "sternal</w>": 2566,
      "Ġblunting</w>": 2567,
      "Ġclavic": 2568,
      "...<</w>": 2569,
      "Vehicle</w>": 2570,
      "houlder</w>": 2571,
      "Ġfew</w>": 2572,
      "Ġprominent</w>": 2573,
      "rain</w>": 2574,
      "Ġbrain</w>": 2575,
      "Ġhave</w>": 2576,
      "Ġspaces</w>": 2577,
      "Ġrepresent</w>": 2578,
      "Ġcholecystectomy</w>": 2579,
      "tiv": 2580,
      "Ġpalpitations</w>": 2581,
      "ĠSp": 2582,
      "izure</w>": 2583,
      "Ġbi": 2584,
      "Ġres": 2585,
      "01</w>": 2586,
      "left</w>": 2587,
      "Ġnormal": 2588,
      "Ġend</w>": 2589,
      "kele": 2590,
      "orsening</w>": 2591,
      "Ġtortuosity</w>": 2592,
      "Ġclavicle</w>": 2593,
      "keletal</w>": 2594,
      "Symptoms</w>": 2595,
      "gia</w>": 2596,
      "Ġov": 2597,
      "Ġsarcoma</w>": 2598,
      "Ġsyncopal</w>": 2599,
      "out": 2600,
      "vel</w>": 2601,
      "Ġbibasilar</w>": 2602,
      "Ġskeletal</w>": 2603,
      "Ġthorac": 2604,
      "outine</w>": 2605,
      "14</w>": 2606,
      "Vomiting</w>": 2607,
      "iency</w>": 2608,
      "use</w>": 2609,
      "Ġabuse</w>": 2610,
      "stage</w>": 2611,
      "ctal</w>": 2612,
      "illator</w>": 2613,
      "fibrillator</w>": 2614,
      "An": 2615,
      "part": 2616,
      "Ġunder</w>": 2617,
      "Ġdiabetes</w>": 2618,
      "ial</w>": 2619,
      "ĠĊ</w>": 2620,
      "mental</w>": 2621,
      "ould</w>": 2622,
      "ving</w>": 2623,
      "let</w>": 2624,
      "Ġbases</w>": 2625,
      "Ġhad</w>": 2626,
      "otor</w>": 2627,
      "hilar</w>": 2628,
      "ophy</w>": 2629,
      "osed</w>": 2630,
      ">-</w>": 2631,
      "Suspected</w>": 2632,
      "Ġy": 2633,
      "hed</w>": 2634,
      "hea</w>": 2635,
      "Ġdiarr": 2636,
      "Ġcongestive</w>": 2637,
      "prostate</w>": 2638,
      "Ġdiarrhea</w>": 2639,
      "ins</w>": 2640,
      "Ġwould</w>": 2641,
      "Ġmake</w>": 2642,
      "acemaker</w>": 2643,
      "Ġmoderate</w>": 2644,
      "ĠDegenerative</w>": 2645,
      "cious": 2646,
      "Ġconscious": 2647,
      "Ġlimited</w>": 2648,
      "Ġnonproductive</w>": 2649,
      "Ġconsciousness</w>": 2650,
      "sw": 2651,
      "ogenic</w>": 2652,
      "aky</w>": 2653,
      "].<</w>": 2654,
      "Ġhyperinflated</w>": 2655,
      "ĠBony</w>": 2656,
      "Ġadenopathy</w>": 2657,
      "egmental</w>": 2658,
      "ome</w>": 2659,
      "Ġpacemaker</w>": 2660,
      "Ġstent</w>": 2661,
      "Ġactiv": 2662,
      "Ġstructur": 2663,
      "Ġactivity</w>": 2664,
      "Ġstructuresosseous</w>": 2665,
      "Motor</w>": 2666,
      "iver</w>": 2667,
      "Ġsensation</w>": 2668,
      "Ġfood</w>": 2669,
      "kle</w>": 2670,
      "segmental</w>": 2671,
      "Ġpast</w>": 2672,
      "Ġendom": 2673,
      "Ġaspiration</w>": 2674,
      "Ġendomet": 2675,
      "vol": 2676,
      "Ġnothing</w>": 2677,
      "Ġshielded</w>": 2678,
      "sarcoidosis</w>": 2679,
      "Ġankle</w>": 2680,
      "Ġdistress</w>": 2681,
      "ged</w>": 2682,
      "hd": 2683,
      "hosis</w>": 2684,
      "Ġrel": 2685,
      "Ġincluding</w>": 2686,
      "Ġrelated</w>": 2687,
      "cute</w>": 2688,
      "Ġpancre": 2689,
      "erm</w>": 2690,
      "ction</w>": 2691,
      "Ġinvol": 2692,
      "atri": 2693,
      "Ġexc": 2694,
      "pathy</w>": 2695,
      "arenchymal</w>": 2696,
      "cer": 2697,
      "Ġscattered</w>": 2698,
      "Ġairw": 2699,
      "ingling</w>": 2700,
      "Ġlobectomy</w>": 2701,
      "Ġthan</w>": 2702,
      "arette</w>": 2703,
      "spiration</w>": 2704,
      "ocardi": 2705,
      "Ġsubsegmental</w>": 2706,
      "Ġthromb": 2707,
      "day</w>": 2708,
      "Ġ4": 2709,
      "asing</w>": 2710,
      "ester": 2711,
      "ecurrent</w>": 2712,
      "Ġyester": 2713,
      "Ġyesterday</w>": 2714,
      "com": 2715,
      "line</w>": 2716,
      "atitis</w>": 2717,
      "Ġfibril": 2718,
      "Ġactive</w>": 2719,
      "Ġfibrillation</w>": 2720,
      "ep</w>": 2721,
      "Ġdeep</w>": 2722,
      "Ġincre": 2723,
      "surgical</w>": 2724,
      "Ġthe": 2725,
      "Ġslee": 2726,
      "Ġmelanoma</w>": 2727,
      "Ġapnea</w>": 2728,
      "ĠRecent</w>": 2729,
      "Ġsleep</w>": 2730,
      "testicular</w>": 2731,
      "arting</w>": 2732,
      "aturation</w>": 2733,
      "ĠChronic</w>": 2734,
      "atible</w>": 2735,
      "ettes</w>": 2736,
      "Ġinflated</w>": 2737,
      "Ġcompatible</w>": 2738,
      "Ġosteophytes</w>": 2739,
      "Ġsignificant</w>": 2740,
      "rated</w>": 2741,
      "Ġatherosclerosis</w>": 2742,
      "Ġnormally</w>": 2743,
      "Ġ40</w>": 2744,
      "nec": 2745,
      "algia</w>": 2746,
      "orted</w>": 2747,
      "oinf": 2748,
      "Ġleg</w>": 2749,
      "Ġaltered</w>": 2750,
      "Ġsilhouettes</w>": 2751,
      "ecifically</w>": 2752,
      "Ġirregul": 2753,
      "ĠSpecifically</w>": 2754,
      "Hep": 2755,
      "Pneumonia</w>": 2756,
      "itone": 2757,
      "malign": 2758,
      "Ġhours</w>": 2759,
      "ell": 2760,
      "ĠPleural</w>": 2761,
      "Ġhypoinf": 2762,
      "malignant</w>": 2763,
      "pigastric</w>": 2764,
      "Ġesophag": 2765,
      "Ġdisplaced</w>": 2766,
      "Ġrequires</w>": 2767,
      "bly</w>": 2768,
      "tening</w>": 2769,
      "rec": 2770,
      "urred</w>": 2771,
      "Ġcomple": 2772,
      "Ġflattening</w>": 2773,
      "tib": 2774,
      "etastatic</w>": 2775,
      "Ġradiates</w>": 2776,
      "ĠEvaluate</w>": 2777,
      "Ġpostpart": 2778,
      "Ġpostpartum</w>": 2779,
      "Bronchi": 2780,
      "Ġaches</w>": 2781,
      "sities</w>": 2782,
      "unction</w>": 2783,
      "Ġdensities</w>": 2784,
      "ssi": 2785,
      "ĠThis</w>": 2786,
      "Ġtests</w>": 2787,
      "Ġsuggested</w>": 2788,
      "mities</w>": 2789,
      "Ġima": 2790,
      "Ġect": 2791,
      "asty</w>": 2792,
      "Ġrema": 2793,
      "Ġappearing</w>": 2794,
      "Ġup</w>": 2795,
      "ĠCoronary</w>": 2796,
      "ĠSyncope</w>": 2797,
      "Epigastric</w>": 2798,
      "bar</w>": 2799,
      "multiple</w>": 2800,
      "wheezing</w>": 2801,
      "ale": 2802,
      "hi</w>": 2803,
      "nical</w>": 2804,
      "oti": 2805,
      "Ġtubercul": 2806,
      "requ": 2807,
      "ĠComplain": 2808,
      "Ġweek</w>": 2809,
      "oscop": 2810,
      "requent</w>": 2811,
      "speci": 2812,
      "Ġapical</w>": 2813,
      "Ġgerm</w>": 2814,
      "Ġaus": 2815,
      "cultation</w>": 2816,
      "ocarcin": 2817,
      "Ġstre": 2818,
      "Ġadenocarcin": 2819,
      "Ġauscultation</w>": 2820,
      "Ġadenocarcinoma</w>": 2821,
      "own</w>": 2822,
      "Ġnow</w>": 2823,
      "Ġproc": 2824,
      "Ġpossi": 2825,
      "olumbar</w>": 2826,
      "Ġcontact</w>": 2827,
      "Ġnee": 2828,
      "Ġoutlet</w>": 2829,
      "Ġthoracolumbar</w>": 2830,
      "He": 2831,
      "frequent</w>": 2832,
      "ĠBilateral</w>": 2833,
      "Ġstreaky</w>": 2834,
      "Ex": 2835,
      "ta": 2836,
      "Ġme": 2837,
      "Ġachal": 2838,
      "asional</w>": 2839,
      "Ġpossibly</w>": 2840,
      "Ġachalasia</w>": 2841,
      "Ġinspiration</w>": 2842,
      "Ġdevice</w>": 2843,
      "valuation</w>": 2844,
      "urrently</w>": 2845,
      "Ġprominence</w>": 2846,
      "Ġreaction</w>": 2847,
      "sarcoma</w>": 2848,
      "dition</w>": 2849,
      "Ġfaci": 2850,
      "alysis</w>": 2851,
      "yosarcoma</w>": 2852,
      "Ġfil": 2853,
      "Ġdys": 2854,
      "erat": 2855,
      "ĠPrevi": 2856,
      "cardiac</w>": 2857,
      "Ġregi": 2858,
      "Ġleiomyosarcoma</w>": 2859,
      "Ġpleurisy</w>": 2860,
      "Ġfacility</w>": 2861,
      "..</w>": 2862,
      "St": 2863,
      "bone</w>": 2864,
      "and</w>": 2865,
      "Ġtechnical</w>": 2866,
      "gu": 2867,
      "Ġs</w>": 2868,
      "igarette</w>": 2869,
      "indclinical</w>": 2870,
      "Ġwed": 2871,
      "Abnormal</w>": 2872,
      "Ġfollowing</w>": 2873,
      "IC": 2874,
      "bladder</w>": 2875,
      "fact": 2876,
      "ore</w>": 2877,
      "Ġor": 2878,
      "Ġingu": 2879,
      "Ġhand</w>": 2880,
      "Ġpersist": 2881,
      "igrant</w>": 2882,
      "acute</w>": 2883,
      "Ġprost": 2884,
      "espon": 2885,
      "ephalopathy</w>": 2886,
      "Ġencephalopathy</w>": 2887,
      "Ġcompleted</w>": 2888,
      "Ġtuberculin</w>": 2889,
      "Ġinguinal</w>": 2890,
      "leged</w>": 2891,
      "ality</w>": 2892,
      "Ġrectal</w>": 2893,
      "Ġunable</w>": 2894,
      "Ġcomplaint</w>": 2895,
      "Anterior</w>": 2896,
      "Recurrent</w>": 2897,
      "urv": 2898,
      "tran": 2899,
      "Ġpositi": 2900,
      "uritic</w>": 2901,
      "ĠNothing</w>": 2902,
      "Shoulder</w>": 2903,
      "enia</w>": 2904,
      "Ġhead</w>": 2905,
      "ficiency</w>": 2906,
      "Ġdehy": 2907,
      "Ġcould</w>": 2908,
      "Ġquality</w>": 2909,
      "odeficiency</w>": 2910,
      "Ġimmunodeficiency</w>": 2911,
      "itoneal</w>": 2912,
      "ĠPreviously</w>": 2913,
      "Ġdehyd": 2914,
      ")<</w>": 2915,
      "Tachycardia</w>": 2916,
      "it</w>": 2917,
      "Ġvie": 2918,
      "talgia</w>": 2919,
      "Ġotalgia</w>": 2920,
      "lerg": 2921,
      "Ġsymmet": 2922,
      "olog": 2923,
      "als</w>": 2924,
      "Ġdistention</w>": 2925,
      "lergic</w>": 2926,
      "Ġpar": 2927,
      "Ġsided</w>": 2928,
      "level</w>": 2929,
      "Ġsaturation</w>": 2930,
      "ronchial</w>": 2931,
      "eto": 2932,
      "erated</w>": 2933,
      "Ġcomm": 2934,
      "Ġstents</w>": 2935,
      "Ġagain</w>": 2936,
      "ultilevel</w>": 2937,
      "Ġhypoinflated</w>": 2938,
      "xiet": 2939,
      "ination</w>": 2940,
      "Ġhepat": 2941,
      "uma</w>": 2942,
      "ocell": 2943,
      "pansion</w>": 2944,
      "xiety</w>": 2945,
      "Ġhepatocell": 2946,
      "Ġhepatocellular</w>": 2947,
      "acid": 2948,
      "etic</w>": 2949,
      "haling</w>": 2950,
      "ne</w>": 2951,
      "arities</w>": 2952,
      "Ġbladder</w>": 2953,
      "cision</w>": 2954,
      "urm": 2955,
      "termittent</w>": 2956,
      "oce": 2957,
      "Ġpresyncope</w>": 2958,
      "Ġketo": 2959,
      "Ġdiabetic</w>": 2960,
      "Ġreactive</w>": 2961,
      "condition</w>": 2962,
      "Ġirregularities</w>": 2963,
      "acidosis</w>": 2964,
      "Ġketoacidosis</w>": 2965,
      "VA</w>": 2966,
      "bilateral</w>": 2967,
      "difficulty</w>": 2968,
      "Ġpre</w>": 2969,
      "Ġspecifically</w>": 2970,
      "Ġbelow</w>": 2971,
      "gy</w>": 2972,
      "respon": 2973,
      "Ġet": 2974,
      "Ġear</w>": 2975,
      "Ġinhaling</w>": 2976,
      "unt</w>": 2977,
      "Ġmultiple</w>": 2978,
      "Ġroutine</w>": 2979,
      "month</w>": 2980,
      "Ġhal": 2981,
      "idal</w>": 2982,
      "Ġday</w>": 2983,
      "Ġmidback</w>": 2984,
      "ĠMultiple</w>": 2985,
      "Ġperihilar</w>": 2986,
      "Ġneeds</w>": 2987,
      "transplant</w>": 2988,
      "responsive</w>": 2989,
      "sophag": 2990,
      "orb": 2991,
      "ecreased</w>": 2992,
      "ocephal": 2993,
      "Ġfluid</w>": 2994,
      "Ġbrachiocephal": 2995,
      "Ġpersisting</w>": 2996,
      "Ġbrachiocephalic</w>": 2997,
      "MVA</w>": 2998,
      "luc": 2999,
      "ual</w>": 3000,
      "wit": 3001,
      "rain": 3002,
      "stomy</w>": 3003,
      "Ġdisorders</w>": 3004,
      "ody</w>": 3005,
      "ĠCardio</w>": 3006,
      "Ġcostochond": 3007,
      "poxemia</w>": 3008,
      "ightly</w>": 3009,
      "sophageal</w>": 3010,
      "Recent</w>": 3011,
      "knee</w>": 3012,
      "ll</w>": 3013,
      "nausea</w>": 3014,
      "vomiting</w>": 3015,
      "Ġ.<</w>": 3016,
      "igh</w>": 3017,
      "Ġconfig": 3018,
      "agnosis</w>": 3019,
      "thritis</w>": 3020,
      "Intermittent</w>": 3021,
      "smoking</w>": 3022,
      "Ġarea</w>": 3023,
      "Congestion</w>": 3024,
      "sweats</w>": 3025,
      "obronchial</w>": 3026,
      "oughout</w>": 3027,
      "Ġhyperexpansion</w>": 3028,
      "Ġthroughout</w>": 3029,
      "Ġregion</w>": 3030,
      "op</w>": 3031,
      "ance</w>": 3032,
      "Ġinternal</w>": 3033,
      "Ġosteoar": 3034,
      "mber</w>": 3035,
      "Ġosteopenia</w>": 3036,
      "Ġprocess</w>": 3037,
      "Ġpositioned</w>": 3038,
      "Ġosteoarthritis</w>": 3039,
      "osu": 3040,
      "leed</w>": 3041,
      "pple</w>": 3042,
      "orderline</w>": 3043,
      "Ġimmunosu": 3044,
      "Ġdemonstrated</w>": 3045,
      "Ġconfiguration</w>": 3046,
      "Ġimmunosup": 3047,
      "sfact": 3048,
      "vated</w>": 3049,
      "Ġ1": 3050,
      "Ġ4</w>": 3051,
      "ature</w>": 3052,
      "Ġvess": 3053,
      "atisfact": 3054,
      "Ġup": 3055,
      "Ġendpl": 3056,
      "oplasty</w>": 3057,
      "Ġvessels</w>": 3058,
      "atisfactory</w>": 3059,
      "Metastatic</w>": 3060,
      "Palpitations</w>": 3061,
      "Ġlightheadedness</w>": 3062,
      "ormations</w>": 3063,
      "oparenchymal</w>": 3064,
      "ochd": 3065,
      "ĠLow</w>": 3066,
      "Ġintermittent</w>": 3067,
      "ĠNegative</w>": 3068,
      "Ġbronchi</w>": 3069,
      "Ġmuscle</w>": 3070,
      "Ġpleuroparenchymal</w>": 3071,
      "alek</w>": 3072,
      "ĠComplaint</w>": 3073,
      "ochdalek</w>": 3074,
      "eins</w>": 3075,
      "jor</w>": 3076,
      "Ġterat": 3077,
      "Ġsmo": 3078,
      "Ġrings</w>": 3079,
      "ately</w>": 3080,
      "Ġveins</w>": 3081,
      "uble</w>": 3082,
      "Ġtracheomalacia</w>": 3083,
      "Ġhyperpla": 3084,
      "Ġhypertr": 3085,
      "Ġdiagnosed</w>": 3086,
      "Ġlipomatosis</w>": 3087,
      "Ġonly</w>": 3088,
      "Ġdouble</w>": 3089,
      "Ġmalignancy</w>": 3090,
      "Ġneurogenic</w>": 3091,
      "Ġupward</w>": 3092,
      "Ġteratoma</w>": 3093,
      "Ġhyperplasia</w>": 3094,
      "Ġhypertrophy</w>": 3095,
      "oroscop": 3096,
      "dequ": 3097,
      "Ġduring</w>": 3098,
      "Ġcolon</w>": 3099,
      "Ġvalv": 3100,
      "Ġkyp": 3101,
      "rically</w>": 3102,
      "hondroma</w>": 3103,
      "Ġfluoroscop": 3104,
      "ĠFollow</w>": 3105,
      "Ġenchondroma</w>": 3106,
      "Ġsymmetrically</w>": 3107,
      "Ġfluoroscopy</w>": 3108,
      "dure</w>": 3109,
      "ipple</w>": 3110,
      "Ġadequ": 3111,
      "Ġstra": 3112,
      "ĠIn": 3113,
      "Ġherni": 3114,
      "Ġosteochond": 3115,
      "Ġlymphangitic</w>": 3116,
      "Ġindicating</w>": 3117,
      "liver</w>": 3118,
      "ers</w>": 3119,
      "ĠClear</w>": 3120,
      "Ġfee": 3121,
      "Ġjunction</w>": 3122,
      "Ġimpact": 3123,
      "Ġairway</w>": 3124,
      "urvature</w>": 3125,
      "Ġendplate</w>": 3126,
      "Ġimpacted</w>": 3127,
      "Bone</w>": 3128,
      "Decreased</w>": 3129,
      "Zen": 3130,
      "bs</w>": 3131,
      "hat": 3132,
      "ki</w>": 3133,
      "men</w>": 3134,
      "nward</w>": 3135,
      "satisfactory</w>": 3136,
      "wnward</w>": 3137,
      "xus</w>": 3138,
      "zki</w>": 3139,
      "ĠZen": 3140,
      "Ġagene": 3141,
      "Ġpal": 3142,
      "ulas</w>": 3143,
      "Ġfora": 3144,
      "Ġplexus</w>": 3145,
      "olus</w>": 3146,
      "Ġbolus</w>": 3147,
      "Ġdistribu": 3148,
      "Ġdilat": 3149,
      "ĠTiet": 3150,
      "Ġfibroma</w>": 3151,
      "riosis</w>": 3152,
      "Ġmotility</w>": 3153,
      "Ġwebs</w>": 3154,
      "Ġintracardiac</w>": 3155,
      "motility</w>": 3156,
      "ĠBochdalek</w>": 3157,
      "ecting</w>": 3158,
      "ĠCardiomegaly</w>": 3159,
      "Ġdownward</w>": 3160,
      "Ġcarcinomatosis</w>": 3161,
      "Ġmyopathy</w>": 3162,
      "Ġfistulas</w>": 3163,
      "Ġdiverticulum</w>": 3164,
      "Ġrespiration</w>": 3165,
      "Ġgranulomatosis</w>": 3166,
      "Ġmalformations</w>": 3167,
      "Ġchamber</w>": 3168,
      "Ġfibroelastosis</w>": 3169,
      "Ġendocardi": 3170,
      "Ġendobronchial</w>": 3171,
      "Ġbrachial</w>": 3172,
      "ĠSchat": 3173,
      "Ġovale</w>": 3174,
      "Ġendometriosis</w>": 3175,
      "Ġexclu": 3176,
      "Ġthrombus</w>": 3177,
      "Ġesophagitis</w>": 3178,
      "Ġfilter</w>": 3179,
      "Ġdysmotility</w>": 3180,
      "Ġcostochondritis</w>": 3181,
      "Ġvalvular</w>": 3182,
      "Ġadequately</w>": 3183,
      "Ġstrain</w>": 3184,
      "Ġherniation</w>": 3185,
      "Ġosteochondroma</w>": 3186,
      "ĠZenker</w>": 3187,
      "Ġagenesis</w>": 3188,
      "Ġpalsy</w>": 3189,
      "Ġforamen</w>": 3190,
      "Ġdistributions</w>": 3191,
      "Ġdilatation</w>": 3192,
      "ĠTietze</w>": 3193,
      "Ġendocarditis</w>": 3194,
      "ĠSchatzki</w>": 3195,
      "dde": 3196,
      "hly</w>": 3197,
      "lined</w>": 3198,
      "Ġsudde": 3199,
      "othly</w>": 3200,
      "Ġinfarct": 3201,
      "Ġmidthoracic</w>": 3202,
      "Ġmoving</w>": 3203,
      "ĠWorsening</w>": 3204,
      "matous</w>": 3205,
      "Ġoutlined</w>": 3206,
      "Ġwedge</w>": 3207,
      "Ġsmoothly</w>": 3208,
      "Ġsudden</w>": 3209,
      "Ġinfarcts</w>": 3210,
      "Ġcar": 3211,
      "ann": 3212,
      "Ġscar</w>": 3213,
      "Ġunsatisfactory</w>": 3214,
      "Ġalong</w>": 3215,
      "umbar</w>": 3216,
      "Ġsuspicion</w>": 3217,
      "Ġneopl": 3218,
      "cern</w>": 3219,
      "Ġt</w>": 3220,
      "Ġwound</w>": 3221,
      "ese</w>": 3222,
      "Ġind": 3223,
      "Ġmultilevel</w>": 3224,
      "Ġdisor": 3225,
      "ĠDis": 3226,
      "Ġnonsmoker</w>": 3227,
      "Ġoccasional</w>": 3228,
      "Ġmeas": 3229,
      "Ġview</w>": 3230,
      "hw": 3231,
      "ofibr": 3232,
      "uma": 3233,
      "arent</w>": 3234,
      "ĠAd": 3235,
      "defibrillator</w>": 3236,
      "Ġmajor</w>": 3237,
      "Ġdepression</w>": 3238,
      "Ġschw": 3239,
      "Ġarthr": 3240,
      "Ġvir": 3241,
      "Ġneurofibr": 3242,
      "Ġprojecting</w>": 3243,
      "annoma</w>": 3244,
      "Ġschwannoma</w>": 3245,
      "Ġneurofibroma</w>": 3246,
      "ee": 3247,
      "Ġcurrently</w>": 3248,
      "icatri": 3249,
      "logene": 3250,
      "structive</w>": 3251,
      "Ġpounds</w>": 3252,
      "ĠOb": 3253,
      "Ġneoplasm</w>": 3254,
      "icatrix</w>": 3255,
      "logeneic</w>": 3256,
      "HIV</w>": 3257,
      "ur</w>": 3258,
      "Ġtingling</w>": 3259,
      "orly</w>": 3260,
      "Ġhuma": 3261,
      "Ġdisc</w>": 3262,
      "Ġapparent</w>": 3263,
      "moking</w>": 3264,
      "Ġsinus</w>": 3265,
      "Ġpostoperative</w>": 3266,
      "Ġslightly</w>": 3267,
      "Ġarthroplasty</w>": 3268,
      "Ġvirus</w>": 3269,
      "Ġhuman</w>": 3270,
      "tter</w>": 3271,
      "Ġur": 3272,
      "Ġten": 3273,
      "Ġfusion</w>": 3274,
      "pped</w>": 3275,
      "Ġspinal</w>": 3276,
      "Ġspee": 3277,
      "rapy</w>": 3278,
      "Ġflutter</w>": 3279,
      "Ġfollowed</w>": 3280,
      "ĠDisease</w>": 3281,
      "ĠObstructive</w>": 3282,
      "Ġspeech</w>": 3283,
      "pen": 3284,
      "hage</w>": 3285,
      "Ġwidening</w>": 3286,
      "ĠNone</w>": 3287,
      "ĠHypoxia</w>": 3288,
      "Ġkyphosis</w>": 3289,
      "Pr": 3290,
      "where</w>": 3291,
      "Ġcicatrix</w>": 3292,
      "Ġnegative</w>": 3293,
      "Ġrot": 3294,
      "Ġhearing</w>": 3295,
      "ssure</w>": 3296,
      "Ġswal": 3297,
      "ĠHow</w>": 3298,
      "Ġmedic": 3299,
      "Ġmedication</w>": 3300,
      "Ġbig</w>": 3301,
      "Ġectasia</w>": 3302,
      "26</w>": 3303,
      "Coughing</w>": 3304,
      "Lightheadedness</w>": 3305,
      "Sore</w>": 3306,
      "Smoking</w>": 3307,
      "hx</w>": 3308,
      "ĠC</w>": 3309,
      "proce": 3310,
      "Ġcoughing</w>": 3311,
      "Ġlast</w>": 3312,
      "Ġdiaphragms</w>": 3313,
      "Ġevident</w>": 3314,
      "Ġcollection</w>": 3315,
      "Bronchitis</w>": 3316,
      "procedure</w>": 3317,
      "upper</w>": 3318,
      "atectomy</w>": 3319,
      "Ġonce</w>": 3320,
      "Ġadr": 3321,
      "ymmetric</w>": 3322,
      "Ġprostatectomy</w>": 3323,
      "Ġdehydration</w>": 3324,
      "Ġ12</w>": 3325,
      "sh": 3326,
      "tory</w>": 3327,
      "ĠT</w>": 3328,
      "ending</w>": 3329,
      "Ġlumbar</w>": 3330,
      "ĠAtheroscle": 3331,
      "Ġfever": 3332,
      "Ġseizure</w>": 3333,
      "Ġglan": 3334,
      "Ġstarting</w>": 3335,
      "Ġscle": 3336,
      "Ġassess": 3337,
      "Ġmedial</w>": 3338,
      "Ġremoved</w>": 3339,
      "Ġfevers</w>": 3340,
      "Ġgland</w>": 3341,
      "Acute</w>": 3342,
      "Complain": 3343,
      "MVC</w>": 3344,
      "que</w>": 3345,
      "radi": 3346,
      "Ġmidsternal</w>": 3347,
      "ĠSuspected</w>": 3348,
      "Ġasymmetric</w>": 3349,
      "neck</w>": 3350,
      "ain": 3351,
      "aled</w>": 3352,
      "xation</w>": 3353,
      "ĠAt": 3354,
      "Ġobsc": 3355,
      "Ġinflammatory</w>": 3356,
      "creasing</w>": 3357,
      ":.<</w>": 3358,
      "Ass": 3359,
      "Chills</w>": 3360,
      "Follow</w>": 3361,
      "Sarcoidosis</w>": 3362,
      "cough</w>": 3363,
      "do": 3364,
      "eating</w>": 3365,
      "follow</w>": 3366,
      "gra": 3367,
      "distress</w>": 3368,
      "Ġwere</w>": 3369,
      "ĠMinimal</w>": 3370,
      "Ġinto</w>": 3371,
      "abnormal</w>": 3372,
      "Ġincrease</w>": 3373,
      "Hepatitis</w>": 3374,
      "for": 3375,
      "Ġfain": 3376,
      "ĠAsthma</w>": 3377,
      "erter</w>": 3378,
      "derness</w>": 3379,
      "overter</w>": 3380,
      "Ġtenderness</w>": 3381,
      "radiating</w>": 3382,
      "Ġfainting</w>": 3383,
      "heart</w>": 3384,
      "ulting</w>": 3385,
      "Ġfal": 3386,
      "neous</w>": 3387,
      "ĠPossible</w>": 3388,
      "Ġdistal</w>": 3389,
      "tained</w>": 3390,
      "ct</w>": 3391,
      "rop": 3392,
      "tion": 3393,
      "Ġrec": 3394,
      "otid</w>": 3395,
      "Ġscan</w>": 3396,
      "ritic</w>": 3397,
      "ĠWeakness</w>": 3398,
      "Ġling": 3399,
      "ĠDiagnosis</w>": 3400,
      "Ġthyroidectomy</w>": 3401,
      "bleed</w>": 3402,
      "ob</w>": 3403,
      "pleural</w>": 3404,
      "sob</w>": 3405,
      "increasing</w>": 3406,
      "Ġnear</w>": 3407,
      "Ġins": 3408,
      "Ġfixation</w>": 3409,
      "Ġpresent": 3410,
      "Ġpostsurgical</w>": 3411,
      "Ġimmunosuppres": 3412,
      "grade</w>": 3413,
      "AB": 3414,
      "ike</w>": 3415,
      "Ġ-": 3416,
      "Ġchem": 3417,
      "Ġantib": 3418,
      "Ġluc": 3419,
      "stance</w>": 3420,
      "Ġabnormal</w>": 3421,
      "ĠDown</w>": 3422,
      "ransplant</w>": 3423,
      "tensive</w>": 3424,
      "Ġwhite</w>": 3425,
      "Ġcount</w>": 3426,
      "expanded</w>": 3427,
      "Ġosteophyte</w>": 3428,
      "orbid</w>": 3429,
      "ABG</w>": 3430,
      "Ġantibi": 3431,
      "no</w>": 3432,
      "we": 3433,
      "Ġver": 3434,
      "ĠWell</w>": 3435,
      "ĠVi": 3436,
      "tly</w>": 3437,
      "ĠTortu": 3438,
      "antly</w>": 3439,
      "ĠSmall</w>": 3440,
      "ĠRule</w>": 3441,
      "Ġshielding</w>": 3442,
      "Ġmeasuring</w>": 3443,
      "Ġcor": 3444,
      "oper": 3445,
      "Ġpreviously</w>": 3446,
      "Ġemphysematous</w>": 3447,
      "Ġdeformities</w>": 3448,
      "Expanded</w>": 3449,
      "Ġinser": 3450,
      "ĠVisualized</w>": 3451,
      "18</w>": 3452,
      "15</w>": 3453,
      "Esophageal</w>": 3454,
      "Transplant</w>": 3455,
      "morbid</w>": 3456,
      "solid": 3457,
      "sus</w>": 3458,
      "Ġsome</w>": 3459,
      "ĠAl": 3460,
      "persistent</w>": 3461,
      "larged</w>": 3462,
      "ĠAbnormal</w>": 3463,
      "Hypoxemia</w>": 3464,
      "ĠHypertension</w>": 3465,
      "ĠAdditional</w>": 3466,
      "Ġversus</w>": 3467,
      "solidation</w>": 3468,
      "ads</w>": 3469,
      "king</w>": 3470,
      "rae</w>": 3471,
      "Ġnan</w>": 3472,
      "Ġvein</w>": 3473,
      "Ġhealed</w>": 3474,
      "ĠCT</w>": 3475,
      "Ġvertebrae</w>": 3476,
      "Ġsubc": 3477,
      "ĠOtherwise</w>": 3478,
      "Ġques": 3479,
      "os</w>": 3480,
      "Ġwhe": 3481,
      "ardiac</w>": 3482,
      "Ġretroc": 3483,
      "ology</w>": 3484,
      "Ġretrocardiac</w>": 3485,
      "men": 3486,
      "enerali": 3487,
      "est</w>": 3488,
      "apical</w>": 3489,
      "Ġsuggests</w>": 3490,
      "ĠLoss</w>": 3491,
      "eneralized</w>": 3492,
      "adi": 3493,
      "cated</w>": 3494,
      "Ġch": 3495,
      "esses</w>": 3496,
      "ĠAcute</w>": 3497,
      "Ġgreat": 3498,
      "ĠDizziness</w>": 3499,
      "Ġarteries</w>": 3500,
      "Ġimag": 3501,
      "ol</w>": 3502,
      "Ġcurvature</w>": 3503,
      "Ġlum": 3504,
      "Ġmin": 3505,
      "Ġhum": 3506,
      "mphyse": 3507,
      "othorax</w>": 3508,
      "Ġleads</w>": 3509,
      "ang": 3510,
      "ĠPneumonia</w>": 3511,
      "Ġsternum</w>": 3512,
      "vere</w>": 3513,
      "Ġsclerosis</w>": 3514,
      "Ġassessment</w>": 3515,
      "Ġlucency</w>": 3516,
      "Ġinserted</w>": 3517,
      "be": 3518,
      "gorg": 3519,
      "ostomy</w>": 3520,
      "sho": 3521,
      "Ġbac": 3522,
      "Ġborderline</w>": 3523,
      "unsho": 3524,
      "Ġmain</w>": 3525,
      "Ġprob": 3526,
      "rontal</w>": 3527,
      "Ġsequ": 3528,
      "peritoneal</w>": 3529,
      "Ġengorg": 3530,
      "range</w>": 3531,
      "Ġintraperitoneal</w>": 3532,
      "ĠRadi": 3533,
      "ĠOsseous</w>": 3534,
      "Ġback": 3535,
      "unshot</w>": 3536,
      "SVC</w>": 3537,
      "co": 3538,
      "mit</w>": 3539,
      "ru": 3540,
      "Ġrange</w>": 3541,
      "ince</w>": 3542,
      "dered</w>": 3543,
      "Ġarthritic</w>": 3544,
      "Ġalco": 3545,
      "Ġexam</w>": 3546,
      "foot</w>": 3547,
      "ch": 3548,
      "dent</w>": 3549,
      "me": 3550,
      "nd</w>": 3551,
      "pectomy</w>": 3552,
      "welling</w>": 3553,
      "ystr": 3554,
      "Ġcl": 3555,
      "Ġperfor": 3556,
      "Ġaround</w>": 3557,
      "Ġplaced</w>": 3558,
      "rior</w>": 3559,
      "ĠProm": 3560,
      "Ġirregular</w>": 3561,
      "ICC</w>": 3562,
      "pendent</w>": 3563,
      "ĠTortuous</w>": 3564,
      "Ġlumpectomy</w>": 3565,
      "ĠRadiograp": 3566,
      "ystrophy</w>": 3567,
      "ĠPromin": 3568,
      "lum</w>": 3569,
      "sed</w>": 3570,
      "trosc": 3571,
      "vement</w>": 3572,
      "Ġton": 3573,
      "Ġinstr": 3574,
      "Ġdialysis</w>": 3575,
      "hol</w>": 3576,
      "Ġhilum</w>": 3577,
      "eration</w>": 3578,
      "Ġpath": 3579,
      "irr": 3580,
      "ĠVehicle</w>": 3581,
      "Ġincreasing</w>": 3582,
      "specified</w>": 3583,
      "Status</w>": 3584,
      "Ġalcohol</w>": 3585,
      "ricle</w>": 3586,
      "Ġfind": 3587,
      "Ġfrontal</w>": 3588,
      "Ġhep": 3589,
      "Ġdise": 3590,
      "Ġtrauma</w>": 3591,
      "Ġtract</w>": 3592,
      "Ġsubj": 3593,
      "ĠPrior</w>": 3594,
      "inged</w>": 3595,
      "Ġlobes</w>": 3596,
      "Ġventricle</w>": 3597,
      "Ġworse</w>": 3598,
      "Ġhemorrhage</w>": 3599,
      "Ġchoking</w>": 3600,
      "Ġresection</w>": 3601,
      "Ġinvolvement</w>": 3602,
      "specific</w>": 3603,
      "Ġfinding</w>": 3604,
      "'t</w>": 3605,
      "eizure</w>": 3606,
      "fol": 3607,
      "fort</w>": 3608,
      "imm": 3609,
      "oft</w>": 3610,
      "Ġorg": 3611,
      "sized</w>": 3612,
      "Ġpul": 3613,
      "hes</w>": 3614,
      "Ġches</w>": 3615,
      "ulsion</w>": 3616,
      "enlarged</w>": 3617,
      "Ġanxiety</w>": 3618,
      "yelo": 3619,
      "Ġconcern</w>": 3620,
      "neum": 3621,
      "uments</w>": 3622,
      "Ġhav": 3623,
      "Ġdiscom": 3624,
      "teme": 3625,
      "Ġdru": 3626,
      "elch": 3627,
      "entation</w>": 3628,
      "ĠMVC</w>": 3629,
      "uries</w>": 3630,
      "Fever</w>": 3631,
      "Ġatt": 3632,
      "Ġinjuries</w>": 3633,
      "Ġepigastric</w>": 3634,
      "Ġinfarct</w>": 3635,
      "Ġmarkers</w>": 3636,
      "ĠCancer</w>": 3637,
      "creening</w>": 3638,
      "Ġimmigrant</w>": 3639,
      "essed</w>": 3640,
      "Ġimplanted</w>": 3641,
      "Ġtherapy</w>": 3642,
      "Ġordered</w>": 3643,
      "Ġwheelch": 3644,
      "Ġchf</w>": 3645,
      "Ġgreater</w>": 3646,
      "troscoliosis</w>": 3647,
      "Ġtonight</w>": 3648,
      "Ġinstruments</w>": 3649,
      "irrhosis</w>": 3650,
      "neumothorax</w>": 3651,
      "Ġhaving</w>": 3652,
      "Ġdiscomfort</w>": 3653,
      "temesis</w>": 3654,
      "Ġdrug</w>": 3655,
      "Ġwheelchair</w>": 3656,
      "Th": 3657,
      "sche": 3658,
      "Ġcour": 3659,
      "Ġcigarette</w>": 3660,
      "ensation</w>": 3661,
      "oro": 3662,
      "esn</w>": 3663,
      "essive</w>": 3664,
      "oly": 3665,
      "atchy</w>": 3666,
      "Ġheart": 3667,
      "ective</w>": 3668,
      "Ġrev": 3669,
      "Ġliver</w>": 3670,
      "Ġplace</w>": 3671,
      "Ġrate</w>": 3672,
      "ĠPatchy</w>": 3673,
      "gency</w>": 3674,
      "Ġcontusion</w>": 3675,
      "Ġdoesn</w>": 3676,
      "utes</w>": 3677,
      "scle": 3678,
      "epsis</w>": 3679,
      "arian</w>": 3680,
      "Ġdense</w>": 3681,
      "Ġassaulted</w>": 3682,
      "rregular</w>": 3683,
      "Ġslurred</w>": 3684,
      "Ġpancreatitis</w>": 3685,
      "Ġimaging</w>": 3686,
      "Ġdisori": 3687,
      "beat</w>": 3688,
      "Ġperformed</w>": 3689,
      "Ġhepatic</w>": 3690,
      "Ġsubjective</w>": 3691,
      "Ġheartbeat</w>": 3692,
      "27</w>": 3693,
      "31</w>": 3694,
      "33</w>": 3695,
      "72</w>": 3696,
      ")-</w>": 3697,
      "BN": 3698,
      "CG</w>": 3699,
      "aine</w>": 3700,
      "ade</w>": 3701,
      "brevi": 3702,
      "cran": 3703,
      "days</w>": 3704,
      "horo": 3705,
      "iti": 3706,
      "kos": 3707,
      "lul": 3708,
      "nne</w>": 3709,
      "nessed</w>": 3710,
      "symptoms</w>": 3711,
      "tb</w>": 3712,
      "tchy</w>": 3713,
      "tinged</w>": 3714,
      "ure": 3715,
      "uche": 3716,
      "vulsion</w>": 3717,
      "inary</w>": 3718,
      "inations</w>": 3719,
      "pre": 3720,
      "Ġtre": 3721,
      "Ġtachyc": 3722,
      "tide</w>": 3723,
      "tizing</w>": 3724,
      "Ġpm</w>": 3725,
      "Ġpus": 3726,
      "Ġpep": 3727,
      "ramp": 3728,
      "Ġcramp": 3729,
      "Ġsli": 3730,
      "Ġische": 3731,
      "Ġnatri": 3732,
      "ergy</w>": 3733,
      "icade</w>": 3734,
      "esh</w>": 3735,
      "Ġlast": 3736,
      "Ġlasts</w>": 3737,
      "Ġiniti": 3738,
      "Ġbeg": 3739,
      "ĠTingling</w>": 3740,
      "Ġventral</w>": 3741,
      "Ġvacc": 3742,
      "nemia</w>": 3743,
      "ardic</w>": 3744,
      "dependent</w>": 3745,
      "umir": 3746,
      "urs</w>": 3747,
      "tercation</w>": 3748,
      "ĠCoc": 3749,
      "ĠItchy</w>": 3750,
      "Ġfive</w>": 3751,
      "hano": 3752,
      "teps</w>": 3753,
      "Ġdesp": 3754,
      "Ġdystrophy</w>": 3755,
      "Ġdecom": 3756,
      "Ġreplaced</w>": 3757,
      "Ġhyster": 3758,
      "Ġenergy</w>": 3759,
      "Ġhematemesis</w>": 3760,
      "acks</w>": 3761,
      "rium</w>": 3762,
      "roder": 3763,
      "rotizing</w>": 3764,
      "Ġexcision</w>": 3765,
      "Ġradial</w>": 3766,
      "Ġradiation</w>": 3767,
      "Ġbulging</w>": 3768,
      "hagic</w>": 3769,
      "ĠYear</w>": 3770,
      "ĠHumir": 3771,
      "ĠBang": 3772,
      "ĠBCG</w>": 3773,
      "ĠSurgical</w>": 3774,
      "Ġunspecified</w>": 3775,
      "Ġaltercation</w>": 3776,
      "splantation</w>": 3777,
      "Ġtransplantation</w>": 3778,
      "Ġkg</w>": 3779,
      "ymptomatic</w>": 3780,
      "Ġpretib": 3781,
      "Ġpreop</w>": 3782,
      "Ġadmit</w>": 3783,
      "Ġosteogenic</w>": 3784,
      "seas</w>": 3785,
      "ĠRep": 3786,
      "veitis</w>": 3787,
      "escribed</w>": 3788,
      "Ġarrest</w>": 3789,
      "Ġmuscular</w>": 3790,
      "ĠOsh": 3791,
      "Ġoverdo": 3792,
      "Ġoverseas</w>": 3793,
      "Ġnondependent</w>": 3794,
      "Ġextremities</w>": 3795,
      "amicade</w>": 3796,
      "ladesh</w>": 3797,
      "Ġundergo</w>": 3798,
      "ĠConfusion</w>": 3799,
      "ĠConvulsion</w>": 3800,
      "Ġasymptomatic</w>": 3801,
      "Ġoccurs</w>": 3802,
      "Ġendometrial</w>": 3803,
      "Ġpancreas</w>": 3804,
      "Ġcomments</w>": 3805,
      "urmese</w>": 3806,
      "Ġethano": 3807,
      "Ġhalluc": 3808,
      "witnessed</w>": 3809,
      "Ġfeel</w>": 3810,
      "Ġindwelling</w>": 3811,
      "Ġurinary</w>": 3812,
      "Ġmedicine</w>": 3813,
      "Ġadrenal</w>": 3814,
      "Complaints</w>": 3815,
      "Ġminutes</w>": 3816,
      "Ġbackache</w>": 3817,
      "ĠRadiograph</w>": 3818,
      "Ġorgan</w>": 3819,
      "Ġpulses</w>": 3820,
      "Ġattacks</w>": 3821,
      "BNP</w>": 3822,
      "breviations</w>": 3823,
      "cranial</w>": 3824,
      "horoidal</w>": 3825,
      "kosh</w>": 3826,
      "lulike</w>": 3827,
      "uretic</w>": 3828,
      "uchenne</w>": 3829,
      "Ġtreated</w>": 3830,
      "Ġtachycardic</w>": 3831,
      "Ġpushed</w>": 3832,
      "Ġpeptide</w>": 3833,
      "Ġcramping</w>": 3834,
      "Ġslipped</w>": 3835,
      "Ġischemia</w>": 3836,
      "Ġnatriuretic</w>": 3837,
      "Ġlasting</w>": 3838,
      "Ġinitiation</w>": 3839,
      "Ġbeginning</w>": 3840,
      "Ġvaccination</w>": 3841,
      "ĠCocaine</w>": 3842,
      "Ġdespite</w>": 3843,
      "Ġdecompression</w>": 3844,
      "Ġhysterectomy</w>": 3845,
      "roderma</w>": 3846,
      "ĠHumira</w>": 3847,
      "ĠBangladesh</w>": 3848,
      "Ġpretibial</w>": 3849,
      "ĠReported</w>": 3850,
      "ĠOshkosh</w>": 3851,
      "Ġoverdose</w>": 3852,
      "Ġethanol</w>": 3853,
      "Ġhallucinations</w>": 3854,
      "Upper</w>": 3855,
      "ef</w>": 3856,
      "Ġter": 3857,
      "rally</w>": 3858,
      "dialysis</w>": 3859,
      "Ġhemo": 3860,
      "hief</w>": 3861,
      "Ġraise</w>": 3862,
      "Ġsubsternal</w>": 3863,
      "lowing</w>": 3864,
      "Ġremain</w>": 3865,
      "Ġexclude</w>": 3866,
      "Ġreveal</w>": 3867,
      "Ġhemodialysis</w>": 3868,
      "Anemia</w>": 3869,
      "Burmese</w>": 3870,
      "Cystic</w>": 3871,
      "Cigarette</w>": 3872,
      "Choroidal</w>": 3873,
      "Duchenne</w>": 3874,
      "Evaluation</w>": 3875,
      "End</w>": 3876,
      "Flulike</w>": 3877,
      "High</w>": 3878,
      "Long</w>": 3879,
      "Liver</w>": 3880,
      "Pre</w>": 3881,
      "Pro": 3882,
      "Routine</w>": 3883,
      "Ramicade</w>": 3884,
      "Since</w>": 3885,
      "Seizure</w>": 3886,
      "Screening</w>": 3887,
      "Sensation</w>": 3888,
      "Sepsis</w>": 3889,
      "Steps</w>": 3890,
      "Thed</w>": 3891,
      "body</w>": 3892,
      "chills</w>": 3893,
      "ple": 3894,
      "syncopal</w>": 3895,
      "uveitis</w>": 3896,
      "Ġ14</w>": 3897,
      "Ġ:.<</w>": 3898,
      "intra": 3899,
      "Ġcd</w>": 3900,
      "Ġsac": 3901,
      "Ġshad": 3902,
      "stoperative</w>": 3903,
      "sputum</w>": 3904,
      "Ġdescribed</w>": 3905,
      "Ġlevel</w>": 3906,
      "Ġtransp": 3907,
      "Posterior</w>": 3908,
      "hemorr": 3909,
      "Unresponsive</w>": 3910,
      "Unwitnessed</w>": 3911,
      "Alleged</w>": 3912,
      "Allogeneic</w>": 3913,
      "Lymphadenopathy</w>": 3914,
      "Ġrepresents</w>": 3915,
      "nique</w>": 3916,
      "Ġtechnique</w>": 3917,
      "necrotizing</w>": 3918,
      "Hepatic</w>": 3919,
      "recent</w>": 3920,
      "Starting</w>": 3921,
      "Pruritic</w>": 3922,
      "Assess</w>": 3923,
      "immigrant</w>": 3924,
      "Throat</w>": 3925,
      "scleroderma</w>": 3926,
      "pleuritic</w>": 3927,
      "intracranial</w>": 3928,
      "hemorrhagic</w>": 3929,
      "58</w>": 3930,
      "HF</w>": 3931,
      "cemaker</w>": 3932,
      "Ġz": 3933,
      "Ġplease</w>": 3934,
      "Ġear": 3935,
      "spine</w>": 3936,
      "pacemaker</w>": 3937,
      "ili": 3938,
      "Ġrales</w>": 3939,
      "Ġalleged</w>": 3940,
      "ĠRec": 3941,
      "veals</w>": 3942,
      "alpitation</w>": 3943,
      "Ġdextroscoliosis</w>": 3944,
      "ĠScattered</w>": 3945,
      "tionable</w>": 3946,
      "Ġdiseases</w>": 3947,
      ",,</w>": 3948,
      "etra": 3949,
      "venous</w>": 3950,
      "est": 3951,
      "trast</w>": 3952,
      "Ġcardioverter</w>": 3953,
      "Ġlocated</w>": 3954,
      "Ġintravenous</w>": 3955,
      "abetes</w>": 3956,
      "ĠOpa": 3957,
      "Ġleukemia</w>": 3958,
      "Ġimplantable</w>": 3959,
      "Ġrequiring</w>": 3960,
      "Ġdemonstrate</w>": 3961,
      "rainage</w>": 3962,
      "ĠProminent</w>": 3963,
      "omyo": 3964,
      "Ġsec": 3965,
      "enting</w>": 3966,
      "Ġhome</w>": 3967,
      "ĠChief</w>": 3968,
      "oten": 3969,
      "Ġretr": 3970,
      "Ġreveals</w>": 3971,
      "roili": 3972,
      "Ġreported</w>": 3973,
      "Ġperipherally</w>": 3974,
      "ICD</w>": 3975,
      "ĠAtherosclerotic</w>": 3976,
      "Ġsacroili": 3977,
      "omyopathy</w>": 3978,
      "KG</w>": 3979,
      "XR</w>": 3980,
      "au": 3981,
      "sal</w>": 3982,
      "shoulder</w>": 3983,
      "ina</w>": 3984,
      "Ġper</w>": 3985,
      "ram</w>": 3986,
      "Ġcau": 3987,
      "arran": 3988,
      "eri": 3989,
      "Ġwarran": 3990,
      "Ġsupr": 3991,
      "Ġrh": 3992,
      "cted</w>": 3993,
      "ĠCXR</w>": 3994,
      "othing</w>": 3995,
      "lower</w>": 3996,
      "Ġdysp": 3997,
      "Ġdrainage</w>": 3998,
      "Ġconfirms</w>": 3999,
      "entilation</w>": 4000,
      "ogram</w>": 4001,
      "eph": 4002,
      "Ġstudies</w>": 4003,
      "Ġbiapical</w>": 4004,
      "Ġremains</w>": 4005,
      "Ġcarotid</w>": 4006,
      "Ġfalling</w>": 4007,
      "Ġclothing</w>": 4008,
      "Ġpathology</w>": 4009,
      "Irregular</w>": 4010,
      "Multiple</w>": 4011,
      "Pain</w>": 4012,
      "Palpitation</w>": 4013,
      "Worsening</w>": 4014,
      "rocardi": 4015,
      "Ġpol": 4016,
      "Ġsix</w>": 4017,
      "Ġanteri": 4018,
      "Ġsevere</w>": 4019,
      "Ġstage</w>": 4020,
      "Ġvision</w>": 4021,
      "Ġunfol": 4022,
      "Ġatrium</w>": 4023,
      "urry</w>": 4024,
      "ĠMediastinum</w>": 4025,
      "Ġrepresenting</w>": 4026,
      "Ġblurry</w>": 4027,
      "ĠHyper": 4028,
      "Ġairways</w>": 4029,
      "Head</w>": 4030,
      "Ġpartial</w>": 4031,
      "preprocedure</w>": 4032,
      "Ġanteriorly</w>": 4033,
      "53</w>": 4034,
      "CABG</w>": 4035,
      "bing</w>": 4036,
      "best": 4037,
      "eter</w>": 4038,
      "go</w>": 4039,
      "kin": 4040,
      "oci": 4041,
      "tortu": 4042,
      "utive</w>": 4043,
      "wal</w>": 4044,
      "omye": 4045,
      "tive": 4046,
      "sitive": 4047,
      "rawal</w>": 4048,
      "levated</w>": 4049,
      "eness</w>": 4050,
      "arm</w>": 4051,
      "Ġneph": 4052,
      "ertional</w>": 4053,
      "Ġinsu": 4054,
      "Ġdiam": 4055,
      "Ġmig": 4056,
      "Ġmurm": 4057,
      "Ġrecurr": 4058,
      "culi</w>": 4059,
      "Ġhe</w>": 4060,
      "Ġcalculi</w>": 4061,
      "ters</w>": 4062,
      "opaus": 4063,
      "Ġdete": 4064,
      "Ġrever": 4065,
      "Ġju": 4066,
      "iving</w>": 4067,
      "Ġforearm</w>": 4068,
      "hagia</w>": 4069,
      "ĠNon</w>": 4070,
      "post</w>": 4071,
      "litis</w>": 4072,
      "abbing</w>": 4073,
      "Ġcoar": 4074,
      "fficiency</w>": 4075,
      "Ġosteomye": 4076,
      "Positive": 4077,
      "ightsweats</w>": 4078,
      "ĠOne</w>": 4079,
      "Ġassoci": 4080,
      "ĠUnknown</w>": 4081,
      "fore</w>": 4082,
      "Ġasbest": 4083,
      "oarse</w>": 4084,
      "hdrawal</w>": 4085,
      "Ġinvolved</w>": 4086,
      "Ġthrombosis</w>": 4087,
      "raines</w>": 4088,
      "Ġ-></w>": 4089,
      "Ġdysphagia</w>": 4090,
      "tortuosity</w>": 4091,
      "Ġinsufficiency</w>": 4092,
      "Ġdiameter</w>": 4093,
      "Ġmigraines</w>": 4094,
      "Ġmurmur</w>": 4095,
      "Ġrecurrence</w>": 4096,
      "opausal</w>": 4097,
      "Ġreversal</w>": 4098,
      "Ġosteomyelitis</w>": 4099,
      "Positivekin</w>": 4100,
      "Ġassociated</w>": 4101,
      "Ġasbestos</w>": 4102,
      "CHF</w>": 4103,
      "eed</w>": 4104,
      "pation</w>": 4105,
      "tipation</w>": 4106,
      "sid": 4107,
      "allo": 4108,
      "Ġindigestion</w>": 4109,
      "Ġarti": 4110,
      "Ġconstipation</w>": 4111,
      "ilar</w>": 4112,
      "ĠLymp": 4113,
      "like</w>": 4114,
      "Ġimplantation</w>": 4115,
      "Ġhypoten": 4116,
      "Ġlingula</w>": 4117,
      "Ġimmunosuppressed</w>": 4118,
      "Ġimageed</w>": 4119,
      "Ġcauses</w>": 4120,
      "Ġhypotension</w>": 4121,
      "$,</w>": 4122,
      "ER": 4123,
      "EKG</w>": 4124,
      "GER": 4125,
      "Join": 4126,
      "ax</w>": 4127,
      "cs</w>": 4128,
      "issure</w>": 4129,
      "menti": 4130,
      "non": 4131,
      "oh</w>": 4132,
      "pair</w>": 4133,
      "Ġ$,</w>": 4134,
      "Ġtrop": 4135,
      "Ġtetra": 4136,
      "Ġcare</w>": 4137,
      "onin</w>": 4138,
      "onidal</w>": 4139,
      "Ġfat</w>": 4140,
      "Ġwhee": 4141,
      "icals</w>": 4142,
      "esulting</w>": 4143,
      "Ġlong</w>": 4144,
      "Ġeating</w>": 4145,
      "olore": 4146,
      "aise</w>": 4147,
      "ĠThoracic</w>": 4148,
      "ffusion</w>": 4149,
      "rectomy</w>": 4150,
      "repair</w>": 4151,
      "term</w>": 4152,
      "ĠCarcin": 4153,
      "ubstance</w>": 4154,
      "trache": 4155,
      "trauma</w>": 4156,
      "logy</w>": 4157,
      "loody</w>": 4158,
      "Ġduration</w>": 4159,
      "mpit</w>": 4160,
      "Ġdefibrillator</w>": 4161,
      "Ġdementi": 4162,
      "ecutive</w>": 4163,
      "ĠDuration</w>": 4164,
      "Ġgown</w>": 4165,
      "Ġarmpit</w>": 4166,
      "anax</w>": 4167,
      "Ġcolostomy</w>": 4168,
      "terization</w>": 4169,
      "Ġconsecutive</w>": 4170,
      "ilonidal</w>": 4171,
      "Ġabscesses</w>": 4172,
      "ysubstance</w>": 4173,
      "Ġcatheterization</w>": 4174,
      "Ġelectrocardi": 4175,
      "Ġunresponsive</w>": 4176,
      "Ġxanax</w>": 4177,
      "ĠDiaphragm</w>": 4178,
      "Ġmalaise</w>": 4179,
      "ondary</w>": 4180,
      "Ġnonradiating</w>": 4181,
      "Ġremove</w>": 4182,
      "ĠFallo": 4183,
      "elevated</w>": 4184,
      "ancreatic</w>": 4185,
      "otics</w>": 4186,
      "Ġcommissure</w>": 4187,
      "Ġetoh</w>": 4188,
      "Ġhalf</w>": 4189,
      "ĠAtypical</w>": 4190,
      "Ġchemicals</w>": 4191,
      "Ġantibiotics</w>": 4192,
      "operitoneal</w>": 4193,
      "Ġcourse</w>": 4194,
      "ĠRecently</w>": 4195,
      "Ġsecondary</w>": 4196,
      "Ġretroperitoneal</w>": 4197,
      "Ġsacroiliitis</w>": 4198,
      "Ġwarrants</w>": 4199,
      "Ġpolysubstance</w>": 4200,
      "Ġnephrectomy</w>": 4201,
      "Ġdetected</w>": 4202,
      "GERD</w>": 4203,
      "Joint</w>": 4204,
      "nonproductive</w>": 4205,
      "Ġtroponin</w>": 4206,
      "Ġtetralogy</w>": 4207,
      "Ġwheeze</w>": 4208,
      "olorectal</w>": 4209,
      "ĠCarcinoid</w>": 4210,
      "tracheal</w>": 4211,
      "Ġdementia</w>": 4212,
      "Ġelectrocardiogram</w>": 4213,
      "ĠFallot</w>": 4214,
      "aneous</w>": 4215,
      "milar</w>": 4216,
      "Ġsul": 4217,
      "tened</w>": 4218,
      "Ġspurr": 4219,
      "utaneous</w>": 4220,
      "Ġsignificantly</w>": 4221,
      "Ġprojection</w>": 4222,
      "Ġflattened</w>": 4223,
      "Ġspurring</w>": 4224,
      "16</w>": 4225,
      "43</w>": 4226,
      "46</w>": 4227,
      "Bloody</w>": 4228,
      "Ca": 4229,
      "Coarse</w>": 4230,
      "Colorectal</w>": 4231,
      "Effusion</w>": 4232,
      "Mid</w>": 4233,
      "Nipple</w>": 4234,
      "Physical</w>": 4235,
      "Previ": 4236,
      "Pancreatic</w>": 4237,
      "Renal</w>": 4238,
      "Resulting</w>": 4239,
      "Two</w>": 4240,
      "pic": 4241,
      "pilonidal</w>": 4242,
      "Ġ...<</w>": 4243,
      "pre</w>": 4244,
      "Ġax": 4245,
      "Ġcaus": 4246,
      "stabbing</w>": 4247,
      "Ġcontrast</w>": 4248,
      "nesia</w>": 4249,
      "elv": 4250,
      "erall</w>": 4251,
      "Ġparatracheal</w>": 4252,
      "Postoperative</w>": 4253,
      "Ġbefore</w>": 4254,
      "Inside</w>": 4255,
      "Increased</w>": 4256,
      "Ġamnesia</w>": 4257,
      "Ġoccurred</w>": 4258,
      "congestion</w>": 4259,
      "Anxiety</w>": 4260,
      "sweating</w>": 4261,
      "recently</w>": 4262,
      "Bronchiectasis</w>": 4263,
      "Exertional</w>": 4264,
      "withdrawal</w>": 4265,
      "Ġcorre": 4266,
      "Ġquestionable</w>": 4267,
      "Previous</w>": 4268,
      "picc</w>": 4269,
      "Ġcausing</w>": 4270,
      "Ġo</w>": 4271,
      "Ġpelv": 4272,
      "Ġho": 4273,
      "Ġresid": 4274,
      "escending</w>": 4275,
      "scoliosis</w>": 4276,
      "Ġprobable</w>": 4277,
      "Ġengorgement</w>": 4278,
      "Ġsulc": 4279,
      "sition</w>": 4280,
      "Ġsimilar</w>": 4281,
      "Ġnipple</w>": 4282,
      "Ġhigh</w>": 4283,
      "minis": 4284,
      "proved</w>": 4285,
      "Ġthem</w>": 4286,
      "Ġzone</w>": 4287,
      "minished</w>": 4288,
      "emo": 4289,
      "late</w>": 4290,
      "Ġso</w>": 4291,
      "ĠAc": 4292,
      "Ġmarg": 4293,
      "Ġdescending</w>": 4294,
      "Ġaspect</w>": 4295,
      "Ġcatheters</w>": 4296,
      "ĠMass</w>": 4297,
      "Ġectatic</w>": 4298,
      "mphysema</w>": 4299,
      "ague</w>": 4300,
      "Ġdiminished</w>": 4301,
      "lop": 4302,
      "ĠExa": 4303,
      "velop": 4304,
      "Ġfibrotic</w>": 4305,
      "Ġcoarse</w>": 4306,
      "gg": 4307,
      "ximal</w>": 4308,
      "Ġ8</w>": 4309,
      "preci": 4310,
      "idline</w>": 4311,
      "Ġappreci": 4312,
      "ĠMidline</w>": 4313,
      "Ġproximal</w>": 4314,
      "ĠConsolidation</w>": 4315,
      "Ġslight</w>": 4316,
      "Ġhumeral</w>": 4317,
      "oscoliosis</w>": 4318,
      "Ġtop</w>": 4319,
      "Ġcu": 4320,
      "ull": 4321,
      "demonst": 4322,
      "Ġgunshot</w>": 4323,
      "Ġopacification</w>": 4324,
      "Ġacc": 4325,
      "Ġunderlying</w>": 4326,
      "ew": 4327,
      "ool</w>": 4328,
      "sened</w>": 4329,
      "tro": 4330,
      "ul</w>": 4331,
      "Ġcardio</w>": 4332,
      "Ġdevelop": 4333,
      "Ġretro": 4334,
      "Ġstool</w>": 4335,
      "Ġlobar</w>": 4336,
      "Ġoverli": 4337,
      "Ġpresentwhere</w>": 4338,
      "imit": 4339,
      "ĠThe": 4340,
      "ĠLimit": 4341,
      "inflated</w>": 4342,
      "Ġsuperimp": 4343,
      "acter": 4344,
      "Ġrequi": 4345,
      "ĠIncreased</w>": 4346,
      "ĠLimited</w>": 4347,
      "Ġpart</w>": 4348,
      "itus</w>": 4349,
      "und</w>": 4350,
      "ĠCentral</w>": 4351,
      "icardial</w>": 4352,
      "ela</w>": 4353,
      "Ġobtained</w>": 4354,
      "acent</w>": 4355,
      "ĠMain</w>": 4356,
      "ĠVomiting</w>": 4357,
      "Ġresidual</w>": 4358,
      "dlike</w>": 4359,
      "elae</w>": 4360,
      "gr": 4361,
      "gular</w>": 4362,
      "otic</w>": 4363,
      "inate</w>": 4364,
      "prov": 4365,
      "Ġaeration</w>": 4366,
      "her</w>": 4367,
      "ither</w>": 4368,
      "determ": 4369,
      "Ġmastectomy</w>": 4370,
      "ĠIn</w>": 4371,
      "losure</w>": 4372,
      "andlike</w>": 4373,
      "Ġhyperluc": 4374,
      "ĠLe": 4375,
      "Ġcondition</w>": 4376,
      "Ġindicate</w>": 4377,
      "Ġlevoscoliosis</w>": 4378,
      "rowing</w>": 4379,
      "Ġesophagus</w>": 4380,
      "Ġterms</w>": 4381,
      "Ġjugular</w>": 4382,
      "Ġsuperimposed</w>": 4383,
      "acterial</w>": 4384,
      "provement</w>": 4385,
      "determinate</w>": 4386,
      "PICC</w>": 4387,
      "ir</w>": 4388,
      "jacent</w>": 4389,
      "ommen": 4390,
      "Ġasc": 4391,
      "Ġport": 4392,
      "Ġsom": 4393,
      "Ġfunction</w>": 4394,
      "ĠAort": 4395,
      "lavi": 4396,
      "Ġhour</w>": 4397,
      "Ġnode</w>": 4398,
      "ĠSoft</w>": 4399,
      "Ġblunted</w>": 4400,
      "Ġresul": 4401,
      "Ġsubclavi": 4402,
      "Ġappreciated</w>": 4403,
      "Ġretrosternal</w>": 4404,
      "Ġascending</w>": 4405,
      "ĠAorta</w>": 4406,
      "Ġsubclavian</w>": 4407,
      "arted</w>": 4408,
      "Ġbsence</w>": 4409,
      "Ġsur": 4410,
      "Ġgeneralized</w>": 4411,
      "Ġstarted</w>": 4412,
      "ented</w>": 4413,
      "ĠPer": 4414,
      "ternal</w>": 4415,
      "Ġadjacent</w>": 4416,
      "Ġimproved</w>": 4417,
      "Ġimprovement</w>": 4418,
      "ounded</w>": 4419,
      "illa</w>": 4420,
      "wever</w>": 4421,
      "Ġaxilla</w>": 4422,
      "ĠThese</w>": 4423,
      "fact</w>": 4424,
      "iate</w>": 4425,
      "Ġ28</w>": 4426,
      "priate</w>": 4427,
      "Ġfissure</w>": 4428,
      "Ġrevi": 4429,
      "Ġstated</w>": 4430,
      "ĠBone</w>": 4431,
      "ĠMode": 4432,
      "ĠGranul": 4433,
      "Ġovert</w>": 4434,
      "Ġappropriate</w>": 4435,
      "Ġresol": 4436,
      "Ġartifact</w>": 4437,
      "Ġportable</w>": 4438,
      "ĠModerate</w>": 4439,
      "Cardi": 4440,
      "gl": 4441,
      "veral</w>": 4442,
      "Ġap</w>": 4443,
      "tially</w>": 4444,
      "rately</w>": 4445,
      "ente": 4446,
      "erior</w>": 4447,
      "Ġdilated</w>": 4448,
      "Ġvague</w>": 4449,
      "Ġdate</w>": 4450,
      "Ġref": 4451,
      "Ġhypo": 4452,
      "ĠPro": 4453,
      "ĠWheezing</w>": 4454,
      "ĠEsophageal</w>": 4455,
      "treaky</w>": 4456,
      "Ġmoderately</w>": 4457,
      "Ġthoracente": 4458,
      "Ġinvolving</w>": 4459,
      "Ġsequela</w>": 4460,
      "ewhat</w>": 4461,
      "ĠLeuk": 4462,
      "Ġthoracentesis</w>": 4463,
      "cing</w>": 4464,
      "fy</w>": 4465,
      "ff</w>": 4466,
      "yng": 4467,
      "Ġcri": 4468,
      "erous</w>": 4469,
      "Ġlit": 4470,
      "umerous</w>": 4471,
      "Ġindivid": 4472,
      "temp": 4473,
      "Ġobese</w>": 4474,
      "Ġseveral</w>": 4475,
      "pressive</w>": 4476,
      "Ġless</w>": 4477,
      "Ġtim": 4478,
      "ĠWit": 4479,
      "Ġsweating</w>": 4480,
      "Ġallergic</w>": 4481,
      "Ġattemp": 4482,
      "ĠRe": 4483,
      "Ġepicardial</w>": 4484,
      "Ġused</w>": 4485,
      "ĠFurther</w>": 4486,
      "Ġprosthe": 4487,
      "Ġexcluded</w>": 4488,
      "Ġrotator</w>": 4489,
      "Ġcorrelate</w>": 4490,
      "ggerated</w>": 4491,
      "Ġcuff</w>": 4492,
      "demonstration</w>": 4493,
      "Ġresult</w>": 4494,
      "yngeal</w>": 4495,
      "Ġliters</w>": 4496,
      "Ġindividual</w>": 4497,
      "Ġattempting</w>": 4498,
      "21</w>": 4499,
      "ML</w>": 4500,
      "aw</w>": 4501,
      "aerated</w>": 4502,
      "mur</w>": 4503,
      "Ġ7": 4504,
      "Ġ9": 4505,
      "Ġ9</w>": 4506,
      "ĠFever</w>": 4507,
      "Ġparenchy": 4508,
      "Ġcir": 4509,
      "Ġiritis</w>": 4510,
      "Ġfour</w>": 4511,
      "Ġwir": 4512,
      "Ġsutures</w>": 4513,
      "Ġmet": 4514,
      "Ġro": 4515,
      "Ġrounded</w>": 4516,
      "idly</w>": 4517,
      "ĠCoughing</w>": 4518,
      "ĠCirrhosis</w>": 4519,
      "ubation</w>": 4520,
      "lob": 4521,
      "Ġretained</w>": 4522,
      "Ġlie</w>": 4523,
      "Ġjaw</w>": 4524,
      "Ġposter": 4525,
      "Ġinferior</w>": 4526,
      "thr": 4527,
      "ĠPar": 4528,
      "ĠPersistent</w>": 4529,
      "ĠBased</w>": 4530,
      "Ġdown</w>": 4531,
      "Ġsinu": 4532,
      "spice</w>": 4533,
      "Ġovarian</w>": 4534,
      "Ġoverall</w>": 4535,
      "orbidly</w>": 4536,
      "Ġdisorder</w>": 4537,
      "ĠAtrial</w>": 4538,
      "ĠAllergic</w>": 4539,
      "eriphe": 4540,
      "Ġhospice</w>": 4541,
      "Ġsulcus</w>": 4542,
      "Ġsomewhat</w>": 4543,
      "Ġhypov": 4544,
      "Ġparenchyma</w>": 4545,
      "Ġwires</w>": 4546,
      "cum": 4547,
      "cell</w>": 4548,
      "ken</w>": 4549,
      "osition</w>": 4550,
      "sing</w>": 4551,
      "wed</w>": 4552,
      "Ġv</w>": 4553,
      "Ġamo": 4554,
      "Ġaerated</w>": 4555,
      "Ġcou": 4556,
      "mass</w>": 4557,
      "Ġsy": 4558,
      "Ġimpression</w>": 4559,
      "ord": 4560,
      "Ġfact": 4561,
      "ically</w>": 4562,
      "Ġlack</w>": 4563,
      "olic</w>": 4564,
      "itor</w>": 4565,
      "Ġmm</w>": 4566,
      "Ġmor": 4567,
      "Ġnor</w>": 4568,
      "Ġnose": 4569,
      "stly</w>": 4570,
      "reat</w>": 4571,
      "ured</w>": 4572,
      "ĠCurrently</w>": 4573,
      "han": 4574,
      "Ġfemur</w>": 4575,
      "opsy</w>": 4576,
      "Ġbreat</w>": 4577,
      "Ġgreat</w>": 4578,
      "ildly</w>": 4579,
      "roken</w>": 4580,
      "Ġcompressive</w>": 4581,
      "Ġmostly</w>": 4582,
      "ĠDiabetes</w>": 4583,
      "Ġworsened</w>": 4584,
      "Ġlaryngeal</w>": 4585,
      "Ġmonitor</w>": 4586,
      "Ġassess</w>": 4587,
      "ovascular</w>": 4588,
      "Ġneither</w>": 4589,
      "ĠVascular</w>": 4590,
      "oplas": 4591,
      "Ġfoot</w>": 4592,
      "Ġpancreatic</w>": 4593,
      "Ġsequelae</w>": 4594,
      "ĠLymphadenopathy</w>": 4595,
      "Ġpelvic</w>": 4596,
      "Ġcrisis</w>": 4597,
      "Ġamount</w>": 4598,
      "Ġcouple</w>": 4599,
      "56</w>": 4600,
      "AML</w>": 4601,
      "BP</w>": 4602,
      "DS</w>": 4603,
      "ES": 4604,
      "Elevated</w>": 4605,
      "IDS</w>": 4606,
      "SBP</w>": 4607,
      "coughing</w>": 4608,
      "ebr": 4609,
      "ferative</w>": 4610,
      "hritis</w>": 4611,
      "lom": 4612,
      "lgia</w>": 4613,
      "mer": 4614,
      "mot": 4615,
      "mis": 4616,
      "mentation</w>": 4617,
      "ny</w>": 4618,
      "night</w>": 4619,
      "opr": 4620,
      "phritis</w>": 4621,
      "vin": 4622,
      "ythr": 4623,
      "ĠFindings</w>": 4624,
      "ingestion</w>": 4625,
      "indeterminate</w>": 4626,
      "Ġtyp": 4627,
      "tio</w>": 4628,
      "sitis</w>": 4629,
      "Ġpil": 4630,
      "Ġparenchymal</w>": 4631,
      "Ġpyelo": 4632,
      "ulone": 4633,
      "lect": 4634,
      "onitis</w>": 4635,
      "onged</w>": 4636,
      "onta": 4637,
      "Ġsedi": 4638,
      "Ġsyp": 4639,
      "erulone": 4640,
      "Ġface</w>": 4641,
      "esaturation</w>": 4642,
      "Ġemer": 4643,
      "olonged</w>": 4644,
      "ĠAIDS</w>": 4645,
      "itonitis</w>": 4646,
      "Ġbandlike</w>": 4647,
      "Ġbroken</w>": 4648,
      "Ġconvin": 4649,
      "rement</w>": 4650,
      "hasia</w>": 4651,
      "Ġfeel": 4652,
      "Ġfell</w>": 4653,
      "mpull": 4654,
      "hralgia</w>": 4655,
      "Ġdepart": 4656,
      "Ġbreasts</w>": 4657,
      "Ġremot": 4658,
      "Ġglom": 4659,
      "ycemia</w>": 4660,
      "Ġhypergl": 4661,
      "Ġenter": 4662,
      "Ġpound</w>": 4663,
      "ranopr": 4664,
      "Ġextensive</w>": 4665,
      "Ġratio</w>": 4666,
      "oliferative</w>": 4667,
      "ĠBacterial</w>": 4668,
      "ĠSe": 4669,
      "ĠStreaky</w>": 4670,
      "ĠMyelo": 4671,
      "ĠMildly</w>": 4672,
      "aking</w>": 4673,
      "Ġintubation</w>": 4674,
      "plasty</w>": 4675,
      "lier</w>": 4676,
      "Ġcerebr": 4677,
      "mbranopr": 4678,
      "hilis</w>": 4679,
      "ĠOxygen</w>": 4680,
      "ĠOcc": 4681,
      "Ġovernight</w>": 4682,
      "ĠSix</w>": 4683,
      "Ġmarked</w>": 4684,
      "Ġtracheostomy</w>": 4685,
      "Ġangina</w>": 4686,
      "lowed</w>": 4687,
      "arthralgia</w>": 4688,
      "Ġerythr": 4689,
      "Ġneed</w>": 4690,
      "ocyte</w>": 4691,
      "ctured</w>": 4692,
      "ĠSponta": 4693,
      "Ġmembranopr": 4694,
      "Ġdehydrated</w>": 4695,
      "Ġinduction</w>": 4696,
      "Ġswallow</w>": 4697,
      "Ġswallowed</w>": 4698,
      "Ġrecommen": 4699,
      "Ġpresented</w>": 4700,
      "olyarthralgia</w>": 4701,
      "Ġdisoriented</w>": 4702,
      "Ġshadow</w>": 4703,
      "Ġearlier</w>": 4704,
      "Ġunfolding</w>": 4705,
      "emoved</w>": 4706,
      "Ġrequirement</w>": 4707,
      "gressive</w>": 4708,
      "ĠPeritonitis</w>": 4709,
      "Ġrevision</w>": 4710,
      "ĠLeukemia</w>": 4711,
      "Ġ79</w>": 4712,
      "Ġ98</w>": 4713,
      "Ġroom</w>": 4714,
      "Ġsinusitis</w>": 4715,
      "ESR</w>": 4716,
      "mission</w>": 4717,
      "Ġtype</w>": 4718,
      "Ġpills</w>": 4719,
      "Ġpyeloplasty</w>": 4720,
      "Ġsedimentation</w>": 4721,
      "Ġsyphilis</w>": 4722,
      "erulonephritis</w>": 4723,
      "Ġemergency</w>": 4724,
      "Ġconvincing</w>": 4725,
      "Ġfeeling</w>": 4726,
      "mpullary</w>": 4727,
      "Ġdepartment</w>": 4728,
      "Ġremote</w>": 4729,
      "Ġglomerulonephritis</w>": 4730,
      "Ġhyperglycemia</w>": 4731,
      "ĠMyeloid</w>": 4732,
      "Ġcerebrovascular</w>": 4733,
      "ĠOccasional</w>": 4734,
      "Ġerythrocyte</w>": 4735,
      "ĠSpontaneous</w>": 4736,
      "Ġmembranoproliferative</w>": 4737,
      "66</w>": 4738,
      "IN": 4739,
      "blee": 4740,
      "ductive</w>": 4741,
      "ized</w>": 4742,
      "nati": 4743,
      "owed</w>": 4744,
      "pid</w>": 4745,
      "sl": 4746,
      "sv": 4747,
      "tle</w>": 4748,
      "xr</w>": 4749,
      "Ġaut": 4750,
      "Ġcr": 4751,
      "Ġcxr</w>": 4752,
      "onc": 4753,
      "Ġir": 4754,
      "articular</w>": 4755,
      "aroscop": 4756,
      "ervical</w>": 4757,
      "Ġlap": 4758,
      "ĠAir</w>": 4759,
      "unny</w>": 4760,
      "Ġrunny</w>": 4761,
      "Ġabbreviations</w>": 4762,
      "stoplas": 4763,
      "Ġpneumon": 4764,
      "lous</w>": 4765,
      "Ġmediastinitis</w>": 4766,
      "Ġfibros": 4767,
      "Ġhypertensive</w>": 4768,
      "illan": 4769,
      "Ġvertebr": 4770,
      "ripped</w>": 4771,
      "Ġrapid</w>": 4772,
      "Ġinternati": 4773,
      "Ġbullous</w>": 4774,
      "inful</w>": 4775,
      "Ġradiography</w>": 4776,
      "Ġure": 4777,
      "Ġpread": 4778,
      "Ġcoord": 4779,
      "veillan": 4780,
      "ĠOnset</w>": 4781,
      "Abbreviations</w>": 4782,
      "Ġelbowed</w>": 4783,
      "Ġresulting</w>": 4784,
      "Ġnormalized</w>": 4785,
      "Ġexcessive</w>": 4786,
      "ologous</w>": 4787,
      "Ġpartially</w>": 4788,
      "Ġurgency</w>": 4789,
      "ĠAtherosclerosis</w>": 4790,
      "olyarticular</w>": 4791,
      "Ġdisorientation</w>": 4792,
      "Ġtransposition</w>": 4793,
      "Ġsurveillan": 4794,
      "ĠProductive</w>": 4795,
      "Ġfactors</w>": 4796,
      "Ġnoseblee": 4797,
      "INR</w>": 4798,
      "svc</w>": 4799,
      "Ġautologous</w>": 4800,
      "aroscopic</w>": 4801,
      "Ġlaparoscopic</w>": 4802,
      "stoplasm": 4803,
      "Ġfibrosing</w>": 4804,
      "Ġinternational</w>": 4805,
      "Ġpreadmission</w>": 4806,
      "Ġcoordination</w>": 4807,
      "Ġsurveillance</w>": 4808,
      "Ġnosebleeds</w>": 4809,
      "92</w>": 4810,
      "-...<</w>": 4811,
      "Call</w>": 4812,
      "Cirrhosis</w>": 4813,
      "Closure</w>": 4814,
      "De": 4815,
      "Desaturation</w>": 4816,
      "Flank</w>": 4817,
      "Generalized</w>": 4818,
      "Hodgkin</w>": 4819,
      "Morbidly</w>": 4820,
      "Non</w>": 4821,
      "Ong": 4822,
      "Polyarthralgia</w>": 4823,
      "Removed</w>": 4824,
      "Tripped</w>": 4825,
      "ampullary</w>": 4826,
      "dysp": 4827,
      "emale</w>": 4828,
      "evaluate</w>": 4829,
      "emphysema</w>": 4830,
      "female</w>": 4831,
      "garette</w>": 4832,
      "polyarticular</w>": 4833,
      "sore</w>": 4834,
      "increased</w>": 4835,
      "tious</w>": 4836,
      "Ġful": 4837,
      "Ġfor": 4838,
      "Ġlad": 4839,
      "allogeneic</w>": 4840,
      "cigarette</w>": 4841,
      "apula</w>": 4842,
      "mplan": 4843,
      "painful</w>": 4844,
      "Ġexternal</w>": 4845,
      "mitted</w>": 4846,
      "calcified</w>": 4847,
      "ĠSome</w>": 4848,
      "hypoxemia</w>": 4849,
      "abolic</w>": 4850,
      "ĠDiaphragmatic</w>": 4851,
      "Ġcervic": 4852,
      "seizure</w>": 4853,
      "Ġspecify</w>": 4854,
      "omatous</w>": 4855,
      "scapula</w>": 4856,
      "Ġoverla": 4857,
      "Concern</w>": 4858,
      "Consolidation</w>": 4859,
      "Ġirregularity</w>": 4860,
      "Prolonged</w>": 4861,
      "Prostate</w>": 4862,
      "Progressive</w>": 4863,
      "ĠGranulomatous</w>": 4864,
      "eripheral</w>": 4865,
      "slurred</w>": 4866,
      "Ongoing</w>": 4867,
      "dysphasia</w>": 4868,
      "Ġladder</w>": 4869,
      "CD</w>": 4870,
      "NF</w>": 4871,
      "ab</w>": 4872,
      "aches</w>": 4873,
      "cu": 4874,
      "cle</w>": 4875,
      "hs</w>": 4876,
      "ues</w>": 4877,
      "vai": 4878,
      "varian</w>": 4879,
      "Ġ58</w>": 4880,
      "initis</w>": 4881,
      "Ġavai": 4882,
      "Ġtaking</w>": 4883,
      "Ġpa</w>": 4884,
      "Ġiss": 4885,
      "Ġnightsweats</w>": 4886,
      "cities</w>": 4887,
      "lable</w>": 4888,
      "Ġhemit": 4889,
      "ĠICD</w>": 4890,
      "teral</w>": 4891,
      "horax</w>": 4892,
      "Ġhistoplasm": 4893,
      "Ġliving</w>": 4894,
      "Ġstab</w>": 4895,
      "novi": 4896,
      "sisted</w>": 4897,
      "ĠStern": 4898,
      "Ġexperienced</w>": 4899,
      "ĠAbdominal</w>": 4900,
      "seu": 4901,
      "Diagnosis</w>": 4902,
      "otherapy</w>": 4903,
      "Ġthrough</w>": 4904,
      "ĠFailure</w>": 4905,
      "Ġshift</w>": 4906,
      "Ġassisted</w>": 4907,
      "Ġimplant</w>": 4908,
      "Ġbiopsy</w>": 4909,
      "Ġmedications</w>": 4910,
      "Ġobscuration</w>": 4911,
      "ĠOpacity</w>": 4912,
      "ĠOpacities</w>": 4913,
      "Ġrhonc": 4914,
      "Ġcircum": 4915,
      "Ġsynovi": 4916,
      "Ġmorning</w>": 4917,
      "Ġentering</w>": 4918,
      "Ġureteral</w>": 4919,
      "Ġavailable</w>": 4920,
      "Ġhemithorax</w>": 4921,
      "Ġrhonchi</w>": 4922,
      "Ġsynovial</w>": 4923,
      "ach</w>": 4924,
      "ows</w>": 4925,
      "pen</w>": 4926,
      "Ġopen</w>": 4927,
      "omen": 4928,
      "omyc": 4929,
      "Ġwal": 4930,
      "Ġmade</w>": 4931,
      "ediastinal</w>": 4932,
      "aped</w>": 4933,
      "tern</w>": 4934,
      "entricular</w>": 4935,
      "ĠLumb": 4936,
      "Ġsubdiaphragmatic</w>": 4937,
      "ĠPICC</w>": 4938,
      "Ġinfectious</w>": 4939,
      "ĠBorderline</w>": 4940,
      "ĠShe</w>": 4941,
      "ably</w>": 4942,
      "Ġprotected</w>": 4943,
      "Ġpattern</w>": 4944,
      "Ġabove</w>": 4945,
      "Ġhydrop": 4946,
      "ĠScoliosis</w>": 4947,
      "Ġfeet</w>": 4948,
      "Ġobscured</w>": 4949,
      "Ġlingular</w>": 4950,
      "Ġshadows</w>": 4951,
      "Ġfully</w>": 4952,
      "mplantable</w>": 4953,
      "Ġhydropneumothorax</w>": 4954,
      "29</w>": 4955,
      "38</w>": 4956,
      "59</w>": 4957,
      "Pulmonary</w>": 4958,
      "TN</w>": 4959,
      "Using</w>": 4960,
      "ag</w>": 4961,
      "ago</w>": 4962,
      "bag</w>": 4963,
      "ctic</w>": 4964,
      "che</w>": 4965,
      "cytic</w>": 4966,
      "esia</w>": 4967,
      "eiving</w>": 4968,
      "giving</w>": 4969,
      "growing</w>": 4970,
      "ks": 4971,
      "lt": 4972,
      "mun": 4973,
      "mer</w>": 4974,
      "mid</w>": 4975,
      "morr": 4976,
      "molar</w>": 4977,
      "mediastinal</w>": 4978,
      "oot": 4979,
      "over": 4980,
      "plo": 4981,
      "rotal</w>": 4982,
      "son</w>": 4983,
      "seness</w>": 4984,
      "tin": 4985,
      "tuberculosis</w>": 4986,
      "tomy</w>": 4987,
      "uis": 4988,
      "went</w>": 4989,
      "yment</w>": 4990,
      "Ġ..</w>": 4991,
      "ĠUsing</w>": 4992,
      "omele": 4993,
      "Ġamb": 4994,
      "titis</w>": 4995,
      "tigo</w>": 4996,
      "Ġpulmonic</w>": 4997,
      "Ġcell": 4998,
      "Ġcutaneous</w>": 4999,
      "Ġsides</w>": 5000,
      "ulder": 5001,
      "ulitis</w>": 5002,
      "ulance</w>": 5003,
      "leuri": 5004,
      "lester": 5005,
      "onas</w>": 5006,
      "Ġsor": 5007,
      "enale": 5008,
      "enopausal</w>": 5009,
      "ertigo</w>": 5010,
      "Ġwoun": 5011,
      "iccu": 5012,
      "ollision</w>": 5013,
      "itomyopathy</w>": 5014,
      "Ġincision</w>": 5015,
      "Ġinstance</w>": 5016,
      "Ġbet": 5017,
      "Ġbleed</w>": 5018,
      "Ġablation</w>": 5019,
      "ĠThan": 5020,
      "ĠTNF</w>": 5021,
      "Ġvs</w>": 5022,
      "Ġventilation</w>": 5023,
      "Ġhoar": 5024,
      "Ġhiccu": 5025,
      "hocytic</w>": 5026,
      "apid</w>": 5027,
      "ĠCollision</w>": 5028,
      "Ġsuggestion</w>": 5029,
      "hache</w>": 5030,
      "Ġcardiover": 5031,
      "chectic</w>": 5032,
      "icarditis</w>": 5033,
      "Ġdelt": 5034,
      "Ġdeplo": 5035,
      "eck</w>": 5036,
      "Ġlost</w>": 5037,
      "Ġseiz": 5038,
      "perfusion</w>": 5039,
      "pericarditis</w>": 5040,
      "Ġrela": 5041,
      "Ġgen": 5042,
      "Ġstate</w>": 5043,
      "ucasi": 5044,
      "anus</w>": 5045,
      "ancy</w>": 5046,
      "Ġhyperos": 5047,
      "ppd</w>": 5048,
      "quir": 5049,
      "agnosed</w>": 5050,
      "Ġacquir": 5051,
      "roid</w>": 5052,
      "Ġairbag</w>": 5053,
      "ystitis</w>": 5054,
      "Ġlymphocytic</w>": 5055,
      "Ġshoulder": 5056,
      "plained</w>": 5057,
      "visc": 5058,
      "europathy</w>": 5059,
      "Ġlipase</w>": 5060,
      "ĠPseu": 5061,
      "oglob": 5062,
      "Ġtubal</w>": 5063,
      "Ġradiographs</w>": 5064,
      "domonas</w>": 5065,
      "uscle</w>": 5066,
      "ĠBasilar</w>": 5067,
      "ĠMenopausal</w>": 5068,
      "hyroid</w>": 5069,
      "Ġhemoglob": 5070,
      "Ġpretransplant</w>": 5071,
      "Ġadmitted</w>": 5072,
      "Hyper": 5073,
      "Ġmyotomy</w>": 5074,
      "Ġmyopericarditis</w>": 5075,
      "adaches</w>": 5076,
      "utches</w>": 5077,
      "aventricular</w>": 5078,
      "urrence</w>": 5079,
      "explained</w>": 5080,
      "ĠUnremarkable</w>": 5081,
      "Ġpostmen": 5082,
      "Ġunderwent</w>": 5083,
      "reathing</w>": 5084,
      "Ġbruis": 5085,
      "Ġcholester": 5086,
      "Ġpregnancy</w>": 5087,
      "Ġoutn</w>": 5088,
      "Ġcholecystitis</w>": 5089,
      "Congestive</w>": 5090,
      "contin": 5091,
      "commun": 5092,
      "Ġhypoinflation</w>": 5093,
      "recurrence</w>": 5094,
      "ĠComplaining</w>": 5095,
      "Ġdyskin": 5096,
      "Ġimmunosuppression</w>": 5097,
      "Ġrotation</w>": 5098,
      "Ġswallowing</w>": 5099,
      "Ġadrenale": 5100,
      "Ġfalse</w>": 5101,
      "Ġreceiving</w>": 5102,
      "Ġimmunosuppressive</w>": 5103,
      "Ġchemotherapy</w>": 5104,
      "Ġantibiotic</w>": 5105,
      "Ġtransported</w>": 5106,
      "Ġearly</w>": 5107,
      "Ġsupraventricular</w>": 5108,
      "Ġrhinitis</w>": 5109,
      "kinson</w>": 5110,
      "ĠExamination</w>": 5111,
      "Ġmetabolic</w>": 5112,
      "ĠParkinson</w>": 5113,
      "Ġhypoventilation</w>": 5114,
      "Ġcrutches</w>": 5115,
      "Ġformer</w>": 5116,
      "Ġcervicalgia</w>": 5117,
      "Ġissues</w>": 5118,
      "Ġcircumcision</w>": 5119,
      "Ġwalks</w>": 5120,
      "ĠLumbago</w>": 5121,
      "ksgiving</w>": 5122,
      "morrhage</w>": 5123,
      "oothache</w>": 5124,
      "omeless</w>": 5125,
      "Ġambulance</w>": 5126,
      "Ġcellulitis</w>": 5127,
      "leurisy</w>": 5128,
      "Ġsoreness</w>": 5129,
      "Ġwounds</w>": 5130,
      "ĠThanksgiving</w>": 5131,
      "Ġhoarseness</w>": 5132,
      "Ġhiccups</w>": 5133,
      "Ġcardioversion</w>": 5134,
      "Ġdeltoid</w>": 5135,
      "Ġdeployment</w>": 5136,
      "Ġseizures</w>": 5137,
      "ucasian</w>": 5138,
      "Ġhyperosmolar</w>": 5139,
      "Ġacquired</w>": 5140,
      "Ġshoulders</w>": 5141,
      "viscosity</w>": 5142,
      "ĠPseudomonas</w>": 5143,
      "Ġhemoglobin</w>": 5144,
      "Ġpostmenopausal</w>": 5145,
      "Ġbruising</w>": 5146,
      "Ġcholesterol</w>": 5147,
      "continence</w>": 5148,
      "communicable</w>": 5149,
      "Ġdyskinesia</w>": 5150,
      "Ġadrenalectomy</w>": 5151,
      "64</w>": 5152,
      "Implantable</w>": 5153,
      "Low</w>": 5154,
      "Sc": 5155,
      "fra": 5156,
      "ost": 5157,
      "inomyc": 5158,
      "Ġpalp": 5159,
      "Ġanemia</w>": 5160,
      "Ġben": 5161,
      "Ġrecurrent</w>": 5162,
      "Ġhab": 5163,
      "ctinomyc": 5164,
      "entu": 5165,
      "Ġtire</w>": 5166,
      "Ġbowe": 5167,
      "odular</w>": 5168,
      "ĠBibasilar</w>": 5169,
      "ingoce": 5170,
      "ĠCardioverter</w>": 5171,
      "Ġcompart": 5172,
      "steop": 5173,
      "Ġexaggerated</w>": 5174,
      "ault</w>": 5175,
      "Ġmyelomen": 5176,
      "ĠNodular</w>": 5177,
      "Ġwedging</w>": 5178,
      "Ġparotid</w>": 5179,
      "shaped</w>": 5180,
      "ĠAccident</w>": 5181,
      "Ġaccentu": 5182,
      "Ġoverlies</w>": 5183,
      "Ġtimes</w>": 5184,
      "ĠWithout</w>": 5185,
      "Ġiron</w>": 5186,
      "Ġpneumonias</w>": 5187,
      "Ġvertebra</w>": 5188,
      "Defibrillator</w>": 5189,
      "Ġpalpation</w>": 5190,
      "Ġhabitus</w>": 5191,
      "ctinomyces</w>": 5192,
      "Ġbowel</w>": 5193,
      "ingocele</w>": 5194,
      "Ġmyelomeningocele</w>": 5195,
      "Atelectasis</w>": 5196,
      "Aspiration</w>": 5197,
      "Actinomyces</w>": 5198,
      "Breathing</w>": 5199,
      "Cervical</w>": 5200,
      "Eight</w>": 5201,
      "HTN</w>": 5202,
      "Homeless</w>": 5203,
      "Mitomyopathy</w>": 5204,
      "Muscle</w>": 5205,
      "Neck</w>": 5206,
      "Neuropathy</w>": 5207,
      "Ovarian</w>": 5208,
      "PMale</w>": 5209,
      "Pneumothorax</w>": 5210,
      "Peripheral</w>": 5211,
      "Pleurisy</w>": 5212,
      "Rapid</w>": 5213,
      "Skin</w>": 5214,
      "Soft</w>": 5215,
      "Tobacco</w>": 5216,
      "Thyroid</w>": 5217,
      "Toothache</w>": 5218,
      "Vertigo</w>": 5219,
      "central</w>": 5220,
      "germ</w>": 5221,
      "gunshot</w>": 5222,
      "iritis</w>": 5223,
      "jury</w>": 5224,
      "metastatic</w>": 5225,
      "nightsweats</w>": 5226,
      "ry</w>": 5227,
      "worsening</w>": 5228,
      "injury</w>": 5229,
      "leuk": 5230,
      "unexplained</w>": 5231,
      "alasia</w>": 5232,
      "allergic</w>": 5233,
      "asthma</w>": 5234,
      "ĠCABG</w>": 5235,
      "presyncope</w>": 5236,
      "Ġred": 5237,
      "Ġcancer": 5238,
      "posterior</w>": 5239,
      "hypoxia</w>": 5240,
      "ectus</w>": 5241,
      "abg</w>": 5242,
      "Ġaged</w>": 5243,
      "Diabetes</w>": 5244,
      "Diagnosed</w>": 5245,
      "ĠOsteop": 5246,
      "Unable</w>": 5247,
      "Alveolar</w>": 5248,
      "Allergic</w>": 5249,
      "Ġcaval</w>": 5250,
      "Incontinence</w>": 5251,
      "exacerb": 5252,
      "achalasia</w>": 5253,
      "Ġnonspecific</w>": 5254,
      "Headache</w>": 5255,
      "Headaches</w>": 5256,
      "Hemorrhage</w>": 5257,
      "Complaint</w>": 5258,
      "Assault</w>": 5259,
      "Ġ-<</w>": 5260,
      "Cachectic</w>": 5261,
      "Caucasian</w>": 5262,
      "Cardiomyopathy</w>": 5263,
      "ĠSternotomy</w>": 5264,
      "Hyperviscosity</w>": 5265,
      "Scrotal</w>": 5266,
      "fractured</w>": 5267,
      "leukocytosis</w>": 5268,
      "Ġcancerind</w>": 5269,
      "exacerbations</w>": 5270,
      "owever</w>": 5271,
      "omach</w>": 5272,
      "Ġcabg</w>": 5273,
      "ĠAn</w>": 5274,
      "ĠTwo</w>": 5275,
      "fir": 5276,
      "Ġcalib": 5277,
      "Ġpneumoper": 5278,
      "Ġdual</w>": 5279,
      "Ġstomach</w>": 5280,
      "Ġevaluated</w>": 5281,
      "Ġsubtle</w>": 5282,
      "Ġbullet</w>": 5283,
      "ĠHowever</w>": 5284,
      "domin": 5285,
      "ĠPres": 5286,
      "escent</w>": 5287,
      "ĠConfir": 5288,
      "Ġprojected</w>": 5289,
      "itoneum</w>": 5290,
      "Ġormal</w>": 5291,
      "Ġcarina</w>": 5292,
      "Ġrotated</w>": 5293,
      "Ġquestion</w>": 5294,
      "Ġsupra": 5295,
      "Ġcaliber</w>": 5296,
      "Ġpneumoperitoneum</w>": 5297,
      "ption</w>": 5298,
      "rst</w>": 5299,
      "erus</w>": 5300,
      "estr": 5301,
      "Ġconsi": 5302,
      "ided</w>": 5303,
      "Ġfirst</w>": 5304,
      "Ġdestr": 5305,
      "dering</w>": 5306,
      "Ġpredomin": 5307,
      "Ġbeing</w>": 5308,
      "erator</w>": 5309,
      "ĠAltered</w>": 5310,
      "Ġhumerus</w>": 5311,
      "mphysematous</w>": 5312,
      "Ġunfolded</w>": 5313,
      "Ġrecommended</w>": 5314,
      "Ġgenerator</w>": 5315,
      "Ġcompartment</w>": 5316,
      "Sided</w>": 5317,
      "lun": 5318,
      "oat": 5319,
      "sely</w>": 5320,
      "tu": 5321,
      "ution</w>": 5322,
      "ense</w>": 5323,
      "ĠAn": 5324,
      "ĠAP</w>": 5325,
      "itary</w>": 5326,
      "alcinosis</w>": 5327,
      "Ġround</w>": 5328,
      "ĠCalcinosis</w>": 5329,
      "ĠHe": 5330,
      "ĠElevated</w>": 5331,
      "ĠDiffuse</w>": 5332,
      "ĠTracheal</w>": 5333,
      "ĠGiven</w>": 5334,
      "Ġcavitary</w>": 5335,
      "cerning</w>": 5336,
      "Ġaccentuated</w>": 5337,
      "Ġsuprahilar</w>": 5338,
      "oatrial</w>": 5339,
      "Not</w>": 5340,
      "electasis</w>": 5341,
      "umatic</w>": 5342,
      "inear</w>": 5343,
      "omple": 5344,
      "leno": 5345,
      "ordo": 5346,
      "Ġnar": 5347,
      "Ġnumerous</w>": 5348,
      "Ġconflu": 5349,
      "Ġdiscre": 5350,
      "Ġredemonstration</w>": 5351,
      "Ġgleno": 5352,
      "ilinear</w>": 5353,
      "rates</w>": 5354,
      "ĠMultilevel</w>": 5355,
      "Ġsenescent</w>": 5356,
      "ĠEvid": 5357,
      "ĠEmphysematous</w>": 5358,
      "Ġcavoatrial</w>": 5359,
      "ĠFra": 5360,
      "Ġdemonstrates</w>": 5361,
      "urvilinear</w>": 5362,
      "Ġsubcutaneous</w>": 5363,
      "ĠAcromioclavicular</w>": 5364,
      "Ġdeveloped</w>": 5365,
      "Ġhyperlucent</w>": 5366,
      "Ġbenign</w>": 5367,
      "ĠPresence</w>": 5368,
      "Ġpredominantly</w>": 5369,
      "ordotic</w>": 5370,
      "Ġdiscrete</w>": 5371,
      "ĠEvidence</w>": 5372,
      "parenchymal</w>": 5373,
      "Ġ55</w>": 5374,
      "Ġconve": 5375,
      "Ġconcerning</w>": 5376,
      "Ġcalcific</w>": 5377,
      "traumatic</w>": 5378,
      "Ġfragment</w>": 5379,
      "Ġradiographic</w>": 5380,
      "ĠEn": 5381,
      "ĠDifficulty</w>": 5382,
      "Ġdextrocurvature</w>": 5383,
      "Ġcorti": 5384,
      "Ġprobably</w>": 5385,
      "Ġengorged</w>": 5386,
      "ĠHyperexpanded</w>": 5387,
      ",.</w>": 5388,
      "Qu": 5389,
      "Stable</w>": 5390,
      "bron": 5391,
      "zyg": 5392,
      "ĠQu": 5393,
      "inder</w>": 5394,
      "ract": 5395,
      "ones</w>": 5396,
      "Ġill</w>": 5397,
      "arge</w>": 5398,
      "Ġlordotic</w>": 5399,
      "Ġincid": 5400,
      "atum</w>": 5401,
      "atelectasis</w>": 5402,
      "stsurgical</w>": 5403,
      "Ġvery</w>": 5404,
      "ffusely</w>": 5405,
      "Ġfibron": 5406,
      "Ġdescri": 5407,
      "lect</w>": 5408,
      "Ġtubing</w>": 5409,
      "Ġincomple": 5410,
      "Ġcontour": 5411,
      "ĠBlun": 5412,
      "ĠPostsurgical</w>": 5413,
      "fluid</w>": 5414,
      "ĠConsi": 5415,
      "Ġfilm</w>": 5416,
      "Ġhyperlucency</w>": 5417,
      "Ġreflect</w>": 5418,
      "Ġhistoplasmosis</w>": 5419,
      "ĠConfirmed</w>": 5420,
      "zygos</w>": 5421,
      "ĠQues": 5422,
      "Ġfibronodular</w>": 5423,
      "Ġdescription</w>": 5424,
      "Ġcontoured</w>": 5425,
      "iorly</w>": 5426,
      "lum": 5427,
      "ments</w>": 5428,
      "oses</w>": 5429,
      "xity</w>": 5430,
      "Ġplat": 5431,
      "dition": 5432,
      "oning</w>": 5433,
      "olateral</w>": 5434,
      "Ġinci": 5435,
      "Ġdiffusely</w>": 5436,
      "unne": 5437,
      "Ġdish</w>": 5438,
      "hotic</w>": 5439,
      "Ġdiagnoses</w>": 5440,
      "Ġshunt</w>": 5441,
      "ĠSub": 5442,
      "Ġposttraumatic</w>": 5443,
      "Ġdefini": 5444,
      "Ġangles</w>": 5445,
      "Ġoutside</w>": 5446,
      "tively</w>": 5447,
      "Ġregions</w>": 5448,
      "Ġortu": 5449,
      "Ġviews</w>": 5450,
      "ĠAddition": 5451,
      "Ġimages</w>": 5452,
      "ĠHyperinflated</w>": 5453,
      "Ġresolved</w>": 5454,
      "Ġposteriorly</w>": 5455,
      "Ġoverlap</w>": 5456,
      "Ġconvexity</w>": 5457,
      "Ġincisions</w>": 5458,
      "ĠAdditionally</w>": 5459,
      "Impression</w>": 5460,
      "cations</w>": 5461,
      "lightly</w>": 5462,
      "ture</w>": 5463,
      "inct</w>": 5464,
      "Ġclin": 5465,
      "Ġcurvilinear</w>": 5466,
      "ering</w>": 5467,
      "ĠAr": 5468,
      "Ġright": 5469,
      "elike</w>": 5470,
      "Ġdepen": 5471,
      "Ġobvi": 5472,
      "uced</w>": 5473,
      "ĠLarge</w>": 5474,
      "ĠSt": 5475,
      "ĠEdema</w>": 5476,
      "ĠEmphysema</w>": 5477,
      "Ġatypical</w>": 5478,
      "Ġcharact": 5479,
      "Ġnoncalcified</w>": 5480,
      "Ġneeded</w>": 5481,
      "Ġmeasures</w>": 5482,
      "Ġassessed</w>": 5483,
      "Ġtermin": 5484,
      "ĠLymph</w>": 5485,
      "Ġoverlie</w>": 5486,
      "ĠConsidering</w>": 5487,
      "Ġplatelike</w>": 5488,
      "Ġrightward</w>": 5489,
      "Ġobvious</w>": 5490,
      "iapical</w>": 5491,
      "verall</w>": 5492,
      "xt</w>": 5493,
      "Ġate": 5494,
      "Ġtunne": 5495,
      "Ġpor": 5496,
      "rahilar</w>": 5497,
      "orre": 5498,
      "order</w>": 5499,
      "Ġfoc": 5500,
      "Ġly</w>": 5501,
      "Ġborder</w>": 5502,
      "Ġconte": 5503,
      "ĠTesticular</w>": 5504,
      "ops</w>": 5505,
      "Ġdegen": 5506,
      "Ġloops</w>": 5507,
      "Ġinfrahilar</w>": 5508,
      "Ġvisu": 5509,
      "ĠBiapical</w>": 5510,
      "Ġunc": 5511,
      "ĠEvaluation</w>": 5512,
      "ĠExtensive</w>": 5513,
      "ĠProblem</w>": 5514,
      "ĠTracheostomy</w>": 5515,
      "ĠOverall</w>": 5516,
      "Ġperiphery</w>": 5517,
      "Ġyper": 5518,
      "Ġsymmetric</w>": 5519,
      "Ġsclerotic</w>": 5520,
      "Ġartifact": 5521,
      "Ġpelvis</w>": 5522,
      "Ġprosthesis</w>": 5523,
      "lectatic</w>": 5524,
      "Ġdestructive</w>": 5525,
      "Ġconfluent</w>": 5526,
      "Ġincompletely</w>": 5527,
      "ĠBlunting</w>": 5528,
      "lumen</w>": 5529,
      "Ġatelectatic</w>": 5530,
      "Ġtunneled</w>": 5531,
      "Ġcontext</w>": 5532,
      "ming</w>": 5533,
      "normal": 5534,
      "Ġ\"</w>": 5535,
      "ĠL</w>": 5536,
      "Ġazygos</w>": 5537,
      "Ġpectus</w>": 5538,
      "len": 5539,
      "Ġij</w>": 5540,
      "Ġanter": 5541,
      "Ġflowing</w>": 5542,
      "all": 5543,
      "Ġsuture</w>": 5544,
      "stinct</w>": 5545,
      "ĠChanges</w>": 5546,
      "Ġconfirming</w>": 5547,
      "Ġretra": 5548,
      "Ġdislocations</w>": 5549,
      "ĠWid": 5550,
      "position</w>": 5551,
      "ĠMelanoma</w>": 5552,
      "ĠAbnormal": 5553,
      "ĠGrossly</w>": 5554,
      "ignment</w>": 5555,
      "tro</w>": 5556,
      "Ġprojects</w>": 5557,
      "Ġsulci</w>": 5558,
      "ĠSevere</w>": 5559,
      "Ġrelative</w>": 5560,
      "Ġreduced</w>": 5561,
      "Ġclinically</w>": 5562,
      "Ġdepend</w>": 5563,
      "ĠStatus</w>": 5564,
      "ĠAbnormalities</w>": 5565,
      "fth": 5566,
      "light</w>": 5567,
      "rspace</w>": 5568,
      "Ġofth": 5569,
      "tila": 5570,
      "ulated</w>": 5571,
      "Ġthin</w>": 5572,
      "Ġfour": 5573,
      "Ġbasal</w>": 5574,
      "Ġdifferen": 5575,
      "ĠCorre": 5576,
      "ubitus</w>": 5577,
      "Ġfiss": 5578,
      "Ġcardiophrenic</w>": 5579,
      "obable</w>": 5580,
      "ĠNumerous</w>": 5581,
      "Ġunremark": 5582,
      "Ġallowing</w>": 5583,
      "abl</w>": 5584,
      "Ġcompar": 5585,
      "ĠProbable</w>": 5586,
      "ĠOn</w>": 5587,
      "Ġpleura</w>": 5588,
      "Ġcomplete</w>": 5589,
      "Ġremainder</w>": 5590,
      "Ġpositioning</w>": 5591,
      "ween</w>": 5592,
      "Ġhowever</w>": 5593,
      "Ġmarginal</w>": 5594,
      "Ġmargination</w>": 5595,
      "ĠRedemonstration</w>": 5596,
      "Ġposterolateral</w>": 5597,
      "Ġbetween</w>": 5598,
      "ĠFractures</w>": 5599,
      "Ġunclear</w>": 5600,
      "Ġofthing</w>": 5601,
      "Ġfourth</w>": 5602,
      "Ġdifferences</w>": 5603,
      "Ġunremarkabl</w>": 5604,
      "aque</w>": 5605,
      "bral</w>": 5606,
      "gain</w>": 5607,
      "tiology</w>": 5608,
      "Ġcentra": 5609,
      "arinal</w>": 5610,
      "ĠAgain</w>": 5611,
      "Ġinsp": 5612,
      "airspace</w>": 5613,
      "Ġheight</w>": 5614,
      "Ġindistinct</w>": 5615,
      "Ġpri": 5616,
      "gest</w>": 5617,
      "ĠCost": 5618,
      "opaque</w>": 5619,
      "Ġobl": 5620,
      "ĠDecreased</w>": 5621,
      "Ġhyperost": 5622,
      "ertebral</w>": 5623,
      "thritic</w>": 5624,
      "Ġradiopaque</w>": 5625,
      "ogastric</w>": 5626,
      "Ġalignment</w>": 5627,
      "ĠEre</w>": 5628,
      "Ġlargest</w>": 5629,
      "Ġdextro</w>": 5630,
      "ĠFocal</w>": 5631,
      "Ġimplants</w>": 5632,
      "Ġcorrelation</w>": 5633,
      "Ġbetter</w>": 5634,
      "Ġnarrowing</w>": 5635,
      "Ġcortical</w>": 5636,
      "ĠArthritic</w>": 5637,
      "Ġcentrally</w>": 5638,
      "ĠCostophrenic</w>": 5639,
      "Ġhyperostosis</w>": 5640,
      "cho": 5641,
      "edure</w>": 5642,
      "fth</w>": 5643,
      "hum": 5644,
      "pical</w>": 5645,
      "res": 5646,
      "tu</w>": 5647,
      "ventration</w>": 5648,
      "wing</w>": 5649,
      "Ġosse": 5650,
      "Ġsitu</w>": 5651,
      "onic</w>": 5652,
      "Ġancho": 5653,
      "Ġfull": 5654,
      "mally</w>": 5655,
      "fie</w>": 5656,
      "related</w>": 5657,
      "Ġfifth</w>": 5658,
      "ĠDense</w>": 5659,
      "Ġcolonic</w>": 5660,
      "Ġstructure</w>": 5661,
      "olitis</w>": 5662,
      "Ġsplen": 5663,
      "ĠBronchi": 5664,
      "Ġtrans": 5665,
      "ĠRib</w>": 5666,
      "scarring</w>": 5667,
      "avatum</w>": 5668,
      "ĠOld</w>": 5669,
      "hondral</w>": 5670,
      "Ġexcep": 5671,
      "Ġexcavatum</w>": 5672,
      "Ġprocedure</w>": 5673,
      "Ġcostochondral</w>": 5674,
      "Ġrecess</w>": 5675,
      "Ġaxillary</w>": 5676,
      "Ġmargin</w>": 5677,
      "Ġresolution</w>": 5678,
      "Ġreflect": 5679,
      "ĠSequ": 5680,
      "Ġrelatively</w>": 5681,
      "Ġglenohum": 5682,
      "Ġortuous</w>": 5683,
      "Ġterminating</w>": 5684,
      "Ġvisual</w>": 5685,
      "Ġretraction</w>": 5686,
      "ĠWidened</w>": 5687,
      "ĠCorrelate</w>": 5688,
      "Ġosseus</w>": 5689,
      "Ġanchor</w>": 5690,
      "Ġfullness</w>": 5691,
      "Ġsplenic</w>": 5692,
      "Ġglenohumeral</w>": 5693,
      "...</w>": 5694,
      "].</w>": 5695,
      "pe</w>": 5696,
      "pected</w>": 5697,
      "ĠS</w>": 5698,
      "Ġ35</w>": 5699,
      "ĠUpper</w>": 5700,
      "Ġpart": 5701,
      "Ġsized</w>": 5702,
      "Ġthir": 5703,
      "Ġsti": 5704,
      "Ġsing": 5705,
      "Ġetiology</w>": 5706,
      "Ġsuspected</w>": 5707,
      "ĠTh": 5708,
      "Ġvari": 5709,
      "ĠIm": 5710,
      "Ġdo</w>": 5711,
      "ocurvature</w>": 5712,
      "Ġgas</w>": 5713,
      "Ġstri": 5714,
      "Ġexpected</w>": 5715,
      "oliotic</w>": 5716,
      "Ġspin</w>": 5717,
      "ĠPneumothorax</w>": 5718,
      "ĠBreast</w>": 5719,
      "ĠSlightly</w>": 5720,
      "Ġuncer": 5721,
      "ĠMetastatic</w>": 5722,
      "hyte</w>": 5723,
      "Ġaddition</w>": 5724,
      "ĠNote</w>": 5725,
      "ison</w>": 5726,
      "Ġepig": 5727,
      "Ġlevocurvature</w>": 5728,
      "ĠLower</w>": 5729,
      "Ġgraf": 5730,
      "ĠDefor": 5731,
      "Ġprocesses</w>": 5732,
      "Ġkyphotic</w>": 5733,
      "Ġfeeding</w>": 5734,
      "Ġcartila": 5735,
      "Ġobscuring</w>": 5736,
      "Ġzones</w>": 5737,
      "Ġdeveloping</w>": 5738,
      "Ġdevelopment</w>": 5739,
      "Cardiomegaly</w>": 5740,
      "Ġprostheses</w>": 5741,
      "ĠOsteopenia</w>": 5742,
      "ĠHealed</w>": 5743,
      "ĠEnlarged</w>": 5744,
      "Ġcomparison</w>": 5745,
      "Ġprimar": 5746,
      "Ġpartly</w>": 5747,
      "Ġsingle</w>": 5748,
      "Ġstripe</w>": 5749,
      "Ġuncertain</w>": 5750,
      "Borderline</w>": 5751,
      "cha": 5752,
      "coid</w>": 5753,
      "cubitus</w>": 5754,
      "face</w>": 5755,
      "ful</w>": 5756,
      "gal</w>": 5757,
      "imally</w>": 5758,
      "lp": 5759,
      "mul": 5760,
      "nular</w>": 5761,
      "osterior</w>": 5762,
      "to</w>": 5763,
      "ining</w>": 5764,
      "Ġcomb": 5765,
      "Ġcorr": 5766,
      "ensity</w>": 5767,
      "arly</w>": 5768,
      "Ġannular</w>": 5769,
      "Ġfun": 5770,
      "Ġlarg": 5771,
      "Ġlay": 5772,
      "olution</w>": 5773,
      "ĠApical</w>": 5774,
      "Ġdifficul": 5775,
      "Ġhelp": 5776,
      "Ġcalcifie</w>": 5777,
      "spinal</w>": 5778,
      "fications</w>": 5779,
      "ĠCho": 5780,
      "oposterior</w>": 5781,
      "Ġdecubitus</w>": 5782,
      "Ġobli": 5783,
      "Ġscre": 5784,
      "ility</w>": 5785,
      "entally</w>": 5786,
      "Ġtips</w>": 5787,
      "ĠLumbar</w>": 5788,
      "Ġinterposition</w>": 5789,
      "Ġwidth</w>": 5790,
      "ĠBul": 5791,
      "ĠSu": 5792,
      "ĠEventration</w>": 5793,
      "verse</w>": 5794,
      "Ġparaspinal</w>": 5795,
      "ĠRes": 5796,
      "Ġcavity</w>": 5797,
      "ĠPostoperative</w>": 5798,
      "Ġhypera": 5799,
      "ĠScarring</w>": 5800,
      "Ġprojec": 5801,
      "Ġovoid</w>": 5802,
      "Ġthese</w>": 5803,
      "Ġtuberculous</w>": 5804,
      "Ġortic</w>": 5805,
      "ologi": 5806,
      "lucent</w>": 5807,
      "ĠInfection</w>": 5808,
      "Ġobscure</w>": 5809,
      "ĠTortuosity</w>": 5810,
      "ggeration</w>": 5811,
      "Ġrequire</w>": 5812,
      "Ġhistoplasmoma</w>": 5813,
      "Ġreduction</w>": 5814,
      "Ġconsider</w>": 5815,
      "Ġincidentally</w>": 5816,
      "ĠQuestion</w>": 5817,
      "Ġtransverse</w>": 5818,
      "Ġexcept</w>": 5819,
      "ĠImproved</w>": 5820,
      "Ġcombination</w>": 5821,
      "Ġcorrespon": 5822,
      "Ġfungal</w>": 5823,
      "Ġlayering</w>": 5824,
      "Ġdifficult</w>": 5825,
      "Ġhelpful</w>": 5826,
      "ier": 5827,
      "mely</w>": 5828,
      "pated</w>": 5829,
      "rd</w>": 5830,
      "xing</w>": 5831,
      "tici": 5832,
      "sile</w>": 5833,
      "asogastric</w>": 5834,
      "eris": 5835,
      "Ġinde": 5836,
      "Ġinlet</w>": 5837,
      "ĠTech": 5838,
      "ffing</w>": 5839,
      "Ġdiscoid</w>": 5840,
      "ctly</w>": 5841,
      "ĠCathe": 5842,
      "Ġfemo": 5843,
      "Ġperib": 5844,
      "Ġgall": 5845,
      "Ġstab": 5846,
      "Ġlead</w>": 5847,
      "Ġcollap": 5848,
      "Ġscoliotic</w>": 5849,
      "Ġinferi": 5850,
      "Ġexpan": 5851,
      "Ġpositional</w>": 5852,
      "ĠPA</w>": 5853,
      "ĠMid</w>": 5854,
      "ĠEpigastric</w>": 5855,
      "hytes</w>": 5856,
      "abdomen</w>": 5857,
      "Ġlobulated</w>": 5858,
      "ĠTracheobronchial</w>": 5859,
      "seen</w>": 5860,
      "ĠRema": 5861,
      "uted</w>": 5862,
      "ĠOr</w>": 5863,
      "Ġell</w>": 5864,
      "Ġnondi": 5865,
      "ĠUnfol": 5866,
      "Ġmalignant</w>": 5867,
      "Ġextremely</w>": 5868,
      "ĠCalcification</w>": 5869,
      "Ġthoracotomy</w>": 5870,
      "Ġtheroscle": 5871,
      "ĠProminence</w>": 5872,
      "ĠExaggerated</w>": 5873,
      "Ġcuffing</w>": 5874,
      "demonstrated</w>": 5875,
      "Ġtime</w>": 5876,
      "ĠAntici": 5877,
      "Ġglenoid</w>": 5878,
      "Ġincidental</w>": 5879,
      "ĠQuestionable</w>": 5880,
      "Ġcharacteris": 5881,
      "Ġportion</w>": 5882,
      "Ġartifacts</w>": 5883,
      "Ġfissural</w>": 5884,
      "ĠThree</w>": 5885,
      "Ġgrafting</w>": 5886,
      "ĠDeformity</w>": 5887,
      "Ġhyperaerated</w>": 5888,
      "Ġindexing</w>": 5889,
      "Ġfemoral</w>": 5890,
      "Ġperibronchial</w>": 5891,
      "Ġcollapsed</w>": 5892,
      "Ġinferiorly</w>": 5893,
      "Ġexpansile</w>": 5894,
      "ĠAnticipated</w>": 5895,
      "Ġcharacteristic</w>": 5896,
      "-<</w>": 5897,
      "Slight</w>": 5898,
      "ajor</w>": 5899,
      "bronchi": 5900,
      "dw": 5901,
      "edly</w>": 5902,
      "ific": 5903,
      "iatal</w>": 5904,
      "mop": 5905,
      "tact</w>": 5906,
      "uation</w>": 5907,
      "uals</w>": 5908,
      "van": 5909,
      "xta": 5910,
      "Ġe</w>": 5911,
      "intained</w>": 5912,
      "tile</w>": 5913,
      "tium</w>": 5914,
      "sibly</w>": 5915,
      "Ġcop": 5916,
      "Ġcreased</w>": 5917,
      "Ġclosure</w>": 5918,
      "mation</w>": 5919,
      "ardw": 5920,
      "Ġwe</w>": 5921,
      "esmop": 5922,
      "ĠAir": 5923,
      "iteration</w>": 5924,
      "Ġinte": 5925,
      "Ġindeterminate</w>": 5926,
      "Ġbil": 5927,
      "Ġbeh": 5928,
      "Ġhardw": 5929,
      "Ġmaintained</w>": 5930,
      "ctum</w>": 5931,
      "Ġprog": 5932,
      "ĠIrregular</w>": 5933,
      "location</w>": 5934,
      "Ġloc": 5935,
      "ĠDensity</w>": 5936,
      "Ġhiatus</w>": 5937,
      "Ġrectum</w>": 5938,
      "Ġgo": 5939,
      "Ġenti": 5940,
      "Ġbronchitic</w>": 5941,
      "tenuation</w>": 5942,
      "ĠPos": 5943,
      "ĠPectus</w>": 5944,
      "Ġinterstitium</w>": 5945,
      "lecystectomy</w>": 5946,
      "Ġscapula</w>": 5947,
      "ĠKyp": 5948,
      "hanged</w>": 5949,
      "Ġcontin": 5950,
      "ĠBandlike</w>": 5951,
      "ĠSign": 5952,
      "ĠShoulder</w>": 5953,
      "ĠMotor</w>": 5954,
      "ĠMajor</w>": 5955,
      "Ġincluded</w>": 5956,
      "Ġpads</w>": 5957,
      "ĠExternal</w>": 5958,
      "Ġattenuation</w>": 5959,
      "racheal</w>": 5960,
      "ĠRemo": 5961,
      "Ġexaggeration</w>": 5962,
      "Ġosteopenic</w>": 5963,
      "Ġindicative</w>": 5964,
      "Ġsyndesmop": 5965,
      "Ġunderpen": 5966,
      "other</w>": 5967,
      "ĠCalcific</w>": 5968,
      "ĠFor</w>": 5969,
      "ĠVague</w>": 5970,
      "ĠContrast</w>": 5971,
      "Ġapproximating</w>": 5972,
      "Ġtheir</w>": 5973,
      "Ġfilms</w>": 5974,
      "ĠInter": 5975,
      "ĠIntact</w>": 5976,
      "Ġobscures</w>": 5977,
      "Ġrecesses</w>": 5978,
      "Ġminimally</w>": 5979,
      "Ġclarity</w>": 5980,
      "Ġjuxta": 5981,
      "Ġcoarsened</w>": 5982,
      "ĠExam</w>": 5983,
      "grity</w>": 5984,
      "Ġprosthetic</w>": 5985,
      "Ġoverlapping</w>": 5986,
      "ĠAnterior</w>": 5987,
      "Ġdefinitive</w>": 5988,
      "Ġcharacteri": 5989,
      "Ġanteroposterior</w>": 5990,
      "Ġinspiratory</w>": 5991,
      "Ġobliteration</w>": 5992,
      "ression</w>": 5993,
      "ĠBronchitis</w>": 5994,
      "Ġthird</w>": 5995,
      "Ġstimul": 5996,
      "Ġvariant</w>": 5997,
      "Ġprimary</w>": 5998,
      "chamber</w>": 5999,
      "Ġlarger</w>": 6000,
      "ĠCholecystectomy</w>": 6001,
      "Ġoblique</w>": 6002,
      "Ġprojectile</w>": 6003,
      "ologies</w>": 6004,
      "Ġcopd</w>": 6005,
      "ĠAirspace</w>": 6006,
      "Ġintegrity</w>": 6007,
      "Ġbehind</w>": 6008,
      "Ġhardware</w>": 6009,
      "Ġprogression</w>": 6010,
      "ĠSignific": 6011,
      "ĠRemoval</w>": 6012,
      "Ġjuxtahilar</w>": 6013,
      "Ġstimulator</w>": 6014,
      "12</w>": 6015,
      "IVC</w>": 6016,
      "bony</w>": 6017,
      "ed": 6018,
      "femo": 6019,
      "ges</w>": 6020,
      "gro": 6021,
      "nically</w>": 6022,
      "pulmonary</w>": 6023,
      "pine</w>": 6024,
      "ĠFatigue</w>": 6025,
      "inatum</w>": 6026,
      "Ġtap": 6027,
      "timal</w>": 6028,
      "Ġpas": 6029,
      "ond</w>": 6030,
      "onodular</w>": 6031,
      "ark": 6032,
      "Ġeither</w>": 6033,
      "Ġsuper": 6034,
      "atory</w>": 6035,
      "sthe": 6036,
      "laced</w>": 6037,
      "astrium</w>": 6038,
      "hoid</w>": 6039,
      "splaced</w>": 6040,
      "ficial</w>": 6041,
      "ĠClips</w>": 6042,
      "ronically</w>": 6043,
      "lofemo": 6044,
      "optimal</w>": 6045,
      "elry</w>": 6046,
      "ellofemo": 6047,
      "Ġdefined</w>": 6048,
      "ĠDex": 6049,
      "Ġnotes</w>": 6050,
      "Ġjew": 6051,
      "Ġscars</w>": 6052,
      "Ġenough</w>": 6053,
      "Ġconsolidative</w>": 6054,
      "Ġfractured</w>": 6055,
      "ily</w>": 6056,
      "Ġpoorly</w>": 6057,
      "rib": 6058,
      "Ġshowing</w>": 6059,
      "ĠLuc": 6060,
      "Ġinterface</w>": 6061,
      "Ġelements</w>": 6062,
      "stitial</w>": 6063,
      "Ġsubpleural</w>": 6064,
      "inflation</w>": 6065,
      "odense</w>": 6066,
      "alization</w>": 6067,
      "Ġthorabony</w>": 6068,
      "Ġuncalcified</w>": 6069,
      "ĠMark": 6070,
      "cardiomegaly</w>": 6071,
      "ĠRet": 6072,
      "ticulonodular</w>": 6073,
      "Ġpatellofemo": 6074,
      "Ġmarkedly</w>": 6075,
      "ĠVertebral</w>": 6076,
      "Ġcrowded</w>": 6077,
      "Ġgastric</w>": 6078,
      "Ġgastrostomy</w>": 6079,
      "ĠScle": 6080,
      "Ġclavicles</w>": 6081,
      "Ġcarinatum</w>": 6082,
      "Ġsubcarinal</w>": 6083,
      "Ġsubchondral</w>": 6084,
      "Ġwhether</w>": 6085,
      "Ġgreatest</w>": 6086,
      "Ġbackgro": 6087,
      "ĠRecommen": 6088,
      "Ġmargins</w>": 6089,
      "ĠGranulomas</w>": 6090,
      "lobular</w>": 6091,
      "Ġrecommend": 6092,
      "Ġdestruction</w>": 6093,
      "ĠFracture</w>": 6094,
      "Ġcorticated</w>": 6095,
      "ĠSubtle</w>": 6096,
      "Ġportions</w>": 6097,
      "Ġfoci</w>": 6098,
      "Ġdegenerated</w>": 6099,
      "Ġdegeneration</w>": 6100,
      "Ġyperlucent</w>": 6101,
      "Ġartifactual</w>": 6102,
      "ĠSequelae</w>": 6103,
      "Ġepigastrium</w>": 6104,
      "Ġcartilages</w>": 6105,
      "ĠTechnical</w>": 6106,
      "ĠCatheters</w>": 6107,
      "Ġgallst": 6108,
      "Ġstability</w>": 6109,
      "vanced</w>": 6110,
      "Ġtapering</w>": 6111,
      "Ġsuperficial</w>": 6112,
      "Ġjewelry</w>": 6113,
      "Ġpatellofemoral</w>": 6114,
      "Ġbackground</w>": 6115,
      "ĠRecommend</w>": 6116,
      "):</w>": 6117,
      ",\"</w>": 6118,
      ">></w>": 6119,
      "Calci": 6120,
      "IS": 6121,
      "Mild</w>": 6122,
      "Minimal</w>": 6123,
      "Slightly</w>": 6124,
      "cings</w>": 6125,
      "dgment</w>": 6126,
      "gh</w>": 6127,
      "granul": 6128,
      "gments</w>": 6129,
      "num": 6130,
      "port</w>": 6131,
      "ser</w>": 6132,
      "tubercul": 6133,
      "tting</w>": 6134,
      "thou": 6135,
      "ued</w>": 6136,
      "uous</w>": 6137,
      "vertebral</w>": 6138,
      "xi": 6139,
      "Ġ/</w>": 6140,
      "infiltrat": 6141,
      "Ġossi": 6142,
      "Ġtom": 6143,
      "Ġtri": 6144,
      "tical</w>": 6145,
      "Ġphysi": 6146,
      "Ġpier": 6147,
      "hen": 6148,
      "Ġcle": 6149,
      "dis": 6150,
      "Ġsite</w>": 6151,
      "ler</w>": 6152,
      "Ġsmal": 6153,
      "Ġstran": 6154,
      "Ġsatisfactory</w>": 6155,
      "Ġnasogastric</w>": 6156,
      "Ġansw": 6157,
      "Ġanother</w>": 6158,
      "ered</w>": 6159,
      "Ġfav": 6160,
      "Ġflank</w>": 6161,
      "Ġeart</w>": 6162,
      "ĠApp": 6163,
      "iter</w>": 6164,
      "Ġbacterial</w>": 6165,
      "Ġdimen": 6166,
      "ĠTub": 6167,
      "Ġhx</w>": 6168,
      "read": 6169,
      "teric</w>": 6170,
      "ĠCHF</w>": 6171,
      "ĠCervical</w>": 6172,
      "otracheal</w>": 6173,
      "load</w>": 6174,
      "broplasty</w>": 6175,
      "Ġsetting</w>": 6176,
      "Ġremark": 6177,
      "Ġlimit</w>": 6178,
      "erable</w>": 6179,
      "Ġarterial</w>": 6180,
      "Ġconsolidating</w>": 6181,
      "Ġfragments</w>": 6182,
      "Ġbronchiolitis</w>": 6183,
      "luxation</w>": 6184,
      "Ġexten": 6185,
      "ĠLy</w>": 6186,
      "ĠLing": 6187,
      "ĠLightheadedness</w>": 6188,
      "Ġrather</w>": 6189,
      "olisthe": 6190,
      "oreign</w>": 6191,
      "olume</w>": 6192,
      "Ġsubluxation</w>": 6193,
      "ĠPalpitations</w>": 6194,
      "entially</w>": 6195,
      "Ġsubphrenic</w>": 6196,
      "ĠHiatal</w>": 6197,
      "ographic</w>": 6198,
      "Ġviral</w>": 6199,
      "ĠSymptoms</w>": 6200,
      "ĠSarcoidosis</w>": 6201,
      "ĠSlight</w>": 6202,
      "Ġtestes</w>": 6203,
      "ĠAbdomen</w>": 6204,
      "ectatic</w>": 6205,
      "Ġcomputed</w>": 6206,
      "cidental</w>": 6207,
      "ĠRecurrent</w>": 6208,
      "scar</w>": 6209,
      "scrib": 6210,
      "ticularly</w>": 6211,
      "Ġmediport</w>": 6212,
      "Ġoverexpanded</w>": 6213,
      "Ġoverload</w>": 6214,
      "expansion</w>": 6215,
      "Ġdenser</w>": 6216,
      "crease</w>": 6217,
      "spicuous</w>": 6218,
      "ĠPosterior</w>": 6219,
      "Ġprominently</w>": 6220,
      "rowed</w>": 6221,
      "ĠForeign</w>": 6222,
      "ĠVolume</w>": 6223,
      "Ġrequired</w>": 6224,
      "Ġthey</w>": 6225,
      "Ġthere": 6226,
      "rect</w>": 6227,
      "ĠPrevious</w>": 6228,
      "Ġparticularly</w>": 6229,
      "Ġ100</w>": 6230,
      "ĠIntermittent</w>": 6231,
      "ĠIncidental</w>": 6232,
      "Ġinsert</w>": 6233,
      "angular</w>": 6234,
      "Ġpathologies</w>": 6235,
      "Ġdiseas</w>": 6236,
      "Ġcourses</w>": 6237,
      "etration</w>": 6238,
      "ĠHyperinflation</w>": 6239,
      "Ġjudgment</w>": 6240,
      "Ġresiduals</w>": 6241,
      "Ġappreciable</w>": 6242,
      "ĠWithin</w>": 6243,
      "ĠRela": 6244,
      "Ġhypoventi": 6245,
      "ĠOsteophyte</w>": 6246,
      "Ġconside": 6247,
      "Ġnarrowed</w>": 6248,
      "ĠEnteric</w>": 6249,
      "Ġdefinition</w>": 6250,
      "Ġortuosity</w>": 6251,
      "Ġfocus</w>": 6252,
      "Ġreflects</w>": 6253,
      "Ġreflecting</w>": 6254,
      "Ġscrew</w>": 6255,
      "ĠBullet</w>": 6256,
      "ĠSugges": 6257,
      "ĠResolution</w>": 6258,
      "Ġcorresponds</w>": 6259,
      "Ġtherosclerotic</w>": 6260,
      "bronchiolitis</w>": 6261,
      "Ġbiliary</w>": 6262,
      "Ġlocalized</w>": 6263,
      "Ġgoiter</w>": 6264,
      "ĠPossibly</w>": 6265,
      "Ġcontinued</w>": 6266,
      "Ġunderpenetration</w>": 6267,
      "ĠInterstitial</w>": 6268,
      "Ġcharacterization</w>": 6269,
      "ĠMarked</w>": 6270,
      "Ġrecommendations</w>": 6271,
      "Calcified</w>": 6272,
      "ISH</w>": 6273,
      "numerable</w>": 6274,
      "tuberculous</w>": 6275,
      "though</w>": 6276,
      "Ġossifications</w>": 6277,
      "Ġtriangular</w>": 6278,
      "Ġsmaller</w>": 6279,
      "Ġanswered</w>": 6280,
      "Ġfavor": 6281,
      "Ġdimension</w>": 6282,
      "ready</w>": 6283,
      "Ġremarkable</w>": 6284,
      "olisthesis</w>": 6285,
      "scribed</w>": 6286
    },
    "merges": [
      "i n",
      "Ġ o",
      "o m",
      "p r",
      "Ġ a",
      "Ġ t",
      "Ġ <</w>",
      "t i",
      "s i",
      "in d</w>",
      "om p",
      "pr omp",
      "promp t</w>",
      "r e</w>",
      "Ġ p",
      "r a",
      "h e",
      "Ġo f</w>",
      "Ġ c",
      "n s</w>",
      "m a",
      "d i",
      "Ġ si",
      "u l",
      "Ġo r</w>",
      "o n</w>",
      "> <</w>",
      "e s</w>",
      "Ġsi g",
      "Ġsig ns</w>",
      "l e",
      "o n",
      "Ġt h",
      "Ġ s",
      "Ġ i",
      "e n",
      "o r",
      "a r",
      "Ġ n",
      "he re</w>",
      "a s",
      "N o</w>",
      "Ġa n",
      "e r",
      "ti on</w>",
      "ra l</w>",
      "Ġ f",
      "Ġ No</w>",
      "Ġth e</w>",
      "Ġt here</w>",
      "a r</w>",
      "Ġ w",
      "u ral</w>",
      "i c",
      "Ġp le",
      "Ġple ural</w>",
      "e s",
      "e d</w>",
      ". <</w>",
      "Ġ l",
      "Ġ e",
      "o l",
      "a l</w>",
      "Ġan y</w>",
      "Ġ A",
      "ĠA re</w>",
      "in g</w>",
      "i t",
      "a tion</w>",
      "Ġ in",
      "Ġ b",
      "Ġ di",
      "si s</w>",
      "ma l",
      "a i",
      "u n",
      "a l",
      "y e",
      "Ġw it",
      "Ġs u",
      "Ġ m",
      "Ġ r",
      "o sis</w>",
      "ai n</w>",
      "si on</w>",
      "s t</w>",
      "c ul",
      "v e</w>",
      "Ġn o</w>",
      "Ġa re</w>",
      "m on",
      "ye ar</w>",
      "Ġa b",
      "Ġp ain</w>",
      "ol d</w>",
      "Ġn o",
      "a t",
      "s t",
      "Ġi s</w>",
      "un g</w>",
      "Ġwit h</w>",
      "Ġc on",
      "Ġ T",
      "Ġ v",
      "he st</w>",
      "c i",
      "Ġi n</w>",
      "ar y</w>",
      "n e",
      "l a",
      "en t</w>",
      "c ation</w>",
      "ul mon",
      "Ġl ung</w>",
      "c e</w>",
      "Ġ he",
      "ar di",
      "a ti",
      "o ns</w>",
      "ti ve</w>",
      "d e",
      "u m",
      "mal e</w>",
      "ulmon ary</w>",
      "as t",
      "Ġ h",
      "Ġp ulmonary</w>",
      "f i",
      "g e</w>",
      "f f",
      "ti c</w>",
      "Ġdi s",
      "as ed</w>",
      "i d",
      "ti es</w>",
      "ma ge</w>",
      "Ġ ma",
      "or ma",
      "Ġi mage</w>",
      "y o",
      "c t",
      "Ġin di",
      "ff u",
      "Ġ pr",
      "Ġindi cation</w>",
      "Ġe ffu",
      "Ġc al",
      "Ġ yo",
      "h o",
      "Ġyo u</w>",
      "Ġeffu sion</w>",
      "b ased</w>",
      "g es",
      "Ġc hest</w>",
      "Ġp ne",
      "en ce</w>",
      "r e",
      "e di",
      "u r",
      "2 5</w>",
      "ast in",
      "edi astin",
      "Ġcal ci",
      "a p",
      "s p",
      "Ġt ra",
      "a n</w>",
      "c h</w>",
      "ati ons</w>",
      "Ġma s",
      "Ġan d</w>",
      "f ic",
      "or mal",
      "Ġa s</w>",
      "Ġab n",
      "Ġabn ormal",
      "es s</w>",
      "t er",
      "Ġno d",
      "Ġsu ch</w>",
      "i ties</w>",
      "Ġ C",
      "u b",
      "Ġabnormal ities</w>",
      "u t</w>",
      "Ġ I",
      "o r</w>",
      "o t",
      "g ges",
      "r on",
      "orma l</w>",
      "Ġe v",
      "Ġf i",
      "t ra",
      "Ġcalci fic",
      "Ġpne um",
      "Ġa p",
      "i s</w>",
      "Ġcalcific ations</w>",
      "Ġn ormal</w>",
      "Ġsu gges",
      "h a",
      "Ġab s",
      "Ġth is</w>",
      "Ġnod ul",
      "Ġf e",
      "Ġ a</w>",
      "l e</w>",
      "as e</w>",
      "ĠT here</w>",
      "er cul",
      "ub ercul",
      "ubercul osis</w>",
      "g s</w>",
      "l o",
      "e ase</w>",
      "m a</w>",
      "Ġp er",
      "Ġdis ease</w>",
      "h e</w>",
      "h i",
      "Ġa or",
      "ar t</w>",
      "om a</w>",
      "Ġfe male</w>",
      "Ġc ardi",
      "o p",
      "t e",
      "u re</w>",
      "cul ar</w>",
      "c he",
      "ĠC an</w>",
      "o b",
      "Ġaor tic</w>",
      "Ġ d",
      "ic ardi",
      "Ġper icardi",
      "e l",
      "s es</w>",
      "m p",
      "h ra",
      "ap hra",
      "aphra g",
      "Ġmas ses</w>",
      "ĠT he</w>",
      "st r",
      "m ent</w>",
      "a c</w>",
      "Ġ de",
      "Ġo ut</w>",
      "Ġ male</w>",
      "Ġnodul es</w>",
      "b r",
      "ul ar</w>",
      "b le</w>",
      "Ġhe art</w>",
      "i g",
      "Ġr ul",
      "Ġtra che",
      "Ġm ediastin",
      "Ġfi br",
      "Ġv as",
      "Ġcardi ac</w>",
      "v ic",
      "i c</w>",
      "Ġfibr osis</w>",
      "n ess</w>",
      "ma tic</w>",
      "aphrag matic</w>",
      "ĠI s</w>",
      "e c",
      "a s</w>",
      "ur es</w>",
      "Ġcon fi",
      "o u",
      "Ġconfi r",
      "Ġf or</w>",
      "ti s</w>",
      "p a",
      "Ġl o",
      "ct ures</w>",
      "Ġs h",
      "u m</w>",
      "t ing</w>",
      "ho ra",
      "Ġo b",
      "Ġb re",
      "ron c",
      "Ġ D",
      "or y</w>",
      "Ġa i",
      "Ġs e",
      "ot hora",
      "i a</w>",
      "pr es",
      "Ġpneum othora",
      "Ġdi aphragmatic</w>",
      "o c",
      "Ġpneumothora x</w>",
      "pres sion</w>",
      "p er",
      "Ġh i",
      "in gs</w>",
      "Ġr e",
      "a ble</w>",
      "Ġbre at",
      "Ġabs ence</w>",
      "e ment</w>",
      "ronc hi",
      "e t",
      "ne a</w>",
      "in d",
      "y sp",
      "s e</w>",
      "ysp nea</w>",
      "or t",
      "Ġt uberculosis</w>",
      "ind ings</w>",
      "st ory</w>",
      "f t</w>",
      "fi l",
      "tra t",
      "fil trat",
      "Ġin filtrat",
      "Ġap p",
      "Ġl i",
      "Ġ g",
      "Ġs t",
      "Ġev id",
      "Ġconfir m</w>",
      "Ġbreat h</w>",
      "ha t</w>",
      "Ġevid ence</w>",
      "z e</w>",
      "ort ness</w>",
      "lo c</w>",
      "u e</w>",
      "m s</w>",
      "Ġno t",
      "la vic",
      "Ġinfiltrat es</w>",
      "y c",
      "o in",
      "Ġ j",
      "lavic ular</w>",
      "t s</w>",
      "Ġmediastin al</w>",
      "ob le",
      "Ġj oin",
      "Ġpr es",
      "on e",
      "om b",
      "ĠD o</w>",
      "Ġ le",
      "e ra",
      "Ġa r",
      "oble ms</w>",
      "Ġh one",
      "yc omb",
      "Ġhone ycomb",
      "Ġhoneycomb ing</w>",
      "u c",
      "a n",
      "e r</w>",
      "c hest</w>",
      "Ġt um",
      "ati ent</w>",
      "Ġh y",
      "ig h",
      "Ġsi ze</w>",
      "e n</w>",
      "Ġt o</w>",
      "or s</w>",
      "Ġrul ing</w>",
      "Ġpericardi al</w>",
      "Ġtum ors</w>",
      "Ġc ol",
      "Ġpr oblems</w>",
      "Ġvas cular</w>",
      "a sis</w>",
      "Ġsugges ting</w>",
      "Ġt b</w>",
      "era tive</w>",
      "om ediastin",
      "Ġo pa",
      "uc tive</w>",
      "orma tion</w>",
      "igh t</w>",
      "ct asis</w>",
      "Ġs c",
      "Ġhy per",
      "ter i",
      "de ma</w>",
      "Ġ en",
      "Ġcon s",
      "Ġsugges tive</w>",
      "Ġe dema</w>",
      "ol id",
      "p p",
      "et ast",
      "Ġcons olid",
      "ec tion</w>",
      "Ġm etast",
      "Ġf ra",
      "Ġhe ma",
      "cul at",
      "Ġob str",
      "q u",
      "i l",
      "g n",
      "Ġp o",
      "ti ons</w>",
      "om as</w>",
      "Ġtrache al</w>",
      "y mp",
      "Ġi f</w>",
      "Ġ ind</w>",
      "Ġe mp",
      "r n",
      "Ġhe rn",
      "Ġc an",
      "ou s</w>",
      "a gn",
      "Ġmas s</w>",
      "Ġb ronchi",
      "Ġhi story</w>",
      "Ġw hat</w>",
      "as es</w>",
      "ar g",
      "Ġfra ctures</w>",
      "Ġp la",
      "l arg",
      "ic es</w>",
      "fi ed</w>",
      "ti cular</w>",
      "Ġopa ci",
      "s s",
      "Ġopaci ties</w>",
      "Ġen larg",
      "Ġin f",
      "Ġhema t",
      "Ġobstr uctive</w>",
      "ai l",
      "ail ure</w>",
      "Ġmetast ases</w>",
      "Ġap ices</w>",
      "Ġf ailure</w>",
      "ti al</w>",
      "le ar</w>",
      "Ġdi agn",
      "in e</w>",
      "Ġabs c",
      "Ġth y",
      "Ġabsc ess</w>",
      "Ġc lear</w>",
      "i b</w>",
      "er te",
      "Ġdiagn osis</w>",
      "ye ma</w>",
      "Ġemp yema</w>",
      "a c",
      "Ġpericardi tis</w>",
      "Ġai r</w>",
      "op erative</w>",
      "Ġv erte",
      "Ġverte b",
      "Ġpneum omediastin",
      "Ġpneumomediastin um</w>",
      "F indings</w>",
      "m pression</w>",
      "Ġenlarg ement</w>",
      "Ġverteb ral</w>",
      "ĠI mpression</w>",
      "Ġb e</w>",
      "s ection</w>",
      "Ġdis section</w>",
      "Ġjoin t</w>",
      "oc lavicular</w>",
      "Ġf ormation</w>",
      "Ġthy m",
      "la p",
      "ic tive</w>",
      "Ġcon str",
      "Ġconstr ictive</w>",
      "lap se</w>",
      "qu es</w>",
      "Ġpla ques</w>",
      "Ġr ight</w>",
      "Ġre ticular</w>",
      "r i",
      "Ġa c",
      "pp ing</w>",
      "Ġtra pping</w>",
      "Ġst r",
      "u mon",
      "umon ia</w>",
      "Ġr ib</w>",
      "r o",
      "ra y</w>",
      "ra n",
      "ĠT uberculosis</w>",
      "en ing</w>",
      "Ġapp e",
      "Ġd yspnea</w>",
      "en t",
      "l u",
      "in ed</w>",
      "t he",
      "Ġpne umonia</w>",
      "al u",
      "ho ut</w>",
      "Ġs o",
      "6 5</w>",
      "Ġpres ent</w>",
      "Ġstr u",
      "Ġlo cation</w>",
      "Ġwit hout</w>",
      "Ġno ti",
      "un gs</w>",
      "Ġai r",
      "y s",
      "Ġstru ctures</w>",
      "t h",
      "Ġnot ed</w>",
      "n o",
      "Ġrul e</w>",
      "a ce</w>",
      "t en",
      "h ortness</w>",
      "ic k",
      "Ġth ick",
      "Ġthick ening</w>",
      "sp ace</w>",
      "Ġair space</w>",
      "Ġe x",
      "ron ic</w>",
      "Ġsh ortness</w>",
      "de r</w>",
      "Ġt i",
      "ten sion</w>",
      "Ġd ue</w>",
      "Ġnoti ce</w>",
      "si ons</w>",
      "Ġl ymp",
      "Ġs ho",
      "p la",
      "ran ul",
      "Ġcol lapse</w>",
      "t e</w>",
      "Ġg ranul",
      "Ġc om",
      "C hest</w>",
      "Ġp atient</w>",
      "Ġ L",
      "i v",
      "Ġti ss",
      "ic able</w>",
      "Ġmediastin um</w>",
      "l icable</w>",
      "Ġapp licable</w>",
      "Ġm il",
      "ar s</w>",
      "Ġcom pression</w>",
      "Ġso ft</w>",
      "Ġl ungs</w>",
      "v i",
      "Ġpo si",
      "Ġo n</w>",
      "te r</w>",
      "the r</w>",
      "ul der</w>",
      "Ġev alu",
      "c ement</w>",
      "Ġv al",
      "Ġw here</w>",
      "ges tion</w>",
      "d yspnea</w>",
      "si st",
      "le ctasis</w>",
      "ra t",
      "Ġval ve</w>",
      "te lectasis</w>",
      "e ur",
      "Ġcalci fied</w>",
      "Ġc y",
      "Ġa telectasis</w>",
      "Ġsho ulder</w>",
      "Ġhyper tension</w>",
      "Ġf indings</w>",
      "e operative</w>",
      "Ġb o",
      "sist ent</w>",
      "Ġm id",
      "Ġob s",
      "Ġvas culat",
      "Ġvasculat ure</w>",
      "Ġo ther</w>",
      "Ġ ra",
      "teri or</w>",
      "Ġcon gestion</w>",
      "ra tion</w>",
      "P atient</w>",
      "Ġobs er",
      "Ġ x</w>",
      "Ġan eur",
      "ys m</w>",
      "Ġaneur ysm</w>",
      "Ġconsolid ation</w>",
      "ol i",
      "en tra",
      "Ġan terior</w>",
      "Ġle ft</w>",
      "el l</w>",
      "entra tion</w>",
      "Ġev entration</w>",
      "ou g",
      "Ġtiss ue</w>",
      "d er",
      "or e",
      "re e</w>",
      "st s</w>",
      "Ġcy sts</w>",
      "Ġm o",
      "it y</w>",
      "Ġf ore",
      "Ġappe ars</w>",
      "Ġra di",
      "ig n</w>",
      "di es</w>",
      "Ġgranul oma</w>",
      "Ġli p",
      "Ġno t</w>",
      "no t</w>",
      "Ġfore ign</w>",
      "l ation</w>",
      "ol um",
      "ri tis</w>",
      "Ġtrache ob",
      "Ġhern ia</w>",
      "Ġin ter",
      "Ġbo dies</w>",
      "a t</w>",
      "pla cement</w>",
      "Ġevalu ation</w>",
      "Ġs p",
      "i rat",
      "Ġw e",
      "Ġv olum",
      "Ġar th",
      "d s</w>",
      "i as</w>",
      "p t",
      "ot h</w>",
      "Ġmid l",
      "Ġlymp h</w>",
      "e ctasis</w>",
      "Ġtracheob ronchi",
      "oug h</w>",
      "Ġnod es</w>",
      "Ġsu b",
      "Ġbronchi ectasis</w>",
      "Ġ P",
      "Ġe le",
      "iv en</w>",
      "Ġf ree</w>",
      "s ti",
      "ter n",
      "Ġinter sti",
      "Ġg iven</w>",
      "Ġdis lo",
      "Ġintersti tial</w>",
      "Ġarth ritis</w>",
      "Ġdislo cation</w>",
      "Ġposi tion</w>",
      "le c",
      "Ġc ough</w>",
      "S hortness</w>",
      "Ġcan not</w>",
      "Ġb ul",
      "Ġhemat oma</w>",
      "Ġle sions</w>",
      "Ġs tern",
      "en ti",
      "Ġb y</w>",
      "ha g",
      "l y</w>",
      "l ing</w>",
      "n g",
      "oli osis</w>",
      "Ġ Y",
      "Ġcon sistent</w>",
      "Ġconsolid ations</w>",
      "Ġmidl ine</w>",
      "r om",
      "Ġ W",
      "la e</w>",
      "Ġb ased</w>",
      "ap e</w>",
      "Ġsh ape</w>",
      "Ġa sp",
      "ĠY es</w>",
      "Ġbul lae</w>",
      "o g",
      "op hag",
      "Ġv en",
      "Ġw ell</w>",
      "oc al</w>",
      "or der",
      "el y</w>",
      "ent ral</w>",
      "m it",
      "Ġf ocal</w>",
      "Ġdis placement</w>",
      "e al</w>",
      "Ġl in",
      "Ġsc oliosis</w>",
      "Ġsc ap",
      "Ġinf ec",
      "Ġs w",
      "Ġin tra",
      "Ġscap ular</w>",
      "Ġcol lec",
      "Ġt ub",
      "Ġtracheobronchi al</w>",
      "Ġinfec tions</w>",
      "at he",
      "Ġsh un",
      "es ophag",
      "g ment</w>",
      "Ġc athe",
      "Ġshun ts</w>",
      "order s</w>",
      "Ġlin es</w>",
      "Ġc lavicular</w>",
      "Ġse gment</w>",
      "ulmon ic</w>",
      "Ġc entral</w>",
      "at al</w>",
      "Ġhemat omas</w>",
      "Ġw id",
      "Ġsub p",
      "Ġstern oclavicular</w>",
      "Ġlo culat",
      "Ġloculat ed</w>",
      "Ġhi atal</w>",
      "teri al</w>",
      "Ġcollec tions</w>",
      "u pt",
      "Ġr upt",
      "Ġma terial</w>",
      "Ġsubp ulmonic</w>",
      "Ġrupt ure</w>",
      "Ġli k",
      "irat ed</w>",
      "Ġasp irated</w>",
      "Ġlik ely</w>",
      "Ġlip omas</w>",
      "a re</w>",
      "i ary</w>",
      "en ed</w>",
      "Ġmil iary</w>",
      "Ġcathe ter</w>",
      "Ġc an</w>",
      "Ġ K",
      "Ġ B</w>",
      "Ġthym ic</w>",
      "le y</w>",
      "er ley</w>",
      "ĠK erley</w>",
      "om an</w>",
      "Ġw oman</w>",
      "f ined</w>",
      "Ġb orders</w>",
      "al ing</w>",
      "r g",
      "hi n</w>",
      "al ci",
      "de fined</w>",
      "Ġwit hin</w>",
      "esophag eal</w>",
      "ic al</w>",
      "Ġwid ened</w>",
      "ra p",
      "ĠW hat</w>",
      "Ġhern ias</w>",
      "in f",
      "Ġ H",
      "on e</w>",
      "Ġvolum e</w>",
      "c er</w>",
      "Ġde vi",
      "Ġintra m",
      "Ġdevi ation</w>",
      "Ġintram ural</w>",
      "si ble</w>",
      "Ġjoin ts</w>",
      "Ġthym oma</w>",
      "Ġfi el",
      "la n",
      "ff er",
      "ffer en",
      "Ġfiel ds</w>",
      "Ġcal lu",
      "Ġcallu s</w>",
      "Ġli mit",
      "i oclavicular</w>",
      "Ġhe aling</w>",
      "rom ioclavicular</w>",
      "fferen tial</w>",
      "Ġcan cer</w>",
      "og rap",
      "Ġhyper inf",
      "Ġac romioclavicular</w>",
      "pa ration</w>",
      "Ġse paration</w>",
      "Ġse en</w>",
      "el ling</w>",
      "Ġde vic",
      "Ġ (</w>",
      "i story</w>",
      "Ġven ous</w>",
      "Ġradi ograp",
      "Ġpres en",
      "Ġsu rg",
      "Ġsw elling</w>",
      "Ġele ct",
      "Ġtub es</w>",
      "Ġmo st</w>",
      "Ġlimit s</w>",
      "fic ation</w>",
      "Ġradiograp h</w>",
      "Ġ N",
      "Ġdevic es</w>",
      "Ġhyperinf lation</w>",
      "Ġelect ronic</w>",
      "ar c",
      "c alci",
      "calci fication</w>",
      "P D</w>",
      "Ġbronchi al</w>",
      "ha ng",
      "Ġth at</w>",
      "ĠL ung</w>",
      "g en",
      "v ed</w>",
      "m o",
      "o d",
      "er y</w>",
      "Ġsurg ery</w>",
      "ter m",
      "Ġin c",
      "Ġde term",
      "Ġv i",
      "Ġnodul e</w>",
      "Ġtrache a</w>",
      "m ed</w>",
      "5 0</w>",
      "Ġobser ved</w>",
      "d om",
      "al i",
      "Ġconfir med</w>",
      "d ed</w>",
      "p o",
      "Ġw h",
      "Ġpr eoperative</w>",
      "o ra",
      "Ġcon t",
      "hang es</w>",
      "Ġc hanges</w>",
      "u s",
      "d e</w>",
      "3 0</w>",
      "u s</w>",
      "Ġth ora",
      "en c",
      "per i",
      "Ġdi fferential</w>",
      "Ġ B",
      "ter y</w>",
      "Ġar tery</w>",
      "ac k</w>",
      "H istory</w>",
      "Ġ S",
      "Ġ un",
      "Ġ esophageal</w>",
      "Ġa l",
      "s u",
      "Ġnot e</w>",
      "on ed</w>",
      "l in",
      "at e</w>",
      "et te</w>",
      "ho u",
      "l hou",
      "Ġsi lhou",
      "Ġb oth</w>",
      "Ġdeterm ined</w>",
      "lin ical</w>",
      "sp lan",
      "Ġ 50</w>",
      "ron g</w>",
      "Ġw rong</w>",
      "Ġnot able</w>",
      "ci c</w>",
      "splan t</w>",
      "Ġm enti",
      "Ġmenti oned</w>",
      "re operative</w>",
      "Ġ 65</w>",
      "Ġsp ine</w>",
      "y n",
      "h ronic</w>",
      "Ġtra n",
      "mo k",
      "i n</w>",
      "Ġsilhou ette</w>",
      "Ġ M",
      "ymp t",
      "Ġi t</w>",
      "a k",
      "Ġs en",
      "Ġwe e",
      "Ġtran splant</w>",
      "y sis</w>",
      "in al</w>",
      "Ġ u",
      "in g",
      "k s</w>",
      "om ali",
      "Ġan omali",
      "Ġanomali es</w>",
      "P reoperative</w>",
      "Ġex peri",
      "Ġexperi enc",
      "Ġthora cic</w>",
      "u te</w>",
      "c op",
      "Ġexperienc ing</w>",
      "e art</w>",
      "Ġwee ks</w>",
      "Ġ k",
      "i d</w>",
      "Ġt es",
      "ak ness</w>",
      "at s</w>",
      "di aphragmatic</w>",
      "Ġvi sible</w>",
      "pr eoperative</w>",
      "Ġsen se</w>",
      "at ed</w>",
      "Ġinc lu",
      "or on",
      "yn cop",
      "oron ary</w>",
      "l ung</w>",
      "Ġb ack</w>",
      "ac t</w>",
      "he e",
      "dom inal</w>",
      "w er</w>",
      "Ġpresen ting</w>",
      "Ġ E",
      "Ġin t",
      "h y",
      "h y</w>",
      "s s</w>",
      "omediastin al</w>",
      "Ġc hronic</w>",
      "h ing</w>",
      "t y</w>",
      "gen erative</w>",
      "Ġlo wer</w>",
      "Ġ -</w>",
      "Ġs mok",
      "ĠA b",
      "Ġac ute</w>",
      "Ġc oronary</w>",
      "ĠH eart</w>",
      "Ġf ind</w>",
      "ympt om",
      "Ġ x",
      "om it",
      "omit ing</w>",
      "Ġse e</w>",
      "Ġ 25</w>",
      "u p</w>",
      "al l</w>",
      "Ġma r",
      "Ġint act</w>",
      "Ġsig n</w>",
      "Ġobser ve</w>",
      "Ġx ray</w>",
      "Ġhe m",
      "ymptom s</w>",
      "ĠB oth</w>",
      "s ence</w>",
      "Ġsugges t",
      "c ol",
      "col lapse</w>",
      "le d</w>",
      "ro m</w>",
      "Ġf rom</w>",
      "Ġre p",
      "on y</w>",
      "yncop e</w>",
      "e ct",
      "Ġvas cul",
      "ĠAb sence</w>",
      "s hortness</w>",
      "Ġpr e",
      "Ġb one</w>",
      "si ded</w>",
      "e ft</w>",
      "Ġde generative</w>",
      "a y",
      "ay s</w>",
      "Ġo n",
      "Ġwh ats</w>",
      "gges ting</w>",
      "su ggesting</w>",
      "Ġcardi omediastinal</w>",
      "Ġde t",
      "Ġdet ai",
      "om y</w>",
      "Ġdetai led</w>",
      "Ġp a",
      "i ve</w>",
      "si tive</w>",
      "ing lung</w>",
      "Ġsuggest inglung</w>",
      "at us</w>",
      "p l",
      "l i",
      "Ġtes t</w>",
      "a b",
      "pp er</w>",
      "s sible</w>",
      "Ġb ony</w>",
      "ĠC hest</w>",
      "Ġa d",
      "ĠC ardi",
      "Ġpresen ts</w>",
      "Ġl ob",
      "Ġd ays</w>",
      "v er</w>",
      "ĠE x",
      "d enti",
      "Ġi denti",
      "as t</w>",
      "Ġidenti fied</w>",
      "ur i",
      "h ma</w>",
      "H y",
      "Ġs ymptoms</w>",
      "Ġinf ormation</w>",
      "O PD</w>",
      "po x",
      "o ur",
      "Ġd o",
      "v er",
      "Ġal one</w>",
      "ic le</w>",
      "st hma</w>",
      "Ġv omiting</w>",
      "Ġde f",
      "lo w</w>",
      "arc in",
      "il at",
      "w n</w>",
      "Ġpr o",
      "pl ain</w>",
      "ĠEx plain</w>",
      "op at",
      "z ing</w>",
      "e ral</w>",
      "re ased</w>",
      "e h",
      "eh icle</w>",
      "Ġu pper</w>",
      "Ġc omp",
      "ss e",
      "Ġinclu de</w>",
      "our s</w>",
      "ou r</w>",
      "Ġ 3</w>",
      "sse ous</w>",
      "e g",
      "pox ia</w>",
      "ĠD i",
      "ĠN ot",
      "hee zing</w>",
      "Ġc linical</w>",
      "aphrag m</w>",
      "Ġsmok ing</w>",
      "Ġar m</w>",
      "i b",
      "ul a</w>",
      "Ġst able</w>",
      "Ġi m",
      "ma r",
      "ro w</w>",
      "Ġmar row</w>",
      "F e",
      "Ġcont our</w>",
      "a us",
      "mar k",
      "re mark",
      "en tion</w>",
      "Ġw all</w>",
      "C OPD</w>",
      "c ity</w>",
      "remark able</w>",
      "Ġc arcin",
      "no wn</w>",
      "la in",
      "ci d",
      "Ġopa city</w>",
      "Ġun remarkable</w>",
      "Ġlob e</w>",
      "Ġmil d</w>",
      "Ġcont ours</w>",
      "Fe male</w>",
      "Ġlo ss</w>",
      "ĠNot able</w>",
      "od uctive</w>",
      "Ġa t",
      "Ġappe ar</w>",
      "r ic",
      "e ci",
      "l ar</w>",
      "d ing</w>",
      "1 0</w>",
      "Ġb ilat",
      "e a</w>",
      "aus ea</w>",
      "Ġc o",
      "opat hy</w>",
      "i or</w>",
      "Ġwe akness</w>",
      "Ġm ot",
      "Ġpre vi",
      "ati ve</w>",
      "Ġdo es</w>",
      "m in",
      "Ġm ention</w>",
      "ri al</w>",
      "ff ic",
      "Ġpo ssible</w>",
      "Ġv ehicle</w>",
      "Ġv ent",
      "Ġar ch</w>",
      "y g",
      "Ġst atus</w>",
      "Ġon e</w>",
      "f ter</w>",
      "at ing</w>",
      "v alu",
      "Ġa fter</w>",
      "ol low</w>",
      "Ġin j",
      "st e",
      "x yg",
      "xyg en</w>",
      "cid ent</w>",
      "ric ular</w>",
      "g ue</w>",
      "4 5</w>",
      "Ġeffu sions</w>",
      "Ġprevi ous</w>",
      "ffic ul",
      "Ġw or",
      "Ġo ste",
      "P PD</w>",
      "t a</w>",
      "fficul ty</w>",
      "Ġo xygen</w>",
      "Ġac cident</w>",
      "Ġpa ra",
      "t ysis</w>",
      "op tysis</w>",
      "ur y</w>",
      "Ġaor ta</w>",
      "Ġvent ricular</w>",
      "it al</w>",
      "Ġm yo",
      "gen ital</w>",
      "Ġcon genital</w>",
      "Ġc er",
      "L eft</w>",
      "c ardi",
      "Ġinj ury</w>",
      "ati gue</w>",
      "ĠP r",
      "ĠCardi ac</w>",
      "Ġabnormal ity</w>",
      "Ġcomp lain",
      "Ġh as</w>",
      "Ġat rial</w>",
      "a d",
      "Ġa sthma</w>",
      "l es</w>",
      "Ġ 1</w>",
      "e in</w>",
      "Ġi ts</w>",
      "l ysis</w>",
      "Ġpo st</w>",
      "Ġpara lysis</w>",
      "Ġl ar",
      "ai r</w>",
      "ra che",
      "Ġab dominal</w>",
      "Ġdi aphragm</w>",
      "valu ate</w>",
      "po sitive</w>",
      "Ġ mal",
      "ĠPr oblems</w>",
      "ĠT rache",
      "a si",
      "Ġm on",
      "Ġlo w</w>",
      "id osis</w>",
      "si ze</w>",
      "um b",
      "ar ity</w>",
      "ne e</w>",
      "Ġw heezing</w>",
      "ent al</w>",
      "id ne",
      "Ġpr ot",
      "ro at</w>",
      "idne y</w>",
      "uc tion</w>",
      "Ġlar ge</w>",
      "o id</w>",
      "ati c</w>",
      "s e",
      "Ġ R",
      "ec ent</w>",
      "in ess</w>",
      "z iness</w>",
      "Ġp uri",
      "er iv",
      "Ġd eriv",
      "Ġprot ein</w>",
      "Ġpuri fied</w>",
      "Ġderiv ative</w>",
      "ĠTrache a</w>",
      "z ziness</w>",
      "ĠDi fferential</w>",
      "Ġbreat hing</w>",
      "om eg",
      "al y</w>",
      "omeg aly</w>",
      "Ġinf ection</w>",
      "Ġvascul arity</w>",
      "r ic</w>",
      "Ġposi tive</w>",
      "Ġim mage</w>",
      "z ed</w>",
      "u t",
      "as al</w>",
      "Ġst en",
      "Ġcarcin oma</w>",
      "es p",
      "Ġmyo cardi",
      "Ġ G",
      "e akness</w>",
      "Ġbre ast</w>",
      "P o",
      "or t</w>",
      "es c",
      "Ġ 2</w>",
      "T he</w>",
      "en ic</w>",
      "Ġn asal</w>",
      "Ġmot or</w>",
      "Ġrep air</w>",
      "ĠH istory</w>",
      "a ge</w>",
      "a y</w>",
      "Ġex a",
      "Ġsp eci",
      "Ġfi st",
      "v id",
      "om at",
      "st er",
      "c al</w>",
      "Ġinc reased</w>",
      "Ġk nee</w>",
      "Ġ ,</w>",
      "Ġre g",
      "pa n",
      "t h</w>",
      "Ġa g",
      "ul e</w>",
      "T here</w>",
      "o t</w>",
      "o un",
      "umb ness</w>",
      "v e",
      "Ġn umbness</w>",
      "Ġo sseous</w>",
      "Ġf ollow</w>",
      "2 0</w>",
      "7 0</w>",
      "s c",
      "o w</w>",
      "Ġrep ort</w>",
      "ĠG ive</w>",
      "esc ri",
      "Ġ [</w>",
      "vic al</w>",
      "pla n",
      "Ġg ive</w>",
      "Ġex plan",
      "Ġexplan ation</w>",
      "E valuate</w>",
      "Ġpr oductive</w>",
      "Ġdi lation</w>",
      "? <</w>",
      "ter ed</w>",
      "Ġcardi omegaly</w>",
      "si ty</w>",
      "Ġpro vid",
      "escri b",
      "Ġfe ver</w>",
      "Ġb ronc",
      "ti cul",
      "Ġsten osis</w>",
      "y p",
      "ac he</w>",
      "min ation</w>",
      "Ġcer vical</w>",
      "se t</w>",
      "i s",
      "per tension</w>",
      "ar r",
      "i tis</w>",
      "Ġ 10</w>",
      "m b",
      "d y</w>",
      "Ġdi ver",
      "Ġm ental</w>",
      "Ġdiver ticul",
      "Ġ 70</w>",
      "' s</w>",
      "o idosis</w>",
      "arc oidosis</w>",
      "h oma</w>",
      "oun d</w>",
      "ĠL ungs</w>",
      "Ġe p",
      "Ġele v",
      "Ġfist ula</w>",
      "Ċ Ċ</w>",
      "ĠN ormal</w>",
      "S yncope</w>",
      "Ġradi ating</w>",
      "Ġexa mination</w>",
      "ĠP PD</w>",
      "Ġwh o</w>",
      "k nown</w>",
      "Ġ I</w>",
      "p ain</w>",
      "Ġ ye",
      "Ġye ars</w>",
      "Ġa t</w>",
      "Ġm e</w>",
      "ĠD escrib",
      "ĠDescrib e</w>",
      "Ġoste op",
      "Ġtiss u",
      "ali zed</w>",
      "Ġinfiltrat e</w>",
      "str ib",
      "strib u",
      "k up</w>",
      "Ġar r",
      "Ġwor kup</w>",
      "Ġw as</w>",
      "su alized</w>",
      "Hy poxia</w>",
      "ad ache</w>",
      "Ġhem i",
      "Ġr esp",
      "ĠN ot</w>",
      "pan ded</w>",
      "Ġhemi di",
      "h r",
      "hr enic</w>",
      "Ġs yncope</w>",
      "D i",
      "hi story</w>",
      "Ġ year</w>",
      "c ed</w>",
      "Ġobstr uction</w>",
      "on d",
      "Hy pertension</w>",
      "e p",
      "ur g",
      "Ġvolum es</w>",
      "on al</w>",
      "al e</w>",
      "il d</w>",
      "o s",
      "Ġevalu ate</w>",
      "A ge</w>",
      "Ġag o</w>",
      "a v",
      "i ma",
      "ra c",
      "h ys",
      "Ġpla cement</w>",
      "hys e",
      "Ġbronc ho",
      "Ġhema ng",
      "Ġhemang i",
      "l ly</w>",
      "Ġdi fficulty</w>",
      "l s</w>",
      "hi l",
      "Ġm us",
      "m ma",
      "la mma",
      "ur r",
      "2 2</w>",
      "Ġr ecent</w>",
      "Ġinf lamma",
      "s ure</w>",
      "Ġdiverticul a</w>",
      "ect omy</w>",
      "ar i",
      "Ġ Female</w>",
      "igh t",
      "he m",
      "th m",
      "hy thm",
      "Ġarr hythm",
      "Ġ O",
      "Ġth roat</w>",
      "Ġ 45</w>",
      "Ġarrhythm ias</w>",
      "A b",
      "0 2</w>",
      "l d</w>",
      "Ġa ss",
      "ĠL eft</w>",
      "k in</w>",
      "R ib</w>",
      "an t</w>",
      "Ġrul ed</w>",
      "Ġcon di",
      "Ġvi sualized</w>",
      "is od",
      "Ġep isod",
      "hil ls</w>",
      "ort u",
      "Ġo ld</w>",
      "en al</w>",
      "ardi a</w>",
      "Ġpr ior</w>",
      "Ġwe ight</w>",
      "Ġbilat eral</w>",
      "Ġb e",
      "Ġb ase</w>",
      "stribu tion</w>",
      "U n",
      "irat ory</w>",
      "en opathy</w>",
      "Ġgranul omat",
      "Ġbronchi tis</w>",
      "Ġmyocardi al</w>",
      "t ed</w>",
      "Ġemp hyse",
      "Ġresp iratory</w>",
      "Ġmus c",
      "ac c",
      "at es</w>",
      "ect s</w>",
      "y oma</w>",
      "ĠP ulmonary</w>",
      "ig n",
      "] -</w>",
      "Ġe l",
      "era lly</w>",
      "Ġcondi tions</w>",
      "o d</w>",
      "arr ing</w>",
      "T uberculosis</w>",
      "Ġc ell</w>",
      "it ral</w>",
      "mal l</w>",
      "Ġle sion</w>",
      "x oma</w>",
      "y xoma</w>",
      "Ġm itral</w>",
      "Ġm yxoma</w>",
      "Ġinf arc",
      "Ġe mb",
      "Ġemb oli",
      "Ġbilat erally</w>",
      "t ures</w>",
      "b ack</w>",
      "k idney</w>",
      "Ġ 5</w>",
      "hy si",
      "Ġhem optysis</w>",
      ") .<</w>",
      "s m</w>",
      "Ġa ge</w>",
      "ul ti",
      "Ġemboli sm</w>",
      "Ġel b",
      "fi c</w>",
      "Ġdef ects</w>",
      "F atigue</w>",
      "hysi cal</w>",
      "Ġo ver</w>",
      "si de</w>",
      "o v",
      "A l",
      "ffu se</w>",
      "l ated</w>",
      "ro sc",
      "Ġb ari",
      "at ric</w>",
      "Ġinflamma tion</w>",
      "Ġbari atric</w>",
      "Ġsc arring</w>",
      "il l",
      "t r",
      "Ġc av",
      "or r",
      "Ġm edi",
      "Ġf ound</w>",
      "ct omy</w>",
      "m ity</w>",
      "Ġs pa",
      "asi lar</w>",
      "Ġenlarg ed</w>",
      "Ġp at",
      "ic tures</w>",
      "Ġdi ffuse</w>",
      "Ġstr ictures</w>",
      "Ġelb ow</w>",
      "o m</w>",
      "Ġ 20</w>",
      "Ġhy poxia</w>",
      "arc oma</w>",
      "Ġc hee",
      "Ġchee k</w>",
      "Ġk nown</w>",
      "Ġdeterm ine</w>",
      "ct ure</w>",
      "D yspnea</w>",
      "N ausea</w>",
      "Ġn ausea</w>",
      "Ġpa i</w>",
      "th s</w>",
      "Ġmon ths</w>",
      "ob acc",
      "obacc o</w>",
      "es ticular</w>",
      "it ation</w>",
      "ig ns</w>",
      "ĠS igns</w>",
      ") ,</w>",
      "Ġo ver",
      "Ġlymp hang",
      "Ġlymphang i",
      "Ġ us",
      "Ġse pt",
      "Ġsept al</w>",
      "ster ior</w>",
      "Ġp hysical</w>",
      "Ġno se</w>",
      "Ġre placement</w>",
      "c linical</w>",
      "Ġfra cture</w>",
      "ĠS i",
      "Ġemphyse ma</w>",
      "Ġinfarc tion</w>",
      "ti onal</w>",
      "al ly</w>",
      "Ġsmok er</w>",
      "I n",
      "Ġmal f",
      "Ġ X</w>",
      "Ġ Patient</w>",
      "w eakness</w>",
      "si a</w>",
      "c es</w>",
      "e x",
      "Ġdi zziness</w>",
      "ne umonia</w>",
      "S ympt",
      "ar ct",
      "Sympt om</w>",
      "Ġr enal</w>",
      "Ġu se</w>",
      "e ar</w>",
      "Ġs mall</w>",
      "Ġd en",
      "r osis</w>",
      "Ġt obacco</w>",
      "Ġs in",
      "Ġper i",
      "hem optysis</w>",
      "rosc le",
      "el s</w>",
      "it e</w>",
      "Ġs arcoidosis</w>",
      "ha d",
      "Ġgranulomat ous</w>",
      "pr o",
      "dom en</w>",
      "Ġt ortu",
      "le e",
      "aphrag ms</w>",
      "the roscle",
      "i r",
      "n ula</w>",
      "Ġf all</w>",
      "ol ap",
      "Ġin side</w>",
      "Ġpr olap",
      "Ġcan nula</w>",
      "ac h",
      "Ġmusc les</w>",
      "Ġus ing</w>",
      "Ġprolap se</w>",
      "p le</w>",
      "Ġ 30</w>",
      "st ate</w>",
      "Ġmar k",
      "Ġelev ated</w>",
      "5 5</w>",
      "Ġhe adache</w>",
      "Ġpres ence</w>",
      "0 0</w>",
      "a ul",
      "o sseous</w>",
      "Ġar teri",
      "ĠSi ze</w>",
      "w s</w>",
      "Ġspeci fic</w>",
      "Ab dominal</w>",
      "ma t",
      "Ġlymp homa</w>",
      "es osseous</w>",
      "Ġab domen</w>",
      "g ing</w>",
      "Ġn ec",
      "d es</w>",
      "Ġf atigue</w>",
      "i de",
      "Ġc ha",
      "Ġc hills</w>",
      "Ġfibr o",
      "Ġt od",
      "Ġn on",
      "ide ctomy</w>",
      "Ġtod ay</w>",
      "Ġsu peri",
      "Ġco st",
      "ima l</w>",
      "Ġhi lar</w>",
      "Ġven a</w>",
      "Ġcav a</w>",
      "t able</w>",
      "u sion</w>",
      "a ci",
      "Ġindi c",
      "en ous</w>",
      "Ġa n</w>",
      "Ġre mo",
      "Ġprovid ed</w>",
      "Ġper sistent</w>",
      "Ġreg urg",
      "Ġregurg itation</w>",
      "i om",
      "s ening</w>",
      "Ġle iom",
      "ach yc",
      "Ġhemangi omas</w>",
      "e x</w>",
      "Ġap ex</w>",
      "Ġtrache o",
      "Ġhem orr",
      "Ġ Un",
      "Ġt ight",
      "Ġtight ness</w>",
      "3 5</w>",
      "n set</w>",
      "Ġass aul",
      "Ġl ab",
      "Ġtum or</w>",
      "i ration</w>",
      "Ġsi de</w>",
      "o rat",
      "ulti ple</w>",
      "Ġlab orat",
      "Ġlaborat ory</w>",
      "c reased</w>",
      "at eral</w>",
      "Ġst u",
      "un ds</w>",
      "ab dominal</w>",
      "k les</w>",
      "Ġc rac",
      "di tional</w>",
      "Ġcrac kles</w>",
      "w o</w>",
      "e lan",
      "ĠC an",
      "elan oma</w>",
      "Ġinclu des</w>",
      "Ġle v",
      "Ġmetast atic</w>",
      "Ġn d</w>",
      "Ġsho ws</w>",
      "ĠM ild</w>",
      "had enopathy</w>",
      "Ġst ates</w>",
      "Ġtissu es</w>",
      "Ġl ateral</w>",
      "Ġ qu",
      "el ast",
      "Ġfibro elast",
      "m ia</w>",
      "pr oductive</w>",
      "in imal</w>",
      "Ġbroncho esophageal</w>",
      "Ġtracheo esophageal</w>",
      "p s</w>",
      "Ġma y</w>",
[...]
