{
  "version": "1.0",
  "truncation": null,
  "padding": null,
  "added_tokens": [
    {
      "id": 0,
      "special": true,
      "content": "<PAD>",
      "single_word": false,
      "lstrip": false,
      "rstrip": false,
      "normalized": false
    },
    {
      "id": 1,
      "special": true,
      "content": "<UNK>",
      "single_word": false,
      "lstrip": false,
      "rstrip": false,
      "normalized": false
    },
    {
      "id": 2,
      "special": true,
      "content": "[CLS]",
      "single_word": false,
      "lstrip": false,
      "rstrip": false,
      "normalized": false
    },
    {
      "id": 3,
      "special": true,
      "content": "[SEP]",
      "single_word": false,
      "lstrip": false,
      "rstrip": false,
      "normalized": false
    },
    {
      "id": 4,
      "special": true,
      "content": "<s>",
      "single_word": false,
      "lstrip": false,
      "rstrip": false,
      "normalized": false
    },
    {
      "id": 5,
      "special": true,
      "content": "<MASK>",
      "single_word": false,
      "lstrip": false,
      "rstrip": false,
      "normalized": false
    },
    {
      "id": 6,
      "special": true,
      "content": "<size>",
      "single_word": false,
      "lstrip": false,
      "rstrip": false,
      "normalized": false
    },
    {
      "id": 7,
      "special": true,
      "content": "<ind>",
      "single_word": false,
      "lstrip": false,
      "rstrip": false,
      "normalized": false
    },
    {
      "id": 8,
      "special": true,
      "content": "<prompt>",
      "single_word": false,
      "lstrip": false,
      "rstrip": false,
      "normalized": false
    },
    {
      "id": 9,
      "special": true,
      "content": "T1",
      "single_word": false,
      "lstrip": false,
      "rstrip": false,
      "normalized": false
    },
    {
      "id": 10,
      "special": true,
      "content": "T2",
      "single_word": false,
      "lstrip": false,
      "rstrip": false,
      "normalized": false
    },
    {
      "id": 11,
      "special": true,
      "content": "T3",
      "single_word": false,
      "lstrip": false,
      "rstrip": false,
      "normalized": false
    },
    {
      "id": 12,
      "special": true,
      "content": "T4",
      "single_word": false,
      "lstrip": false,
      "rstrip": false,
      "normalized": false
    },
    {
      "id": 13,
      "special": true,
      "content": "T5",
      "single_word": false,
      "lstrip": false,
      "rstrip": false,
      "normalized": false
    },
    {
      "id": 14,
      "special": true,
      "content": "T6",
      "single_word": false,
      "lstrip": false,
      "rstrip": false,
      "normalized": false
    },
    {
      "id": 15,
      "special": true,
      "content": "T7",
      "single_word": false,
      "lstrip": false,
      "rstrip": false,
      "normalized": false
    },
    {
      "id": 16,
      "special": true,
      "content": "T8",
      "single_word": false,
      "lstrip": false,
      "rstrip": false,
      "normalized": false
    },
    {
      "id": 17,
      "special": true,
      "content": "T9",
      "single_word": false,
      "lstrip": false,
      "rstrip": false,
      "normalized": false
    },
    {
      "id": 18,
      "special": true,
      "content": "T10",
      "single_word": false,
      "lstrip": false,
      "rstrip": false,
      "normalized": false
    },
    {
      "id": 19,
      "special": true,
      "content": "T11",
      "single_word": false,
      "lstrip": false,
      "rstrip": false,
      "normalized": false
    },
    {
      "id": 20,
      "special": true,
      "content": "T12",
      "single_word": false,
      "lstrip": false,
      "rstrip": false,
      "normalized": false
    },
    {
      "id": 21,
      "special": true,
      "content": "1",
      "single_word": false,
      "lstrip": false,
      "rstrip": false,
      "normalized": false
    },
    {
      "id": 22,
      "special": true,
      "content": "2",
      "single_word": false,
      "lstrip": false,
      "rstrip": false,
      "normalized": false
    },
    {
      "id": 23,
      "special": true,
      "content": "3",
      "single_word": false,
      "lstrip": false,
      "rstrip": false,
      "normalized": false
    },
    {
      "id": 24,
      "special": true,
      "content": "4",
      "single_word": false,
      "lstrip": false,
      "rstrip": false,
      "normalized": false
    },
    {
      "id": 25,
      "special": true,
      "content": "5",
      "single_word": false,
      "lstrip": false,
      "rstrip": false,
      "normalized": false
    },
    {
      "id": 26,
      "special": true,
      "content": "6",
      "single_word": false,
      "lstrip": false,
      "rstrip": false,
      "normalized": false
    },
    {
      "id": 27,
      "special": true,
      "content": "7",
      "single_word": false,
      "lstrip": false,
      "rstrip": false,
      "normalized": false
    },
    {
      "id": 28,
      "special": true,
      "content": "8",
      "single_word": false,
      "lstrip": false,
      "rstrip": false,
      "normalized": false
    },
    {
      "id": 29,
      "special": true,
      "content": "9",
      "single_word": false,
      "lstrip": false,
      "rstrip": false,
      "normalized": false
    },
    {
      "id": 30,
      "special": true,
      "content": "0",
      "single_word": false,
      "lstrip": false,
      "rstrip": false,
      "normalized": false
    },
    {
      "id": 31,
      "special": true,
      "content": "<loc0>",
      "single_word": false,
      "lstrip": false,
      "rstrip": false,
      "normalized": false
    },
    {
      "id": 32,
      "special": true,
      "content": "<loc1>",
      "single_word": false,
      "lstrip": false,
      "rstrip": false,
      "normalized": false
    },
    {
      "id": 33,
      "special": true,
      "content": "<loc2>",
      "single_word": false,
      "lstrip": false,
      "rstrip": false,
      "normalized": false
    },
    {
      "id": 34,
      "special": true,
      "content": "<loc00>",
      "single_word": false,
      "lstrip": false,
      "rstrip": false,
      "normalized": false
    },
    {
      "id": 35,
      "special": true,
      "content": "<loc01>",
      "single_word": false,
      "lstrip": false,
      "rstrip": false,
      "normalized": false
    },
    {
      "id": 36,
      "special": true,
      "content": "<loc02>",
      "single_word": false,
      "lstrip": false,
      "rstrip": false,
      "normalized": false
    },
    {
      "id": 37,
      "special": true,
      "content": "<loc10>",
      "single_word": false,
      "lstrip": false,
      "rstrip": false,
      "normalized": false
    },
    {
      "id": 38,
      "special": true,
      "content": "<loc11>",
      "single_word": false,
      "lstrip": false,
      "rstrip": false,
      "normalized": false
    },
    {
      "id": 39,
      "special": true,
      "content": "<loc12>",
      "single_word": false,
      "lstrip": false,
      "rstrip": false,
      "normalized": false
    },
    {
      "id": 40,
      "special": true,
      "content": "<loc20>",
      "single_word": false,
      "lstrip": false,
      "rstrip": false,
      "normalized": false
    },
    {
      "id": 41,
      "special": true,
      "content": "<loc21>",
      "single_word": false,
      "lstrip": false,
      "rstrip": false,
      "normalized": false
    },
    {
      "id": 42,
      "special": true,
      "content": "<loc22>",
      "single_word": false,
      "lstrip": false,
      "rstrip": false,
      "normalized": false
    },
    {
      "id": 43,
      "special": true,
      "content": "<loc02><loc22>",
      "single_word": false,
      "lstrip": false,
      "rstrip": false,
      "normalized": false
    },
    {
      "id": 44,
      "special": true,
      "content": "<loc0><loc2>",
      "single_word": false,
      "lstrip": false,
      "rstrip": false,
      "normalized": false
    },
    {
      "id": 45,
      "special": true,
      "content": "<rib1>",
      "single_word": false,
      "lstrip": false,
      "rstrip": false,
      "normalized": false
    },
    {
      "id": 46,
      "special": true,
      "content": "<rib2>",
      "single_word": false,
      "lstrip": false,
      "rstrip": false,
      "normalized": false
    },
    {
      "id": 47,
      "special": true,
      "content": "<rib3>",
      "single_word": false,
      "lstrip": false,
      "rstrip": false,
      "normalized": false
    },
    {
      "id": 48,
      "special": true,
      "content": "<rib4>",
      "single_word": false,
      "lstrip": false,
      "rstrip": false,
      "normalized": false
    },
    {
      "id": 49,
      "special": true,
      "content": "<rib5>",
      "single_word": false,
      "lstrip": false,
      "rstrip": false,
      "normalized": false
    },
    {
      "id": 50,
      "special": true,
      "content": "<rib6>",
      "single_word": false,
      "lstrip": false,
      "rstrip": false,
      "normalized": false
    },
    {
      "id": 51,
      "special": true,
      "content": "<rib7>",
      "single_word": false,
      "lstrip": false,
      "rstrip": false,
      "normalized": false
    },
    {
      "id": 52,
      "special": true,
      "content": "<rib8>",
      "single_word": false,
      "lstrip": false,
      "rstrip": false,
      "normalized": false
    },
    {
      "id": 53,
      "special": true,
      "content": "<rib9>",
      "single_word": false,
      "lstrip": false,
      "rstrip": false,
      "normalized": false
    },
    {
      "id": 54,
      "special": true,
      "content": "<rib10>",
      "single_word": false,
      "lstrip": false,
      "rstrip": false,
      "normalized": false
    },
    {
      "id": 55,
      "special": true,
      "content": "<rib11>",
      "single_word": false,
      "lstrip": false,
      "rstrip": false,
      "normalized": false
    },
    {
      "id": 56,
      "special": true,
      "content": "<rib12>",
      "single_word": false,
      "lstrip": false,
      "rstrip": false,
      "normalized": false
    }
  ],
  "normalizer": {
    "type": "BertNormalizer",
    "clean_text": true,
    "handle_chinese_chars": true,
    "strip_accents": true,
    "lowercase": false
  },
  "pre_tokenizer": {
    "type": "BertPreTokenizer"
  },
  "post_processor": null,
  "decoder": null,
  "model": {
    "type": "WordPiece",
    "unk_token": "<UNK>",
    "continuing_subword_prefix": "##",
    "max_input_chars_per_word": 7,
    "vocab": {
      "<PAD>": 0,
      "<UNK>": 1,
      "[CLS]": 2,
      "[SEP]": 3,
      "<s>": 4,
      "<MASK>": 5,
      "<size>": 6,
      "<ind>": 7,
      "<prompt>": 8,
      "T1": 9,
      "T2": 10,
      "T3": 11,
      "T4": 12,
      "T5": 13,
      "T6": 14,
      "T7": 15,
      "T8": 16,
      "T9": 17,
      "T10": 18,
      "T11": 19,
      "T12": 20,
      "1": 21,
      "2": 22,
      "3": 23,
      "4": 24,
      "5": 25,
      "6": 26,
      "7": 27,
      "8": 28,
      "9": 29,
      "0": 30,
      "<loc0>": 31,
      "<loc1>": 32,
      "<loc2>": 33,
      "<loc00>": 34,
      "<loc01>": 35,
      "<loc02>": 36,
      "<loc10>": 37,
      "<loc11>": 38,
      "<loc12>": 39,
      "<loc20>": 40,
      "<loc21>": 41,
      "<loc22>": 42,
      "<loc02><loc22>": 43,
      "<loc0><loc2>": 44,
      "<rib1>": 45,
      "<rib2>": 46,
      "<rib3>": 47,
      "<rib4>": 48,
      "<rib5>": 49,
      "<rib6>": 50,
      "<rib7>": 51,
      "<rib8>": 52,
      "<rib9>": 53,
      "<rib10>": 54,
      "<rib11>": 55,
      "<rib12>": 56,
      "\"": 57,
      "$": 58,
      "%": 59,
      "&": 60,
      "'": 61,
      "(": 62,
      ")": 63,
      "+": 64,
      ",": 65,
      "-": 66,
      ".": 67,
      "/": 68,
      ":": 69,
      ";": 70,
      "<": 71,
      "=": 72,
      ">": 73,
      "?": 74,
      "A": 75,
      "B": 76,
      "C": 77,
      "D": 78,
      "E": 79,
      "F": 80,
      "G": 81,
      "H": 82,
      "I": 83,
      "J": 84,
      "K": 85,
      "L": 86,
      "M": 87,
      "N": 88,
      "O": 89,
      "P": 90,
      "Q": 91,
      "R": 92,
      "S": 93,
      "T": 94,
      "U": 95,
      "V": 96,
      "W": 97,
      "X": 98,
      "Y": 99,
      "Z": 100,
      "[": 101,
      "]": 102,
      "a": 103,
      "b": 104,
      "c": 105,
      "d": 106,
      "e": 107,
      "f": 108,
      "g": 109,
      "h": 110,
      "i": 111,
      "j": 112,
      "k": 113,
      "l": 114,
      "m": 115,
      "n": 116,
      "o": 117,
      "p": 118,
      "q": 119,
      "r": 120,
      "s": 121,
      "t": 122,
      "u": 123,
      "v": 124,
      "w": 125,
      "x": 126,
      "y": 127,
      "z": 128,
      "##n": 129,
      "##d": 130,
      "##i": 131,
      "##c": 132,
      "##a": 133,
      "##t": 134,
      "##g": 135,
      "##b": 136,
      "##o": 137,
      "##u": 138,
      "##e": 139,
      "##m": 140,
      "##r": 141,
      "##h": 142,
      "##y": 143,
      "##p": 144,
      "##x": 145,
      "##s": 146,
      "##l": 147,
      "##f": 148,
      "##j": 149,
      "##A": 150,
      "##B": 151,
      "##G": 152,
      "##w": 153,
      "##q": 154,
      "##k": 155,
      "##v": 156,
      "##z": 157,
      "##E": 158,
      "##R": 159,
      "##D": 160,
      "##2": 161,
      "##0": 162,
      "##4": 163,
      "##9": 164,
      "##1": 165,
      "##5": 166,
      "##V": 167,
      "##T": 168,
      "##N": 169,
      "##P": 170,
      "##M": 171,
      "##I": 172,
      "##S": 173,
      "##H": 174,
      "##C": 175,
      "##F": 176,
      "##7": 177,
      "##3": 178,
      "##8": 179,
      "##6": 180,
      "##K": 181,
      "##O": 182,
      "##L": 183,
      "##X": 184,
      "##U": 185,
      "in": 186,
      "##om": 187,
      "##ti": 188,
      "##re": 189,
      "##on": 190,
      "##al": 191,
      "ind": 192,
      "##he": 193,
      "pr": 194,
      "##pt": 195,
      "prom": 196,
      "prompt": 197,
      "of": 198,
      "##ar": 199,
      "##es": 200,
      "the": 201,
      "##in": 202,
      "##as": 203,
      "##ig": 204,
      "##ul": 205,
      "or": 206,
      "##or": 207,
      "##ns": 208,
      "##ati": 209,
      "##le": 210,
      "sig": 211,
      "##is": 212,
      "signs": 213,
      "##er": 214,
      "##ic": 215,
      "##en": 216,
      "No": 217,
      "an": 218,
      "##ed": 219,
      "##ation": 220,
      "##ur": 221,
      "##th": 222,
      "no": 223,
      "there": 224,
      "##ural": 225,
      "ple": 226,
      "pleural": 227,
      "##ra": 228,
      "any": 229,
      "##ng": 230,
      "Are": 231,
      "##st": 232,
      "##ear": 233,
      "##ing": 234,
      "##mal": 235,
      "##os": 236,
      "##ia": 237,
      "##ma": 238,
      "wi": 239,
      "##um": 240,
      "##iti": 241,
      "##ion": 242,
      "with": 243,
      "##ication": 244,
      "##ent": 245,
      "##ld": 246,
      "##ou": 247,
      "are": 248,
      "##ain": 249,
      "su": 250,
      "##ung": 251,
      "##osis": 252,
      "##ve": 253,
      "##cul": 254,
      "year": 255,
      "pain": 256,
      "ab": 257,
      "old": 258,
      "##at": 259,
      "##ormal": 260,
      "##ge": 261,
      "is": 262,
      "##ce": 263,
      "lung": 264,
      "con": 265,
      "##hest": 266,
      "##sion": 267,
      "##ne": 268,
      "##ary": 269,
      "th": 270,
      "##ch": 271,
      "##an": 272,
      "##mon": 273,
      "##ulmon": 274,
      "##res": 275,
      "##ard": 276,
      "The": 277,
      "chest": 278,
      "##if": 279,
      "##la": 280,
      "##ulmonary": 281,
      "##id": 282,
      "pulmonary": 283,
      "dis": 284,
      "##oc": 285,
      "##ct": 286,
      "##ased": 287,
      "cal": 288,
      "##ph": 289,
      "##ities": 290,
      "##ol": 291,
      "##mage": 292,
      "based": 293,
      "##il": 294,
      "##fu": 295,
      "image": 296,
      "as": 297,
      "##cif": 298,
      "##fusion": 299,
      "indication": 300,
      "##ias": 301,
      "##ffusion": 302,
      "effusion": 303,
      "##ib": 304,
      "##ir": 305,
      "you": 306,
      "##te": 307,
      "calcif": 308,
      "##tion": 309,
      "##neum": 310,
      "##ges": 311,
      "pneum": 312,
      "##ence": 313,
      "##tin": 314,
      "##ema": 315,
      "25": 316,
      "##edias": 317,
      "##ediastin": 318,
      "##tive": 319,
      "tra": 320,
      "##ass": 321,
      "##ter": 322,
      "mass": 323,
      "##normal": 324,
      "and": 325,
      "abnormal": 326,
      "##ess": 327,
      "dia": 328,
      "calcification": 329,
      "nod": 330,
      "such": 331,
      "##ble": 332,
      "abnormalities": 333,
      "##ub": 334,
      "##ial": 335,
      "##ys": 336,
      "##gges": 337,
      "sugges": 338,
      "for": 339,
      "##ron": 340,
      "ev": 341,
      "##per": 342,
      "sh": 343,
      "de": 344,
      "##gm": 345,
      "ap": 346,
      "normal": 347,
      "calcifications": 348,
      "There": 349,
      "abs": 350,
      "this": 351,
      "##se": 352,
      "nodul": 353,
      "fe": 354,
      "inf": 355,
      "##tic": 356,
      "##male": 357,
      "##ase": 358,
      "##ercul": 359,
      "##ubercul": 360,
      "##uberculosis": 361,
      "##cular": 362,
      "per": 363,
      "##che": 364,
      "##ease": 365,
      "disease": 366,
      "aor": 367,
      "##eart": 368,
      "##pa": 369,
      "##oma": 370,
      "female": 371,
      "card": 372,
      "##ist": 373,
      "Can": 374,
      "##ure": 375,
      "##ut": 376,
      "##ction": 377,
      "mal": 378,
      "##oth": 379,
      "aortic": 380,
      "loc": 381,
      "##icard": 382,
      "pericard": 383,
      "out": 384,
      "##ragm": 385,
      "##phragm": 386,
      "masses": 387,
      "##tas": 388,
      "##iac": 389,
      "male": 390,
      "nodules": 391,
      "##ular": 392,
      "heart": 393,
      "##ibr": 394,
      "rul": 395,
      "##ora": 396,
      "mediastin": 397,
      "trache": 398,
      "diaphragm": 399,
      "fibr": 400,
      "vas": 401,
      "##atic": 402,
      "##tra": 403,
      "##str": 404,
      "##ym": 405,
      "se": 406,
      "cardiac": 407,
      "##vic": 408,
      "##ting": 409,
      "##mp": 410,
      "fibrosis": 411,
      "##ness": 412,
      "diaphragmatic": 413,
      "Is": 414,
      "##ures": 415,
      "conf": 416,
      "##irm": 417,
      "confirm": 418,
      "##one": 419,
      "##itis": 420,
      "pro": 421,
      "##ind": 422,
      "##ctures": 423,
      "##el": 424,
      "##iz": 425,
      "ob": 426,
      "bre": 427,
      "##ronch": 428,
      "re": 429,
      "##ory": 430,
      "air": 431,
      "##orax": 432,
      "##hat": 433,
      "pneumoth": 434,
      "##ort": 435,
      "##ment": 436,
      "not": 437,
      "pneumothorax": 438,
      "cons": 439,
      "##ts": 440,
      "##ression": 441,
      "##ath": 442,
      "##ings": 443,
      "suggesting": 444,
      "##able": 445,
      "breath": 446,
      "absence": 447,
      "##nea": 448,
      "st": 449,
      "##ral": 450,
      "##pnea": 451,
      "##yspnea": 452,
      "tuberculosis": 453,
      "##indings": 454,
      "##istory": 455,
      "app": 456,
      "li": 457,
      "##ft": 458,
      "##tes": 459,
      "##iltra": 460,
      "infiltra": 461,
      "can": 462,
      "evid": 463,
      "evidence": 464,
      "col": 465,
      "dyspnea": 466,
      "##ize": 467,
      "##ortness": 468,
      "##ue": 469,
      "##lavic": 470,
      "infiltrates": 471,
      "##yc": 472,
      "to": 473,
      "##oin": 474,
      "##lavicular": 475,
      "mediastinal": 476,
      "size": 477,
      "##blem": 478,
      "pres": 479,
      "join": 480,
      "Do": 481,
      "##omb": 482,
      "ar": 483,
      "##blems": 484,
      "hone": 485,
      "##ycomb": 486,
      "honeycomb": 487,
      "honeycombing": 488,
      "##ative": 489,
      "vascular": 490,
      "##der": 491,
      "##ors": 492,
      "hy": 493,
      "##atient": 494,
      "tum": 495,
      "##igh": 496,
      "##ight": 497,
      "##mation": 498,
      "ruling": 499,
      "pericardial": 500,
      "tumors": 501,
      "problems": 502,
      "what": 503,
      "##uc": 504,
      "ra": 505,
      "me": 506,
      "tb": 507,
      "##pac": 508,
      "##ow": 509,
      "##omediastin": 510,
      "##ctas": 511,
      "##di": 512,
      "sc": 513,
      "##uctive": 514,
      "##ctasis": 515,
      "opac": 516,
      "##dema": 517,
      "en": 518,
      "suggestive": 519,
      "bronch": 520,
      "##it": 521,
      "edema": 522,
      "hyper": 523,
      "##olid": 524,
      "history": 525,
      "##olidation": 526,
      "consolidation": 527,
      "metas": 528,
      "fra": 529,
      "hema": 530,
      "##ous": 531,
      "##culat": 532,
      "##ern": 533,
      "obstr": 534,
      "##ie": 535,
      "##gn": 536,
      "##arge": 537,
      "##omas": 538,
      "tracheal": 539,
      "##ap": 540,
      "if": 541,
      "metastas": 542,
      "hern": 543,
      "##ell": 544,
      "##ues": 545,
      "fractures": 546,
      "pla": 547,
      "##ices": 548,
      "enl": 549,
      "fa": 550,
      "##ied": 551,
      "##ticular": 552,
      "be": 553,
      "opacities": 554,
      "hemat": 555,
      "obstructive": 556,
      "##ilure": 557,
      "##tial": 558,
      "metastases": 559,
      "apices": 560,
      "failure": 561,
      "##lear": 562,
      "##cess": 563,
      "##lap": 564,
      "diagn": 565,
      "present": 566,
      "##lapse": 567,
      "abscess": 568,
      "clear": 569,
      "diagnosis": 570,
      "ver": 571,
      "##us": 572,
      "##ctions": 573,
      "emp": 574,
      "##yema": 575,
      "empyema": 576,
      "pericarditis": 577,
      "##teb": 578,
      "##perative": 579,
      "verteb": 580,
      "##ine": 581,
      "pneumomediastin": 582,
      "pneumomediastinum": 583,
      "Findings": 584,
      "Imp": 585,
      "pos": 586,
      "right": 587,
      "Impression": 588,
      "##operative": 589,
      "shortness": 590,
      "##argement": 591,
      "enlargement": 592,
      "vertebral": 593,
      "disse": 594,
      "dissection": 595,
      "joint": 596,
      "rib": 597,
      "##oclavicular": 598,
      "formation": 599,
      "##pp": 600,
      "thym": 601,
      "##ictive": 602,
      "##reoperative": 603,
      "constr": 604,
      "constrictive": 605,
      "collapse": 606,
      "plaq": 607,
      "plaques": 608,
      "Tuberculosis": 609,
      "he": 610,
      "reticular": 611,
      "##omp": 612,
      "ac": 613,
      "trapp": 614,
      "trapping": 615,
      "Chest": 616,
      "##ot": 617,
      "##onia": 618,
      "comp": 619,
      "str": 620,
      "##ening": 621,
      "pneumonia": 622,
      "##ost": 623,
      "##ior": 624,
      "##eft": 625,
      "##out": 626,
      "whe": 627,
      "appear": 628,
      "##ined": 629,
      "##ob": 630,
      "##den": 631,
      "##alu": 632,
      "loc2": 633,
      "##the": 634,
      "65": 635,
      "##pace": 636,
      "positi": 637,
      "stru": 638,
      "location": 639,
      "structures": 640,
      "rule": 641,
      "ch": 642,
      "without": 643,
      "##ran": 644,
      "##iv": 645,
      "##ymph": 646,
      "so": 647,
      "##ther": 648,
      "noted": 649,
      "##nsion": 650,
      "ex": 651,
      "##ick": 652,
      "thick": 653,
      "##entr": 654,
      "thickening": 655,
      "##space": 656,
      "airspace": 657,
      "##rom": 658,
      "##ronic": 659,
      "##ater": 660,
      "##tension": 661,
      "noti": 662,
      "due": 663,
      "notice": 664,
      "lymph": 665,
      "patient": 666,
      "##ranul": 667,
      "granul": 668,
      "##oul": 669,
      "##iss": 670,
      "on": 671,
      "tiss": 672,
      "##ity": 673,
      "def": 674,
      "##pl": 675,
      "##icable": 676,
      "mediastinum": 677,
      "##licable": 678,
      "applicable": 679,
      "compression": 680,
      "soft": 681,
      "lungs": 682,
      "mid": 683,
      "##oulder": 684,
      "##yst": 685,
      "evalu": 686,
      "loc0": 687,
      "##ign": 688,
      "##cement": 689,
      "where": 690,
      "##ren": 691,
      "val": 692,
      "##ore": 693,
      "##vi": 694,
      "other": 695,
      "shoulder": 696,
      "conges": 697,
      "##tele": 698,
      "##telectasis": 699,
      "##ical": 700,
      "valve": 701,
      "atelectasis": 702,
      "##eur": 703,
      "calcified": 704,
      "cyst": 705,
      "hypertension": 706,
      "ray": 707,
      "bo": 708,
      "findings": 709,
      "##terior": 710,
      "preoperative": 711,
      "##istent": 712,
      "left": 713,
      "congestion": 714,
      "obs": 715,
      "vasculat": 716,
      "##ysm": 717,
      "vasculature": 718,
      "##ta": 719,
      "infe": 720,
      "##oph": 721,
      "##not": 722,
      "Patient": 723,
      "obser": 724,
      "we": 725,
      "aneur": 726,
      "aneurysm": 727,
      "anterior": 728,
      "les": 729,
      "lesion": 730,
      "##iff": 731,
      "##pla": 732,
      "##entration": 733,
      "##ted": 734,
      "##gh": 735,
      "##ough": 736,
      "eventration": 737,
      "tissue": 738,
      "##ree": 739,
      "cysts": 740,
      "##un": 741,
      "##obronch": 742,
      "sp": 743,
      "##tal": 744,
      "fore": 745,
      "appears": 746,
      "##gen": 747,
      "##dies": 748,
      "granuloma": 749,
      "##thr": 750,
      "lip": 751,
      "foreign": 752,
      "##olum": 753,
      "tracheobronch": 754,
      "hernia": 755,
      "inter": 756,
      "bodies": 757,
      "##ocation": 758,
      "##pi": 759,
      "##placement": 760,
      "evaluation": 761,
      "##ly": 762,
      "by": 763,
      "##pira": 764,
      "radi": 765,
      "cough": 766,
      "volum": 767,
      "arthr": 768,
      "midl": 769,
      "##ac": 770,
      "position": 771,
      "Sh": 772,
      "##iectasis": 773,
      "nodes": 774,
      "ele": 775,
      "sub": 776,
      "##age": 777,
      "##mo": 778,
      "bronchiectasis": 779,
      "##iven": 780,
      "free": 781,
      "##sti": 782,
      "##iosis": 783,
      "##location": 784,
      "dislocation": 785,
      "intersti": 786,
      "given": 787,
      "interstitial": 788,
      "arthritis": 789,
      "##urg": 790,
      "Shortness": 791,
      "cannot": 792,
      "bul": 793,
      "hematoma": 794,
      "lesions": 795,
      "ster": 796,
      "##ro": 797,
      "##oliosis": 798,
      "consistent": 799,
      "consolidations": 800,
      "midline": 801,
      "##lae": 802,
      "Lung": 803,
      "shap": 804,
      "sw": 805,
      "##gment": 806,
      "##order": 807,
      "shape": 808,
      "ven": 809,
      "Yes": 810,
      "##fl": 811,
      "bullae": 812,
      "##entral": 813,
      "intra": 814,
      "well": 815,
      "##ocal": 816,
      "focal": 817,
      "scap": 818,
      "##et": 819,
      "##ely": 820,
      "displacement": 821,
      "scoliosis": 822,
      "##ines": 823,
      "colle": 824,
      "scapular": 825,
      "tub": 826,
      "stern": 827,
      "tracheobronchial": 828,
      "infections": 829,
      "##athe": 830,
      "##ield": 831,
      "##atheter": 832,
      "shun": 833,
      "central": 834,
      "catheter": 835,
      "shunts": 836,
      "##orders": 837,
      "lines": 838,
      "##og": 839,
      "segment": 840,
      "clavicular": 841,
      "lo": 842,
      "##ophage": 843,
      "##ophageal": 844,
      "##ulmonic": 845,
      "##ili": 846,
      "hia": 847,
      "hematomas": 848,
      "sternoclavicular": 849,
      "##culated": 850,
      "loculated": 851,
      "hiatal": 852,
      "subp": 853,
      "collections": 854,
      "##upt": 855,
      "lik": 856,
      "mater": 857,
      "rupt": 858,
      "subpulmonic": 859,
      "material": 860,
      "rupture": 861,
      "aspira": 862,
      "aspirated": 863,
      "likely": 864,
      "lipomas": 865,
      "##iliary": 866,
      "miliary": 867,
      "##par": 868,
      "##ention": 869,
      "##ang": 870,
      "thymic": 871,
      "Ker": 872,
      "##ley": 873,
      "Kerley": 874,
      "wom": 875,
      "woman": 876,
      "borders": 877,
      "##aling": 878,
      "defined": 879,
      "##viation": 880,
      "within": 881,
      "widen": 882,
      "widened": 883,
      "##cer": 884,
      "What": 885,
      "hernias": 886,
      "volume": 887,
      "deviation": 888,
      "intram": 889,
      "intramural": 890,
      "##ogra": 891,
      "##ible": 892,
      "joints": 893,
      "cancer": 894,
      "thymoma": 895,
      "mention": 896,
      "field": 897,
      "##eren": 898,
      "##ifferen": 899,
      "lim": 900,
      "##lus": 901,
      "fields": 902,
      "callus": 903,
      "##infl": 904,
      "##ioclavicular": 905,
      "healing": 906,
      "##romioclavicular": 907,
      "##ifferential": 908,
      "##ograph": 909,
      "hyperinfl": 910,
      "acromioclavicular": 911,
      "separ": 912,
      "separation": 913,
      "seen": 914,
      "##co": 915,
      "##elling": 916,
      "devic": 917,
      "surg": 918,
      "History": 919,
      "venous": 920,
      "radiograph": 921,
      "swelling": 922,
      "most": 923,
      "elect": 924,
      "tubes": 925,
      "##its": 926,
      "limits": 927,
      "##ant": 928,
      "devices": 929,
      "hyperinflation": 930,
      "electronic": 931,
      "##PD": 932,
      "bronchial": 933,
      "that": 934,
      "inc": 935,
      "##ved": 936,
      "##term": 937,
      "##ery": 938,
      "surgery": 939,
      "chang": 940,
      "arter": 941,
      "low": 942,
      "##to": 943,
      "determ": 944,
      "##tr": 945,
      "nodule": 946,
      "trachea": 947,
      "observed": 948,
      "##dom": 949,
      "##orac": 950,
      "confirmed": 951,
      "##ek": 952,
      "##ate": 953,
      "##pe": 954,
      "up": 955,
      "un": 956,
      "cardi": 957,
      "changes": 958,
      "es": 959,
      "vis": 960,
      "##ack": 961,
      "##ies": 962,
      "50": 963,
      "differential": 964,
      "##lu": 965,
      "al": 966,
      "artery": 967,
      "##oss": 968,
      "esophageal": 969,
      "note": 970,
      "##tour": 971,
      "contour": 972,
      "back": 973,
      "##lin": 974,
      "##linical": 975,
      "sil": 976,
      "##hou": 977,
      "##ver": 978,
      "silhou": 979,
      "silhouet": 980,
      "##omal": 981,
      "both": 982,
      "Ab": 983,
      "determined": 984,
      "##nspl": 985,
      "##nsplant": 986,
      "##rong": 987,
      "wrong": 988,
      "##ak": 989,
      "##enc": 990,
      "spine": 991,
      "notable": 992,
      "thorac": 993,
      "##yn": 994,
      "##de": 995,
      "mentioned": 996,
      "Preoperative": 997,
      "##ast": 998,
      "transplant": 999,
      "##mok": 1000,
      "##ienc": 1001,
      "silhouette": 1002,
      "##ptom": 1003,
      "##ymptom": 1004,
      "it": 1005,
      "##ided": 1006,
      "##ild": 1007,
      "thoracic": 1008,
      "tes": 1009,
      "week": 1010,
      "##ysis": 1011,
      "##inal": 1012,
      "sens": 1013,
      "##omy": 1014,
      "anomal": 1015,
      "anomalies": 1016,
      "##perienc": 1017,
      "experienc": 1018,
      "smok": 1019,
      "##ute": 1020,
      "##all": 1021,
      "experiencing": 1022,
      "##arr": 1023,
      "Heart": 1024,
      "weeks": 1025,
      "30": 1026,
      "##akness": 1027,
      "##oes": 1028,
      "##ated": 1029,
      "visible": 1030,
      "sense": 1031,
      "##ive": 1032,
      "##ormation": 1033,
      "##arc": 1034,
      "inclu": 1035,
      "##oron": 1036,
      "sign": 1037,
      "##ynco": 1038,
      "##oronary": 1039,
      "my": 1040,
      "##enting": 1041,
      "acute": 1042,
      "Not": 1043,
      "pre": 1044,
      "##dominal": 1045,
      "##tact": 1046,
      "post": 1047,
      "stat": 1048,
      "presenting": 1049,
      "lower": 1050,
      "find": 1051,
      "##ateral": 1052,
      "##erative": 1053,
      "positive": 1054,
      "chronic": 1055,
      "##omediastinal": 1056,
      "##generative": 1057,
      "coronary": 1058,
      "bone": 1059,
      "##omiti": 1060,
      "##omiting": 1061,
      "see": 1062,
      "##ide": 1063,
      "mild": 1064,
      "PPD": 1065,
      "sided": 1066,
      "##ark": 1067,
      "##opa": 1068,
      "##ad": 1069,
      "intact": 1070,
      "observe": 1071,
      "xra": 1072,
      "xray": 1073,
      "##ymptoms": 1074,
      "Both": 1075,
      "##sence": 1076,
      "clinical": 1077,
      "##hic": 1078,
      "Hy": 1079,
      "from": 1080,
      "##ony": 1081,
      "##yncope": 1082,
      "Absence": 1083,
      "da": 1084,
      "Left": 1085,
      "degenerative": 1086,
      "weakness": 1087,
      "Ex": 1088,
      "##rem": 1089,
      "##led": 1090,
      "whats": 1091,
      "cardiomediastinal": 1092,
      "deta": 1093,
      "##iled": 1094,
      "detailed": 1095,
      "##lung": 1096,
      "suggestinglung": 1097,
      "##opath": 1098,
      "days": 1099,
      "vomiting": 1100,
      "##po": 1101,
      "Card": 1102,
      "##tif": 1103,
      "symptoms": 1104,
      "test": 1105,
      "bony": 1106,
      "##ult": 1107,
      "presents": 1108,
      "lob": 1109,
      "iden": 1110,
      "identif": 1111,
      "identified": 1112,
      "le": 1113,
      "##thma": 1114,
      "status": 1115,
      "information": 1116,
      "upper": 1117,
      "CO": 1118,
      "COPD": 1119,
      "##pox": 1120,
      "loss": 1121,
      "alone": 1122,
      "##plain": 1123,
      "##own": 1124,
      "##arcin": 1125,
      "##od": 1126,
      "##ilateral": 1127,
      "smoking": 1128,
      "##ec": 1129,
      "Explain": 1130,
      "##oun": 1131,
      "##zing": 1132,
      "abdominal": 1133,
      "##ip": 1134,
      "##reased": 1135,
      "##ehic": 1136,
      "##ehicle": 1137,
      "lobe": 1138,
      "im": 1139,
      "##low": 1140,
      "include": 1141,
      "##ill": 1142,
      "##ocard": 1143,
      "##seous": 1144,
      "##vious": 1145,
      "##use": 1146,
      "##poxia": 1147,
      "##am": 1148,
      "##ezing": 1149,
      "##ollow": 1150,
      "arm": 1151,
      "##opathy": 1152,
      "##ula": 1153,
      "##arrow": 1154,
      "stable": 1155,
      "bilateral": 1156,
      "##ound": 1157,
      "marrow": 1158,
      "Fe": 1159,
      "poss": 1160,
      "##remark": 1161,
      "##ition": 1162,
      "wall": 1163,
      "##remarkable": 1164,
      "carcin": 1165,
      "##nown": 1166,
      "##lain": 1167,
      "##rh": 1168,
      "hem": 1169,
      "par": 1170,
      "##ductive": 1171,
      "##ilar": 1172,
      "em": 1173,
      "opacity": 1174,
      "unremarkable": 1175,
      "does": 1176,
      "contours": 1177,
      "Female": 1178,
      "##dition": 1179,
      "Notable": 1180,
      "##ctomy": 1181,
      "rep": 1182,
      "##ause": 1183,
      "##ausea": 1184,
      "10": 1185,
      "##ste": 1186,
      "##ay": 1187,
      "##entric": 1188,
      "mot": 1189,
      "previous": 1190,
      "hemo": 1191,
      "follow": 1192,
      "possible": 1193,
      "vehicle": 1194,
      "inj": 1195,
      "##ome": 1196,
      "injur": 1197,
      "ventric": 1198,
      "arch": 1199,
      "age": 1200,
      "##ating": 1201,
      "##ident": 1202,
      "one": 1203,
      "af": 1204,
      "after": 1205,
      "acc": 1206,
      "##aliz": 1207,
      "##ygen": 1208,
      "##xygen": 1209,
      "##dy": 1210,
      "##rib": 1211,
      "wheezing": 1212,
      "mon": 1213,
      "##idosis": 1214,
      "##gue": 1215,
      "##red": 1216,
      "45": 1217,
      "effusions": 1218,
      "atr": 1219,
      "##icult": 1220,
      "##ifficult": 1221,
      "over": 1222,
      "oste": 1223,
      "##ifficulty": 1224,
      "oxygen": 1225,
      "accident": 1226,
      "##ptysis": 1227,
      "hemoptysis": 1228,
      "injury": 1229,
      "aorta": 1230,
      "ventricular": 1231,
      "##ital": 1232,
      "Ev": 1233,
      "##genital": 1234,
      "Pro": 1235,
      "Tra": 1236,
      "month": 1237,
      "congenital": 1238,
      "asthma": 1239,
      "##atigue": 1240,
      "Cardiac": 1241,
      "##go": 1242,
      "Evalu": 1243,
      "abnormality": 1244,
      "complain": 1245,
      "has": 1246,
      "atrial": 1247,
      "ad": 1248,
      "cer": 1249,
      "its": 1250,
      "##alysis": 1251,
      "paralysis": 1252,
      "spe": 1253,
      "productive": 1254,
      "Problems": 1255,
      "Trache": 1256,
      "##and": 1257,
      "##umb": 1258,
      "kne": 1259,
      "##ination": 1260,
      "knee": 1261,
      "kid": 1262,
      "kidne": 1263,
      "prote": 1264,
      "res": 1265,
      "##roat": 1266,
      "##uction": 1267,
      "##les": 1268,
      "kidney": 1269,
      "large": 1270,
      "Evaluate": 1271,
      "dil": 1272,
      "##op": 1273,
      "##iness": 1274,
      "##ified": 1275,
      "der": 1276,
      "pur": 1277,
      "##ziness": 1278,
      "##ivative": 1279,
      "protein": 1280,
      "derivative": 1281,
      "purified": 1282,
      "Trachea": 1283,
      "Differential": 1284,
      "##izziness": 1285,
      "##aly": 1286,
      "rec": 1287,
      "breathing": 1288,
      "##ab": 1289,
      "##galy": 1290,
      "##pair": 1291,
      "repair": 1292,
      "##omegaly": 1293,
      "infection": 1294,
      "vascularity": 1295,
      "immage": 1296,
      "##ioma": 1297,
      "##asal": 1298,
      "carcinoma": 1299,
      "myocard": 1300,
      "##sseous": 1301,
      "specif": 1302,
      "breast": 1303,
      "pa": 1304,
      "throat": 1305,
      "Syncope": 1306,
      "##esc": 1307,
      "nasal": 1308,
      "increased": 1309,
      "fever": 1310,
      "report": 1311,
      "motor": 1312,
      "##ache": 1313,
      "##ect": 1314,
      "at": 1315,
      "fist": 1316,
      "##omat": 1317,
      "ph": 1318,
      "##ged": 1319,
      "##itation": 1320,
      "reg": 1321,
      "mo": 1322,
      "##oesophageal": 1323,
      "##vical": 1324,
      "##umbness": 1325,
      "Dyspnea": 1326,
      "numbness": 1327,
      "Hyper": 1328,
      "wh": 1329,
      "##iver": 1330,
      "osseous": 1331,
      "##iaphragm": 1332,
      "70": 1333,
      "exam": 1334,
      "vascul": 1335,
      "head": 1336,
      "Give": 1337,
      "##sistent": 1338,
      "Hypoxia": 1339,
      "##tric": 1340,
      "##plan": 1341,
      "elev": 1342,
      "give": 1343,
      "explan": 1344,
      "cardiomegaly": 1345,
      "explanation": 1346,
      "cervical": 1347,
      "dilation": 1348,
      "##tered": 1349,
      "##alized": 1350,
      "prov": 1351,
      "defect": 1352,
      "##escrib": 1353,
      "difficulty": 1354,
      "##lo": 1355,
      "wor": 1356,
      "##enosis": 1357,
      "stenosis": 1358,
      "radiating": 1359,
      "ins": 1360,
      "recent": 1361,
      "##ini": 1362,
      "##ticul": 1363,
      "Ch": 1364,
      "##nset": 1365,
      "Hypertension": 1366,
      "##io": 1367,
      "##qu": 1368,
      "non": 1369,
      "##ental": 1370,
      "##arco": 1371,
      "diver": 1372,
      "mental": 1373,
      "diverticul": 1374,
      "pleur": 1375,
      "##arcoidosis": 1376,
      "Lungs": 1377,
      "condition": 1378,
      "##up": 1379,
      "fistula": 1380,
      "Normal": 1381,
      "ep": 1382,
      "examination": 1383,
      "##ution": 1384,
      "who": 1385,
      "##known": 1386,
      "years": 1387,
      "ca": 1388,
      "Describ": 1389,
      "Describe": 1390,
      "tissues": 1391,
      "infiltrate": 1392,
      "##ale": 1393,
      "evaluate": 1394,
      "##kup": 1395,
      "workup": 1396,
      "was": 1397,
      "##ualized": 1398,
      "##ress": 1399,
      "##pand": 1400,
      "##itive": 1401,
      "##panded": 1402,
      "##idiaphragm": 1403,
      "hemidiaphragm": 1404,
      "##renic": 1405,
      "syncope": 1406,
      "##tory": 1407,
      "smoker": 1408,
      "obstruction": 1409,
      "che": 1410,
      "infar": 1411,
      "Pos": 1412,
      "volumes": 1413,
      "Positive": 1414,
      "Right": 1415,
      "##ep": 1416,
      "Age": 1417,
      "ago": 1418,
      "headache": 1419,
      "unknown": 1420,
      "##phys": 1421,
      "placement": 1422,
      "##physema": 1423,
      "ass": 1424,
      "hemang": 1425,
      "##anc": 1426,
      "##ills": 1427,
      "mus": 1428,
      "sarcoidosis": 1429,
      "##oid": 1430,
      "##oar": 1431,
      "##lam": 1432,
      "inflam": 1433,
      "loc22": 1434,
      "diverticula": 1435,
      "Al": 1436,
      "press": 1437,
      "Rib": 1438,
      "cell": 1439,
      "nausea": 1440,
      "##yth": 1441,
      "arrh": 1442,
      "##ythm": 1443,
      "arrhythm": 1444,
      "arrhythmias": 1445,
      "##cle": 1446,
      "##aria": 1447,
      "##kin": 1448,
      "loc02": 1449,
      "show": 1450,
      "##day": 1451,
      "ruled": 1452,
      "visualized": 1453,
      "emphysema": 1454,
      "epis": 1455,
      "nec": 1456,
      "##ortu": 1457,
      "##ule": 1458,
      "##arged": 1459,
      "Clinical": 1460,
      "##30": 1461,
      "ind30": 1462,
      "Pulmonary": 1463,
      "##vel": 1464,
      "##bol": 1465,
      "prior": 1466,
      "weight": 1467,
      "includ": 1468,
      "enlarged": 1469,
      "base": 1470,
      "In": 1471,
      "##piratory": 1472,
      "Un": 1473,
      "##denopathy": 1474,
      "granulomat": 1475,
      "bronchitis": 1476,
      "myocardial": 1477,
      "##uma": 1478,
      "respiratory": 1479,
      "el": 1480,
      "conditions": 1481,
      "##iffu": 1482,
      "##arring": 1483,
      "##iffuse": 1484,
      "##erior": 1485,
      "##mall": 1486,
      "##itral": 1487,
      "##tatic": 1488,
      "As": 1489,
      "mitral": 1490,
      "##xoma": 1491,
      "myxoma": 1492,
      "Th": 1493,
      "embol": 1494,
      "prost": 1495,
      "bilaterally": 1496,
      "##tures": 1497,
      "##ism": 1498,
      "embolism": 1499,
      "##bow": 1500,
      "scarring": 1501,
      "elbow": 1502,
      "defects": 1503,
      "Fatigue": 1504,
      "##ulti": 1505,
      "under": 1506,
      "##ysical": 1507,
      "St": 1508,
      "##cture": 1509,
      "20": 1510,
      "hypoxia": 1511,
      "inflammation": 1512,
      "baria": 1513,
      "malign": 1514,
      "bariatric": 1515,
      "##itic": 1516,
      "diffuse": 1517,
      "##enal": 1518,
      "cav": 1519,
      "med": 1520,
      "##chy": 1521,
      "##ance": 1522,
      "found": 1523,
      "Male": 1524,
      "nose": 1525,
      "##asilar": 1526,
      "fracture": 1527,
      "##orrh": 1528,
      "tortu": 1529,
      "persistent": 1530,
      "fall": 1531,
      "##ictures": 1532,
      "strictures": 1533,
      "prostate": 1534,
      "##arcoma": 1535,
      "Nausea": 1536,
      "cheek": 1537,
      "known": 1538,
      "elevated": 1539,
      "determine": 1540,
      "chills": 1541,
      "pai": 1542,
      "months": 1543,
      "fl": 1544,
      "end": 1545,
      "##acco": 1546,
      "Sig": 1547,
      "Signs": 1548,
      "##odes": 1549,
      "lymphang": 1550,
      "us": 1551,
      "##ptal": 1552,
      "septal": 1553,
      "hemorrh": 1554,
      "specific": 1555,
      "replacement": 1556,
      "physical": 1557,
      "infarction": 1558,
      "##ck": 1559,
      "Chronic": 1560,
      "##formation": 1561,
      "malformation": 1562,
      "cra": 1563,
      "Abdominal": 1564,
      "dizziness": 1565,
      "testicular": 1566,
      "Symptom": 1567,
      "renal": 1568,
      "use": 1569,
      "small": 1570,
      "##ven": 1571,
      "dens": 1572,
      "sin": 1573,
      "##rosis": 1574,
      "##cted": 1575,
      "##bacco": 1576,
      "##oscle": 1577,
      "tobacco": 1578,
      "remo": 1579,
      "granulomatous": 1580,
      "##ision": 1581,
      "##domen": 1582,
      "##iomy": 1583,
      "##theroscle": 1584,
      "##ple": 1585,
      "##nula": 1586,
      "##cles": 1587,
      "prolapse": 1588,
      "cannula": 1589,
      "inside": 1590,
      "muscles": 1591,
      "using": 1592,
      "mark": 1593,
      "55": 1594,
      "##eat": 1595,
      "Size": 1596,
      "Rec": 1597,
      "presence": 1598,
      "osteop": 1599,
      "##osseous": 1600,
      "super": 1601,
      "##ging": 1602,
      "lymphoma": 1603,
      "ne": 1604,
      "pat": 1605,
      "abdomen": 1606,
      "Con": 1607,
      "fibro": 1608,
      "##ounds": 1609,
      "fatigue": 1610,
      "##ex": 1611,
      "loc00": 1612,
      "##ertion": 1613,
      "##ling": 1614,
      "today": 1615,
      "##idectomy": 1616,
      "Mild": 1617,
      "cost": 1618,
      "hilar": 1619,
      "vena": 1620,
      "##lood": 1621,
      "cava": 1622,
      "##ditional": 1623,
      "##venous": 1624,
      "##ach": 1625,
      "metastatic": 1626,
      "indic": 1627,
      "provided": 1628,
      "##ycard": 1629,
      "Asthma": 1630,
      "##urgitation": 1631,
      "regurgitation": 1632,
      "##atory": 1633,
      "##orsening": 1634,
      "posterior": 1635,
      "leiomy": 1636,
      "##achycard": 1637,
      "coar": 1638,
      "##iomas": 1639,
      "##ode": 1640,
      "hemangiomas": 1641,
      "apex": 1642,
      "tight": 1643,
      "tightness": 1644,
      "35": 1645,
      "Onset": 1646,
      "##ophy": 1647,
      "assa": 1648,
      "lab": 1649,
      "tumor": 1650,
      "side": 1651,
      "##pir": 1652,
      "##piration": 1653,
      "##oratory": 1654,
      "##ultiple": 1655,
      "laboratory": 1656,
      "stu": 1657,
      "level": 1658,
      "##ckles": 1659,
      "crackles": 1660,
      "##yro": 1661,
      "##wo": 1662,
      "##anoma": 1663,
      "##elanoma": 1664,
      "body": 1665,
      "includes": 1666,
      "nd": 1667,
      "##ise": 1668,
      "##inimal": 1669,
      "shows": 1670,
      "lateral": 1671,
      "syn": 1672,
      "##adenopathy": 1673,
      "##ond": 1674,
      "bra": 1675,
      "##pic": 1676,
      "states": 1677,
      "##ious": 1678,
      "superior": 1679,
      "##orm": 1680,
      "Dizziness": 1681,
      "##elast": 1682,
      "fibroelast": 1683,
      "tracheoesophageal": 1684,
      "bronchoesophageal": 1685,
      "may": 1686,
      "##mia": 1687,
      "##uration": 1688,
      "tube": 1689,
      "Poss": 1690,
      "##ke": 1691,
      "##creased": 1692,
      "##eats": 1693,
      "three": 1694,
      "lymphangioma": 1695,
      "thyro": 1696,
      "##iphe": 1697,
      "blood": 1698,
      "exertion": 1699,
      "##rent": 1700,
      "##trib": 1701,
      "Altered": 1702,
      "Rule": 1703,
      "distrib": 1704,
      "vasculitis": 1705,
      "vasculopathy": 1706,
      "distribution": 1707,
      "##etr": 1708,
      "Possible": 1709,
      "ble": 1710,
      "bleed": 1711,
      "##alp": 1712,
      "##hesion": 1713,
      "##utum": 1714,
      "sputum": 1715,
      "adhesion": 1716,
      "adhesions": 1717,
      "appearance": 1718,
      "complaints": 1719,
      "been": 1720,
      "##cified": 1721,
      "##ically": 1722,
      "motion": 1723,
      "Lymph": 1724,
      "arterio": 1725,
      "malignanc": 1726,
      "arteriovenous": 1727,
      "hip": 1728,
      "gr": 1729,
      "##ection": 1730,
      "##ctation": 1731,
      "granulomas": 1732,
      "coarctation": 1733,
      "dist": 1734,
      "tracheobronchitis": 1735,
      "synd": 1736,
      "metastasis": 1737,
      "##toid": 1738,
      "##ipheral": 1739,
      "Pain": 1740,
      "##rex": 1741,
      "We": 1742,
      "atheroscle": 1743,
      "lipoma": 1744,
      "Weakness": 1745,
      "hemidiaphragms": 1746,
      "##achycardia": 1747,
      "This": 1748,
      "##rome": 1749,
      "syndrome": 1750,
      "##min": 1751,
      "##perex": 1752,
      "study": 1753,
      "##pical": 1754,
      "cl": 1755,
      "notic": 1756,
      "ext": 1757,
      "##ossly": 1758,
      "assault": 1759,
      "noticed": 1760,
      "##oidectomy": 1761,
      "hemorrhoidectomy": 1762,
      "imm": 1763,
      "levels": 1764,
      "Bre": 1765,
      "pressure": 1766,
      "##alpitation": 1767,
      "##be": 1768,
      "Stable": 1769,
      "cm": 1770,
      "##ophrenic": 1771,
      "extrem": 1772,
      "Cannot": 1773,
      "Unable": 1774,
      "##ortic": 1775,
      "rhe": 1776,
      "Cardi": 1777,
      "##umatoid": 1778,
      "rheumatoid": 1779,
      "Tes": 1780,
      "##ystic": 1781,
      "markings": 1782,
      "grossly": 1783,
      "Testicular": 1784,
      "additional": 1785,
      "two": 1786,
      "ribs": 1787,
      "since": 1788,
      "##orosis": 1789,
      "peripheral": 1790,
      "red": 1791,
      "##ag": 1792,
      "ang": 1793,
      "sus": 1794,
      "aden": 1795,
      "space": 1796,
      "sweats": 1797,
      "##asm": 1798,
      "osteoporosis": 1799,
      "Cal": 1800,
      "hyperex": 1801,
      "##ding": 1802,
      "##rant": 1803,
      "expanded": 1804,
      "##ker": 1805,
      "##osarcoma": 1806,
      "Breast": 1807,
      "imp": 1808,
      "Mediastin": 1809,
      "##chond": 1810,
      "Aortic": 1811,
      "##inite": 1812,
      "suspic": 1813,
      "neck": 1814,
      "qu": 1815,
      "##gular": 1816,
      "definite": 1817,
      "change": 1818,
      "costophrenic": 1819,
      "sounds": 1820,
      "60": 1821,
      "promin": 1822,
      "Per": 1823,
      "br": 1824,
      "whic": 1825,
      "##asia": 1826,
      "myel": 1827,
      "which": 1828,
      "dex": 1829,
      "suggest": 1830,
      "tre": 1831,
      "Recent": 1832,
      "am": 1833,
      "##lely": 1834,
      "solely": 1835,
      "provide": 1836,
      "minimal": 1837,
      "fo": 1838,
      "rh": 1839,
      "mildly": 1840,
      "##illary": 1841,
      "ner": 1842,
      "surgical": 1843,
      "nerve": 1844,
      "cr": 1845,
      "er": 1846,
      "lymphadenopathy": 1847,
      "deform": 1848,
      "##othe": 1849,
      "##chondr": 1850,
      "##acia": 1851,
      "##omalacia": 1852,
      "thyroid": 1853,
      "##dul": 1854,
      "##lad": 1855,
      "tear": 1856,
      "##thing": 1857,
      "phrenic": 1858,
      "gra": 1859,
      "##tain": 1860,
      "##ips": 1861,
      "dextr": 1862,
      "onset": 1863,
      "##ytic": 1864,
      "##ascular": 1865,
      "thorax": 1866,
      "repres": 1867,
      "leiomyoma": 1868,
      "##rotic": 1869,
      "episode": 1870,
      "sche": 1871,
      "sore": 1872,
      "##duled": 1873,
      "scheduled": 1874,
      "##val": 1875,
      "##alization": 1876,
      "sl": 1877,
      "thr": 1878,
      "pregn": 1879,
      "pap": 1880,
      "##asts": 1881,
      "decreased": 1882,
      "##ould": 1883,
      "fibroelastoma": 1884,
      "papillary": 1885,
      "##ech": 1886,
      "##alpitations": 1887,
      "##lision": 1888,
      "##ning": 1889,
      "##wise": 1890,
      "##idging": 1891,
      "leu": 1892,
      "episodes": 1893,
      "HI": 1894,
      "##eralization": 1895,
      "diabe": 1896,
      "demin": 1897,
      "bridging": 1898,
      "myeloma": 1899,
      "HIV": 1900,
      "demineralization": 1901,
      "Most": 1902,
      "##istrib": 1903,
      "removal": 1904,
      "redistrib": 1905,
      "redistribution": 1906,
      "##urther": 1907,
      "##urrent": 1908,
      "It": 1909,
      "##50": 1910,
      "ind50": 1911,
      "Calcified": 1912,
      "bl": 1913,
      "basilar": 1914,
      "myocarditis": 1915,
      "Loss": 1916,
      "stent": 1917,
      "clips": 1918,
      "angle": 1919,
      "wing": 1920,
      "##ced": 1921,
      "##regular": 1922,
      "##tling": 1923,
      "##olar": 1924,
      "mottling": 1925,
      "winging": 1926,
      "##pected": 1927,
      "tissuesosseous": 1928,
      "ir": 1929,
      "more": 1930,
      "sca": 1931,
      "indicated": 1932,
      "night": 1933,
      "tortuous": 1934,
      "extremity": 1935,
      "cystic": 1936,
      "##pass": 1937,
      "##arp": 1938,
      "##osity": 1939,
      "bypass": 1940,
      "skin": 1941,
      "##ypical": 1942,
      "cho": 1943,
      "undergo": 1944,
      "scans": 1945,
      "##cc": 1946,
      "##bation": 1947,
      "##erbation": 1948,
      "##osion": 1949,
      "pneumothorac": 1950,
      "exac": 1951,
      "bleeding": 1952,
      "erosion": 1953,
      "pneumothoraces": 1954,
      "exacerbation": 1955,
      "worsening": 1956,
      "##eti": 1957,
      "sharp": 1958,
      "appeti": 1959,
      "appetite": 1960,
      "lytic": 1961,
      "##ching": 1962,
      "notching": 1963,
      "perf": 1964,
      "Difficulty": 1965,
      "mes": 1966,
      "##lioma": 1967,
      "stress": 1968,
      "malignancies": 1969,
      "Mediastinal": 1970,
      "##othelioma": 1971,
      "mesothelioma": 1972,
      "areas": 1973,
      "##ank": 1974,
      "##ocy": 1975,
      "pregnant": 1976,
      "##ix": 1977,
      "##til": 1978,
      "MV": 1979,
      "##pos": 1980,
      "##vascular": 1981,
      "##ondy": 1982,
      "collision": 1983,
      "spondy": 1984,
      "spondyl": 1985,
      "##thes": 1986,
      "pleuritic": 1987,
      "Lymphoma": 1988,
      "spondylosis": 1989,
      "##esthes": 1990,
      "##inning": 1991,
      "anesthes": 1992,
      "anesthesia": 1993,
      "Melanoma": 1994,
      "Sus": 1995,
      "##so": 1996,
      "##lying": 1997,
      "but": 1998,
      "total": 1999,
      "##opl": 2000,
      "pressures": 2001,
      "28": 2002,
      "Suspected": 2003,
      "also": 2004,
      "density": 2005,
      "Inf": 2006,
      "Location": 2007,
      "##erm": 2008,
      "ha": 2009,
      "##yoma": 2010,
      "##veolar": 2011,
      "##atment": 2012,
      "##domyoma": 2013,
      "##abdomyoma": 2014,
      "treatment": 2015,
      "rhabdomyoma": 2016,
      "Pneum": 2017,
      "Vehicle": 2018,
      "##cin": 2019,
      "requ": 2020,
      "elevation": 2021,
      "Infection": 2022,
      "##cinosis": 2023,
      "further": 2024,
      "idi": 2025,
      "multiple": 2026,
      "##our": 2027,
      "##opathic": 2028,
      "idiopathic": 2029,
      "##xi": 2030,
      "Persistent": 2031,
      "about": 2032,
      "distress": 2033,
      "represent": 2034,
      "carcinoid": 2035,
      "##ator": 2036,
      "complains": 2037,
      "Hod": 2038,
      "Whe": 2039,
      "tip": 2040,
      "##gkin": 2041,
      "##notomy": 2042,
      "crow": 2043,
      "##ladder": 2044,
      "Hodgkin": 2045,
      "Wheezing": 2046,
      "tachycardia": 2047,
      "appro": 2048,
      "Pre": 2049,
      "##mit": 2050,
      "loc20": 2051,
      "medical": 2052,
      "synco": 2053,
      "##pal": 2054,
      "shield": 2055,
      "obes": 2056,
      "syncopal": 2057,
      "De": 2058,
      "flu": 2059,
      "##ceph": 2060,
      "##cephal": 2061,
      "bladder": 2062,
      "##tosis": 2063,
      "##kocy": 2064,
      "##kocytosis": 2065,
      "##ving": 2066,
      "Mor": 2067,
      "crowding": 2068,
      "tortuosity": 2069,
      "incre": 2070,
      "leukocytosis": 2071,
      "##ases": 2072,
      "Nod": 2073,
      "Cardiomediastinal": 2074,
      "stage": 2075,
      "osteophy": 2076,
      "di": 2077,
      "##ovascular": 2078,
      "##ward": 2079,
      "##arding": 2080,
      "regarding": 2081,
      "blun": 2082,
      "##astric": 2083,
      "##maker": 2084,
      "##cemaker": 2085,
      "calcinosis": 2086,
      "hyd": 2087,
      "immun": 2088,
      "deformity": 2089,
      "gast": 2090,
      "##act": 2091,
      "##esophageal": 2092,
      "bronchovascular": 2093,
      "##roesophageal": 2094,
      "alveolar": 2095,
      "suspicious": 2096,
      "gastroesophageal": 2097,
      "##lec": 2098,
      "Comp": 2099,
      "complaining": 2100,
      "pacemaker": 2101,
      "Edema": 2102,
      "##tent": 2103,
      "##ux": 2104,
      "midlung": 2105,
      "An": 2106,
      "##pro": 2107,
      "##ong": 2108,
      "hyperexpanded": 2109,
      "Complain": 2110,
      "expos": 2111,
      "nonpro": 2112,
      "exposure": 2113,
      "nonproductive": 2114,
      "If": 2115,
      "line": 2116,
      "##iet": 2117,
      "##ocardia": 2118,
      "atherosclerotic": 2119,
      "impl": 2120,
      "dextrocardia": 2121,
      "Vomiting": 2122,
      "ring": 2123,
      "sternotomy": 2124,
      "##attered": 2125,
      "##tely": 2126,
      "otherwise": 2127,
      "Abnormal": 2128,
      "Pneumonia": 2129,
      "occ": 2130,
      "refl": 2131,
      "reflux": 2132,
      "##placed": 2133,
      "brach": 2134,
      "irregular": 2135,
      "undergoing": 2136,
      "specified": 2137,
      "Pr": 2138,
      "##metr": 2139,
      "overlying": 2140,
      "##ancre": 2141,
      "cholec": 2142,
      "##dle": 2143,
      "middle": 2144,
      "flank": 2145,
      "var": 2146,
      "##igastric": 2147,
      "##icant": 2148,
      "##ificant": 2149,
      "##ymmetr": 2150,
      "graft": 2151,
      "typical": 2152,
      "##derate": 2153,
      "varices": 2154,
      "Ac": 2155,
      "spasm": 2156,
      "Nodule": 2157,
      "##agn": 2158,
      "##omatosis": 2159,
      "necrosis": 2160,
      "patent": 2161,
      "patchy": 2162,
      "perfor": 2163,
      "##head": 2164,
      "##ibasilar": 2165,
      "##ighthead": 2166,
      "rad": 2167,
      "##chondroma": 2168,
      "obesity": 2169,
      "##ightheaded": 2170,
      "neur": 2171,
      "squ": 2172,
      "##gagn": 2173,
      "##amous": 2174,
      "Morgagn": 2175,
      "squamous": 2176,
      "Morgagni": 2177,
      "perforation": 2178,
      "##ightheadedness": 2179,
      "casts": 2180,
      "muc": 2181,
      "plu": 2182,
      "##gs": 2183,
      "##gative": 2184,
      "##ylo": 2185,
      "##py": 2186,
      "##esis": 2187,
      "##atid": 2188,
      "thinning": 2189,
      "liposarcoma": 2190,
      "tracheobronchomalacia": 2191,
      "significant": 2192,
      "##adrant": 2193,
      "pleurodes": 2194,
      "hemangioma": 2195,
      "adenoid": 2196,
      "quadrant": 2197,
      "amylo": 2198,
      "##echn": 2199,
      "##tility": 2200,
      "hydatid": 2201,
      "neuro": 2202,
      "mucus": 2203,
      "plugs": 2204,
      "pleurodesis": 2205,
      "amyloidosis": 2206,
      "##ipp": 2207,
      "approxi": 2208,
      "rel": 2209,
      "##duction": 2210,
      "##pon": 2211,
      "##sis": 2212,
      "production": 2213,
      "##stra": 2214,
      "##monstra": 2215,
      "proj": 2216,
      "certain": 2217,
      "Dia": 2218,
      "nodular": 2219,
      "##yste": 2220,
      "##ins": 2221,
      "##att": 2222,
      "problem": 2223,
      "Sc": 2224,
      "##opulmonary": 2225,
      "flatt": 2226,
      "##uring": 2227,
      "demonstra": 2228,
      "requi": 2229,
      "techn": 2230,
      "##mately": 2231,
      "##renchy": 2232,
      "prominent": 2233,
      "approximately": 2234,
      "##ystectomy": 2235,
      "confusion": 2236,
      "blunting": 2237,
      "##ernal": 2238,
      "Follow": 2239,
      "cardiopulmonary": 2240,
      "##fic": 2241,
      "clavic": 2242,
      "few": 2243,
      "##paces": 2244,
      "Symptoms": 2245,
      "hour": 2246,
      "##tis": 2247,
      "brain": 2248,
      "have": 2249,
      "spaces": 2250,
      "cholecystectomy": 2251,
      "palpitations": 2252,
      "##izure": 2253,
      "hep": 2254,
      "##ester": 2255,
      "disc": 2256,
      "loc01": 2257,
      "ear": 2258,
      "##letal": 2259,
      "##atr": 2260,
      "##keletal": 2261,
      "clavicle": 2262,
      "sarcoma": 2263,
      "ve": 2264,
      "##gia": 2265,
      "bibasilar": 2266,
      "Previous": 2267,
      "Ple": 2268,
      "ov": 2269,
      "skeletal": 2270,
      "##ll": 2271,
      "##tine": 2272,
      "##outine": 2273,
      "14": 2274,
      "abuse": 2275,
      "##ctal": 2276,
      "##iency": 2277,
      "##ficiency": 2278,
      "##ibrill": 2279,
      "exc": 2280,
      "limit": 2281,
      "##ibrillator": 2282,
      "##part": 2283,
      "diabetes": 2284,
      "x1": 2285,
      "##pecif": 2286,
      "Mot": 2287,
      "bases": 2288,
      "had": 2289,
      "##hilar": 2290,
      "##let": 2291,
      "##osed": 2292,
      "related": 2293,
      "Motor": 2294,
      "mak": 2295,
      "##hea": 2296,
      "congestive": 2297,
      "##arrhea": 2298,
      "diarrhea": 2299,
      "Multiple": 2300,
      "would": 2301,
      "moderate": 2302,
      "Degenerative": 2303,
      "make": 2304,
      "##cious": 2305,
      "##reak": 2306,
      "conscious": 2307,
      "limited": 2308,
      "consciousness": 2309,
      "##als": 2310,
      "infl": 2311,
      "##ches": 2312,
      "##genic": 2313,
      "##reaky": 2314,
      "inflated": 2315,
      "Bony": 2316,
      "adenopathy": 2317,
      "##que": 2318,
      "##gmental": 2319,
      "hyperinflated": 2320,
      "##vity": 2321,
      "##tivity": 2322,
      "aspiration": 2323,
      "liver": 2324,
      "activity": 2325,
      "structuresosseous": 2326,
      "osteo": 2327,
      "##are": 2328,
      "sensation": 2329,
      "infarct": 2330,
      "need": 2331,
      "food": 2332,
      "Se": 2333,
      "past": 2334,
      "uns": 2335,
      "proc": 2336,
      "##segmental": 2337,
      "endom": 2338,
      "intrac": 2339,
      "endometr": 2340,
      "##vol": 2341,
      "nothing": 2342,
      "##urgical": 2343,
      "shielded": 2344,
      "##kle": 2345,
      "ankle": 2346,
      "including": 2347,
      "germ": 2348,
      "pancre": 2349,
      "Acute": 2350,
      "invol": 2351,
      "subsegmental": 2352,
      "##oracic": 2353,
      "##renchymal": 2354,
      "ting": 2355,
      "##usion": 2356,
      "airw": 2357,
      "scattered": 2358,
      "lobectomy": 2359,
      "Bronch": 2360,
      "##tte": 2361,
      "##igare": 2362,
      "than": 2363,
      "thromb": 2364,
      "##igarette": 2365,
      "Worsening": 2366,
      "ach": 2367,
      "yester": 2368,
      "##alasia": 2369,
      "##asing": 2370,
      "##isy": 2371,
      "malignant": 2372,
      "achalasia": 2373,
      "yesterday": 2374,
      "##line": 2375,
      "##ze": 2376,
      "##atitis": 2377,
      "fibrill": 2378,
      "active": 2379,
      "fibrillation": 2380,
      "He": 2381,
      "deep": 2382,
      "com": 2383,
      "melanoma": 2384,
      "sle": 2385,
      "apnea": 2386,
      "scle": 2387,
      "MVC": 2388,
      "sleep": 2389,
      "Hep": 2390,
      "##arting": 2391,
      "##aturation": 2392,
      "osteophytes": 2393,
      "##atible": 2394,
      "compatible": 2395,
      "atherosclerosis": 2396,
      "40": 2397,
      "##sternal": 2398,
      "normally": 2399,
      "defibrillator": 2400,
      "##gestion": 2401,
      "Specif": 2402,
      "##nal": 2403,
      "##poin": 2404,
      "altered": 2405,
      "silhouettes": 2406,
      "leg": 2407,
      "increasing": 2408,
      "Specifically": 2409,
      "##poinfl": 2410,
      "Post": 2411,
      "##perit": 2412,
      "hypoinfl": 2413,
      "hours": 2414,
      "Pleural": 2415,
      "##peritone": 2416,
      "Ep": 2417,
      "displaced": 2418,
      "comple": 2419,
      "##ophag": 2420,
      "requires": 2421,
      "Epigastric": 2422,
      "##oce": 2423,
      "##yph": 2424,
      "##urred": 2425,
      "Low": 2426,
      "esophag": 2427,
      "flattening": 2428,
      "##tib": 2429,
      "##iates": 2430,
      "presyncope": 2431,
      "postpart": 2432,
      "radiates": 2433,
      "postpartum": 2434,
      "aches": 2435,
      "tubercul": 2436,
      "##emia": 2437,
      "appearing": 2438,
      "##unction": 2439,
      "densities": 2440,
      "slight": 2441,
      "through": 2442,
      "implant": 2443,
      "##ibly": 2444,
      "suggested": 2445,
      "tests": 2446,
      "rema": 2447,
      "##osco": 2448,
      "##asty": 2449,
      "Cardio": 2450,
      "Bone": 2451,
      "Coronary": 2452,
      "##ility": 2453,
      "Diagn": 2454,
      "##tation": 2455,
      "##ately": 2456,
      "down": 2457,
      "fre": 2458,
      "##quent": 2459,
      "frequent": 2460,
      "apical": 2461,
      "Bilateral": 2462,
      "aus": 2463,
      "##cultation": 2464,
      "##ocarcin": 2465,
      "adenocarcin": 2466,
      "fluid": 2467,
      "auscultation": 2468,
      "adenocarcinoma": 2469,
      "fil": 2470,
      "##gain": 2471,
      "##bar": 2472,
      "##end": 2473,
      "now": 2474,
      "contact": 2475,
      "outlet": 2476,
      "##olumbar": 2477,
      "thoracolumbar": 2478,
      "possibly": 2479,
      "Anterior": 2480,
      "streaky": 2481,
      "Complaint": 2482,
      "##asion": 2483,
      "Shoulder": 2484,
      "##asional": 2485,
      "##action": 2486,
      "reaction": 2487,
      "device": 2488,
      "cardio": 2489,
      "inspiration": 2490,
      "sinus": 2491,
      "Recurrent": 2492,
      "prominence": 2493,
      "##urrently": 2494,
      "##cility": 2495,
      "##ialysis": 2496,
      "facility": 2497,
      "region": 2498,
      "pleurisy": 2499,
      "leiomyosarcoma": 2500,
      "##oplasty": 2501,
      "Cough": 2502,
      "ma": 2503,
      "##oplasm": 2504,
      "technical": 2505,
      "Tachycardia": 2506,
      "wed": 2507,
      "##clinical": 2508,
      "##ual": 2509,
      "indclinical": 2510,
      "##ler": 2511,
      "##iew": 2512,
      "##ogy": 2513,
      "following": 2514,
      "gl": 2515,
      "hand": 2516,
      "##gu": 2517,
      "ingu": 2518,
      "##igrant": 2519,
      "encephal": 2520,
      "immigrant": 2521,
      "completed": 2522,
      "tuberculin": 2523,
      "Coughing": 2524,
      "inguinal": 2525,
      "encephalopathy": 2526,
      "##ality": 2527,
      "##leged": 2528,
      "rectal": 2529,
      "unable": 2530,
      "complaint": 2531,
      "ter": 2532,
      "Nothing": 2533,
      "##urv": 2534,
      "coughing": 2535,
      "nons": 2536,
      "could": 2537,
      "##hy": 2538,
      "##enia": 2539,
      "##umer": 2540,
      "dep": 2541,
      "dehy": 2542,
      "retr": 2543,
      "assess": 2544,
      "##odeficiency": 2545,
      "quality": 2546,
      "immunodeficiency": 2547,
      "Previously": 2548,
      "##peritoneal": 2549,
      "dehyd": 2550,
      "Dec": 2551,
      "Me": 2552,
      "view": 2553,
      "##cern": 2554,
      "medication": 2555,
      "otal": 2556,
      "symmetr": 2557,
      "##ike": 2558,
      "##gic": 2559,
      "distention": 2560,
      "process": 2561,
      "##lergic": 2562,
      "otalgia": 2563,
      "again": 2564,
      "bel": 2565,
      "saturation": 2566,
      "##ihilar": 2567,
      "##level": 2568,
      "##erated": 2569,
      "seizure": 2570,
      "reve": 2571,
      "##ultilevel": 2572,
      "stents": 2573,
      "hypoinflated": 2574,
      "##xiet": 2575,
      "##atoce": 2576,
      "trauma": 2577,
      "##pansion": 2578,
      "bronchi": 2579,
      "##ount": 2580,
      "hepatoce": 2581,
      "##llular": 2582,
      "##xiety": 2583,
      "hepatocellular": 2584,
      "ket": 2585,
      "##oac": 2586,
      "##haling": 2587,
      "##rectomy": 2588,
      "##urm": 2589,
      "perihilar": 2590,
      "##tastatic": 2591,
      "reac": 2592,
      "##ittent": 2593,
      "##termittent": 2594,
      "Intermittent": 2595,
      "diabetic": 2596,
      "irregularities": 2597,
      "Metastatic": 2598,
      "ketoac": 2599,
      "reactive": 2600,
      "ketoacidosis": 2601,
      "Es": 2602,
      "How": 2603,
      "colon": 2604,
      "specifically": 2605,
      "Congestion": 2606,
      "MVA": 2607,
      "below": 2608,
      "mor": 2609,
      "routine": 2610,
      "some": 2611,
      "##back": 2612,
      "##sive": 2613,
      "inhaling": 2614,
      "##respon": 2615,
      "midback": 2616,
      "day": 2617,
      "needs": 2618,
      "##responsive": 2619,
      "dys": 2620,
      "##bid": 2621,
      "persis": 2622,
      "##iocephal": 2623,
      "brachiocephal": 2624,
      "Decreased": 2625,
      "persisting": 2626,
      "brachiocephalic": 2627,
      "disorders": 2628,
      "##ostomy": 2629,
      "costo": 2630,
      "Head": 2631,
      "Palpitations": 2632,
      "scar": 2633,
      "##poxemia": 2634,
      "Cardiomegaly": 2635,
      "demonstrated": 2636,
      "Esophageal": 2637,
      "operative": 2638,
      "##hed": 2639,
      "##urr": 2640,
      "##osc": 2641,
      "area": 2642,
      "config": 2643,
      "##ized": 2644,
      "##thritis": 2645,
      "Diagnosis": 2646,
      "##im": 2647,
      "##obronchial": 2648,
      "hyperexpansion": 2649,
      "throughout": 2650,
      "stra": 2651,
      "vess": 2652,
      "##dal": 2653,
      "##ber": 2654,
      "##vement": 2655,
      "cham": 2656,
      "internal": 2657,
      "positioned": 2658,
      "osteoar": 2659,
      "osteopenia": 2660,
      "##oscoliosis": 2661,
      "vessel": 2662,
      "chamber": 2663,
      "osteoarthritis": 2664,
      "##upp": 2665,
      "##osupp": 2666,
      "##orderline": 2667,
      "endpl": 2668,
      "immunosupp": 2669,
      "##oscopy": 2670,
      "configuration": 2671,
      "##sf": 2672,
      "##atisf": 2673,
      "##ened": 2674,
      "##ature": 2675,
      "##actory": 2676,
      "##ipple": 2677,
      "vessels": 2678,
      "##atisfactory": 2679,
      "Bo": 2680,
      "Clear": 2681,
      "Ne": 2682,
      "lightheadedness": 2683,
      "##chdal": 2684,
      "intermit": 2685,
      "##oparenchymal": 2686,
      "pleuroparenchymal": 2687,
      "muscle": 2688,
      "Bochdal": 2689,
      "Negative": 2690,
      "intermittent": 2691,
      "Bochdalek": 2692,
      "Mid": 2693,
      "dou": 2694,
      "gre": 2695,
      "rings": 2696,
      "smo": 2697,
      "##jor": 2698,
      "##nge": 2699,
      "##atoma": 2700,
      "tracheomalacia": 2701,
      "hyperpl": 2702,
      "hypertr": 2703,
      "diagnosed": 2704,
      "only": 2705,
      "lipomatosis": 2706,
      "upward": 2707,
      "malignancy": 2708,
      "neurogenic": 2709,
      "projec": 2710,
      "veins": 2711,
      "teratoma": 2712,
      "double": 2713,
      "smooth": 2714,
      "hyperplasia": 2715,
      "hypertrophy": 2716,
      "during": 2717,
      "kyph": 2718,
      "##oroscopy": 2719,
      "enchondroma": 2720,
      "valv": 2721,
      "##dequ": 2722,
      "impa": 2723,
      "caus": 2724,
      "fluoroscopy": 2725,
      "symmetrically": 2726,
      "adequ": 2727,
      "vir": 2728,
      "##bs": 2729,
      "##edure": 2730,
      "wid": 2731,
      "loc1": 2732,
      "lymphangitic": 2733,
      "indicating": 2734,
      "endplate": 2735,
      "Dis": 2736,
      "junction": 2737,
      "##thoracic": 2738,
      "##ocarditis": 2739,
      "airway": 2740,
      "##urvature": 2741,
      "impacted": 2742,
      "Sch": 2743,
      "Tiet": 2744,
      "Zen": 2745,
      "agen": 2746,
      "bol": 2747,
      "dysm": 2748,
      "pals": 2749,
      "##iation": 2750,
      "##otility": 2751,
      "##xus": 2752,
      "##ki": 2753,
      "##zki": 2754,
      "##ulas": 2755,
      "plexus": 2756,
      "##atation": 2757,
      "##atzki": 2758,
      "##ardiac": 2759,
      "foram": 2760,
      "fibroma": 2761,
      "herniation": 2762,
      "vertebra": 2763,
      "webs": 2764,
      "along": 2765,
      "myopathy": 2766,
      "carcinomatosis": 2767,
      "respiration": 2768,
      "dilatation": 2769,
      "fistulas": 2770,
      "motility": 2771,
      "diverticulum": 2772,
      "granulomatosis": 2773,
      "endobronchial": 2774,
      "endocarditis": 2775,
      "malformations": 2776,
      "fibroelastosis": 2777,
      "distributions": 2778,
      "##chondritis": 2779,
      "brachial": 2780,
      "ovale": 2781,
      "exclu": 2782,
      "osteochondroma": 2783,
      "intracardiac": 2784,
      "endometriosis": 2785,
      "thrombus": 2786,
      "esophagitis": 2787,
      "downward": 2788,
      "filter": 2789,
      "costochondritis": 2790,
      "strain": 2791,
      "valvular": 2792,
      "adequately": 2793,
      "Schatzki": 2794,
      "Tietze": 2795,
      "Zenker": 2796,
      "agenesis": 2797,
      "bolus": 2798,
      "dysmotility": 2799,
      "palsy": 2800,
      "foramen": 2801,
      "##dden": 2802,
      "##tous": 2803,
      "##surgical": 2804,
      "##lined": 2805,
      "##ener": 2806,
      "sudden": 2807,
      "outlined": 2808,
      "midthoracic": 2809,
      "##moker": 2810,
      "moving": 2811,
      "infarcts": 2812,
      "wedge": 2813,
      "depression": 2814,
      "smoothly": 2815,
      "car": 2816,
      "##uf": 2817,
      "##ann": 2818,
      "##ucenc": 2819,
      "##umbar": 2820,
      "suspicion": 2821,
      "unsatisfactory": 2822,
      "Bronchitis": 2823,
      "multilevel": 2824,
      "wound": 2825,
      "##parent": 2826,
      "meas": 2827,
      "occasional": 2828,
      "nonsmoker": 2829,
      "Ad": 2830,
      "Lightheadedness": 2831,
      "hx": 2832,
      "sch": 2833,
      "##pr": 2834,
      "##fibr": 2835,
      "##wann": 2836,
      "Cons": 2837,
      "neurofibr": 2838,
      "major": 2839,
      "projecting": 2840,
      "schwann": 2841,
      "neurofibroma": 2842,
      "schwannoma": 2843,
      "Fl": 2844,
      "currently": 2845,
      "pounds": 2846,
      "term": 2847,
      "##eic": 2848,
      "##icatr": 2849,
      "apparent": 2850,
      "##structive": 2851,
      "##geneic": 2852,
      "##logeneic": 2853,
      "neoplasm": 2854,
      "##icatrix": 2855,
      "Sore": 2856,
      "Smok": 2857,
      "huma": 2858,
      "##earing": 2859,
      "feel": 2860,
      "arthroplasty": 2861,
      "postoperative": 2862,
      "##ressive": 2863,
      "tingling": 2864,
      "slightly": 2865,
      "virus": 2866,
      "##ucency": 2867,
      "Smoking": 2868,
      "human": 2869,
      "Minimal": 2870,
      "Ob": 2871,
      "cigarette": 2872,
      "fusion": 2873,
      "ur": 2874,
      "##rapy": 2875,
      "##iated": 2876,
      "##utter": 2877,
      "##uestion": 2878,
      "spinal": 2879,
      "followed": 2880,
      "speech": 2881,
      "flutter": 2882,
      "Lymphadenopathy": 2883,
      "foot": 2884,
      "slurred": 2885,
      "##ipped": 2886,
      "Disease": 2887,
      "Additional": 2888,
      "Obstructive": 2889,
      "None": 2890,
      "stab": 2891,
      "hypo": 2892,
      "Increased": 2893,
      "negative": 2894,
      "kyphosis": 2895,
      "widening": 2896,
      "Sarcoidosis": 2897,
      "big": 2898,
      "cicatrix": 2899,
      "ectas": 2900,
      "hearing": 2901,
      "rot": 2902,
      "##ration": 2903,
      "##ending": 2904,
      "##issure": 2905,
      "swall": 2906,
      "medial": 2907,
      "ectasia": 2908,
      "swallow": 2909,
      "26": 2910,
      "last": 2911,
      "diaphragms": 2912,
      "evident": 2913,
      "collection": 2914,
      "##iotic": 2915,
      "##kemia": 2916,
      "12": 2917,
      "##orted": 2918,
      "once": 2919,
      "adren": 2920,
      "admit": 2921,
      "Chills": 2922,
      "prostatectomy": 2923,
      "##ymmetric": 2924,
      "dehydration": 2925,
      "Atheroscle": 2926,
      "lumbar": 2927,
      "##matory": 2928,
      "starting": 2929,
      "fevers": 2930,
      "inflammatory": 2931,
      "Ass": 2932,
      "removed": 2933,
      "Hepatitis": 2934,
      "gland": 2935,
      "Non": 2936,
      "des": 2937,
      "asymmetric": 2938,
      "midsternal": 2939,
      "partial": 2940,
      "lum": 2941,
      "pol": 2942,
      "##CD": 2943,
      "##aled": 2944,
      "obsc": 2945,
      "dysph": 2946,
      "ICD": 2947,
      "ima": 2948,
      "##ite": 2949,
      "##eating": 2950,
      "into": 2951,
      "were": 2952,
      "sweating": 2953,
      "increase": 2954,
      "cardiover": 2955,
      "En": 2956,
      "fain": 2957,
      "ten": 2958,
      "concern": 2959,
      "##derness": 2960,
      "fainting": 2961,
      "tenderness": 2962,
      "ling": 2963,
      "sob": 2964,
      "##ulting": 2965,
      "##nsive": 2966,
      "##neous": 2967,
      "distal": 2968,
      "grade": 2969,
      "##tained": 2970,
      "Diaphragm": 2971,
      "Well": 2972,
      "##oti": 2973,
      "cont": 2974,
      "##otid": 2975,
      "##ses": 2976,
      "##urren": 2977,
      "##atus": 2978,
      "scan": 2979,
      "recurren": 2980,
      "Status": 2981,
      "thyroidectomy": 2982,
      "morbid": 2983,
      "recurrence": 2984,
      "Small": 2985,
      "fix": 2986,
      "near": 2987,
      "##VC": 2988,
      "postsurgical": 2989,
      "fixation": 2990,
      "15": 2991,
      "18": 2992,
      "CA": 2993,
      "Col": 2994,
      "Other": 2995,
      "count": 2996,
      "##men": 2997,
      "##BG": 2998,
      "##wn": 2999,
      "antib": 3000,
      "##stance": 3001,
      "##tensive": 3002,
      "dec": 3003,
      "Down": 3004,
      "Hypoxemia": 3005,
      "lead": 3006,
      "Transplant": 3007,
      "white": 3008,
      "chem": 3009,
      "osteophyte": 3010,
      "comm": 3011,
      "CABG": 3012,
      "antibiotic": 3013,
      "CT": 3014,
      "Tortu": 3015,
      "Vis": 3016,
      "##idual": 3017,
      "emphysematous": 3018,
      "main": 3019,
      "##sus": 3020,
      "##icc": 3021,
      "shielding": 3022,
      "implan": 3023,
      "measuring": 3024,
      "trans": 3025,
      "Expanded": 3026,
      "##ocardiac": 3027,
      "previously": 3028,
      "Evaluation": 3029,
      "inser": 3030,
      "impro": 3031,
      "deformities": 3032,
      "Visualized": 3033,
      "sized": 3034,
      "##vere": 3035,
      "versus": 3036,
      "Consolidation": 3037,
      "Two": 3038,
      "nan": 3039,
      "question": 3040,
      "##fo": 3041,
      "healed": 3042,
      "vein": 3043,
      "vertebrae": 3044,
      "Otherwise": 3045,
      "##ology": 3046,
      "sclerosis": 3047,
      "retrocardiac": 3048,
      "##iapical": 3049,
      "##ents": 3050,
      "suggests": 3051,
      "##ments": 3052,
      "##arian": 3053,
      "##eneralized": 3054,
      "##ient": 3055,
      "##tro": 3056,
      "##ctatic": 3057,
      "arteries": 3058,
      "SVC": 3059,
      "curvature": 3060,
      "gu": 3061,
      "lucency": 3062,
      "##othorax": 3063,
      "sternum": 3064,
      "assessment": 3065,
      "leads": 3066,
      "inserted": 3067,
      "Osseous": 3068,
      "Ra": 3069,
      "borderline": 3070,
      "eng": 3071,
      "##hot": 3072,
      "##nshot": 3073,
      "##rontal": 3074,
      "seque": 3075,
      "prob": 3076,
      "intraperitoneal": 3077,
      "marker": 3078,
      "gunshot": 3079,
      "Radi": 3080,
      "engor": 3081,
      "humer": 3082,
      "##ique": 3083,
      "##hol": 3084,
      "##king": 3085,
      "##reening": 3086,
      "##orre": 3087,
      "range": 3088,
      "arthritic": 3089,
      "##cohol": 3090,
      "alcohol": 3091,
      "Tortuous": 3092,
      "PI": 3093,
      "Prom": 3094,
      "aerated": 3095,
      "##ystr": 3096,
      "##fort": 3097,
      "##welling": 3098,
      "##CC": 3099,
      "around": 3100,
      "placed": 3101,
      "subc": 3102,
      "##pectomy": 3103,
      "alter": 3104,
      "perform": 3105,
      "Prior": 3106,
      "##endent": 3107,
      "lumpectomy": 3108,
      "Radiograph": 3109,
      "PICC": 3110,
      "Promin": 3111,
      "##ystrophy": 3112,
      "Res": 3113,
      "desc": 3114,
      "dialysis": 3115,
      "hil": 3116,
      "path": 3117,
      "ton": 3118,
      "##ith": 3119,
      "instr": 3120,
      "##irrh": 3121,
      "##ization": 3122,
      "##pecified": 3123,
      "##dered": 3124,
      "Posterior": 3125,
      "remain": 3126,
      "##fold": 3127,
      "hilum": 3128,
      "Cystic": 3129,
      "Ir": 3130,
      "Rep": 3131,
      "Sin": 3132,
      "frontal": 3133,
      "##ose": 3134,
      "dise": 3135,
      "tract": 3136,
      "subj": 3137,
      "finding": 3138,
      "lobes": 3139,
      "ventricle": 3140,
      "resection": 3141,
      "atta": 3142,
      "worse": 3143,
      "hemorrhage": 3144,
      "choking": 3145,
      "involvement": 3146,
      "Since": 3147,
      "Cirrh": 3148,
      "So": 3149,
      "dr": 3150,
      "pul": 3151,
      "##ium": 3152,
      "##air": 3153,
      "##gy": 3154,
      "##gan": 3155,
      "##ug": 3156,
      "##mesis": 3157,
      "##yel": 3158,
      "##omfort": 3159,
      "therapy": 3160,
      "##ulsion": 3161,
      "ordered": 3162,
      "organ": 3163,
      "anxiety": 3164,
      "##uments": 3165,
      "##chair": 3166,
      "##temesis": 3167,
      "Cancer": 3168,
      "##elchair": 3169,
      "wheelchair": 3170,
      "chf": 3171,
      "Fever": 3172,
      "injuries": 3173,
      "epigastric": 3174,
      "ches": 3175,
      "Alleged": 3176,
      "having": 3177,
      "Complaints": 3178,
      "Screening": 3179,
      "discomfort": 3180,
      "Seizure": 3181,
      "unspecified": 3182,
      "greater": 3183,
      "End": 3184,
      "implanted": 3185,
      "markers": 3186,
      "tonight": 3187,
      "instruments": 3188,
      "Irregular": 3189,
      "attack": 3190,
      "Cirrhosis": 3191,
      "Soft": 3192,
      "drug": 3193,
      "Pat": 3194,
      "Sep": 3195,
      "Up": 3196,
      "cour": 3197,
      "rate": 3198,
      "##cy": 3199,
      "##beat": 3200,
      "##me": 3201,
      "##yar": 3202,
      "##sh": 3203,
      "##est": 3204,
      "##ulted": 3205,
      "##orient": 3206,
      "##nsation": 3207,
      "disorient": 3208,
      "##utes": 3209,
      "heartbeat": 3210,
      "place": 3211,
      "##gency": 3212,
      "##ective": 3213,
      "doesn": 3214,
      "dense": 3215,
      "assaulted": 3216,
      "hepatic": 3217,
      "Sensation": 3218,
      "pancreatitis": 3219,
      "imaging": 3220,
      "contusion": 3221,
      "performed": 3222,
      "subjective": 3223,
      "Patchy": 3224,
      "Sepsis": 3225,
      "27": 3226,
      "31": 3227,
      "33": 3228,
      "72": 3229,
      "Ane": 3230,
      "BN": 3231,
      "BC": 3232,
      "Bang": 3233,
      "Burm": 3234,
      "Coc": 3235,
      "Cigarette": 3236,
      "Du": 3237,
      "Hum": 3238,
      "High": 3239,
      "Liver": 3240,
      "Long": 3241,
      "Osh": 3242,
      "Ram": 3243,
      "Routine": 3244,
      "Ste": 3245,
      "Surgical": 3246,
      "Ting": 3247,
      "Year": 3248,
      "describ": 3249,
      "dystrophy": 3250,
      "eth": 3251,
      "five": 3252,
      "hall": 3253,
      "kg": 3254,
      "las": 3255,
      "lasts": 3256,
      "min": 3257,
      "natr": 3258,
      "pm": 3259,
      "pus": 3260,
      "pep": 3261,
      "tachycard": 3262,
      "uve": 3263,
      "vac": 3264,
      "ventral": 3265,
      "##nne": 3266,
      "##dose": 3267,
      "##ira": 3268,
      "##iure": 3269,
      "##cation": 3270,
      "##cination": 3271,
      "##ade": 3272,
      "##ginning": 3273,
      "##bre": 3274,
      "##ps": 3275,
      "##pendent": 3276,
      "##wit": 3277,
      "##kos": 3278,
      "##vulsion": 3279,
      "initi": 3280,
      "##tide": 3281,
      "##tizing": 3282,
      "##rest": 3283,
      "indwelling": 3284,
      "##ese": 3285,
      "##esh": 3286,
      "##inary": 3287,
      "##ulike": 3288,
      "##oroid": 3289,
      "##eration": 3290,
      "##ergy": 3291,
      "##icine": 3292,
      "##icade": 3293,
      "##urs": 3294,
      "##uritic": 3295,
      "##aine": 3296,
      "ische": 3297,
      "##anol": 3298,
      "asymptom": 3299,
      "##seas": 3300,
      "##chenne": 3301,
      "##mping": 3302,
      "##nessed": 3303,
      "replaced": 3304,
      "arrest": 3305,
      "##derma": 3306,
      "hyste": 3307,
      "##ucination": 3308,
      "energy": 3309,
      "hematemesis": 3310,
      "beginning": 3311,
      "##ompression": 3312,
      "##ranial": 3313,
      "##pite": 3314,
      "radiation": 3315,
      "bulging": 3316,
      "##rotizing": 3317,
      "##roderma": 3318,
      "##viations": 3319,
      "backache": 3320,
      "##dependent": 3321,
      "transplantation": 3322,
      "preop": 3323,
      "pretib": 3324,
      "overdose": 3325,
      "overseas": 3326,
      "Choroid": 3327,
      "nondependent": 3328,
      "muscular": 3329,
      "Allogeneic": 3330,
      "necrotizing": 3331,
      "Unresponsive": 3332,
      "Unwit": 3333,
      "Throat": 3334,
      "Starting": 3335,
      "medicine": 3336,
      "hemorrhag": 3337,
      "cramping": 3338,
      "Confusion": 3339,
      "Convulsion": 3340,
      "extremities": 3341,
      "treated": 3342,
      "##ladesh": 3343,
      "slipped": 3344,
      "Itchy": 3345,
      "occurs": 3346,
      "Pruritic": 3347,
      "radial": 3348,
      "excision": 3349,
      "osteogenic": 3350,
      "intracranial": 3351,
      "endometrial": 3352,
      "pancreas": 3353,
      "tinged": 3354,
      "comments": 3355,
      "scleroderma": 3356,
      "Hepatic": 3357,
      "Flulike": 3358,
      "urinary": 3359,
      "adrenal": 3360,
      "Assess": 3361,
      "despite": 3362,
      "decompression": 3363,
      "##orrel": 3364,
      "altercation": 3365,
      "Reported": 3366,
      "pulses": 3367,
      "attacks": 3368,
      "Anemia": 3369,
      "BNP": 3370,
      "BCG": 3371,
      "Bangladesh": 3372,
      "Burmese": 3373,
      "Cocaine": 3374,
      "Duchenne": 3375,
      "Humira": 3376,
      "Oshkos": 3377,
      "Ramicade": 3378,
      "Steps": 3379,
      "Tingling": 3380,
      "described": 3381,
      "ethanol": 3382,
      "hallucination": 3383,
      "lasting": 3384,
      "minutes": 3385,
      "natriure": 3386,
      "pushed": 3387,
      "peptide": 3388,
      "tachycardic": 3389,
      "uveitis": 3390,
      "vaccination": 3391,
      "##breviations": 3392,
      "initiation": 3393,
      "ischemia": 3394,
      "asymptomatic": 3395,
      "hysterectomy": 3396,
      "pretibial": 3397,
      "Choroidal": 3398,
      "Unwitnessed": 3399,
      "hemorrhagic": 3400,
      "Oshkosh": 3401,
      "hallucinations": 3402,
      "natriuretic": 3403,
      "##dialysis": 3404,
      "##ales": 3405,
      "raise": 3406,
      "##ief": 3407,
      "substernal": 3408,
      "hemodialysis": 3409,
      "Chief": 3410,
      "reveal": 3411,
      "exclude": 3412,
      "Upper": 3413,
      "cd": 3414,
      "sac": 3415,
      "six": 3416,
      "##ord": 3417,
      "sup": 3418,
      "Thed": 3419,
      "shad": 3420,
      "##cheal": 3421,
      "severe": 3422,
      "allergic": 3423,
      "represents": 3424,
      "technique": 3425,
      "Postoperative": 3426,
      "shadow": 3427,
      "58": 3428,
      "CH": 3429,
      "Palpitation": 3430,
      "rales": 3431,
      "please": 3432,
      "##ocedure": 3433,
      "alleged": 3434,
      "prepr": 3435,
      "Allergic": 3436,
      "dextroscoliosis": 3437,
      "iritis": 3438,
      "##acter": 3439,
      "Scattered": 3440,
      "diseases": 3441,
      "CHF": 3442,
      "preprocedure": 3443,
      "Opac": 3444,
      "##inage": 3445,
      "##lev": 3446,
      "##rainage": 3447,
      "##iring": 3448,
      "located": 3449,
      "intravenous": 3450,
      "##trast": 3451,
      "##betes": 3452,
      "leukemia": 3453,
      "requiring": 3454,
      "Diabetes": 3455,
      "demonstrate": 3456,
      "implantable": 3457,
      "cardioverter": 3458,
      "Prominent": 3459,
      "home": 3460,
      "##cond": 3461,
      "##ays": 3462,
      "##cification": 3463,
      "second": 3464,
      "reported": 3465,
      "peripherally": 3466,
      "reveals": 3467,
      "Atherosclerotic": 3468,
      "##meter": 3469,
      "sacro": 3470,
      "7th": 3471,
      "At": 3472,
      "CX": 3473,
      "Coar": 3474,
      "EK": 3475,
      "Elev": 3476,
      "biapical": 3477,
      "drainage": 3478,
      "round": 3479,
      "war": 3480,
      "##sal": 3481,
      "##ina": 3482,
      "##othing": 3483,
      "confirms": 3484,
      "retro": 3485,
      "falling": 3486,
      "studies": 3487,
      "clothing": 3488,
      "##tilation": 3489,
      "remains": 3490,
      "carotid": 3491,
      "pathology": 3492,
      "supra": 3493,
      "CXR": 3494,
      "EKG": 3495,
      "warran": 3496,
      "##arg": 3497,
      "##radi": 3498,
      "anteriorly": 3499,
      "unfold": 3500,
      "vision": 3501,
      "##tifact": 3502,
      "atrium": 3503,
      "Mediastinum": 3504,
      "representing": 3505,
      "blurr": 3506,
      "airways": 3507,
      "lingula": 3508,
      "blurry": 3509,
      "53": 3510,
      "Nipple": 3511,
      "One": 3512,
      "eto": 3513,
      "mig": 3514,
      "murm": 3515,
      "nigh": 3516,
      "##dra": 3517,
      "##ax": 3518,
      "##bing": 3519,
      "##best": 3520,
      "##utive": 3521,
      "##fore": 3522,
      "##wal": 3523,
      "##weats": 3524,
      "##arm": 3525,
      "##raines": 3526,
      "withdra": 3527,
      "##culi": 3528,
      "##ociated": 3529,
      "calculi": 3530,
      "asbest": 3531,
      "diameter": 3532,
      "dete": 3533,
      "##elitis": 3534,
      "rever": 3535,
      "##tsweats": 3536,
      "##usal": 3537,
      "##iving": 3538,
      "forearm": 3539,
      "##ogram": 3540,
      "##omyelitis": 3541,
      "##opausal": 3542,
      "osteomyelitis": 3543,
      "insuf": 3544,
      "Positivekin": 3545,
      "associated": 3546,
      "Unknown": 3547,
      "neph": 3548,
      "##agia": 3549,
      "involved": 3550,
      "Bronchiectasis": 3551,
      "thrombosis": 3552,
      "stabbing": 3553,
      "dysphagia": 3554,
      "Coarse": 3555,
      "Elevated": 3556,
      "etoh": 3557,
      "migraines": 3558,
      "murmur": 3559,
      "nightsweats": 3560,
      "withdrawal": 3561,
      "asbestos": 3562,
      "reversal": 3563,
      "insufficiency": 3564,
      "16": 3565,
      "46": 3566,
      "##pation": 3567,
      "##tipation": 3568,
      "indig": 3569,
      "##estion": 3570,
      "imageed": 3571,
      "constipation": 3572,
      "artifact": 3573,
      "##ressed": 3574,
      "Anxiety": 3575,
      "projection": 3576,
      "implantation": 3577,
      "Headache": 3578,
      "immunosuppressed": 3579,
      "causes": 3580,
      "hypotension": 3581,
      "indigestion": 3582,
      "43": 3583,
      "Blood": 3584,
      "Carcin": 3585,
      "Duration": 3586,
      "Effusion": 3587,
      "Fall": 3588,
      "GE": 3589,
      "Ins": 3590,
      "Join": 3591,
      "Ph": 3592,
      "Pancre": 3593,
      "Renal": 3594,
      "duration": 3595,
      "eating": 3596,
      "ectatic": 3597,
      "fat": 3598,
      "gown": 3599,
      "hal": 3600,
      "long": 3601,
      "nipple": 3602,
      "pil": 3603,
      "tro": 3604,
      "tet": 3605,
      "valu": 3606,
      "xan": 3607,
      "##iogram": 3608,
      "##cutive": 3609,
      "##aise": 3610,
      "##eze": 3611,
      "##rocard": 3612,
      "##RD": 3613,
      "##tia": 3614,
      "##onid": 3615,
      "conse": 3616,
      "##ubstance": 3617,
      "##ysubstance": 3618,
      "demen": 3619,
      "malaise": 3620,
      "##mpit": 3621,
      "##ralogy": 3622,
      "colostomy": 3623,
      "armpit": 3624,
      "abscesses": 3625,
      "wheeze": 3626,
      "##orectal": 3627,
      "##icals": 3628,
      "catheterization": 3629,
      "##iliitis": 3630,
      "electrocard": 3631,
      "unresponsive": 3632,
      "Exertion": 3633,
      "part": 3634,
      "parenchymal": 3635,
      "recently": 3636,
      "nonradi": 3637,
      "care": 3638,
      "Thoracic": 3639,
      "remove": 3640,
      "Recently": 3641,
      "##ponin": 3642,
      "polysubstance": 3643,
      "Colorectal": 3644,
      "chemicals": 3645,
      "commissure": 3646,
      "antibiotics": 3647,
      "Resulting": 3648,
      "course": 3649,
      "secondary": 3650,
      "sacroiliitis": 3651,
      "Atypical": 3652,
      "retroperitoneal": 3653,
      "warrants": 3654,
      "detected": 3655,
      "nephrectomy": 3656,
      "Bloody": 3657,
      "Carcinoid": 3658,
      "Fallot": 3659,
      "GERD": 3660,
      "Inside": 3661,
      "Joint": 3662,
      "Physical": 3663,
      "Pancreatic": 3664,
      "half": 3665,
      "pilonid": 3666,
      "troponin": 3667,
      "tetralogy": 3668,
      "valuation": 3669,
      "xanax": 3670,
      "consecutive": 3671,
      "dementia": 3672,
      "electrocardiogram": 3673,
      "Exertional": 3674,
      "nonradiating": 3675,
      "pilonidal": 3676,
      "sul": 3677,
      "##aneous": 3678,
      "##utaneous": 3679,
      "spurr": 3680,
      "lev": 3681,
      "significantly": 3682,
      "flattened": 3683,
      "##imilar": 3684,
      "sulc": 3685,
      "spurring": 3686,
      "ax": 3687,
      "picc": 3688,
      "##nes": 3689,
      "##racheal": 3690,
      "##atracheal": 3691,
      "contrast": 3692,
      "before": 3693,
      "paratracheal": 3694,
      "amnes": 3695,
      "occurred": 3696,
      "causing": 3697,
      "questionable": 3698,
      "amnesia": 3699,
      "high": 3700,
      "pel": 3701,
      "##ded": 3702,
      "##gement": 3703,
      "##ops": 3704,
      "probable": 3705,
      "engorgement": 3706,
      "Re": 3707,
      "correl": 3708,
      "similar": 3709,
      "zone": 3710,
      "them": 3711,
      "##ull": 3712,
      "##ished": 3713,
      "##pect": 3714,
      "fibrotic": 3715,
      "##minished": 3716,
      "four": 3717,
      "Mass": 3718,
      "marg": 3719,
      "opa": 3720,
      "##ian": 3721,
      "aspect": 3722,
      "catheters": 3723,
      "descending": 3724,
      "ju": 3725,
      "##ague": 3726,
      "##vis": 3727,
      "##olog": 3728,
      "##velop": 3729,
      "coarse": 3730,
      "##position": 3731,
      "diminished": 3732,
      "##rec": 3733,
      "##inate": 3734,
      "proxi": 3735,
      "apprec": 3736,
      "incision": 3737,
      "##agg": 3738,
      "Midline": 3739,
      "humeral": 3740,
      "proximal": 3741,
      "cuf": 3742,
      "top": 3743,
      "underlying": 3744,
      "opacification": 3745,
      "cuff": 3746,
      "##ool": 3747,
      "##whe": 3748,
      "##her": 3749,
      "develop": 3750,
      "inferior": 3751,
      "stool": 3752,
      "presentwhe": 3753,
      "lobar": 3754,
      "overl": 3755,
      "Def": 3756,
      "procedure": 3757,
      "presentwhere": 3758,
      "Li": 3759,
      "##imp": 3760,
      "##li": 3761,
      "fem": 3762,
      "superimp": 3763,
      "##mited": 3764,
      "require": 3765,
      "Limited": 3766,
      "6th": 3767,
      "Central": 3768,
      "Main": 3769,
      "##ful": 3770,
      "##aste": 3771,
      "##icardial": 3772,
      "obtained": 3773,
      "##itus": 3774,
      "##osternal": 3775,
      "##acent": 3776,
      "resol": 3777,
      "residual": 3778,
      "retrosternal": 3779,
      "##astectomy": 3780,
      "Le": 3781,
      "aeration": 3782,
      "mastectomy": 3783,
      "##otic": 3784,
      "##eterm": 3785,
      "##like": 3786,
      "indeterm": 3787,
      "##osure": 3788,
      "##ither": 3789,
      "hyperl": 3790,
      "##andlike": 3791,
      "indicate": 3792,
      "esophagus": 3793,
      "great": 3794,
      "terms": 3795,
      "##acterial": 3796,
      "levoscoliosis": 3797,
      "Remo": 3798,
      "jugular": 3799,
      "superimposed": 3800,
      "indeterminate": 3801,
      "Air": 3802,
      "Aort": 3803,
      "Cl": 3804,
      "Ver": 3805,
      "function": 3806,
      "port": 3807,
      "##cending": 3808,
      "##mend": 3809,
      "##jacent": 3810,
      "##vian": 3811,
      "##ommend": 3812,
      "##lavian": 3813,
      "ascending": 3814,
      "node": 3815,
      "marked": 3816,
      "blunted": 3817,
      "project": 3818,
      "subclavian": 3819,
      "appreciated": 3820,
      "Aorta": 3821,
      "Borderline": 3822,
      "Em": 3823,
      "bsence": 3824,
      "cir": 3825,
      "generalized": 3826,
      "##ever": 3827,
      "##arted": 3828,
      "These": 3829,
      "##illa": 3830,
      "##ternal": 3831,
      "started": 3832,
      "##ucent": 3833,
      "scapula": 3834,
      "Exam": 3835,
      "adjacent": 3836,
      "obscure": 3837,
      "improved": 3838,
      "improvement": 3839,
      "axilla": 3840,
      "Emphysema": 3841,
      "Further": 3842,
      "Granul": 3843,
      "Mo": 3844,
      "co": 3845,
      "fissure": 3846,
      "##pen": 3847,
      "##iate": 3848,
      "rev": 3849,
      "stated": 3850,
      "compar": 3851,
      "overt": 3852,
      "result": 3853,
      "Inc": 3854,
      "appropr": 3855,
      "portable": 3856,
      "Moderate": 3857,
      "appropriate": 3858,
      "amp": 3859,
      "bi": 3860,
      "date": 3861,
      "vague": 3862,
      "##what": 3863,
      "##len": 3864,
      "##entesis": 3865,
      "ref": 3866,
      "##derately": 3867,
      "##otomy": 3868,
      "##veral": 3869,
      "thoracentesis": 3870,
      "dilated": 3871,
      "moderately": 3872,
      "Streaky": 3873,
      "Concern": 3874,
      "Pneumothorax": 3875,
      "involving": 3876,
      "sequela": 3877,
      "Leu": 3878,
      "Vascular": 3879,
      "With": 3880,
      "hos": 3881,
      "less": 3882,
      "tim": 3883,
      "##cing": 3884,
      "##bro": 3885,
      "##emon": 3886,
      "indiv": 3887,
      "##arynge": 3888,
      "##temp": 3889,
      "##ters": 3890,
      "##stration": 3891,
      "several": 3892,
      "liters": 3893,
      "##itor": 3894,
      "attemp": 3895,
      "epicardial": 3896,
      "prosthe": 3897,
      "used": 3898,
      "obese": 3899,
      "##umerous": 3900,
      "excluded": 3901,
      "rotator": 3902,
      "correlate": 3903,
      "##aggerated": 3904,
      "##emonstration": 3905,
      "individual": 3906,
      "##aryngeal": 3907,
      "attempting": 3908,
      "AM": 3909,
      "Atr": 3910,
      "Based": 3911,
      "Generalized": 3912,
      "ce": 3913,
      "ja": 3914,
      "pound": 3915,
      "sur": 3916,
      "int": 3917,
      "##onitis": 3918,
      "wires": 3919,
      "sutures": 3920,
      "##ider": 3921,
      "disorder": 3922,
      "##ubation": 3923,
      "retained": 3924,
      "lie": 3925,
      "loc21": 3926,
      "##aking": 3927,
      "##lowing": 3928,
      "overall": 3929,
      "parenchy": 3930,
      "##pice": 3931,
      "Peripheral": 3932,
      "ovarian": 3933,
      "somewhat": 3934,
      "rounded": 3935,
      "sulcus": 3936,
      "##ullary": 3937,
      "hospice": 3938,
      "AML": 3939,
      "Atrial": 3940,
      "jaw": 3941,
      "parenchyma": 3942,
      "5th": 3943,
      "AI": 3944,
      "Currently": 3945,
      "cou": 3946,
      "lack": 3947,
      "laryngeal": 3948,
      "mm": 3949,
      "nor": 3950,
      "wal": 3951,
      "wors": 3952,
      "##cum": 3953,
      "##sen": 3954,
      "##ken": 3955,
      "##isis": 3956,
      "##ides": 3957,
      "##bleed": 3958,
      "breat": 3959,
      "fact": 3960,
      "compressive": 3961,
      "##roken": 3962,
      "mostly": 3963,
      "allogeneic": 3964,
      "monitor": 3965,
      "nosebleed": 3966,
      "neither": 3967,
      "impression": 3968,
      "amount": 3969,
      "crisis": 3970,
      "Prost": 3971,
      "pancreatic": 3972,
      "hypoven": 3973,
      "sequelae": 3974,
      "pelvic": 3975,
      "##opsy": 3976,
      "femur": 3977,
      "circum": 3978,
      "biopsy": 3979,
      "couple": 3980,
      "worsened": 3981,
      "56": 3982,
      "79": 3983,
      "92": 3984,
      "98": 3985,
      "Bacterial": 3986,
      "Call": 3987,
      "Des": 3988,
      "ES": 3989,
      "Myel": 3990,
      "Oxygen": 3991,
      "Occ": 3992,
      "Pol": 3993,
      "SB": 3994,
      "Some": 3995,
      "Six": 3996,
      "Spon": 3997,
      "bandlike": 3998,
      "broken": 3999,
      "pills": 4000,
      "pyel": 4001,
      "ro": 4002,
      "rati": 4003,
      "sed": 4004,
      "syph": 4005,
      "ty": 4006,
      "##iment": 4007,
      "##gly": 4008,
      "##gressive": 4009,
      "##bran": 4010,
      "##mis": 4011,
      "##mbran": 4012,
      "##rol": 4013,
      "##ritis": 4014,
      "##ythr": 4015,
      "##sing": 4016,
      "##vin": 4017,
      "##DS": 4018,
      "ingestion": 4019,
      "##omer": 4020,
      "##rebro": 4021,
      "##onged": 4022,
      "induction": 4023,
      "##ulone": 4024,
      "##ergency": 4025,
      "##thral": 4026,
      "##rated": 4027,
      "##cemia": 4028,
      "convin": 4029,
      "##iferative": 4030,
      "##phritis": 4031,
      "##olonged": 4032,
      "##ilis": 4033,
      "##tern": 4034,
      "depart": 4035,
      "fell": 4036,
      "tracheostomy": 4037,
      "breasts": 4038,
      "hypoxemia": 4039,
      "membran": 4040,
      "enter": 4041,
      "##itonitis": 4042,
      "hypergly": 4043,
      "##ernight": 4044,
      "face": 4045,
      "presented": 4046,
      "extensive": 4047,
      "##taneous": 4048,
      "emergency": 4049,
      "Progressive": 4050,
      "##oprol": 4051,
      "recommend": 4052,
      "specify": 4053,
      "##iaphragmatic": 4054,
      "fractured": 4055,
      "remote": 4056,
      "Mildly": 4057,
      "angina": 4058,
      "Peritonitis": 4059,
      "erythr": 4060,
      "##ocyte": 4061,
      "Morbid": 4062,
      "Prolonged": 4063,
      "earli": 4064,
      "overnight": 4065,
      "sinusitis": 4066,
      "glomer": 4067,
      "dehydrated": 4068,
      "Flank": 4069,
      "feeling": 4070,
      "swallowed": 4071,
      "partially": 4072,
      "dysphasia": 4073,
      "##yarthral": 4074,
      "disoriented": 4075,
      "unfolding": 4076,
      "requirement": 4077,
      "Removed": 4078,
      "Closure": 4079,
      "revision": 4080,
      "ampullary": 4081,
      "Leukemia": 4082,
      "cerebro": 4083,
      "intubation": 4084,
      "AIDS": 4085,
      "Prostate": 4086,
      "Desaturation": 4087,
      "ESR": 4088,
      "Myeloid": 4089,
      "Occasional": 4090,
      "Polyarthral": 4091,
      "SBP": 4092,
      "Spontaneous": 4093,
      "pyeloplasty": 4094,
      "room": 4095,
      "ratio": 4096,
      "sediment": 4097,
      "syphilis": 4098,
      "type": 4099,
      "##mission": 4100,
      "##ulonephritis": 4101,
      "convincing": 4102,
      "department": 4103,
      "membranoprol": 4104,
      "hyperglycemia": 4105,
      "erythrocyte": 4106,
      "Morbidly": 4107,
      "earlier": 4108,
      "glomerulonephritis": 4109,
      "cerebrovascular": 4110,
      "Polyarthralgia": 4111,
      "sedimentation": 4112,
      "membranoproliferative": 4113,
      "66": 4114,
      "9th": 4115,
      "Cer": 4116,
      "IN": 4117,
      "Sl": 4118,
      "Tr": 4119,
      "aut": 4120,
      "cx": 4121,
      "hist": 4122,
      "lap": 4123,
      "run": 4124,
      "sv": 4125,
      "ure": 4126,
      "##ny": 4127,
      "##nation": 4128,
      "##tle": 4129,
      "##gl": 4130,
      "##bul": 4131,
      "##mer": 4132,
      "##pid": 4133,
      "##lous": 4134,
      "##arosco": 4135,
      "##osing": 4136,
      "##veill": 4137,
      "painful": 4138,
      "abbreviations": 4139,
      "##ocurvature": 4140,
      "shif": 4141,
      "normalized": 4142,
      "mediastinitis": 4143,
      "fibrosing": 4144,
      "rapid": 4145,
      "hypertensive": 4146,
      "##cessive": 4147,
      "excessive": 4148,
      "internation": 4149,
      "bullous": 4150,
      "radiography": 4151,
      "Abbreviations": 4152,
      "pread": 4153,
      "Productive": 4154,
      "resulting": 4155,
      "##bolic": 4156,
      "elbowed": 4157,
      "urgency": 4158,
      "Atherosclerosis": 4159,
      "polyar": 4160,
      "transposition": 4161,
      "disorientation": 4162,
      "##ordination": 4163,
      "##ologous": 4164,
      "coordination": 4165,
      "surveill": 4166,
      "factors": 4167,
      "nosebleeds": 4168,
      "Cervical": 4169,
      "INR": 4170,
      "Slight": 4171,
      "Tripped": 4172,
      "autologous": 4173,
      "cxr": 4174,
      "histoplasm": 4175,
      "laparosco": 4176,
      "runny": 4177,
      "svc": 4178,
      "ureter": 4179,
      "international": 4180,
      "preadmission": 4181,
      "polyarticular": 4182,
      "surveillance": 4183,
      "laparoscopic": 4184,
      "Ong": 4185,
      "lad": 4186,
      "##cti": 4187,
      "##oing": 4188,
      "##lant": 4189,
      "meta": 4190,
      "rib7": 4191,
      "rib6": 4192,
      "external": 4193,
      "infecti": 4194,
      "subd": 4195,
      "##rop": 4196,
      "##ably": 4197,
      "##omatous": 4198,
      "irregularity": 4199,
      "Diaphragmatic": 4200,
      "Granulomatous": 4201,
      "Ongoing": 4202,
      "ladder": 4203,
      "infectious": 4204,
      "Fa": 4205,
      "Ov": 4206,
      "Skin": 4207,
      "To": 4208,
      "TN": 4209,
      "Tob": 4210,
      "av": 4211,
      "open": 4212,
      "taking": 4213,
      "##ila": 4214,
      "##ired": 4215,
      "##aila": 4216,
      "##ov": 4217,
      "##onch": 4218,
      "##initis": 4219,
      "iss": 4220,
      "##seu": 4221,
      "##isted": 4222,
      "living": 4223,
      "##omyopathy": 4224,
      "experienced": 4225,
      "pretra": 4226,
      "hemith": 4227,
      "assisted": 4228,
      "synov": 4229,
      "rhonch": 4230,
      "##otherapy": 4231,
      "medications": 4232,
      "morning": 4233,
      "obscuration": 4234,
      "Opacities": 4235,
      "Opacity": 4236,
      "entering": 4237,
      "shift": 4238,
      "ureteral": 4239,
      "Failure": 4240,
      "Ovarian": 4241,
      "TNF": 4242,
      "Tobacco": 4243,
      "availa": 4244,
      "hemithorax": 4245,
      "synovial": 4246,
      "rhonchi": 4247,
      "available": 4248,
      "Atelectasis": 4249,
      "Acc": 4250,
      "Lumb": 4251,
      "She": 4252,
      "ful": 4253,
      "##ire": 4254,
      "##ove": 4255,
      "##omyc": 4256,
      "above": 4257,
      "##neumothorax": 4258,
      "pneumon": 4259,
      "feet": 4260,
      "Implant": 4261,
      "Cardiomy": 4262,
      "##entricular": 4263,
      "protected": 4264,
      "pattern": 4265,
      "hydrop": 4266,
      "Scoliosis": 4267,
      "made": 4268,
      "lingular": 4269,
      "shadows": 4270,
      "obscured": 4271,
      "subdiaphragmatic": 4272,
      "fully": 4273,
      "Implantable": 4274,
      "Cardiomyopathy": 4275,
      "hydropneumothorax": 4276,
      "29": 4277,
      "38": 4278,
      "59": 4279,
      "Basilar": 4280,
      "Ca": 4281,
      "Cache": 4282,
      "Eight": 4283,
      "HT": 4284,
      "Hom": 4285,
      "Men": 4286,
      "Mit": 4287,
      "Mus": 4288,
      "Neur": 4289,
      "Nec": 4290,
      "PM": 4291,
      "Park": 4292,
      "Pseu": 4293,
      "Rap": 4294,
      "Using": 4295,
      "cutaneous": 4296,
      "fal": 4297,
      "gener": 4298,
      "hoar": 4299,
      "hicc": 4300,
      "lost": 4301,
      "pp": 4302,
      "pulmonic": 4303,
      "sides": 4304,
      "une": 4305,
      "vs": 4306,
      "wounds": 4307,
      "##ctic": 4308,
      "##cision": 4309,
      "##cosity": 4310,
      "##ago": 4311,
      "##tment": 4312,
      "##giving": 4313,
      "##bag": 4314,
      "##oper": 4315,
      "##oym": 4316,
      "##uis": 4317,
      "##morrh": 4318,
      "##molar": 4319,
      "##rot": 4320,
      "##ported": 4321,
      "##xplain": 4322,
      "##sgiving": 4323,
      "##lation": 4324,
      "##ltoid": 4325,
      "##went": 4326,
      "##ks": 4327,
      "##kines": 4328,
      "##ventricular": 4329,
      "instance": 4330,
      "##tigo": 4331,
      "##titis": 4332,
      "##onas": 4333,
      "##ontin": 4334,
      "##ulitis": 4335,
      "anus": 4336,
      "##urisy": 4337,
      "##osmolar": 4338,
      "ablation": 4339,
      "##ceiving": 4340,
      "##ocytic": 4341,
      "##olester": 4342,
      "##gestive": 4343,
      "##ystitis": 4344,
      "suggestion": 4345,
      "former": 4346,
      "depl": 4347,
      "deltoid": 4348,
      "perfusion": 4349,
      "##utches": 4350,
      "##othache": 4351,
      "##icarditis": 4352,
      "outn": 4353,
      "seiz": 4354,
      "##eless": 4355,
      "receiving": 4356,
      "airbag": 4357,
      "##athing": 4358,
      "state": 4359,
      "##ucasia": 4360,
      "##owing": 4361,
      "hyperosmolar": 4362,
      "bet": 4363,
      "rib5": 4364,
      "acqu": 4365,
      "##obin": 4366,
      "cholester": 4367,
      "lymphocytic": 4368,
      "shoulders": 4369,
      "##unicable": 4370,
      "lipase": 4371,
      "ventilation": 4372,
      "tubal": 4373,
      "radiographs": 4374,
      "##domonas": 4375,
      "myotomy": 4376,
      "myoper": 4377,
      "postmen": 4378,
      "hemogl": 4379,
      "Hypervis": 4380,
      "cervicalgia": 4381,
      "##ups": 4382,
      "##alectomy": 4383,
      "##ancy": 4384,
      "Alveolar": 4385,
      "cellulitis": 4386,
      "Unremarkable": 4387,
      "Aspiration": 4388,
      "Thyro": 4389,
      "Thank": 4390,
      "underwent": 4391,
      "Congestive": 4392,
      "growing": 4393,
      "Breathing": 4394,
      "bruis": 4395,
      "ambul": 4396,
      "rhinitis": 4397,
      "crutches": 4398,
      "soreness": 4399,
      "pregnancy": 4400,
      "exacerbations": 4401,
      "Complaining": 4402,
      "cholecystitis": 4403,
      "relative": 4404,
      "##inson": 4405,
      "Scrot": 4406,
      "early": 4407,
      "Pleurisy": 4408,
      "14th": 4409,
      "Hemorrh": 4410,
      "hypoinflation": 4411,
      "Diagnosed": 4412,
      "film": 4413,
      "dyskines": 4414,
      "immunosuppression": 4415,
      "immunosuppressive": 4416,
      "rotation": 4417,
      "swallowing": 4418,
      "adrenalectomy": 4419,
      "admitted": 4420,
      "cardioversion": 4421,
      "Collision": 4422,
      "chemotherapy": 4423,
      "communicable": 4424,
      "transported": 4425,
      "supraventricular": 4426,
      "Headaches": 4427,
      "Vertigo": 4428,
      "Examination": 4429,
      "Incontin": 4430,
      "refle": 4431,
      "walks": 4432,
      "##seness": 4433,
      "hypoventilation": 4434,
      "circumcision": 4435,
      "metabolic": 4436,
      "Toothache": 4437,
      "issues": 4438,
      "pretransplant": 4439,
      "Lumbago": 4440,
      "Caucasia": 4441,
      "Cachectic": 4442,
      "HTN": 4443,
      "Homeless": 4444,
      "Menopausal": 4445,
      "Mitomyopathy": 4446,
      "Muscle": 4447,
      "Neuropathy": 4448,
      "Neck": 4449,
      "PMale": 4450,
      "Parkinson": 4451,
      "Pseudomonas": 4452,
      "Rapid": 4453,
      "false": 4454,
      "hoarseness": 4455,
      "hiccups": 4456,
      "ppd": 4457,
      "unexplain": 4458,
      "##oyment": 4459,
      "deployment": 4460,
      "seizures": 4461,
      "acquired": 4462,
      "cholesterol": 4463,
      "myopericarditis": 4464,
      "postmenopausal": 4465,
      "hemoglobin": 4466,
      "Hyperviscosity": 4467,
      "Thyroid": 4468,
      "Thanksgiving": 4469,
      "bruising": 4470,
      "ambulance": 4471,
      "Scrotal": 4472,
      "Hemorrhage": 4473,
      "dyskinesia": 4474,
      "Incontinence": 4475,
      "Caucasian": 4476,
      "unexplained": 4477,
      "64": 4478,
      "Bibasilar": 4479,
      "ben": 4480,
      "bow": 4481,
      "fragm": 4482,
      "hab": 4483,
      "iron": 4484,
      "palp": 4485,
      "tire": 4486,
      "##cal": 4487,
      "##ault": 4488,
      "##omening": 4489,
      "ormal": 4490,
      "anemia": 4491,
      "##entu": 4492,
      "##tinomyc": 4493,
      "rib9": 4494,
      "exaggerated": 4495,
      "shaped": 4496,
      "##verter": 4497,
      "##odular": 4498,
      "parotid": 4499,
      "accentu": 4500,
      "overlap": 4501,
      "recurrent": 4502,
      "Hyperinfl": 4503,
      "myelomening": 4504,
      "Nodular": 4505,
      "Actinomyc": 4506,
      "##pecific": 4507,
      "##ocele": 4508,
      "Cardioverter": 4509,
      "wedging": 4510,
      "Assault": 4511,
      "overlies": 4512,
      "Defibrillator": 4513,
      "Without": 4514,
      "times": 4515,
      "Accident": 4516,
      "pneumonias": 4517,
      "bowel": 4518,
      "habitus": 4519,
      "palpation": 4520,
      "myelomeningocele": 4521,
      "Actinomyces": 4522,
      "8th": 4523,
      "Oste": 4524,
      "Ster": 4525,
      "aged": 4526,
      "##inant": 4527,
      "##vex": 4528,
      "##irst": 4529,
      "bullet": 4530,
      "cancerind": 4531,
      "##idental": 4532,
      "##abg": 4533,
      "##ectus": 4534,
      "caval": 4535,
      "nonspecific": 4536,
      "reflect": 4537,
      "Sternotomy": 4538,
      "AP": 4539,
      "cabg": 4540,
      "dual": 4541,
      "##operitone": 4542,
      "##ry": 4543,
      "##firm": 4544,
      "##inear": 4545,
      "##enesc": 4546,
      "calib": 4547,
      "pneumoperitone": 4548,
      "##omach": 4549,
      "stomach": 4550,
      "evaluated": 4551,
      "subtle": 4552,
      "predom": 4553,
      "Hyperex": 4554,
      "Confirm": 4555,
      "However": 4556,
      "carina": 4557,
      "rotated": 4558,
      "projected": 4559,
      "##calcified": 4560,
      "##enescent": 4561,
      "caliber": 4562,
      "pneumoperitoneum": 4563,
      "Diffuse": 4564,
      "Pres": 4565,
      "first": 4566,
      "being": 4567,
      "destr": 4568,
      "humerus": 4569,
      "unfolded": 4570,
      "compartment": 4571,
      "recommended": 4572,
      "generator": 4573,
      "Given": 4574,
      "Sided": 4575,
      "##oatr": 4576,
      "##side": 4577,
      "##nse": 4578,
      "##itary": 4579,
      "Tracheal": 4580,
      "cavoatr": 4581,
      "cavitary": 4582,
      "Calcinosis": 4583,
      "suprahilar": 4584,
      "accentuated": 4585,
      "##inantly": 4586,
      "predominantly": 4587,
      "Presence": 4588,
      "cavoatrial": 4589,
      "Fra": 4590,
      "Multilevel": 4591,
      "Over": 4592,
      "glen": 4593,
      "ill": 4594,
      "lord": 4595,
      "narrow": 4596,
      "numerous": 4597,
      "pl": 4598,
      "senescent": 4599,
      "##rete": 4600,
      "##umatic": 4601,
      "##idence": 4602,
      "##ilinear": 4603,
      "infra": 4604,
      "conflu": 4605,
      "Evidence": 4606,
      "redemonstration": 4607,
      "Acromioclavicular": 4608,
      "demonstrates": 4609,
      "discrete": 4610,
      "##urvilinear": 4611,
      "subcutaneous": 4612,
      "developed": 4613,
      "hyperlucent": 4614,
      "Emphysematous": 4615,
      "benign": 4616,
      "cortic": 4617,
      "##we": 4618,
      "##ortion": 4619,
      "convex": 4620,
      "calcific": 4621,
      "outside": 4622,
      "recess": 4623,
      "like": 4624,
      "radiographic": 4625,
      "dextrocurvature": 4626,
      "concerning": 4627,
      "probably": 4628,
      "engorged": 4629,
      "##idering": 4630,
      "fragment": 4631,
      "Hyperinflated": 4632,
      "Hyperexpanded": 4633,
      "plat": 4634,
      "Bl": 4635,
      "Large": 4636,
      "Question": 4637,
      "fib": 4638,
      "##gos": 4639,
      "##rip": 4640,
      "##ygos": 4641,
      "##zygos": 4642,
      "##ones": 4643,
      "##aracter": 4644,
      "##oured": 4645,
      "##atum": 4646,
      "##ronodular": 4647,
      "##inder": 4648,
      "very": 4649,
      "rib8": 4650,
      "##omple": 4651,
      "character": 4652,
      "tubing": 4653,
      "incidental": 4654,
      "incomple": 4655,
      "##chondral": 4656,
      "Postsurgical": 4657,
      "lumen": 4658,
      "contoured": 4659,
      "descrip": 4660,
      "hyperlucency": 4661,
      "histoplasmosis": 4662,
      "Confirmed": 4663,
      "lordotic": 4664,
      "Blun": 4665,
      "fibronodular": 4666,
      "description": 4667,
      "Red": 4668,
      "Sub": 4669,
      "gas": 4670,
      "os": 4671,
      "##tu": 4672,
      "ortu": 4673,
      "##oses": 4674,
      "dish": 4675,
      "##olateral": 4676,
      "##tex": 4677,
      "##tinct": 4678,
      "##traumatic": 4679,
      "diagnoses": 4680,
      "defin": 4681,
      "##unne": 4682,
      "shunt": 4683,
      "posttraumatic": 4684,
      "diffusely": 4685,
      "posteriorly": 4686,
      "angles": 4687,
      "regions": 4688,
      "views": 4689,
      "Additionally": 4690,
      "images": 4691,
      "incisions": 4692,
      "resolved": 4693,
      "convexity": 4694,
      "Ar": 4695,
      "Gr": 4696,
      "curvilinear": 4697,
      "pectus": 4698,
      "##ces": 4699,
      "##av": 4700,
      "anter": 4701,
      "##elike": 4702,
      "obvious": 4703,
      "##uced": 4704,
      "rightward": 4705,
      "dislocations": 4706,
      "Tracheostomy": 4707,
      "atypical": 4708,
      "noncalcified": 4709,
      "needed": 4710,
      "termin": 4711,
      "depend": 4712,
      "assessed": 4713,
      "measures": 4714,
      "Considering": 4715,
      "overlie": 4716,
      "Slightly": 4717,
      "platelike": 4718,
      "Grossly": 4719,
      "Biapical": 4720,
      "atele": 4721,
      "border": 4722,
      "ly": 4723,
      "portion": 4724,
      "tunne": 4725,
      "##oral": 4726,
      "##istinct": 4727,
      "contex": 4728,
      "degen": 4729,
      "periphe": 4730,
      "loops": 4731,
      "poster": 4732,
      "Extensive": 4733,
      "Problem": 4734,
      "sclerotic": 4735,
      "complete": 4736,
      "tuberculous": 4737,
      "symmetric": 4738,
      "pelvis": 4739,
      "resolution": 4740,
      "prosthesis": 4741,
      "destructive": 4742,
      "Overall": 4743,
      "infrahilar": 4744,
      "confluent": 4745,
      "incompletely": 4746,
      "Blunting": 4747,
      "atelectatic": 4748,
      "tunneled": 4749,
      "context": 4750,
      "periphery": 4751,
      "Wid": 4752,
      "azygos": 4753,
      "differen": 4754,
      "foc": 4755,
      "flowing": 4756,
      "ij": 4757,
      "##ture": 4758,
      "##gr": 4759,
      "suture": 4760,
      "thir": 4761,
      "confirming": 4762,
      "retra": 4763,
      "consolid": 4764,
      "##ignment": 4765,
      "##anges": 4766,
      "clinically": 4767,
      "Changes": 4768,
      "reduced": 4769,
      "Abnormalities": 4770,
      "Severe": 4771,
      "sulci": 4772,
      "projects": 4773,
      "Osteop": 4774,
      "third": 4775,
      "Correl": 4776,
      "Numerous": 4777,
      "On": 4778,
      "basal": 4779,
      "fiss": 4780,
      "full": 4781,
      "how": 4782,
      "##clear": 4783,
      "##larged": 4784,
      "##tila": 4785,
      "indistinct": 4786,
      "ofthing": 4787,
      "##ulated": 4788,
      "anch": 4789,
      "thin": 4790,
      "##ubitus": 4791,
      "rib1": 4792,
      "##obable": 4793,
      "positioning": 4794,
      "##coid": 4795,
      "unremark": 4796,
      "unclear": 4797,
      "cardiophrenic": 4798,
      "allowing": 4799,
      "10th": 4800,
      "##abl": 4801,
      "pleura": 4802,
      "Probable": 4803,
      "remainder": 4804,
      "fourth": 4805,
      "marginal": 4806,
      "margination": 4807,
      "betwe": 4808,
      "Fractures": 4809,
      "Redemonstration": 4810,
      "posterolateral": 4811,
      "differences": 4812,
      "however": 4813,
      "unremarkabl": 4814,
      "between": 4815,
      "Again": 4816,
      "Cost": 4817,
      "Ere": 4818,
      "Focal": 4819,
      "eti": 4820,
      "lar": 4821,
      "##sed": 4822,
      "##ally": 4823,
      "prim": 4824,
      "##arinal": 4825,
      "##eding": 4826,
      "##gest": 4827,
      "obl": 4828,
      "hyperost": 4829,
      "##tebral": 4830,
      "height": 4831,
      "##thritic": 4832,
      "radiopa": 4833,
      "centrally": 4834,
      "##ogastric": 4835,
      "visual": 4836,
      "alignment": 4837,
      "Calcification": 4838,
      "dextro": 4839,
      "implants": 4840,
      "correlation": 4841,
      "better": 4842,
      "narrowing": 4843,
      "cortical": 4844,
      "Arthritic": 4845,
      "Costophrenic": 4846,
      "largest": 4847,
      "hyperostosis": 4848,
      "radiopaque": 4849,
      "4th": 4850,
      "Apical": 4851,
      "Or": 4852,
      "Old": 4853,
      "cor": 4854,
      "fif": 4855,
      "sit": 4856,
      "tr": 4857,
      "##oh": 4858,
      "##ates": 4859,
      "##olitis": 4860,
      "##seus": 4861,
      "consider": 4862,
      "structure": 4863,
      "exce": 4864,
      "splen": 4865,
      "Three": 4866,
      "Dense": 4867,
      "excav": 4868,
      "Seque": 4869,
      "##umeral": 4870,
      "bronchiolitis": 4871,
      "colonic": 4872,
      "costochondral": 4873,
      "axillary": 4874,
      "margin": 4875,
      "histoplasmoma": 4876,
      "relatively": 4877,
      "glenoh": 4878,
      "osseus": 4879,
      "ortuous": 4880,
      "definitive": 4881,
      "terminating": 4882,
      "Widened": 4883,
      "retraction": 4884,
      "Correlate": 4885,
      "fullness": 4886,
      "anchor": 4887,
      "fifth": 4888,
      "situ": 4889,
      "splenic": 4890,
      "excavatum": 4891,
      "glenohumeral": 4892,
      "PA": 4893,
      "do": 4894,
      "sti": 4895,
      "sing": 4896,
      "zones": 4897,
      "##ipe": 4898,
      "##pinal": 4899,
      "##leural": 4900,
      "##ison": 4901,
      "Note": 4902,
      "##oliotic": 4903,
      "feeding": 4904,
      "Impro": 4905,
      "stripe": 4906,
      "expected": 4907,
      "##plasty": 4908,
      "spin": 4909,
      "##certain": 4910,
      "uncertain": 4911,
      "addition": 4912,
      "epig": 4913,
      "##anced": 4914,
      "##ophyte": 4915,
      "##ormity": 4916,
      "clar": 4917,
      "suspected": 4918,
      "graf": 4919,
      "Healed": 4920,
      "Lower": 4921,
      "processes": 4922,
      "kyphotic": 4923,
      "cartila": 4924,
      "obscuring": 4925,
      "Enlarged": 4926,
      "partly": 4927,
      "levocurvature": 4928,
      "developing": 4929,
      "development": 4930,
      "comparison": 4931,
      "prostheses": 4932,
      "Osteopenia": 4933,
      "etiology": 4934,
      "single": 4935,
      "Bul": 4936,
      "Catheter": 4937,
      "IVC": 4938,
      "Lumbar": 4939,
      "Vague": 4940,
      "comb": 4941,
      "difficult": 4942,
      "fung": 4943,
      "hel": 4944,
      "lay": 4945,
      "tips": 4946,
      "yper": 4947,
      "##nular": 4948,
      "##ace": 4949,
      "##mul": 4950,
      "##ping": 4951,
      "##pond": 4952,
      "##pful": 4953,
      "##sist": 4954,
      "##sened": 4955,
      "##lucent": 4956,
      "##face": 4957,
      "these": 4958,
      "##aspinal": 4959,
      "ortic": 4960,
      "##nsity": 4961,
      "##ering": 4962,
      "annular": 4963,
      "##respond": 4964,
      "##idu": 4965,
      "calcifie": 4966,
      "deg": 4967,
      "persist": 4968,
      "obli": 4969,
      "bronchitic": 4970,
      "hypera": 4971,
      "##tially": 4972,
      "##osterior": 4973,
      "interposition": 4974,
      "##verse": 4975,
      "paraspinal": 4976,
      "Eventration": 4977,
      "##oposterior": 4978,
      "Cho": 4979,
      "cavity": 4980,
      "reduction": 4981,
      "Calcif": 4982,
      "Scarring": 4983,
      "ovoid": 4984,
      "width": 4985,
      "decubitus": 4986,
      "Tortuosity": 4987,
      "transverse": 4988,
      "patholog": 4989,
      "##aggeration": 4990,
      "incidentally": 4991,
      "anteroposterior": 4992,
      "rib10": 4993,
      "correspond": 4994,
      "except": 4995,
      "Improved": 4996,
      "combination": 4997,
      "fungal": 4998,
      "helpful": 4999,
      "layering": 5000,
      "Rema": 5001,
      "Sign": 5002,
      "Techn": 5003,
      "gall": 5004,
      "pass": 5005,
      "ta": 5006,
      "varian": 5007,
      "##ile": 5008,
      "##ier": 5009,
      "##of": 5010,
      "##roscle": 5011,
      "inlet": 5012,
      "index": 5013,
      "theroscle": 5014,
      "##astr": 5015,
      "##asogastric": 5016,
      "##nsile": 5017,
      "##istic": 5018,
      "contain": 5019,
      "##ification": 5020,
      "discoid": 5021,
      "##ctly": 5022,
      "##ily": 5023,
      "##ibronch": 5024,
      "##ticip": 5025,
      "peribronch": 5026,
      "##pansile": 5027,
      "##uted": 5028,
      "collap": 5029,
      "scoliotic": 5030,
      "expansile": 5031,
      "positional": 5032,
      "thoracotomy": 5033,
      "Exaggerated": 5034,
      "lobulated": 5035,
      "Tracheobronchial": 5036,
      "nond": 5037,
      "Unfold": 5038,
      "ell": 5039,
      "extremely": 5040,
      "Anticip": 5041,
      "Prominence": 5042,
      "artifacts": 5043,
      "cuffing": 5044,
      "inferiorly": 5045,
      "Deformity": 5046,
      "femoral": 5047,
      "time": 5048,
      "glenoid": 5049,
      "Questionable": 5050,
      "characteristic": 5051,
      "fissural": 5052,
      "grafting": 5053,
      "hyperaerated": 5054,
      "indexing": 5055,
      "peribronchial": 5056,
      "collapsed": 5057,
      "Anticipated": 5058,
      "Bandlike": 5059,
      "For": 5060,
      "Hia": 5061,
      "Kyph": 5062,
      "L1": 5063,
      "Ma": 5064,
      "Pectus": 5065,
      "Su": 5066,
      "bacterial": 5067,
      "creased": 5068,
      "cop": 5069,
      "go": 5070,
      "hard": 5071,
      "jux": 5072,
      "larg": 5073,
      "pad": 5074,
      "##ten": 5075,
      "##tus": 5076,
      "##gression": 5077,
      "##uation": 5078,
      "##em": 5079,
      "##mating": 5080,
      "##hind": 5081,
      "##ware": 5082,
      "inte": 5083,
      "##tire": 5084,
      "##tile": 5085,
      "##tium": 5086,
      "##read": 5087,
      "##reasing": 5088,
      "##esm": 5089,
      "their": 5090,
      "##enic": 5091,
      "contin": 5092,
      "##ctum": 5093,
      "##teration": 5094,
      "short": 5095,
      "##tracheal": 5096,
      "set": 5097,
      "progression": 5098,
      "rectum": 5099,
      "entire": 5100,
      "behind": 5101,
      "rib4": 5102,
      "exaggeration": 5103,
      "##tahilar": 5104,
      "interstitium": 5105,
      "##roplasty": 5106,
      "hiatus": 5107,
      "External": 5108,
      "detail": 5109,
      "residu": 5110,
      "atten": 5111,
      "inspiratory": 5112,
      "included": 5113,
      "Inter": 5114,
      "Intact": 5115,
      "underpen": 5116,
      "osteopenic": 5117,
      "Contrast": 5118,
      "indicative": 5119,
      "coarsened": 5120,
      "##ophytes": 5121,
      "syndesm": 5122,
      "##rexpanded": 5123,
      "closure": 5124,
      "minimally": 5125,
      "Density": 5126,
      "##lecystectomy": 5127,
      "approximating": 5128,
      "projectile": 5129,
      "obscures": 5130,
      "maintained": 5131,
      "##foot": 5132,
      "Resol": 5133,
      "Removal": 5134,
      "Airspace": 5135,
      "prosthetic": 5136,
      "films": 5137,
      "overlapping": 5138,
      "recesses": 5139,
      "focus": 5140,
      "##grity": 5141,
      "primary": 5142,
      "oblique": 5143,
      "stimul": 5144,
      "clarity": 5145,
      "obliteration": 5146,
      "Cholecystectomy": 5147,
      "Calcific": 5148,
      "Significant": 5149,
      "variant": 5150,
      "Hiatal": 5151,
      "Major": 5152,
      "Sugges": 5153,
      "copd": 5154,
      "hardware": 5155,
      "juxtahilar": 5156,
      "larger": 5157,
      "pads": 5158,
      "integrity": 5159,
      "attenuation": 5160,
      "stimulator": 5161,
      "Dex": 5162,
      "Mark": 5163,
      "Par": 5164,
      "Scle": 5165,
      "either": 5166,
      "gastric": 5167,
      "je": 5168,
      "po": 5169,
      "##nom": 5170,
      "##bony": 5171,
      "##lic": 5172,
      "##wel": 5173,
      "##vanced": 5174,
      "##timal": 5175,
      "##rease": 5176,
      "##onodular": 5177,
      "##inatum": 5178,
      "##orly": 5179,
      "##edic": 5180,
      "##iable": 5181,
      "thora": 5182,
      "##phoid": 5183,
      "##pering": 5184,
      "notes": 5185,
      "##atively": 5186,
      "enough": 5187,
      "##ellof": 5188,
      "whether": 5189,
      "##obular": 5190,
      "notif": 5191,
      "interface": 5192,
      "elements": 5193,
      "subchondral": 5194,
      "##stitial": 5195,
      "subpleural": 5196,
      "##trostomy": 5197,
      "uncalcified": 5198,
      "backgr": 5199,
      "##optimal": 5200,
      "##ticulonodular": 5201,
      "showing": 5202,
      "Ind": 5203,
      "cavitation": 5204,
      "Recommend": 5205,
      "superfic": 5206,
      "patellof": 5207,
      "crowded": 5208,
      "dire": 5209,
      "clavicles": 5210,
      "scars": 5211,
      "carinatum": 5212,
      "stability": 5213,
      "subcarinal": 5214,
      "artifactual": 5215,
      "margins": 5216,
      "greatest": 5217,
      "Clips": 5218,
      "Vertebral": 5219,
      "markedly": 5220,
      "Granulomas": 5221,
      "recommendation": 5222,
      "destruction": 5223,
      "Fracture": 5224,
      "corticated": 5225,
      "Subtle": 5226,
      "gastrostomy": 5227,
      "portions": 5228,
      "degenerated": 5229,
      "degeneration": 5230,
      "foci": 5231,
      "consolidative": 5232,
      "Sequelae": 5233,
      "epigastr": 5234,
      "cartilages": 5235,
      "Catheters": 5236,
      "yperlucent": 5237,
      "Technical": 5238,
      "gallst": 5239,
      "tapering": 5240,
      "##emoral": 5241,
      "Marked": 5242,
      "jewel": 5243,
      "poorly": 5244,
      "thorabony": 5245,
      "background": 5246,
      "superficial": 5247,
      "patellofemoral": 5248,
      "epigastrium": 5249,
      "jewelry": 5250,
      "Cr": 5251,
      "DI": 5252,
      "Fore": 5253,
      "Ly": 5254,
      "Ling": 5255,
      "Rel": 5256,
      "Tub": 5257,
      "Volum": 5258,
      "ans": 5259,
      "biliary": 5260,
      "doc": 5261,
      "l1": 5262,
      "nasogastric": 5263,
      "ove": 5264,
      "pier": 5265,
      "rathe": 5266,
      "smal": 5267,
      "satisfactory": 5268,
      "site": 5269,
      "te": 5270,
      "tom": 5271,
      "yperex": 5272,
      "##numer": 5273,
      "##dgment": 5274,
      "##iter": 5275,
      "##cting": 5276,
      "##cings": 5277,
      "##clavicular": 5278,
      "##crib": 5279,
      "##carinal": 5280,
      "##otracheal": 5281,
      "##ued": 5282,
      "##uous": 5283,
      "##mark": 5284,
      "##xation": 5285,
      "##sification": 5286,
      "##scrib": 5287,
      "##SH": 5288,
      "##rew": 5289,
      "##hesis": 5290,
      "they": 5291,
      "##ician": 5292,
      "anothe": 5293,
      "##though": 5294,
      "##ngular": 5295,
      "##iangular": 5296,
      "calc": 5297,
      "##phrenic": 5298,
      "##olist": 5299,
      "##teric": 5300,
      "localized": 5301,
      "remark": 5302,
      "screw": 5303,
      "fav": 5304,
      "##ticularly": 5305,
      "access": 5306,
      "computed": 5307,
      "##unt": 5308,
      "sublu": 5309,
      "subphrenic": 5310,
      "##ographic": 5311,
      "arterial": 5312,
      "##vertebral": 5313,
      "Abdomen": 5314,
      "##dense": 5315,
      "testes": 5316,
      "##iport": 5317,
      "hemothorax": 5318,
      "particularly": 5319,
      "100": 5320,
      "overlo": 5321,
      "phys": 5322,
      "##itical": 5323,
      "mediport": 5324,
      "denser": 5325,
      "##picuous": 5326,
      "Possibly": 5327,
      "##etration": 5328,
      "dime": 5329,
      "##lecting": 5330,
      "required": 5331,
      "prominently": 5332,
      "eart": 5333,
      "stran": 5334,
      "viral": 5335,
      "Enteric": 5336,
      "insert": 5337,
      "diseas": 5338,
      "courses": 5339,
      "judgment": 5340,
      "appreciable": 5341,
      "Incidental": 5342,
      "reflecting": 5343,
      "Within": 5344,
      "##sentially": 5345,
      "hypoventil": 5346,
      "circumscrib": 5347,
      "fragments": 5348,
      "Hyperinflation": 5349,
      "Osteophyte": 5350,
      "reflects": 5351,
      "narrowed": 5352,
      "##wered": 5353,
      "characterization": 5354,
      "ossification": 5355,
      "ortuosity": 5356,
      "definition": 5357,
      "consolidating": 5358,
      "triangular": 5359,
      "Bullet": 5360,
      "pathologies": 5361,
      "corresponds": 5362,
      "therosclerotic": 5363,
      "goiter": 5364,
      "##ready": 5365,
      "continued": 5366,
      "setting": 5367,
      "residuals": 5368,
      "Interstitial": 5369,
      "underpenetration": 5370,
      "Resolution": 5371,
      "recommendations": 5372,
      "DISH": 5373,
      "Foreign": 5374,
      "Volume": 5375,
      "answered": 5376,
      "overexpanded": 5377,
      "rather": 5378,
      "smaller": 5379,
      "##numerable": 5380,
      "another": 5381,
      "##olisthesis": 5382,
      "remarkable": 5383,
      "subluxation": 5384,
      "overload": 5385,
      "dimension": 5386,
      "circumscribed": 5387,
      "ossifications": 5388,
      "3r": 5389,
      "IV": 5390,
      "Less": 5391,
      "Lucency": 5392,
      "Pa": 5393,
      "Rot": 5394,
      "Sp": 5395,
      "Very": 5396,
      "Wed": 5397,
      "bes": 5398,
      "case": 5399,
      "egenerative": 5400,
      "fle": 5401,
      "hor": 5402,
      "lucent": 5403,
      "nature": 5404,
      "ser": 5405,
      "tenting": 5406,
      "##natively": 5407,
      "##ahilar": 5408,
      "##gill": 5409,
      "##emonstra": 5410,
      "##ffic": 5411,
      "##RI": 5412,
      "innom": 5413,
      "##ontal": 5414,
      "##inable": 5415,
      "##ulation": 5416,
      "##errant": 5417,
      "Nodul": 5418,
      "##raded": 5419,
      "##ostic": 5420,
      "##osition": 5421,
      "##umulation": 5422,
      "supp": 5423,
      "suffic": 5424,
      "aberrant": 5425,
      "##atures": 5426,
      "##ocon": 5427,
      "##iliac": 5428,
      "asper": 5429,
      "absent": 5430,
      "features": 5431,
      "##ured": 5432,
      "##izontal": 5433,
      "reticulonodular": 5434,
      "##ieved": 5435,
      "presentation": 5436,
      "vertebroplasty": 5437,
      "rib3": 5438,
      "formations": 5439,
      "heav": 5440,
      "midab": 5441,
      "##ored": 5442,
      "vasculatures": 5443,
      "suboptimal": 5444,
      "mentions": 5445,
      "##inflated": 5446,
      "determinable": 5447,
      "##trictive": 5448,
      "##troscoliosis": 5449,
      "##pection": 5450,
      "unilateral": 5451,
      "##luder": 5452,
      "all": 5453,
      "chronically": 5454,
      "##odystrophy": 5455,
      "parahilar": 5456,
      "followup": 5457,
      "account": 5458,
      "accumulation": 5459,
      "osteodystrophy": 5460,
      "advanced": 5461,
      "restrictive": 5462,
      "reports": 5463,
      "inspection": 5464,
      "All": 5465,
      "Innumerable": 5466,
      "granulomata": 5467,
      "persistently": 5468,
      "endotracheal": 5469,
      "##ondral": 5470,
      "superiorly": 5471,
      "irspace": 5472,
      "##oplas": 5473,
      "occluder": 5474,
      "technically": 5475,
      "dependent": 5476,
      "viewing": 5477,
      "something": 5478,
      "endplates": 5479,
      "rotatory": 5480,
      "alternatively": 5481,
      "remaining": 5482,
      "coursing": 5483,
      "sixth": 5484,
      "severely": 5485,
      "sacroiliac": 5486,
      "resolving": 5487,
      "circular": 5488,
      "review": 5489,
      "walled": 5490,
      "bene": 5491,
      "Confirmation": 5492,
      "Overlying": 5493,
      "confluence": 5494,
      "Subsegmental": 5495,
      "terminates": 5496,
      "fissures": 5497,
      "oblong": 5498,
      "Sequela": 5499,
      "degree": 5500,
      "degraded": 5501,
      "Remainder": 5502,
      "Unfolded": 5503,
      "Kyphotic": 5504,
      "syndesmophytes": 5505,
      "Suggests": 5506,
      "Dextroscoliosis": 5507,
      "Indwelling": 5508,
      "directly": 5509,
      "favored": 5510,
      "3rd": 5511,
      "Pacemaker": 5512,
      "Rotated": 5513,
      "Spine": 5514,
      "Wedge": 5515,
      "besides": 5516,
      "flex": 5517,
      "horizontal": 5518,
      "##gilloma": 5519,
      "##emonstrated": 5520,
      "innominate": 5521,
      "Nodules": 5522,
      "suppor": 5523,
      "sufficient": 5524,
      "aspergilloma": 5525,
      "midabdomen": 5526,
      "54": 5527,
      "Ap": 5528,
      "App": 5529,
      "Azygos": 5530,
      "Ct": 5531,
      "Cicatrix": 5532,
      "Curvilinear": 5533,
      "Di": 5534,
      "From": 5535,
      "Frontal": 5536,
      "Ill": 5537,
      "L3": 5538,
      "Pla": 5539,
      "Ret": 5540,
      "Round": 5541,
      "Stra": 5542,
      "Stern": 5543,
      "Uns": 5544,
      "Vp": 5545,
      "ace": 5546,
      "bas": 5547,
      "bib": 5548,
      "bones": 5549,
      "ct": 5550,
      "cres": 5551,
      "corre": 5552,
      "dated": 5553,
      "dedic": 5554,
      "ef": 5555,
      "ge": 5556,
      "her": 5557,
      "kil": 5558,
      "lucenc": 5559,
      "pot": 5560,
      "rregular": 5561,
      "siz": 5562,
      "syste": 5563,
      "surr": 5564,
      "vary": 5565,
      "##cen": 5566,
      "##ane": 5567,
      "##ty": 5568,
      "##tention": 5569,
      "##tution": 5570,
      "##gone": 5571,
      "##bdomen": 5572,
      "##bladder": 5573,
      "##ovol": 5574,
      "##ms": 5575,
      "##rural": 5576,
      "##rup": 5577,
      "##hap": 5578,
      "##hanced": 5579,
      "##ption": 5580,
      "##lot": 5581,
      "##lob": 5582,
      "##fec": 5583,
      "##voscoliosis": 5584,
      "insti": 5585,
      "##tise": 5586,
      "##rel": 5587,
      "##rehe": 5588,
      "##art": 5589,
      "##artment": 5590,
      "##ining": 5591,
      "##ason": 5592,
      "##igin": 5593,
      "##ults": 5594,
      "##ultif": 5595,
      "origin": 5596,
      "##isplaced": 5597,
      "##icomp": 5598,
      "##ential": 5599,
      "anat": 5600,
      "##edia": 5601,
      "therefore": 5602,
      "##earance": 5603,
      "##iagn": 5604,
      "##iabdomen": 5605,
      "##ument": 5606,
      "##ained": 5607,
      "able": 5608,
      "##chang": 5609,
      "They": 5610,
      "##iform": 5611,
      "##lay": 5612,
      "##ideration": 5613,
      "##occ": 5614,
      "##ocrural": 5615,
      "##ils": 5616,
      "inform": 5617,
      "##utation": 5618,
      "##othoracic": 5619,
      "outfl": 5620,
      "proper": 5621,
      "notably": 5622,
      "conside": 5623,
      "conspicuous": 5624,
      "consideration": 5625,
      "evidenc": 5626,
      "articul": 5627,
      "metal": 5628,
      "##ower": 5629,
      "screening": 5630,
      "bronchop": 5631,
      "##ottic": 5632,
      "comprehe": 5633,
      "thickness": 5634,
      "midfoot": 5635,
      "leftward": 5636,
      "##tage": 5637,
      "##tabul": 5638,
      "spur": 5639,
      "interim": 5640,
      "interlob": 5641,
      "radiode": 5642,
      "midlower": 5643,
      "collecting": 5644,
      "mentioning": 5645,
      "##ography": 5646,
      "changed": 5647,
      "essentially": 5648,
      "already": 5649,
      "prevertebral": 5650,
      "posture": 5651,
      "##odiaphragmatic": 5652,
      "##ounding": 5653,
      "hemiabdomen": 5654,
      "affec": 5655,
      "overlay": 5656,
      "kidneys": 5657,
      "rest": 5658,
      "reside": 5659,
      "heads": 5660,
      "insertion": 5661,
      "Chondral": 5662,
      "Also": 5663,
      "Although": 5664,
      "embolization": 5665,
      "undergone": 5666,
      "Congenital": 5667,
      "costodiaphragmatic": 5668,
      "gross": 5669,
      "distortion": 5670,
      "immedia": 5671,
      "definitely": 5672,
      "Pericardial": 5673,
      "fold": 5674,
      "haziness": 5675,
      "approach": 5676,
      "And": 5677,
      "certainty": 5678,
      "Please": 5679,
      "common": 5680,
      "completely": 5681,
      "filled": 5682,
      "globular": 5683,
      "retrocrural": 5684,
      "Decubitus": 5685,
      "mortise": 5686,
      "##immer": 5687,
      "exclusion": 5688,
      "imaged": 5689,
      "decrease": 5690,
      "Radiographically": 5691,
      "##ordial": 5692,
      "supine": 5693,
      "warranted": 5694,
      "Defined": 5695,
      "Levoscoliosis": 5696,
      "coils": 5697,
      "amputation": 5698,
      "Leukocytosis": 5699,
      "Peripherally": 5700,
      "##glottic": 5701,
      "generally": 5702,
      "Hyperexpansion": 5703,
      "infracarinal": 5704,
      "characterized": 5705,
      "Redemonstrated": 5706,
      "anterolateral": 5707,
      "Osteoporosis": 5708,
      "Calcifications": 5709,
      "tricomp": 5710,
      "definitively": 5711,
      "epiglot": 5712,
      "cartilage": 5713,
      "Bullae": 5714,
      "persistence": 5715,
      "pathologic": 5716,
      "corresponding": 5717,
      "Remaining": 5718,
      "nondisplaced": 5719,
      "nondiagn": 5720,
      "Unfolding": 5721,
      "shortening": 5722,
      "entirely": 5723,
      "Significantly": 5724,
      "Partially": 5725,
      "Sclerosis": 5726,
      "notification": 5727,
      "gallstones": 5728,
      "Critical": 5729,
      "Lingular": 5730,
      "Relative": 5731,
      "Tube": 5732,
      "document": 5733,
      "tele": 5734,
      "tomography": 5735,
      "yperexpanded": 5736,
      "calcane": 5737,
      "accessory": 5738,
      "##untary": 5739,
      "physician": 5740,
      "hypoventilated": 5741,
      "heavily": 5742,
      "Appearance": 5743,
      "Retained": 5744,
      "Rounded": 5745,
      "Sternum": 5746,
      "acetabul": 5747,
      "bibasal": 5748,
      "crescen": 5749,
      "dedicated": 5750,
      "geographic": 5751,
      "kilovol": 5752,
      "lucencies": 5753,
      "potential": 5754,
      "sizes": 5755,
      "surrounding": 5756,
      "varying": 5757,
      "##tutions": 5758,
      "##ruption": 5759,
      "##haps": 5760,
      "institutions": 5761,
      "##artmental": 5762,
      "##ultifocal": 5763,
      "##changed": 5764,
      "outflow": 5765,
      "considered": 5766,
      "evidenced": 5767,
      "articulation": 5768,
      "metallic": 5769,
      "bronchopleural": 5770,
      "comprehensive": 5771,
      "interlobar": 5772,
      "radiodense": 5773,
      "affecting": 5774,
      "immediately": 5775,
      "tricompartmental": 5776,
      "epiglottis": 5777,
      "nondiagnostic": 5778,
      "documented": 5779,
      "acetabulum": 5780,
      "crescentic": 5781,
      "kilovoltage": 5782,
      "Flowing": 5783,
      "L2": 5784,
      "Mental": 5785,
      "Nasogastric": 5786,
      "ORI": 5787,
      "Pier": 5788,
      "Retr": 5789,
      "Similar": 5790,
      "Senescent": 5791,
      "Taking": 5792,
      "VP": 5793,
      "Wing": 5794,
      "bearing": 5795,
      "cen": 5796,
      "cass": 5797,
      "centr": 5798,
      "dom": 5799,
      "dating": 5800,
      "ere": 5801,
      "egative": 5802,
      "ham": 5803,
      "ic": 5804,
      "linear": 5805,
      "man": 5806,
      "none": 5807,
      "ol": 5808,
      "pne": 5809,
      "pac": 5810,
      "she": 5811,
      "sam": 5812,
      "sarco": 5813,
      "tal": 5814,
      "tib": 5815,
      "tact": 5816,
      "ul": 5817,
      "vol": 5818,
      "##nce": 5819,
      "##del": 5820,
      "##carp": 5821,
      "##aphragm": 5822,
      "##tments": 5823,
      "##gation": 5824,
      "##gma": 5825,
      "##olen": 5826,
      "##ualization": 5827,
      "##udal": 5828,
      "##med": 5829,
      "##rum": 5830,
      "##pat": 5831,
      "##ves": 5832,
      "inves": 5833,
      "##timeter": 5834,
      "##tigation": 5835,
      "indolen": 5836,
      "##artila": 5837,
      "##arily": 5838,
      "##asound": 5839,
      "##igemia": 5840,
      "orac": 5841,
      "orient": 5842,
      "##leol": 5843,
      "##iculated": 5844,
      "##enlarged": 5845,
      "##osac": 5846,
      "##mance": 5847,
      "##culation": 5848,
      "##celes": 5849,
      "##ilated": 5850,
      "##ilobular": 5851,
      "traction": 5852,
      "track": 5853,
      "trabe": 5854,
      "traumatic": 5855,
      "##terbro": 5856,
      "formed": 5857,
      "deposition": 5858,
      "feces": 5859,
      "##ched": 5860,
      "##pared": 5861,
      "cardia": 5862,
      "malleol": 5863,
      "outlin": 5864,
      "##vicothoracic": 5865,
      "confirmation": 5866,
      "considering": 5867,
      "##dering": 5868,
      "scant": 5869,
      "bronchopulmonary": 5870,
      "hyperdense": 5871,
      "##ellar": 5872,
      "##tebroplasty": 5873,
      "plaque": 5874,
      "complic": 5875,
      "midclavicular": 5876,
      "##tabolic": 5877,
      "spiculated": 5878,
      "interspace": 5879,
      "submit": 5880,
      "bulge": 5881,
      "bulla": 5882,
      "##ettes": 5883,
      "loculation": 5884,
      "limitation": 5885,
      "##toceles": 5886,
      "##trasound": 5887,
      "visualization": 5888,
      "postradi": 5889,
      "identify": 5890,
      "lef": 5891,
      "cervicothoracic": 5892,
      "regular": 5893,
      "movement": 5894,
      "Hyperlucent": 5895,
      "whose": 5896,
      "exams": 5897,
      "nonrib": 5898,
      "nonenlarged": 5899,
      "caudal": 5900,
      "##umatoceles": 5901,
      "densely": 5902,
      "remodel": 5903,
      "neoplas": 5904,
      "laterally": 5905,
      "##ormed": 5906,
      "distend": 5907,
      "##minuted": 5908,
      "extend": 5909,
      "extending": 5910,
      "cross": 5911,
      "dextrocon": 5912,
      "scaphoid": 5913,
      "Suspic": 5914,
      "totally": 5915,
      "Develop": 5916,
      "spasms": 5917,
      "performance": 5918,
      "Segmental": 5919,
      "Bronchovascular": 5920,
      "compared": 5921,
      "comminuted": 5922,
      "retrolisthesis": 5923,
      "Metabolic": 5924,
      "believed": 5925,
      "configured": 5926,
      "Displaced": 5927,
      "depressions": 5928,
      "measure": 5929,
      "termination": 5930,
      "hypodense": 5931,
      "medially": 5932,
      "Nons": 5933,
      "poly": 5934,
      "decreasing": 5935,
      "sacrum": 5936,
      "suprapat": 5937,
      "opaque": 5938,
      "Vertebroplasty": 5939,
      "compartments": 5940,
      "Increasing": 5941,
      "surface": 5942,
      "enteric": 5943,
      "metacarp": 5944,
      "Osteophytes": 5945,
      "plates": 5946,
      "incomplete": 5947,
      "Blunted": 5948,
      "anterolisthesis": 5949,
      "Widening": 5950,
      "retracted": 5951,
      "thirds": 5952,
      "primarily": 5953,
      "stigma": 5954,
      "clarification": 5955,
      "yperinflated": 5956,
      "passes": 5957,
      "passive": 5958,
      "therosclerosis": 5959,
      "containing": 5960,
      "Kyphosis": 5961,
      "details": 5962,
      "syndesmophyte": 5963,
      "Partial": 5964,
      "Sclerotic": 5965,
      "notified": 5966,
      "cavitations": 5967,
      "gallstone": 5968,
      "piercing": 5969,
      "piercings": 5970,
      "stranding": 5971,
      "series": 5972,
      "##ositioning": 5973,
      "beneath": 5974,
      "flexure": 5975,
      "supporting": 5976,
      "Placement": 5977,
      "effort": 5978,
      "anatomy": 5979,
      "informative": 5980,
      "ORIF": 5981,
      "Piercings": 5982,
      "Retrocardiac": 5983,
      "Winged": 5984,
      "centimeter": 5985,
      "cassettes": 5986,
      "centrilobular": 5987,
      "dominant": 5988,
      "hamart": 5989,
      "icd": 5990,
      "oligemia": 5991,
      "pneumatoceles": 5992,
      "pacing": 5993,
      "same": 5994,
      "sarcoid": 5995,
      "ultrasound": 5996,
      "investigation": 5997,
      "indolent": 5998,
      "oracic": 5999,
      "##osacral": 6000,
      "tracking": 6001,
      "trabecular": 6002,
      "##terbroplasty": 6003,
      "malleoli": 6004,
      "outlining": 6005,
      "complicating": 6006,
      "submitted": 6007,
      "limitations": 6008,
      "postradiation": 6009,
      "remodeling": 6010,
      "neoplastic": 6011,
      "distended": 6012,
      "extends": 6013,
      "dextroconvex": 6014,
      "suprapatellar": 6015,
      "metacarpal": 6016,
      "stigmata": 6017,
      "1st": 6018,
      "34": 6019,
      "78": 6020,
      "Af": 6021,
      "Anot": 6022,
      "Br": 6023,
      "Bar": 6024,
      "Bra": 6025,
      "Ck": 6026,
      "C7": 6027,
      "Che": 6028,
      "Cent": 6029,
      "Cortic": 6030,
      "Could": 6031,
      "Desc": 6032,
      "Drainage": 6033,
      "Dire": 6034,
      "Dilated": 6035,
      "Eti": 6036,
      "Ear": 6037,
      "Egenerative": 6038,
      "Ectatic": 6039,
      "Find": 6040,
      "First": 6041,
      "Gain": 6042,
      "Gall": 6043,
      "Gastr": 6044,
      "Hema": 6045,
      "Hilar": 6046,
      "Hand": 6047,
      "Image": 6048,
      "KU": 6049,
      "Kub": 6050,
      "Lt": 6051,
      "Lines": 6052,
      "Lateral": 6053,
      "Lord": 6054,
      "Lucent": 6055,
      "Laryngeal": 6056,
      "Mon": 6057,
      "More": 6058,
      "Mitral": 6059,
      "MRI": 6060,
      "Multifocal": 6061,
      "Ng": 6062,
      "NG": 6063,
      "Numbness": 6064,
      "Of": 6065,
      "Out": 6066,
      "Obs": 6067,
      "Ped": 6068,
      "Pression": 6069,
      "RL": 6070,
      "Rales": 6071,
      "Sw": 6072,
      "Sk": 6073,
      "Sut": 6074,
      "Surg": 6075,
      "Skeletal": 6076,
      "Symmetric": 6077,
      "Tf": 6078,
      "Tips": 6079,
      "US": 6080,
      "Vocal": 6081,
      "avascular": 6082,
      "bar": 6083,
      "bor": 6084,
      "bil": 6085,
      "bot": 6086,
      "bact": 6087,
      "bihilar": 6088,
      "best": 6089,
      "cle": 6090,
      "cap": 6091,
      "corac": 6092,
      "clin": 6093,
      "coron": 6094,
      "cult": 6095,
      "current": 6096,
      "cirrh": 6097,
      "cord": 6098,
      "cocc": 6099,
      "du": 6100,
      "dic": 6101,
      "ey": 6102,
      "ek": 6103,
      "epi": 6104,
      "foss": 6105,
      "funne": 6106,
      "gang": 6107,
      "hum": 6108,
      "hind": 6109,
      "hous": 6110,
      "iaphragm": 6111,
      "jm": 6112,
      "kick": 6113,
      "lig": 6114,
      "list": 6115,
      "lumb": 6116,
      "lightheaded": 6117,
      "myc": 6118,
      "mod": 6119,
      "mam": 6120,
      "magn": 6121,
      "multifocal": 6122,
      "ng": 6123,
      "oval": 6124,
      "phe": 6125,
      "pic": 6126,
      "pir": 6127,
      "pit": 6128,
      "pun": 6129,
      "pann": 6130,
      "plant": 6131,
      "pseu": 6132,
      "pedic": 6133,
      "rod": 6134,
      "si": 6135,
      "sf": 6136,
      "sum": 6137,
      "ste": 6138,
      "sick": 6139,
      "spl": 6140,
      "sag": 6141,
      "tend": 6142,
      "xi": 6143,
      "your": 6144,
      "ziness": 6145,
      "##ndy": 6146,
      "##dative": 6147,
      "##dycard": 6148,
      "##dof": 6149,
      "##iology": 6150,
      "##itracheal": 6151,
      "##iographic": 6152,
      "##clus": 6153,
      "##clu": 6154,
      "##come": 6155,
      "##current": 6156,
      "##cutaneous": 6157,
      "##cured": 6158,
      "##ae": 6159,
      "##ans": 6160,
      "##amp": 6161,
      "##ament": 6162,
      "##ared": 6163,
      "##aphoid": 6164,
      "##tt": 6165,
      "##tom": 6166,
      "##tor": 6167,
      "##gin": 6168,
      "##gra": 6169,
      "##bus": 6170,
      "##bly": 6171,
      "##ok": 6172,
      "##uent": 6173,
      "##uctions": 6174,
      "##uity": 6175,
      "##udative": 6176,
      "##ens": 6177,
      "##etra": 6178,
      "##erem": 6179,
      "##eled": 6180,
      "##ered": 6181,
      "##mum": 6182,
      "##met": 6183,
      "##motherapy": 6184,
      "##rupt": 6185,
      "##rostomy": 6186,
      "##hc": 6187,
      "##hhc": 6188,
      "##yond": 6189,
      "##pne": 6190,
      "##pulsion": 6191,
      "##xia": 6192,
      "##xif": 6193,
      "##sill": 6194,
      "##spaces": 6195,
      "##lf": 6196,
      "##lication": 6197,
      "##lan": 6198,
      "##lip": 6199,
      "##fit": 6200,
      "##ways": 6201,
      "##kale": 6202,
      "##vative": 6203,
      "##CS": 6204,
      "inthe": 6205,
      "##rept": 6206,
      "##rene": 6207,
      "##reot": 6208,
      "##rett": 6209,
      "##onent": 6210,
      "##onclus": 6211,
      "##alignment": 6212,
      "induced": 6213,
      "##pth": 6214,
      "##aring": 6215,
      "##arte": 6216,
      "##ario": 6217,
      "##arging": 6218,
      "##argy": 6219,
      "##arsal": 6220,
      "##estr": 6221,
      "##estation": 6222,
      "##inting": 6223,
      "##inance": 6224,
      "##intention": 6225,
      "##ulate": 6226,
      "##orma": 6227,
      "##lets": 6228,
      "##lebol": 6229,
      "##erate": 6230,
      "##ervative": 6231,
      "##enon": 6232,
      "##endi": 6233,
      "##enario": 6234,
      "anore": 6235,
      "##edullary": 6236,
      "##thargy": 6237,
      "thereosseous": 6238,
      "##rapne": 6239,
      "##ngulated": 6240,
      "##sthe": 6241,
      "##stan": 6242,
      "##ingsthe": 6243,
      "will": 6244,
      "##umn": 6245,
      "##umed": 6246,
      "##uminal": 6247,
      "suction": 6248,
      "suit": 6249,
      "##veals": 6250,
      "abut": 6251,
      "##atarsal": 6252,
      "iscoid": 6253,
      "##ceiv": 6254,
      "##ception": 6255,
      "confu": 6256,
      "concurrent": 6257,
      "conceiv": 6258,
      "##neath": 6259,
      "though": 6260,
      "thready": 6261,
      "##chan": 6262,
      "##anied": 6263,
      "##resenting": 6264,
      "##ifestation": 6265,
      "##idio": 6266,
      "##idomyc": 6267,
      "##idans": 6268,
      "distinct": 6269,
      "disruption": 6270,
      "##ococc": 6271,
      "##ocartila": 6272,
      "##ctate": 6273,
      "called": 6274,
      "##phalization": 6275,
      "##ilities": 6276,
      "##iltr": 6277,
      "##illed": 6278,
      "##ilization": 6279,
      "aside": 6280,
      "indications": 6281,
      "##ibility": 6282,
      "##ibilities": 6283,
      "pneumonitis": 6284,
      "pneumocon": 6285,
      "traver": 6286,
      "abnormally": 6287,
      "##pericardial": 6288,
      "should": 6289,
      "shaking": 6290,
      "depth": 6291,
      "##self": 6292,
      "infiltr": 6293,
      "##tically": 6294,
      "perhaps": 6295,
      "peritracheal": 6296,
      "##istling": 6297,
      "##istration": 6298,
      "##utrop": 6299,
      "malalignment": 6300,
      "##othym": 6301,
      "aorticopulmonary": 6302,
      "localization": 6303,
      "outward": 6304,
      "##vice": 6305,
      "Iscoid": 6306,
      "obtain": 6307,
      "reas": 6308,
      "read": 6309,
      "reache": 6310,
      "revascular": 6311,
      "relev": 6312,
      "retention": 6313,
      "reason": 6314,
      "conservative": 6315,
      "streak": 6316,
      "##raluminal": 6317,
      "appendi": 6318,
      "##iltrate": 6319,
      "canal": 6320,
      "column": 6321,
      "toward": 6322,
      "presen": 6323,
      "presuma": 6324,
      "##ightening": 6325,
      "mechan": 6326,
      "##owded": 6327,
      "scenario": 6328,
      "enthes": 6329,
      "enhanced": 6330,
      "bronchoscopy": 6331,
      "##ittal": 6332,
      "hypersti": 6333,
      "hyperven": 6334,
      "##aped": 6335,
      "##apular": 6336,
      "enlarging": 6337,
      "become": 6338,
      "beyond": 6339,
      "clearing": 6340,
      "clearly": 6341,
      "vertically": 6342,
      "##ussus": 6343,
      "##ussed": 6344,
      "Implan": 6345,
      "here": 6346,
      "##ompanied": 6347,
      "acid": 6348,
      "acuity": 6349,
      "compens": 6350,
      "complication": 6351,
      "component": 6352,
      "when": 6353,
      "##obasal": 6354,
      "##obstructive": 6355,
      "##thecal": 6356,
      "chin": 6357,
      "extension": 6358,
      "expansion": 6359,
      "exhaling": 6360,
      "exchanged": 6361,
      "examp": 6362,
      "thicker": 6363,
      "patients": 6364,
      "midly": 6365,
      "midiaphragm": 6366,
      "midax": 6367,
      "value": 6368,
      "congested": 6369,
      "spread": 6370,
      "sparing": 6371,
      "forefoot": 6372,
      "herniated": 6373,
      "intervertebral": 6374,
      "interruption": 6375,
      "interrupt": 6376,
      "interspaces": 6377,
      "radiology": 6378,
      "radiolog": 6379,
      "arthropathy": 6380,
      "arthroscopy": 6381,
      "##actic": 6382,
      "##acatheter": 6383,
      "Shunt": 6384,
      "Shrapne": 6385,
      "Shaped": 6386,
      "element": 6387,
      "subglottic": 6388,
      "substan": 6389,
      "##mogra": 6390,
      "##moxif": 6391,
      "bullets": 6392,
      "swimmer": 6393,
      "ventil": 6394,
      "##fluent": 6395,
      "intrathoracic": 6396,
      "intrathecal": 6397,
      "tubular": 6398,
      "sternal": 6399,
      "segmental": 6400,
      "look": 6401,
      "##ophagectomy": 6402,
      "intramedullary": 6403,
      "limbus": 6404,
      "incorre": 6405,
      "inconclus": 6406,
      "arteriographic": 6407,
      "upon": 6408,
      "units": 6409,
      "unde": 6410,
      "until": 6411,
      "unrel": 6412,
      "uniform": 6413,
      "unchanged": 6414,
      "cardiomyopathy": 6415,
      "cardiothym": 6416,
      "esophagectomy": 6417,
      "visibly": 6418,
      "although": 6419,
      "always": 6420,
      "itself": 6421,
      "sensitive": 6422,
      "postop": 6423,
      "chronicity": 6424,
      "seems": 6425,
      "##idemia": 6426,
      "Exaggeration": 6427,
      "Exclu": 6428,
      "least": 6429,
      "lethargy": 6430,
      "##ounting": 6431,
      "Few": 6432,
      "Feeding": 6433,
      "possibilities": 6434,
      "repositioning": 6435,
      "injection": 6436,
      "ventricles": 6437,
      "accompanied": 6438,
      "osteocartila": 6439,
      "admin": 6440,
      "advis": 6441,
      "knees": 6442,
      "results": 6443,
      "largely": 6444,
      "phlebol": 6445,
      "moved": 6446,
      "Hyperlip": 6447,
      "whistling": 6448,
      "##quely": 6449,
      "nonobstructive": 6450,
      "obstructionosseous": 6451,
      "assumed": 6452,
      "Allowing": 6453,
      "Ribs": 6454,
      "arrhythmia": 6455,
      "showed": 6456,
      "Unintention": 6457,
      "elong": 6458,
      "underinflated": 6459,
      "underneath": 6460,
      "Stent": 6461,
      "Stents": 6462,
      "Strept": 6463,
      "media": 6464,
      "endarte": 6465,
      "Chronically": 6466,
      "##pleural": 6467,
      "marking": 6468,
      "neutrop": 6469,
      "Contour": 6470,
      "Consistent": 6471,
      "Convex": 6472,
      "Confluent": 6473,
      "indicates": 6474,
      "##odensity": 6475,
      "labeled": 6476,
      "Possibility": 6477,
      "exertional": 6478,
      "##minutive": 6479,
      "extubation": 6480,
      "extraluminal": 6481,
      "cms": 6482,
      "angulate": 6483,
      "necks": 6484,
      "Perhaps": 6485,
      "myeloid": 6486,
      "dexa": 6487,
      "critical": 6488,
      "deformed": 6489,
      "##chondromas": 6490,
      "dextrosc": 6491,
      "skinfold": 6492,
      "erosions": 6493,
      "sharpness": 6494,
      "spondylitic": 6495,
      "Inferior": 6496,
      "Infiltrate": 6497,
      "##ximum": 6498,
      "representative": 6499,
      "Device": 6500,
      "Compressive": 6501,
      "Prim": 6502,
      "##metry": 6503,
      "various": 6504,
      "Scaphoid": 6505,
      "Scapular": 6506,
      "demonstrable": 6507,
      "hepatitis": 6508,
      "discussed": 6509,
      "osteochondromas": 6510,
      "Seen": 6511,
      "Season": 6512,
      "involuntary": 6513,
      "##ophagogastric": 6514,
      "esophagogastric": 6515,
      "remained": 6516,
      "sinuses": 6517,
      "maximum": 6518,
      "Decreasing": 6519,
      "Essentially": 6520,
      "Esophagogastric": 6521,
      "strangulated": 6522,
      "valves": 6523,
      "impact": 6524,
      "adequate": 6525,
      "viridans": 6526,
      "loc10": 6527,
      "Disc": 6528,
      "Dish": 6529,
      "alongside": 6530,
      "Advanced": 6531,
      "Consider": 6532,
      "Conspicuous": 6533,
      "Minimally": 6534,
      "stabilization": 6535,
      "hypokale": 6536,
      "12th": 6537,
      "desired": 6538,
      "Enhanced": 6539,
      "morbidly": 6540,
      "Visible": 6541,
      "transection": 6542,
      "transudative": 6543,
      "transmet": 6544,
      "transpleural": 6545,
      "Radiodensity": 6546,
      "alcoholic": 6547,
      "Residual": 6548,
      "Residu": 6549,
      "Results": 6550,
      "tonsill": 6551,
      "##iths": 6552,
      "instructions": 6553,
      "Representing": 6554,
      "subjacent": 6555,
      "pull": 6556,
      "organomegaly": 6557,
      "Coarsened": 6558,
      "Elevation": 6559,
      "retrohilar": 6560,
      "retropulsion": 6561,
      "supraclavicular": 6562,
      "supraglottic": 6563,
      "##tifactual": 6564,
      "detecting": 6565,
      "nephrostomy": 6566,
      "projectional": 6567,
      "sulcal": 6568,
      "Reticulonodular": 6569,
      "Reveals": 6570,
      "##ologies": 6571,
      "Definite": 6572,
      "Deformed": 6573,
      "superimposition": 6574,
      "resolve": 6575,
      "retrosternally": 6576,
      "Verterbroplasty": 6577,
      "portacatheter": 6578,
      "coiled": 6579,
      "resultant": 6580,
      "bile": 6581,
      "reforma": 6582,
      "Concerning": 6583,
      "Vascularity": 6584,
      "##itoring": 6585,
      "cephalization": 6586,
      "intussus": 6587,
      "factor": 6588,
      "Somewhat": 6589,
      "shifted": 6590,
      "subdural": 6591,
      "issue": 6592,
      "pretracheal": 6593,
      "Accounting": 6594,
      "pneumonic": 6595,
      "reflex": 6596,
      "ormally": 6597,
      "accentuate": 6598,
      "accentuating": 6599,
      "predominance": 6600,
      "illness": 6601,
      "lordosis": 6602,
      "likewise": 6603,
      "Suboptimal": 6604,
      "Subcarinal": 6605,
      "Subcutaneous": 6606,
      "Arthritis": 6607,
      "Artifactual": 6608,
      "depends": 6609,
      "degenerate": 6610,
      "posterobasal": 6611,
      "consolidated": 6612,
      "Correlating": 6613,
      "anchors": 6614,
      "rib12": 6615,
      "etiologies": 6616,
      "primordial": 6617,
      "Ordering": 6618,
      "cortex": 6619,
      "true": 6620,
      "considerably": 6621,
      "exception": 6622,
      "PACS": 6623,
      "grafts": 6624,
      "##mulation": 6625,
      "persists": 6626,
      "obliquely": 6627,
      "Choking": 6628,
      "Calcifie": 6629,
      "Technically": 6630,
      "gallbladder": 6631,
      "passed": 6632,
      "tamoxif": 6633,
      "contains": 6634,
      "good": 6635,
      "continues": 6636,
      "residua": 6637,
      "Interposition": 6638,
      "underpenetra": 6639,
      "Resolved": 6640,
      "focused": 6641,
      "Suggestion": 6642,
      "Dextro": 6643,
      "##nomenon": 6644,
      "Indistinct": 6645,
      "direct": 6646,
      "Crowded": 6647,
      "Lingula": 6648,
      "Relatively": 6649,
      "Tubular": 6650,
      "doctor": 6651,
      "tension": 6652,
      "tomogram": 6653,
      "yperexpansion": 6654,
      "calcium": 6655,
      "accessed": 6656,
      "physiology": 6657,
      "strandy": 6658,
      "hypoventilatory": 6659,
      "serum": 6660,
      "##oplasma": 6661,
      "benefit": 6662,
      "flexion": 6663,
      "supportive": 6664,
      "Apparent": 6665,
      "Diminished": 6666,
      "Diminutive": 6667,
      "Strandy": 6668,
      "Straightening": 6669,
      "Unsatisfactory": 6670,
      "Unspecified": 6671,
      "correct": 6672,
      "correctly": 6673,
      "rregularity": 6674,
      "system": 6675,
      "systems": 6676,
      "considerations": 6677,
      "telectasis": 6678,
      "telemetry": 6679,
      "calcaneal": 6680,
      "calcaneus": 6681,
      "manifestation": 6682,
      "tibia": 6683,
      "voluntary": 6684,
      "oriented": 6685,
      "movements": 6686,
      "crosses": 6687,
      "Suspicion": 6688,
      "Development": 6689,
      "Nonsmoker": 6690,
      "hamartoma": 6691,
      "After": 6692,
      "Another": 6693,
      "Bridging": 6694,
      "Barrett": 6695,
      "Bradycard": 6696,
      "Ckening": 6697,
      "Chemotherapy": 6698,
      "Centered": 6699,
      "Corticated": 6700,
      "Descending": 6701,
      "Direct": 6702,
      "Etiology": 6703,
      "Early": 6704,
      "Findingsthe": 6705,
      "Gallbladder": 6706,
      "Gastrostomy": 6707,
      "Hematemesis": 6708,
      "KUB": 6709,
      "Lordotic": 6710,
      "Monitoring": 6711,
      "Obscured": 6712,
      "Pedestr": 6713,
      "RLL": 6714,
      "Swimmer": 6715,
      "Skilled": 6716,
      "Suture": 6717,
      "Surgery": 6718,
      "Tfor": 6719,
      "barrel": 6720,
      "bordered": 6721,
      "biloma": 6722,
      "bottom": 6723,
      "bacterem": 6724,
      "cleared": 6725,
      "capping": 6726,
      "coracoclavicular": 6727,
      "clinician": 6728,
      "coronal": 6729,
      "culture": 6730,
      "cirrhotic": 6731,
      "coccidio": 6732,
      "duct": 6733,
      "dictation": 6734,
      "eye": 6735,
      "ekg": 6736,
      "epipericardial": 6737,
      "fossae": 6738,
      "funnel": 6739,
      "gangrene": 6740,
      "hump": 6741,
      "hindfoot": 6742,
      "housing": 6743,
      "kicked": 6744,
      "ligament": 6745,
      "lumbosacral": 6746,
      "mycoplasma": 6747,
      "modality": 6748,
      "mammogra": 6749,
      "magnified": 6750,
      "phenomenon": 6751,
      "piriform": 6752,
      "pitched": 6753,
      "punctate": 6754,
      "pannus": 6755,
      "plantar": 6756,
      "pseudof": 6757,
      "pedicle": 6758,
      "rods": 6759,
      "sites": 6760,
      "sfhhc": 6761,
      "summation": 6762,
      "stereot": 6763,
      "sickle": 6764,
      "splinting": 6765,
      "sagittal": 6766,
      "tendinitis": 6767,
      "xiphoid": 6768,
      "##ginous": 6769,
      "anorexia": 6770,
      "suited": 6771,
      "confused": 6772,
      "conceivably": 6773,
      "thought": 6774,
      "##idomycosis": 6775,
      "##ococcus": 6776,
      "pneumoconiosis": 6777,
      "traverses": 6778,
      "infiltrative": 6779,
      "readily": 6780,
      "reaches": 6781,
      "revascularization": 6782,
      "relevant": 6783,
      "reasonably": 6784,
      "streaks": 6785,
      "appendix": 6786,
      "towards": 6787,
      "presumably": 6788,
      "mechanism": 6789,
      "enthesophyte": 6790,
      "hyperstimulation": 6791,
      "hyperventilation": 6792,
      "Implanted": 6793,
      "compensatory": 6794,
      "complications": 6795,
      "example": 6796,
      "midaxillary": 6797,
      "interrupted": 6798,
      "radiologist": 6799,
      "Shrapnel": 6800,
      "substantial": 6801,
      "swimmers": 6802,
      "ventilator": 6803,
      "incorrectly": 6804,
      "inconclusive": 6805,
      "underexpanded": 6806,
      "unrelieved": 6807,
      "uniformly": 6808,
      "cardiothymic": 6809,
      "Exclusion": 6810,
      "osteocartilaginous": 6811,
      "administration": 6812,
      "advised": 6813,
      "phleboliths": 6814,
      "Hyperlipidemia": 6815,
      "Unintentional": 6816,
      "elongation": 6817,
      "Streptococcus": 6818,
      "endarterectomy": 6819,
      "neutropenia": 6820,
      "dextroscoliotic": 6821,
      "Primordial": 6822,
      "Seasonal": 6823,
      "hypokalemia": 6824,
      "transmetatarsal": 6825,
      "Residuals": 6826,
      "tonsillar": 6827,
      "reformats": 6828,
      "intussusception": 6829,
      "tamoxifen": 6830,
      "underpenetrated": 6831,
      "manifestations": 6832,
      "Bradycardia": 6833,
      "Pedestrian": 6834,
      "bacteremia": 6835,
      "coccidioidomycosis": 6836,
      "ligamentous": 6837,
      "mammogram": 6838,
      "pseudofissure": 6839,
      "stereotactic": 6840
    }
  }
}