{
  "version": "1.0",
  "truncation": null,
  "padding": null,
  "added_tokens": [
    {
      "id": 0,
      "special": true,
      "content": "<PAD>",
      "single_word": false,
      "lstrip": false,
      "rstrip": false,
      "normalized": false
    },
    {
      "id": 1,
      "special": true,
      "content": "<UNK>",
      "single_word": false,
      "lstrip": false,
      "rstrip": false,
      "normalized": false
    },
    {
      "id": 2,
      "special": true,
      "content": "[CLS]",
      "single_word": false,
      "lstrip": false,
      "rstrip": false,
      "normalized": false
    },
    {
      "id": 3,
      "special": true,
      "content": "[SEP]",
      "single_word": false,
      "lstrip": false,
      "rstrip": false,
      "normalized": false
    },
    {
      "id": 4,
      "special": true,
      "content": "<s>",
      "single_word": false,
      "lstrip": false,
      "rstrip": false,
      "normalized": false
    },
    {
      "id": 5,
      "special": true,
      "content": "<MASK>",
      "single_word": false,
      "lstrip": false,
      "rstrip": false,
      "normalized": false
    },
    {
      "id": 6,
      "special": true,
      "content": "<size>",
      "single_word": false,
      "lstrip": false,
      "rstrip": false,
      "normalized": false
    },
    {
      "id": 7,
      "special": true,
      "content": "<ind>",
      "single_word": false,
      "lstrip": false,
      "rstrip": false,
      "normalized": false
    },
    {
      "id": 8,
      "special": true,
      "content": "<prompt>",
      "single_word": false,
      "lstrip": false,
      "rstrip": false,
      "normalized": false
    },
    {
      "id": 9,
      "special": true,
      "content": "T1",
      "single_word": false,
      "lstrip": false,
      "rstrip": false,
      "normalized": false
    },
    {
      "id": 10,
      "special": true,
      "content": "T2",
      "single_word": false,
      "lstrip": false,
      "rstrip": false,
      "normalized": false
    },
    {
      "id": 11,
      "special": true,
      "content": "T3",
      "single_word": false,
      "lstrip": false,
      "rstrip": false,
      "normalized": false
    },
    {
      "id": 12,
      "special": true,
      "content": "T4",
      "single_word": false,
      "lstrip": false,
      "rstrip": false,
      "normalized": false
    },
    {
      "id": 13,
      "special": true,
      "content": "T5",
      "single_word": false,
      "lstrip": false,
      "rstrip": false,
      "normalized": false
    },
    {
      "id": 14,
      "special": true,
      "content": "T6",
      "single_word": false,
      "lstrip": false,
      "rstrip": false,
      "normalized": false
    },
    {
      "id": 15,
      "special": true,
      "content": "T7",
      "single_word": false,
      "lstrip": false,
      "rstrip": false,
      "normalized": false
    },
    {
      "id": 16,
      "special": true,
      "content": "T8",
      "single_word": false,
      "lstrip": false,
      "rstrip": false,
      "normalized": false
    },
    {
      "id": 17,
      "special": true,
      "content": "T9",
      "single_word": false,
      "lstrip": false,
      "rstrip": false,
      "normalized": false
    },
    {
      "id": 18,
      "special": true,
      "content": "T10",
      "single_word": false,
      "lstrip": false,
      "rstrip": false,
      "normalized": false
    },
    {
      "id": 19,
      "special": true,
      "content": "T11",
      "single_word": false,
      "lstrip": false,
      "rstrip": false,
      "normalized": false
    },
    {
      "id": 20,
      "special": true,
      "content": "T12",
      "single_word": false,
      "lstrip": false,
      "rstrip": false,
      "normalized": false
    },
    {
      "id": 21,
      "special": true,
      "content": "1",
      "single_word": false,
      "lstrip": false,
      "rstrip": false,
      "normalized": false
    },
    {
      "id": 22,
      "special": true,
      "content": "2",
      "single_word": false,
      "lstrip": false,
      "rstrip": false,
      "normalized": false
    },
    {
      "id": 23,
      "special": true,
      "content": "3",
      "single_word": false,
      "lstrip": false,
      "rstrip": false,
      "normalized": false
    },
    {
      "id": 24,
      "special": true,
      "content": "4",
      "single_word": false,
      "lstrip": false,
      "rstrip": false,
      "normalized": false
    },
    {
      "id": 25,
      "special": true,
      "content": "5",
      "single_word": false,
      "lstrip": false,
      "rstrip": false,
      "normalized": false
    },
    {
      "id": 26,
      "special": true,
      "content": "6",
      "single_word": false,
      "lstrip": false,
      "rstrip": false,
      "normalized": false
    },
    {
      "id": 27,
      "special": true,
      "content": "7",
      "single_word": false,
      "lstrip": false,
      "rstrip": false,
      "normalized": false
    },
    {
      "id": 28,
      "special": true,
      "content": "8",
      "single_word": false,
      "lstrip": false,
      "rstrip": false,
      "normalized": false
    },
    {
      "id": 29,
      "special": true,
      "content": "9",
      "single_word": false,
      "lstrip": false,
      "rstrip": false,
      "normalized": false
    },
    {
      "id": 30,
      "special": true,
      "content": "0",
      "single_word": false,
      "lstrip": false,
      "rstrip": false,
      "normalized": false
    },
    {
      "id": 31,
      "special": true,
      "content": "<loc0>",
      "single_word": false,
      "lstrip": false,
      "rstrip": false,
      "normalized": false
    },
    {
      "id": 32,
      "special": true,
      "content": "<loc1>",
      "single_word": false,
      "lstrip": false,
      "rstrip": false,
      "normalized": false
    },
    {
      "id": 33,
      "special": true,
      "content": "<loc2>",
      "single_word": false,
      "lstrip": false,
      "rstrip": false,
      "normalized": false
    },
    {
      "id": 34,
      "special": true,
      "content": "<loc00>",
      "single_word": false,
      "lstrip": false,
      "rstrip": false,
      "normalized": false
    },
    {
      "id": 35,
      "special": true,
      "content": "<loc01>",
      "single_word": false,
      "lstrip": false,
      "rstrip": false,
      "normalized": false
    },
    {
      "id": 36,
      "special": true,
      "content": "<loc02>",
      "single_word": false,
      "lstrip": false,
      "rstrip": false,
      "normalized": false
    },
    {
      "id": 37,
      "special": true,
      "content": "<loc10>",
      "single_word": false,
      "lstrip": false,
      "rstrip": false,
      "normalized": false
    },
    {
      "id": 38,
      "special": true,
      "content": "<loc11>",
      "single_word": false,
      "lstrip": false,
      "rstrip": false,
      "normalized": false
    },
    {
      "id": 39,
      "special": true,
      "content": "<loc12>",
      "single_word": false,
      "lstrip": false,
      "rstrip": false,
      "normalized": false
    },
    {
      "id": 40,
      "special": true,
      "content": "<loc20>",
      "single_word": false,
      "lstrip": false,
      "rstrip": false,
      "normalized": false
    },
    {
      "id": 41,
      "special": true,
      "content": "<loc21>",
      "single_word": false,
      "lstrip": false,
      "rstrip": false,
      "normalized": false
    },
    {
      "id": 42,
      "special": true,
      "content": "<loc22>",
      "single_word": false,
      "lstrip": false,
      "rstrip": false,
      "normalized": false
    },
    {
      "id": 43,
      "special": true,
      "content": "<loc02><loc22>",
      "single_word": false,
      "lstrip": false,
      "rstrip": false,
      "normalized": false
    },
    {
      "id": 44,
      "special": true,
      "content": "<loc0><loc2>",
      "single_word": false,
      "lstrip": false,
      "rstrip": false,
      "normalized": false
    }
  ],
  "normalizer": {
    "type": "BertNormalizer",
    "clean_text": true,
    "handle_chinese_chars": true,
    "strip_accents": true,
    "lowercase": false
  },
  "pre_tokenizer": {
    "type": "BertPreTokenizer"
  },
  "post_processor": null,
  "decoder": null,
  "model": {
    "type": "WordPiece",
    "unk_token": "<UNK>",
    "continuing_subword_prefix": "##",
    "max_input_chars_per_word": 7,
    "vocab": {
      "<PAD>": 0,
      "<UNK>": 1,
      "[CLS]": 2,
      "[SEP]": 3,
      "<s>": 4,
      "<MASK>": 5,
      "<size>": 6,
      "<ind>": 7,
      "<prompt>": 8,
      "T1": 9,
      "T2": 10,
      "T3": 11,
      "T4": 12,
      "T5": 13,
      "T6": 14,
      "T7": 15,
      "T8": 16,
      "T9": 17,
      "T10": 18,
      "T11": 19,
      "T12": 20,
      "1": 21,
      "2": 22,
      "3": 23,
      "4": 24,
      "5": 25,
      "6": 26,
      "7": 27,
      "8": 28,
      "9": 29,
      "0": 30,
      "<loc0>": 31,
      "<loc1>": 32,
      "<loc2>": 33,
      "<loc00>": 34,
      "<loc01>": 35,
      "<loc02>": 36,
      "<loc10>": 37,
      "<loc11>": 38,
      "<loc12>": 39,
      "<loc20>": 40,
      "<loc21>": 41,
      "<loc22>": 42,
      "<loc02><loc22>": 43,
      "<loc0><loc2>": 44,
      "\"": 45,
      "$": 46,
      "%": 47,
      "&": 48,
      "'": 49,
      "(": 50,
      ")": 51,
      "+": 52,
      ",": 53,
      "-": 54,
      ".": 55,
      "/": 56,
      ":": 57,
      ";": 58,
      "<": 59,
      "=": 60,
      ">": 61,
      "?": 62,
      "A": 63,
      "B": 64,
      "C": 65,
      "D": 66,
      "E": 67,
      "F": 68,
      "G": 69,
      "H": 70,
      "I": 71,
      "J": 72,
      "K": 73,
      "L": 74,
      "M": 75,
      "N": 76,
      "O": 77,
      "P": 78,
      "Q": 79,
      "R": 80,
      "S": 81,
      "T": 82,
      "U": 83,
      "V": 84,
      "W": 85,
      "X": 86,
      "Y": 87,
      "Z": 88,
      "[": 89,
      "]": 90,
      "a": 91,
      "b": 92,
      "c": 93,
      "d": 94,
      "e": 95,
      "f": 96,
      "g": 97,
      "h": 98,
      "i": 99,
      "j": 100,
      "k": 101,
      "l": 102,
      "m": 103,
      "n": 104,
      "o": 105,
      "p": 106,
      "q": 107,
      "r": 108,
      "s": 109,
      "t": 110,
      "u": 111,
      "v": 112,
      "w": 113,
      "x": 114,
      "y": 115,
      "z": 116,
      "{": 117,
      "}": 118,
      "##c": 119,
      "##d": 120,
      "##a": 121,
      "##l": 122,
      "##s": 123,
      "##p": 124,
      "##i": 125,
      "##r": 126,
      "##t": 127,
      "##o": 128,
      "##n": 129,
      "##h": 130,
      "##g": 131,
      "##v": 132,
      "##e": 133,
      "##f": 134,
      "##u": 135,
      "##b": 136,
      "##m": 137,
      "##k": 138,
      "##z": 139,
      "##y": 140,
      "##w": 141,
      "##x": 142,
      "##4": 143,
      "##6": 144,
      "##V": 145,
      "##3": 146,
      "##q": 147,
      "##2": 148,
      "##O": 149,
      "##P": 150,
      "##D": 151,
      "##N": 152,
      "##R": 153,
      "##5": 154,
      "##C": 155,
      "##I": 156,
      "##1": 157,
      "##0": 158,
      "##8": 159,
      "##M": 160,
      "##L": 161,
      "##F": 162,
      "##j": 163,
      "##B": 164,
      "##S": 165,
      "##7": 166,
      "##A": 167,
      "##G": 168,
      "##9": 169,
      "##E": 170,
      "##T": 171,
      "##K": 172,
      "##U": 173,
      "##H": 174,
      "##X": 175,
      "##he": 176,
      "##ro": 177,
      "##re": 178,
      "in": 179,
      "##mp": 180,
      "pro": 181,
      "##ti": 182,
      "##al": 183,
      "##mpt": 184,
      "prompt": 185,
      "##on": 186,
      "the": 187,
      "ind": 188,
      "##ar": 189,
      "of": 190,
      "##es": 191,
      "##in": 192,
      "##or": 193,
      "##le": 194,
      "##as": 195,
      "si": 196,
      "##er": 197,
      "##en": 198,
      "##ul": 199,
      "##gn": 200,
      "##ati": 201,
      "##is": 202,
      "or": 203,
      "##ic": 204,
      "sign": 205,
      "##ed": 206,
      "an": 207,
      "signs": 208,
      "there": 209,
      "No": 210,
      "##ur": 211,
      "##at": 212,
      "##ation": 213,
      "no": 214,
      "##ma": 215,
      "any": 216,
      "##ng": 217,
      "##ural": 218,
      "##mal": 219,
      "ple": 220,
      "##ac": 221,
      "pleural": 222,
      "##th": 223,
      "##ear": 224,
      "Are": 225,
      "is": 226,
      "##ing": 227,
      "##st": 228,
      "##ormal": 229,
      "##si": 230,
      "##ge": 231,
      "##ung": 232,
      "##um": 233,
      "are": 234,
      "lung": 235,
      "wi": 236,
      "##ent": 237,
      "##iti": 238,
      "ab": 239,
      "##sion": 240,
      "with": 241,
      "##ou": 242,
      "##sis": 243,
      "##mage": 244,
      "image": 245,
      "##an": 246,
      "con": 247,
      "##res": 248,
      "##ld": 249,
      "##oc": 250,
      "##ication": 251,
      "##id": 252,
      "su": 253,
      "##ve": 254,
      "##ain": 255,
      "##ne": 256,
      "The": 257,
      "##ary": 258,
      "##ce": 259,
      "##di": 260,
      "th": 261,
      "##mon": 262,
      "##ulmon": 263,
      "##cul": 264,
      "##om": 265,
      "##ap": 266,
      "##ble": 267,
      "year": 268,
      "old": 269,
      "pain": 270,
      "##if": 271,
      "##hest": 272,
      "##ulmonary": 273,
      "##ities": 274,
      "pulmonary": 275,
      "##ch": 276,
      "##ol": 277,
      "##ence": 278,
      "##fu": 279,
      "##normal": 280,
      "dis": 281,
      "abnormal": 282,
      "##fusion": 283,
      "Is": 284,
      "##ir": 285,
      "##ias": 286,
      "##ffusion": 287,
      "effusion": 288,
      "cal": 289,
      "##ardi": 290,
      "chest": 291,
      "##tion": 292,
      "##cif": 293,
      "##osis": 294,
      "normal": 295,
      "##neum": 296,
      "pneum": 297,
      "##tin": 298,
      "##edias": 299,
      "##ediastin": 300,
      "##il": 301,
      "bas": 302,
      "##te": 303,
      "ev": 304,
      "calcif": 305,
      "loc": 306,
      "abnormalities": 307,
      "as": 308,
      "and": 309,
      "based": 310,
      "##tr": 311,
      "indication": 312,
      "##ct": 313,
      "##ib": 314,
      "##ter": 315,
      "##eart": 316,
      "##ges": 317,
      "##hat": 318,
      "you": 319,
      "##rac": 320,
      "##pac": 321,
      "ap": 322,
      "##tive": 323,
      "heart": 324,
      "##se": 325,
      "##it": 326,
      "di": 327,
      "nod": 328,
      "##ass": 329,
      "de": 330,
      "mass": 331,
      "cardi": 332,
      "25": 333,
      "##oth": 334,
      "calcification": 335,
      "##per": 336,
      "##la": 337,
      "##ess": 338,
      "inf": 339,
      "such": 340,
      "evid": 341,
      "##oma": 342,
      "##ub": 343,
      "sh": 344,
      "evidence": 345,
      "##gges": 346,
      "sugges": 347,
      "##blem": 348,
      "##gm": 349,
      "##ra": 350,
      "for": 351,
      "##eas": 352,
      "mediastin": 353,
      "##ron": 354,
      "##aph": 355,
      "aor": 356,
      "diseas": 357,
      "disease": 358,
      "##ze": 359,
      "##ure": 360,
      "##gh": 361,
      "##tic": 362,
      "size": 363,
      "calcifications": 364,
      "##cular": 365,
      "##ax": 366,
      "##orax": 367,
      "pneumoth": 368,
      "problem": 369,
      "abs": 370,
      "this": 371,
      "##ys": 372,
      "pneumothorax": 373,
      "fe": 374,
      "re": 375,
      "##ction": 376,
      "There": 377,
      "##male": 378,
      "What": 379,
      "##ures": 380,
      "app": 381,
      "ob": 382,
      "per": 383,
      "##ercul": 384,
      "##ubercul": 385,
      "vas": 386,
      "pres": 387,
      "##ema": 388,
      "##uberculosis": 389,
      "air": 390,
      "##ragm": 391,
      "##ding": 392,
      "##aphragm": 393,
      "female": 394,
      "aortic": 395,
      "nodul": 396,
      "##ut": 397,
      "##ft": 398,
      "Can": 399,
      "##rache": 400,
      "nodules": 401,
      "cardiac": 402,
      "problems": 403,
      "li": 404,
      "masses": 405,
      "diaphragm": 406,
      "##rosis": 407,
      "mal": 408,
      "out": 409,
      "##ular": 410,
      "peric": 411,
      "Yes": 412,
      "se": 413,
      "##tas": 414,
      "trache": 415,
      "fib": 416,
      "##str": 417,
      "##ression": 418,
      "##igh": 419,
      "##em": 420,
      "##inding": 421,
      "##mpression": 422,
      "##ity": 423,
      "##vic": 424,
      "##ated": 425,
      "##ight": 426,
      "##ting": 427,
      "##atic": 428,
      "male": 429,
      "not": 430,
      "fibrosis": 431,
      "##one": 432,
      "##ia": 433,
      "##el": 434,
      "##able": 435,
      "opac": 436,
      "to": 437,
      "##ied": 438,
      "lungs": 439,
      "diaphragmatic": 440,
      "conf": 441,
      "mediastinal": 442,
      "##ness": 443,
      "##ath": 444,
      "##irm": 445,
      "##ort": 446,
      "confirm": 447,
      "cons": 448,
      "##indings": 449,
      "##olid": 450,
      "##olidation": 451,
      "##ronch": 452,
      "consolidation": 453,
      "##itis": 454,
      "##ory": 455,
      "present": 456,
      "can": 457,
      "##iltr": 458,
      "##iltrat": 459,
      "infiltrat": 460,
      "bre": 461,
      "appear": 462,
      "##ist": 463,
      "right": 464,
      "col": 465,
      "##ral": 466,
      "##ative": 467,
      "absence": 468,
      "suggesting": 469,
      "##ial": 470,
      "le": 471,
      "##ran": 472,
      "##ue": 473,
      "##op": 474,
      "##nea": 475,
      "##ysp": 476,
      "##pace": 477,
      "##yspnea": 478,
      "##ous": 479,
      "##istory": 480,
      "breath": 481,
      "findings": 482,
      "##omediastin": 483,
      "##ow": 484,
      "tuberculosis": 485,
      "vascular": 486,
      "##ine": 487,
      "co": 488,
      "sc": 489,
      "infiltrates": 490,
      "##ha": 491,
      "##ctas": 492,
      "##ctasis": 493,
      "en": 494,
      "be": 495,
      "po": 496,
      "ar": 497,
      "##ule": 498,
      "sp": 499,
      "hy": 500,
      "ac": 501,
      "dyspnea": 502,
      "##lavic": 503,
      "##oin": 504,
      "##der": 505,
      "##yc": 506,
      "##lavicular": 507,
      "##ortness": 508,
      "##oint": 509,
      "joint": 510,
      "Do": 511,
      "##atient": 512,
      "##ract": 513,
      "loc2": 514,
      "##den": 515,
      "hem": 516,
      "##dema": 517,
      "ra": 518,
      "fract": 519,
      "##lu": 520,
      "##mation": 521,
      "##bing": 522,
      "##lar": 523,
      "hone": 524,
      "##ombing": 525,
      "##ycombing": 526,
      "honeycombing": 527,
      "edema": 528,
      "enlar": 529,
      "##ie": 530,
      "##lear": 531,
      "opacities": 532,
      "tum": 533,
      "tumor": 534,
      "##ardial": 535,
      "##ser": 536,
      "loc0": 537,
      "clear": 538,
      "##uc": 539,
      "left": 540,
      "obser": 541,
      "##pl": 542,
      "str": 543,
      "rul": 544,
      "ruling": 545,
      "tumors": 546,
      "pericardial": 547,
      "what": 548,
      "fractures": 549,
      "bronch": 550,
      "##tial": 551,
      "##ranul": 552,
      "me": 553,
      "granul": 554,
      "hyper": 555,
      "within": 556,
      "##uctive": 557,
      "##ern": 558,
      "ver": 559,
      "tb": 560,
      "##the": 561,
      "##uct": 562,
      "struct": 563,
      "##teb": 564,
      "##ment": 565,
      "##ues": 566,
      "##omas": 567,
      "verteb": 568,
      "##ell": 569,
      "##lap": 570,
      "suggestive": 571,
      "impression": 572,
      "rib": 573,
      "##space": 574,
      "structures": 575,
      "airspace": 576,
      "##mit": 577,
      "history": 578,
      "emp": 579,
      "##ved": 580,
      "##ob": 581,
      "st": 582,
      "obstr": 583,
      "calcified": 584,
      "hern": 585,
      "on": 586,
      "metas": 587,
      "##lapse": 588,
      "limit": 589,
      "dia": 590,
      "observed": 591,
      "if": 592,
      "mediastinum": 593,
      "apic": 594,
      "##ard": 595,
      "tracheal": 596,
      "collapse": 597,
      "metastas": 598,
      "foc": 599,
      "limits": 600,
      "##ail": 601,
      "##gement": 602,
      "focal": 603,
      "##cess": 604,
      "##ly": 605,
      "##ticular": 606,
      "obstructive": 607,
      "vis": 608,
      "##ior": 609,
      "enlargement": 610,
      "##ailure": 611,
      "diagn": 612,
      "##orac": 613,
      "failure": 614,
      "apices": 615,
      "##out": 616,
      "hemat": 617,
      "##arditis": 618,
      "vertebral": 619,
      "diagnosis": 620,
      "##ym": 621,
      "metastases": 622,
      "##ctions": 623,
      "ex": 624,
      "##perative": 625,
      "##ening": 626,
      "abscess": 627,
      "appears": 628,
      "##tele": 629,
      "##onia": 630,
      "atele": 631,
      "pneumomediastin": 632,
      "pneumomediastinum": 633,
      "##yema": 634,
      "empyema": 635,
      "atelectasis": 636,
      "##operative": 637,
      "##ater": 638,
      "pre": 639,
      "pneumonia": 640,
      "pericarditis": 641,
      "##section": 642,
      "dissection": 643,
      "##ot": 644,
      "formation": 645,
      "##oclavicular": 646,
      "pla": 647,
      "plaq": 648,
      "plaques": 649,
      "shortness": 650,
      "thym": 651,
      "##rap": 652,
      "##ical": 653,
      "##to": 654,
      "##ature": 655,
      "reticular": 656,
      "##ictive": 657,
      "constr": 658,
      "constrictive": 659,
      "trap": 660,
      "trapp": 661,
      "vascul": 662,
      "##hang": 663,
      "thorac": 664,
      "##ymp": 665,
      "##ion": 666,
      "##ren": 667,
      "Tuberculosis": 668,
      "##et": 669,
      "trapping": 670,
      "##ther": 671,
      "so": 672,
      "def": 673,
      "##ick": 674,
      "thick": 675,
      "thickening": 676,
      "##iss": 677,
      "mid": 678,
      "##gen": 679,
      "granuloma": 680,
      "location": 681,
      "##ined": 682,
      "without": 683,
      "##lh": 684,
      "silh": 685,
      "##ouet": 686,
      "silhouet": 687,
      "thoracic": 688,
      "##ten": 689,
      "noted": 690,
      "##ts": 691,
      "posi": 692,
      "##alu": 693,
      "lymp": 694,
      "rule": 695,
      "##ible": 696,
      "visible": 697,
      "tiss": 698,
      "##rom": 699,
      "chang": 700,
      "Chest": 701,
      "##olum": 702,
      "spine": 703,
      "silhouette": 704,
      "##ronic": 705,
      "whe": 706,
      "##ver": 707,
      "vasculature": 708,
      "##tour": 709,
      "contour": 710,
      "seen": 711,
      "infe": 712,
      "soft": 713,
      "volum": 714,
      "patient": 715,
      "##ign": 716,
      "other": 717,
      "65": 718,
      "##entr": 719,
      "##ters": 720,
      "##vi": 721,
      "##oul": 722,
      "due": 723,
      "##ore": 724,
      "##ta": 725,
      "changes": 726,
      "##ield": 727,
      "##tension": 728,
      "conges": 729,
      "##tent": 730,
      "evalu": 731,
      "lymph": 732,
      "##tif": 733,
      "##yst": 734,
      "##tice": 735,
      "notice": 736,
      "field": 737,
      "##not": 738,
      "bo": 739,
      "##urg": 740,
      "fields": 741,
      "congestion": 742,
      "##dentif": 743,
      "by": 744,
      "identif": 745,
      "##tersti": 746,
      "compression": 747,
      "intersti": 748,
      "identified": 749,
      "##lic": 750,
      "low": 751,
      "interstitial": 752,
      "##iv": 753,
      "##ement": 754,
      "##acement": 755,
      "applic": 756,
      "applicable": 757,
      "opacity": 758,
      "##oulder": 759,
      "##athe": 760,
      "##sistent": 761,
      "abnormality": 762,
      "tissue": 763,
      "cathe": 764,
      "where": 765,
      "ray": 766,
      "val": 767,
      "##terior": 768,
      "shoulder": 769,
      "##us": 770,
      "##ree": 771,
      "ele": 772,
      "##un": 773,
      "##ention": 774,
      "midl": 775,
      "##am": 776,
      "radi": 777,
      "anterior": 778,
      "valve": 779,
      "hernia": 780,
      "nodes": 781,
      "##iosis": 782,
      "##de": 783,
      "mention": 784,
      "he": 785,
      "position": 786,
      "##pir": 787,
      "mo": 788,
      "hypertension": 789,
      "##og": 790,
      "cyst": 791,
      "##entral": 792,
      "we": 793,
      "##ant": 794,
      "##omediastinal": 795,
      "up": 796,
      "##ysm": 797,
      "##ely": 798,
      "##oliosis": 799,
      "Patient": 800,
      "fore": 801,
      "eventr": 802,
      "inc": 803,
      "eventration": 804,
      "un": 805,
      "##dies": 806,
      "cardiomediastinal": 807,
      "preoperative": 808,
      "les": 809,
      "lesion": 810,
      "##eur": 811,
      "aneur": 812,
      "aneurysm": 813,
      "##iat": 814,
      "foreign": 815,
      "##iff": 816,
      "sub": 817,
      "##ty": 818,
      "central": 819,
      "bodies": 820,
      "ven": 821,
      "evaluation": 822,
      "shap": 823,
      "##lation": 824,
      "consolidations": 825,
      "shape": 826,
      "catheter": 827,
      "##up": 828,
      "surg": 829,
      "ster": 830,
      "##ough": 831,
      "##thr": 832,
      "cysts": 833,
      "scoliosis": 834,
      "##obronch": 835,
      "##all": 836,
      "free": 837,
      "##ocation": 838,
      "##placement": 839,
      "##os": 840,
      "tracheobronch": 841,
      "lip": 842,
      "midline": 843,
      "cough": 844,
      "arthr": 845,
      "tub": 846,
      "cannot": 847,
      "consistent": 848,
      "mi": 849,
      "##gment": 850,
      "##aly": 851,
      "lik": 852,
      "well": 853,
      "##iectasis": 854,
      "colle": 855,
      "##ark": 856,
      "likely": 857,
      "##iven": 858,
      "bronchiectasis": 859,
      "given": 860,
      "arthritis": 861,
      "bul": 862,
      "disl": 863,
      "dislocation": 864,
      "##order": 865,
      "##ded": 866,
      "##ute": 867,
      "hiat": 868,
      "lob": 869,
      "lesions": 870,
      "hiatal": 871,
      "##ate": 872,
      "##lae": 873,
      "widen": 874,
      "Sh": 875,
      "##inf": 876,
      "hematoma": 877,
      "##gener": 878,
      "bon": 879,
      "sep": 880,
      "nodule": 881,
      "bullae": 882,
      "aorta": 883,
      "border": 884,
      "hyperinf": 885,
      "intr": 886,
      "that": 887,
      "sw": 888,
      "acute": 889,
      "scap": 890,
      "defined": 891,
      "devic": 892,
      "##elling": 893,
      "##raph": 894,
      "##ograph": 895,
      "##generative": 896,
      "aspir": 897,
      "##cer": 898,
      "volume": 899,
      "segment": 900,
      "over": 901,
      "Shortness": 902,
      "stern": 903,
      "displacement": 904,
      "infections": 905,
      "##ines": 906,
      "scapular": 907,
      "lines": 908,
      "shun": 909,
      "ch": 910,
      "collections": 911,
      "tracheobronchial": 912,
      "cancer": 913,
      "radiograph": 914,
      "widened": 915,
      "clavicular": 916,
      "##ili": 917,
      "##ulated": 918,
      "devi": 919,
      "shunts": 920,
      "##act": 921,
      "mater": 922,
      "material": 923,
      "##ture": 924,
      "woma": 925,
      "heal": 926,
      "woman": 927,
      "subp": 928,
      "loculated": 929,
      "hematomas": 930,
      "venous": 931,
      "##ulmonic": 932,
      "aspirated": 933,
      "sternoclavicular": 934,
      "##iliary": 935,
      "##opha": 936,
      "miliary": 937,
      "subpulmonic": 938,
      "rup": 939,
      "rupture": 940,
      "lipomas": 941,
      "Ker": 942,
      "##ley": 943,
      "trachea": 944,
      "Kerley": 945,
      "borders": 946,
      "mild": 947,
      "thymic": 948,
      "##eren": 949,
      "##ifferen": 950,
      "##ome": 951,
      "degenerative": 952,
      "joints": 953,
      "deviation": 954,
      "most": 955,
      "hernias": 956,
      "##ifferential": 957,
      "intram": 958,
      "intramural": 959,
      "##ioclavicular": 960,
      "##romioclavicular": 961,
      "space": 962,
      "bony": 963,
      "hyperinflation": 964,
      "lobe": 965,
      "callu": 966,
      "callus": 967,
      "acromioclavicular": 968,
      "thymoma": 969,
      "Lung": 970,
      "healing": 971,
      "##ophage": 972,
      "##ophageal": 973,
      "##ilar": 974,
      "History": 975,
      "separ": 976,
      "separation": 977,
      "lower": 978,
      "##ateral": 979,
      "upper": 980,
      "swelling": 981,
      "elect": 982,
      "##term": 983,
      "tubes": 984,
      "surger": 985,
      "stable": 986,
      "devices": 987,
      "surgery": 988,
      "##PD": 989,
      "electronic": 990,
      "##ect": 991,
      "arter": 992,
      "mentioned": 993,
      "acc": 994,
      "contours": 995,
      "determ": 996,
      "al": 997,
      "##ak": 998,
      "bronchial": 999,
      "##ition": 1000,
      "##omy": 1001,
      "##dition": 1002,
      "##ip": 1003,
      "##galy": 1004,
      "##omegaly": 1005,
      "##hy": 1006,
      "##oes": 1007,
      "rep": 1008,
      "ca": 1009,
      "##mo": 1010,
      "sy": 1011,
      "##ecif": 1012,
      "reg": 1013,
      "##reas": 1014,
      "##cin": 1015,
      "##tact": 1016,
      "##iz": 1017,
      "##ged": 1018,
      "specif": 1019,
      "Pro": 1020,
      "both": 1021,
      "confirmed": 1022,
      "##ies": 1023,
      "##ek": 1024,
      "##enc": 1025,
      "cardiomegaly": 1026,
      "##dom": 1027,
      "intact": 1028,
      "##inal": 1029,
      "Pre": 1030,
      "Problem": 1031,
      "##ack": 1032,
      "inclu": 1033,
      "flu": 1034,
      "Problems": 1035,
      "artery": 1036,
      "##lated": 1037,
      "differential": 1038,
      "50": 1039,
      "determined": 1040,
      "cl": 1041,
      "presence": 1042,
      "bone": 1043,
      "enlarged": 1044,
      "fluid": 1045,
      "lar": 1046,
      "post": 1047,
      "es": 1048,
      "##ros": 1049,
      "##ance": 1050,
      "note": 1051,
      "condition": 1052,
      "back": 1053,
      "Preoperative": 1054,
      "##ilateral": 1055,
      "##ormation": 1056,
      "chronic": 1057,
      "notable": 1058,
      "it": 1059,
      "##rem": 1060,
      "##inical": 1061,
      "##rong": 1062,
      "Ab": 1063,
      "wrong": 1064,
      "##rans": 1065,
      "effusions": 1066,
      "##oid": 1067,
      "##omal": 1068,
      "##ad": 1069,
      "esophageal": 1070,
      "##mptom": 1071,
      "##ienc": 1072,
      "trans": 1073,
      "##ual": 1074,
      "from": 1075,
      "##plant": 1076,
      "does": 1077,
      "##seous": 1078,
      "##sible": 1079,
      "main": 1080,
      "bilateral": 1081,
      "tes": 1082,
      "volumes": 1083,
      "##ulation": 1084,
      "##sity": 1085,
      "accum": 1086,
      "transplant": 1087,
      "accumulation": 1088,
      "specific": 1089,
      "##reased": 1090,
      "week": 1091,
      "##hic": 1092,
      "large": 1093,
      "##nc": 1094,
      "##ast": 1095,
      "exper": 1096,
      "infection": 1097,
      "experienc": 1098,
      "##mok": 1099,
      "vascularity": 1100,
      "##arkable": 1101,
      "Findings": 1102,
      "comp": 1103,
      "experiencing": 1104,
      "sen": 1105,
      "anomal": 1106,
      "Impression": 1107,
      "anomalies": 1108,
      "stat": 1109,
      "indic": 1110,
      "##ay": 1111,
      "##oss": 1112,
      "##remarkable": 1113,
      "##ronary": 1114,
      "pos": 1115,
      "overall": 1116,
      "abdom": 1117,
      "unremarkable": 1118,
      "##row": 1119,
      "30": 1120,
      "##dy": 1121,
      "##use": 1122,
      "##ncop": 1123,
      "sided": 1124,
      "##tal": 1125,
      "include": 1126,
      "##enting": 1127,
      "mark": 1128,
      "smok": 1129,
      "information": 1130,
      "show": 1131,
      "##yp": 1132,
      "##red": 1133,
      "den": 1134,
      "##esc": 1135,
      "weeks": 1136,
      "finding": 1137,
      "Not": 1138,
      "sense": 1139,
      "my": 1140,
      "presenting": 1141,
      "##ings": 1142,
      "coronary": 1143,
      "##vious": 1144,
      "##ls": 1145,
      "located": 1146,
      "##opath": 1147,
      "##akness": 1148,
      "##ind": 1149,
      "appearance": 1150,
      "hyp": 1151,
      "scar": 1152,
      "af": 1153,
      "##mptoms": 1154,
      "possible": 1155,
      "##thma": 1156,
      "find": 1157,
      "##min": 1158,
      "see": 1159,
      "loss": 1160,
      "##ays": 1161,
      "##chy": 1162,
      "base": 1163,
      "##ncope": 1164,
      "##iting": 1165,
      "##omiting": 1166,
      "##sseous": 1167,
      "markings": 1168,
      "##ste": 1169,
      "##ized": 1170,
      "##omat": 1171,
      "##nd": 1172,
      "##hren": 1173,
      "positive": 1174,
      "##ific": 1175,
      "##hrenic": 1176,
      "osseous": 1177,
      "clinical": 1178,
      "xra": 1179,
      "observe": 1180,
      "xray": 1181,
      "signific": 1182,
      "##led": 1183,
      "##escr": 1184,
      "Both": 1185,
      "##rosc": 1186,
      "PPD": 1187,
      "##ec": 1188,
      "##escrib": 1189,
      "##sence": 1190,
      "previous": 1191,
      "ass": 1192,
      "##ating": 1193,
      "Absence": 1194,
      "oste": 1195,
      "days": 1196,
      "##ive": 1197,
      "##pan": 1198,
      "whats": 1199,
      "##ortu": 1200,
      "##iled": 1201,
      "deta": 1202,
      "symptoms": 1203,
      "detailed": 1204,
      "related": 1205,
      "##opathy": 1206,
      "##ini": 1207,
      "alone": 1208,
      "##od": 1209,
      "Le": 1210,
      "CO": 1211,
      "elev": 1212,
      "COPD": 1213,
      "tortu": 1214,
      "Sy": 1215,
      "status": 1216,
      "##own": 1217,
      "arch": 1218,
      "##ring": 1219,
      "##lung": 1220,
      "suggestinglung": 1221,
      "pr": 1222,
      "vomiting": 1223,
      "par": 1224,
      "Left": 1225,
      "wall": 1226,
      "infiltrate": 1227,
      "test": 1228,
      "granulomat": 1229,
      "weakness": 1230,
      "##escribe": 1231,
      "Ex": 1232,
      "cost": 1233,
      "has": 1234,
      "report": 1235,
      "Cardi": 1236,
      "##low": 1237,
      "density": 1238,
      "presents": 1239,
      "##plain": 1240,
      "##roscle": 1241,
      "##ophrenic": 1242,
      "increased": 1243,
      "##theroscle": 1244,
      "##orm": 1245,
      "##cinosis": 1246,
      "scarring": 1247,
      "##ula": 1248,
      "tissues": 1249,
      "##arc": 1250,
      "Explain": 1251,
      "##ox": 1252,
      "asthma": 1253,
      "hilar": 1254,
      "##hyse": 1255,
      "##iaphragm": 1256,
      "granulomatous": 1257,
      "abdominal": 1258,
      "cav": 1259,
      "mon": 1260,
      "ad": 1261,
      "##zing": 1262,
      "Heart": 1263,
      "##arcin": 1264,
      "costophrenic": 1265,
      "region": 1266,
      "smal": 1267,
      "##ualized": 1268,
      "loc22": 1269,
      "##ollow": 1270,
      "mar": 1271,
      "smoking": 1272,
      "10": 1273,
      "age": 1274,
      "pa": 1275,
      "emphyse": 1276,
      "at": 1277,
      "arm": 1278,
      "##ezing": 1279,
      "promin": 1280,
      "visualized": 1281,
      "loc02": 1282,
      "##ected": 1283,
      "##nown": 1284,
      "osteop": 1285,
      "##ehic": 1286,
      "##ehicle": 1287,
      "##atory": 1288,
      "month": 1289,
      "vertebra": 1290,
      "##oxia": 1291,
      "atheroscle": 1292,
      "ang": 1293,
      "##panded": 1294,
      "significant": 1295,
      "calcinosis": 1296,
      "res": 1297,
      "im": 1298,
      "##idiaphragm": 1299,
      "hemidiaphragm": 1300,
      "##lain": 1301,
      "shows": 1302,
      "##ov": 1303,
      "vertebrae": 1304,
      "##ound": 1305,
      "marrow": 1306,
      "Fe": 1307,
      "##vid": 1308,
      "provid": 1309,
      "##entric": 1310,
      "##les": 1311,
      "Notable": 1312,
      "one": 1313,
      "areas": 1314,
      "##arding": 1315,
      "deform": 1316,
      "regarding": 1317,
      "granulomas": 1318,
      "carcin": 1319,
      "thro": 1320,
      "inj": 1321,
      "##ductive": 1322,
      "cer": 1323,
      "pat": 1324,
      "injur": 1325,
      "ventric": 1326,
      "kne": 1327,
      "small": 1328,
      "may": 1329,
      "surgical": 1330,
      "knee": 1331,
      "Female": 1332,
      "elevated": 1333,
      "atr": 1334,
      "its": 1335,
      "suggest": 1336,
      "follow": 1337,
      "after": 1338,
      "rec": 1339,
      "##alysis": 1340,
      "injury": 1341,
      "##ital": 1342,
      "##iness": 1343,
      "emphysema": 1344,
      "fracture": 1345,
      "##trib": 1346,
      "##ziness": 1347,
      "mot": 1348,
      "##ause": 1349,
      "##ausea": 1350,
      "##erior": 1351,
      "wor": 1352,
      "##genital": 1353,
      "wheezing": 1354,
      "us": 1355,
      "med": 1356,
      "##iated": 1357,
      "congenital": 1358,
      "side": 1359,
      "##lo": 1360,
      "##ident": 1361,
      "##ygen": 1362,
      "##tered": 1363,
      "##xygen": 1364,
      "dil": 1365,
      "breast": 1366,
      "vehicle": 1367,
      "##icul": 1368,
      "##ifficul": 1369,
      "##lam": 1370,
      "inflam": 1371,
      "##oidosis": 1372,
      "##gue": 1373,
      "Ev": 1374,
      "Evalu": 1375,
      "oxygen": 1376,
      "45": 1377,
      "complain": 1378,
      "##ifficulty": 1379,
      "##uction": 1380,
      "##opty": 1381,
      "##optysis": 1382,
      "##umb": 1383,
      "hemoptysis": 1384,
      "prior": 1385,
      "assoc": 1386,
      "##ex": 1387,
      "pl": 1388,
      "##go": 1389,
      "ventricular": 1390,
      "associated": 1391,
      "##im": 1392,
      "##ix": 1393,
      "angle": 1394,
      "accident": 1395,
      "##denopathy": 1396,
      "##air": 1397,
      "Whe": 1398,
      "atrial": 1399,
      "Cardiac": 1400,
      "##vical": 1401,
      "paralysis": 1402,
      "Evaluate": 1403,
      "deformity": 1404,
      "##atigue": 1405,
      "ne": 1406,
      "breathing": 1407,
      "##qu": 1408,
      "Trache": 1409,
      "##itation": 1410,
      "imp": 1411,
      "sarc": 1412,
      "prote": 1413,
      "productive": 1414,
      "##inimal": 1415,
      "pur": 1416,
      "cervical": 1417,
      "Po": 1418,
      "exam": 1419,
      "##ination": 1420,
      "##ution": 1421,
      "##ified": 1422,
      "Differential": 1423,
      "Dyspnea": 1424,
      "der": 1425,
      "lateral": 1426,
      "conditions": 1427,
      "##mb": 1428,
      "protein": 1429,
      "loc00": 1430,
      "##ivative": 1431,
      "purified": 1432,
      "derivative": 1433,
      "Trachea": 1434,
      "Syncope": 1435,
      "under": 1436,
      "##hich": 1437,
      "immage": 1438,
      "inflammation": 1439,
      "kid": 1440,
      "##renchy": 1441,
      "tortuous": 1442,
      "kidne": 1443,
      "than": 1444,
      "posterior": 1445,
      "kidney": 1446,
      "repair": 1447,
      "##ig": 1448,
      "##ioma": 1449,
      "tube": 1450,
      "prominent": 1451,
      "bilaterally": 1452,
      "myoc": 1453,
      "##tribution": 1454,
      "##age": 1455,
      "##ache": 1456,
      "tip": 1457,
      "Hyp": 1458,
      "minimal": 1459,
      "##kin": 1460,
      "fever": 1461,
      "##iffu": 1462,
      "##iffuse": 1463,
      "##ging": 1464,
      "leve": 1465,
      "hype": 1466,
      "Hy": 1467,
      "Hyper": 1468,
      "throat": 1469,
      "##lood": 1470,
      "##ondy": 1471,
      "##ondyl": 1472,
      "carcinoma": 1473,
      "non": 1474,
      "about": 1475,
      "##ple": 1476,
      "super": 1477,
      "basilar": 1478,
      "##ondylosis": 1479,
      "wh": 1480,
      "diffuse": 1481,
      "weight": 1482,
      "ep": 1483,
      "ter": 1484,
      "nas": 1485,
      "##tro": 1486,
      "##anation": 1487,
      "##planation": 1488,
      "explanation": 1489,
      "70": 1490,
      "spondylosis": 1491,
      "##rex": 1492,
      "##rotic": 1493,
      "blood": 1494,
      "te": 1495,
      "##ted": 1496,
      "##ulti": 1497,
      "ribs": 1498,
      "head": 1499,
      "nasal": 1500,
      "Describe": 1501,
      "give": 1502,
      "##ascular": 1503,
      "typ": 1504,
      "motor": 1505,
      "dilation": 1506,
      "fist": 1507,
      "examination": 1508,
      "##ectomy": 1509,
      "Give": 1510,
      "scan": 1511,
      "recent": 1512,
      "##enosis": 1513,
      "stenosis": 1514,
      "parenchy": 1515,
      "##sitive": 1516,
      "placement": 1517,
      "Positive": 1518,
      "months": 1519,
      "##des": 1520,
      "##ab": 1521,
      "defect": 1522,
      "hyperex": 1523,
      "end": 1524,
      "##ep": 1525,
      "##oesophageal": 1526,
      "##nge": 1527,
      "radiating": 1528,
      "caus": 1529,
      "patchy": 1530,
      "Hypoxia": 1531,
      "##ental": 1532,
      "##umbness": 1533,
      "##ents": 1534,
      "numbness": 1535,
      "##sp": 1536,
      "mental": 1537,
      "was": 1538,
      "been": 1539,
      "Hypertension": 1540,
      "difficulty": 1541,
      "sarcoidosis": 1542,
      "##atr": 1543,
      "respir": 1544,
      "Ch": 1545,
      "##lying": 1546,
      "emb": 1547,
      "##ips": 1548,
      "embol": 1549,
      "##ism": 1550,
      "mildly": 1551,
      "##co": 1552,
      "##known": 1553,
      "apex": 1554,
      "obstruction": 1555,
      "more": 1556,
      "change": 1557,
      "syncope": 1558,
      "embolism": 1559,
      "Where": 1560,
      "##ious": 1561,
      "evaluate": 1562,
      "cause": 1563,
      "indicated": 1564,
      "##ovascular": 1565,
      "##anc": 1566,
      "How": 1567,
      "body": 1568,
      "osteophy": 1569,
      "##ke": 1570,
      "years": 1571,
      "cm": 1572,
      "##pected": 1573,
      "describe": 1574,
      "clips": 1575,
      "##itic": 1576,
      "##hadenopathy": 1577,
      "##set": 1578,
      "aff": 1579,
      "superior": 1580,
      "expanded": 1581,
      "##side": 1582,
      "##osity": 1583,
      "##ticul": 1584,
      "who": 1585,
      "##linical": 1586,
      "##tral": 1587,
      "fl": 1588,
      "##tect": 1589,
      "fistula": 1590,
      "##notomy": 1591,
      "tortuosity": 1592,
      "remo": 1593,
      "prost": 1594,
      "bronchovascular": 1595,
      "press": 1596,
      "##ross": 1597,
      "nec": 1598,
      "unknown": 1599,
      "##tes": 1600,
      "repres": 1601,
      "##me": 1602,
      "diver": 1603,
      "##lun": 1604,
      "diverticul": 1605,
      "##inite": 1606,
      "ago": 1607,
      "definite": 1608,
      "##ill": 1609,
      "##ould": 1610,
      "sternotomy": 1611,
      "atherosclerosis": 1612,
      "parenchyma": 1613,
      "gross": 1614,
      "range": 1615,
      "##ditional": 1616,
      "##chn": 1617,
      "ves": 1618,
      "vesse": 1619,
      "che": 1620,
      "nodular": 1621,
      "work": 1622,
      "blun": 1623,
      "##uld": 1624,
      "could": 1625,
      "term": 1626,
      "workup": 1627,
      "Al": 1628,
      "abdomen": 1629,
      "##urther": 1630,
      "dec": 1631,
      "respiratory": 1632,
      "techn": 1633,
      "crow": 1634,
      "grossly": 1635,
      "red": 1636,
      "susp": 1637,
      "vessels": 1638,
      "hema": 1639,
      "levels": 1640,
      "hemang": 1641,
      "##dule": 1642,
      "smoker": 1643,
      "##icatr": 1644,
      "bronchitis": 1645,
      "##icatrix": 1646,
      "infar": 1647,
      "malign": 1648,
      "##ress": 1649,
      "cell": 1650,
      "vena": 1651,
      "cava": 1652,
      "##ale": 1653,
      "determine": 1654,
      "##tatic": 1655,
      "##zziness": 1656,
      "##olar": 1657,
      "dizziness": 1658,
      "lymphadenopathy": 1659,
      "ruled": 1660,
      "headache": 1661,
      "Age": 1662,
      "inter": 1663,
      "##30": 1664,
      "ind30": 1665,
      "##ardia": 1666,
      "##gular": 1667,
      "persistent": 1668,
      "atherosclerotic": 1669,
      "##olog": 1670,
      "##uration": 1671,
      "##eral": 1672,
      "##ills": 1673,
      "suspic": 1674,
      "cicatrix": 1675,
      "ha": 1676,
      "multi": 1677,
      "##veolar": 1678,
      "mus": 1679,
      "provided": 1680,
      "nausea": 1681,
      "crowding": 1682,
      "provide": 1683,
      "Normal": 1684,
      "use": 1685,
      "##ost": 1686,
      "qual": 1687,
      "sl": 1688,
      "quality": 1689,
      "##dle": 1690,
      "middle": 1691,
      "medical": 1692,
      "Rib": 1693,
      "thorax": 1694,
      "prostate": 1695,
      "##acco": 1696,
      "##ision": 1697,
      "##reak": 1698,
      "Clinical": 1699,
      "further": 1700,
      "mitral": 1701,
      "diverticula": 1702,
      "midlung": 1703,
      "##day": 1704,
      "replacement": 1705,
      "cho": 1706,
      "epis": 1707,
      "Un": 1708,
      "##tures": 1709,
      "Right": 1710,
      "##rhy": 1711,
      "##xoma": 1712,
      "##thm": 1713,
      "arrhy": 1714,
      "myxoma": 1715,
      "arrhythm": 1716,
      "alveolar": 1717,
      "used": 1718,
      "defects": 1719,
      "##asilar": 1720,
      "myocardial": 1721,
      "suggests": 1722,
      "pneumothorac": 1723,
      "pneumothoraces": 1724,
      "arrhythmias": 1725,
      "ima": 1726,
      "##hilar": 1727,
      "##rant": 1728,
      "##iphe": 1729,
      "Th": 1730,
      "sin": 1731,
      "hip": 1732,
      "distribution": 1733,
      "iss": 1734,
      "loc20": 1735,
      "##tric": 1736,
      "##omyoma": 1737,
      "known": 1738,
      "##bacco": 1739,
      "tobacco": 1740,
      "indicate": 1741,
      "prim": 1742,
      "In": 1743,
      "##hys": 1744,
      "device": 1745,
      "20": 1746,
      "fall": 1747,
      "decreased": 1748,
      "el": 1749,
      "leak": 1750,
      "cor": 1751,
      "##reaky": 1752,
      "leakage": 1753,
      "into": 1754,
      "As": 1755,
      "area": 1756,
      "periphe": 1757,
      "musc": 1758,
      "##uro": 1759,
      "##ically": 1760,
      "would": 1761,
      "##hysical": 1762,
      "##ymme": 1763,
      "##ately": 1764,
      "Sign": 1765,
      "hyperexpanded": 1766,
      "##ond": 1767,
      "catheters": 1768,
      "##enal": 1769,
      "bases": 1770,
      "additional": 1771,
      "##ric": 1772,
      "Chronic": 1773,
      "bar": 1774,
      "##bow": 1775,
      "##lec": 1776,
      "elbow": 1777,
      "testicular": 1778,
      "Signs": 1779,
      "br": 1780,
      "found": 1781,
      "Abdom": 1782,
      "blunting": 1783,
      "hypoxia": 1784,
      "impl": 1785,
      "##ibasilar": 1786,
      "Fatigue": 1787,
      "##iatric": 1788,
      "bariatric": 1789,
      "##paces": 1790,
      "Abdominal": 1791,
      "spinal": 1792,
      "technical": 1793,
      "metastatic": 1794,
      "##troc": 1795,
      "##osseous": 1796,
      "##sive": 1797,
      "fibro": 1798,
      "##regular": 1799,
      "##ult": 1800,
      "cholec": 1801,
      "ir": 1802,
      "##orr": 1803,
      "Male": 1804,
      "##ates": 1805,
      "diseases": 1806,
      "suspicious": 1807,
      "nose": 1808,
      "septal": 1809,
      "peripheral": 1810,
      "##welling": 1811,
      "spaces": 1812,
      "lymphang": 1813,
      "states": 1814,
      "##letal": 1815,
      "##keletal": 1816,
      "streaky": 1817,
      "primary": 1818,
      "skeletal": 1819,
      "Con": 1820,
      "bibasilar": 1821,
      "detect": 1822,
      "detected": 1823,
      "55": 1824,
      "cheek": 1825,
      "##ise": 1826,
      "chills": 1827,
      "##formation": 1828,
      "malformation": 1829,
      "Nausea": 1830,
      "##ize": 1831,
      "##ection": 1832,
      "nd": 1833,
      "##ertion": 1834,
      "pai": 1835,
      "##ology": 1836,
      "##attered": 1837,
      "represent": 1838,
      "physical": 1839,
      "##wo": 1840,
      "cholecyst": 1841,
      "stu": 1842,
      "hemorr": 1843,
      "which": 1844,
      "coar": 1845,
      "renal": 1846,
      "path": 1847,
      "##ator": 1848,
      "assa": 1849,
      "infarction": 1850,
      "##roid": 1851,
      "overlying": 1852,
      "have": 1853,
      "Size": 1854,
      "##eat": 1855,
      "Cal": 1856,
      "proj": 1857,
      "expected": 1858,
      "prolapse": 1859,
      "affected": 1860,
      "##ictures": 1861,
      "strictures": 1862,
      "##art": 1863,
      "pleur": 1864,
      "significance": 1865,
      "##sf": 1866,
      "##atisf": 1867,
      "##actory": 1868,
      "##ounds": 1869,
      "##atisfactory": 1870,
      "##oven": 1871,
      "##ach": 1872,
      "##aced": 1873,
      "Symptom": 1874,
      "dex": 1875,
      "##rent": 1876,
      "lab": 1877,
      "##ling": 1878,
      "##sening": 1879,
      "Pos": 1880,
      "includes": 1881,
      "##tain": 1882,
      "##oratory": 1883,
      "##ization": 1884,
      "using": 1885,
      "typical": 1886,
      "laboratory": 1887,
      "bones": 1888,
      "implant": 1889,
      "Possible": 1890,
      "scattered": 1891,
      "##urgitation": 1892,
      "regurgitation": 1893,
      "##achyc": 1894,
      "qu": 1895,
      "inside": 1896,
      "lymphoma": 1897,
      "##adrant": 1898,
      "quadrant": 1899,
      "Co": 1900,
      "##iomas": 1901,
      "##nula": 1902,
      "cannula": 1903,
      "hemidiaphragms": 1904,
      "hemangiomas": 1905,
      "slight": 1906,
      "indwelling": 1907,
      "malignanc": 1908,
      "irregular": 1909,
      "Mi": 1910,
      "Rec": 1911,
      "fatigue": 1912,
      "##rack": 1913,
      "moder": 1914,
      "pathology": 1915,
      "Diz": 1916,
      "cur": 1917,
      "elevation": 1918,
      "Dizziness": 1919,
      "collection": 1920,
      "Mild": 1921,
      "##ger": 1922,
      "exertion": 1923,
      "Altered": 1924,
      "instr": 1925,
      "##ctomy": 1926,
      "Pulmonary": 1927,
      "crack": 1928,
      "prominence": 1929,
      "crackles": 1930,
      "muscles": 1931,
      "instrum": 1932,
      "It": 1933,
      "##segment": 1934,
      "On": 1935,
      "today": 1936,
      "instruments": 1937,
      "cavity": 1938,
      "Which": 1939,
      "##ker": 1940,
      "Asthma": 1941,
      "neck": 1942,
      "subsegment": 1943,
      "lei": 1944,
      "##satisfactory": 1945,
      "pressure": 1946,
      "unsatisfactory": 1947,
      "multiple": 1948,
      "since": 1949,
      "tight": 1950,
      "tightness": 1951,
      "clavic": 1952,
      "Onset": 1953,
      "35": 1954,
      "##ode": 1955,
      "indicating": 1956,
      "assault": 1957,
      "subsegmental": 1958,
      "disc": 1959,
      "motion": 1960,
      "St": 1961,
      "gra": 1962,
      "three": 1963,
      "##elast": 1964,
      "fibroelast": 1965,
      "loc01": 1966,
      "flat": 1967,
      "##eats": 1968,
      "##anoma": 1969,
      "##utum": 1970,
      "##elanoma": 1971,
      "sputum": 1972,
      "##alp": 1973,
      "hyperinflated": 1974,
      "complaints": 1975,
      "inv": 1976,
      "##unction": 1977,
      "arteri": 1978,
      "lymphangioma": 1979,
      "ext": 1980,
      "but": 1981,
      "tre": 1982,
      "two": 1983,
      "##ihilar": 1984,
      "##sions": 1985,
      "metastasis": 1986,
      "lobes": 1987,
      "imaging": 1988,
      "study": 1989,
      "##monstr": 1990,
      "##usion": 1991,
      "##que": 1992,
      "##hesions": 1993,
      "adhesions": 1994,
      "extrem": 1995,
      "##hal": 1996,
      "##ovenous": 1997,
      "arteriovenous": 1998,
      "appro": 1999,
      "corre": 2000,
      "perihilar": 2001,
      "tracheoesophageal": 2002,
      "bronchoesophageal": 2003,
      "osteophytes": 2004,
      "##achycardia": 2005,
      "##yroid": 2006,
      "##hedule": 2007,
      "conc": 2008,
      "thyroid": 2009,
      "poten": 2010,
      "##heduled": 2011,
      "potential": 2012,
      "##ctation": 2013,
      "ref": 2014,
      "tracheobronchitis": 2015,
      "coarctation": 2016,
      "symme": 2017,
      "synd": 2018,
      "##VC": 2019,
      "##asm": 2020,
      "##orosis": 2021,
      "##ency": 2022,
      "##cified": 2023,
      "##urgical": 2024,
      "##alpitation": 2025,
      "ble": 2026,
      "bleed": 2027,
      "Rule": 2028,
      "osteoporosis": 2029,
      "am": 2030,
      "##val": 2031,
      "##uma": 2032,
      "##thing": 2033,
      "total": 2034,
      "##arcoma": 2035,
      "##ystic": 2036,
      "Lymp": 2037,
      "We": 2038,
      "notic": 2039,
      "cardio": 2040,
      "active": 2041,
      "noticed": 2042,
      "##illary": 2043,
      "Pain": 2044,
      "##wise": 2045,
      "##placed": 2046,
      "Unable": 2047,
      "luc": 2048,
      "nature": 2049,
      "##pass": 2050,
      "##hea": 2051,
      "bypass": 2052,
      "collap": 2053,
      "collaps": 2054,
      "##lely": 2055,
      "solely": 2056,
      "##rome": 2057,
      "lipoma": 2058,
      "##oun": 2059,
      "removal": 2060,
      "Weakness": 2061,
      "syndrome": 2062,
      "specifically": 2063,
      "rhe": 2064,
      "##atoid": 2065,
      "##umatoid": 2066,
      "vasculitis": 2067,
      "imm": 2068,
      "rheumatoid": 2069,
      "perf": 2070,
      "vasculopathy": 2071,
      "##ecting": 2072,
      "collapsed": 2073,
      "Cardiomegaly": 2074,
      "##atment": 2075,
      "sweats": 2076,
      "##hoid": 2077,
      "limited": 2078,
      "night": 2079,
      "hemorrhoid": 2080,
      "hemorrhoidectomy": 2081,
      "line": 2082,
      "##och": 2083,
      "clavicle": 2084,
      "##omm": 2085,
      "moderate": 2086,
      "apical": 2087,
      "Cannot": 2088,
      "##ugh": 2089,
      "##opulmonary": 2090,
      "through": 2091,
      "sounds": 2092,
      "rema": 2093,
      "only": 2094,
      "demin": 2095,
      "osteophyte": 2096,
      "##eralization": 2097,
      "demineralization": 2098,
      "##siti": 2099,
      "This": 2100,
      "remain": 2101,
      "larger": 2102,
      "##pansion": 2103,
      "##tilation": 2104,
      "##ving": 2105,
      "##ortic": 2106,
      "Tes": 2107,
      "Testicular": 2108,
      "Aortic": 2109,
      "##roun": 2110,
      "pac": 2111,
      "##and": 2112,
      "tissuesosseous": 2113,
      "##hosis": 2114,
      "##oracic": 2115,
      "increas": 2116,
      "##ong": 2117,
      "requ": 2118,
      "##emaker": 2119,
      "aden": 2120,
      "##xim": 2121,
      "pacemaker": 2122,
      "causes": 2123,
      "issues": 2124,
      "treatment": 2125,
      "None": 2126,
      "##ardiac": 2127,
      "scheduled": 2128,
      "exc": 2129,
      "positioned": 2130,
      "##osure": 2131,
      "slightly": 2132,
      "approxim": 2133,
      "Breas": 2134,
      "##osarcoma": 2135,
      "suggested": 2136,
      "Breast": 2137,
      "##uk": 2138,
      "dist": 2139,
      "De": 2140,
      "cardiopulmonary": 2141,
      "##alpitations": 2142,
      "sore": 2143,
      "ner": 2144,
      "##oinf": 2145,
      "Sc": 2146,
      "##ytic": 2147,
      "hypoinf": 2148,
      "myel": 2149,
      "otherwise": 2150,
      "60": 2151,
      "Per": 2152,
      "##idging": 2153,
      "##iew": 2154,
      "bridging": 2155,
      "invol": 2156,
      "inflated": 2157,
      "nerve": 2158,
      "pap": 2159,
      "fibroelastoma": 2160,
      "papillary": 2161,
      "inser": 2162,
      "pleuro": 2163,
      "type": 2164,
      "lucency": 2165,
      "near": 2166,
      "skin": 2167,
      "view": 2168,
      "##esthe": 2169,
      "anesthe": 2170,
      "##sia": 2171,
      "anesthesia": 2172,
      "hil": 2173,
      "Recent": 2174,
      "tear": 2175,
      "##istribution": 2176,
      "densiti": 2177,
      "redistribution": 2178,
      "densities": 2179,
      "##50": 2180,
      "ind50": 2181,
      "cystic": 2182,
      "##so": 2183,
      "also": 2184,
      "scans": 2185,
      "##arp": 2186,
      "##ler": 2187,
      "Calcified": 2188,
      "implanted": 2189,
      "extremity": 2190,
      "ero": 2191,
      "fo": 2192,
      "##vature": 2193,
      "##vel": 2194,
      "lead": 2195,
      "Most": 2196,
      "fusion": 2197,
      "shad": 2198,
      "sharp": 2199,
      "worsening": 2200,
      "shadow": 2201,
      "##line": 2202,
      "##acia": 2203,
      "##omalacia": 2204,
      "erosion": 2205,
      "wing": 2206,
      "##roma": 2207,
      "process": 2208,
      "myocarditis": 2209,
      "graft": 2210,
      "aer": 2211,
      "phrenic": 2212,
      "##bar": 2213,
      "##asts": 2214,
      "thoracolum": 2215,
      "compati": 2216,
      "causing": 2217,
      "thoracolumbar": 2218,
      "##tling": 2219,
      "onset": 2220,
      "mottling": 2221,
      "leiomyoma": 2222,
      "winging": 2223,
      "compatible": 2224,
      "tra": 2225,
      "episode": 2226,
      "wed": 2227,
      "##cc": 2228,
      "##ending": 2229,
      "meas": 2230,
      "var": 2231,
      "kyp": 2232,
      "displaced": 2233,
      "complains": 2234,
      "approximately": 2235,
      "##othe": 2236,
      "demonstr": 2237,
      "pregn": 2238,
      "malignancies": 2239,
      "lytic": 2240,
      "diab": 2241,
      "myeloma": 2242,
      "##lision": 2243,
      "airw": 2244,
      "##ning": 2245,
      "##ward": 2246,
      "Ple": 2247,
      "mes": 2248,
      "##lioma": 2249,
      "##asia": 2250,
      "##ching": 2251,
      "##itone": 2252,
      "notching": 2253,
      "leuk": 2254,
      "stress": 2255,
      "##odes": 2256,
      "episodes": 2257,
      "dextroc": 2258,
      "##othelioma": 2259,
      "mesothelioma": 2260,
      "HI": 2261,
      "##vere": 2262,
      "HIV": 2263,
      "##pro": 2264,
      "##ility": 2265,
      "##tern": 2266,
      "CT": 2267,
      "Location": 2268,
      "##dal": 2269,
      "trauma": 2270,
      "28": 2271,
      "Lymph": 2272,
      "Loss": 2273,
      "ventilation": 2274,
      "Pneum": 2275,
      "##dder": 2276,
      "##ladder": 2277,
      "pressures": 2278,
      "bleeding": 2279,
      "##astric": 2280,
      "concern": 2281,
      "undergo": 2282,
      "correlation": 2283,
      "throughout": 2284,
      "An": 2285,
      "##bation": 2286,
      "##arr": 2287,
      "##erbation": 2288,
      "##acerbation": 2289,
      "exacerbation": 2290,
      "hilum": 2291,
      "diarr": 2292,
      "severe": 2293,
      "diarrhea": 2294,
      "idi": 2295,
      "##eti": 2296,
      "dep": 2297,
      "appeti": 2298,
      "##hab": 2299,
      "hyd": 2300,
      "##opathic": 2301,
      "idiopathic": 2302,
      "appetite": 2303,
      "requi": 2304,
      "adenopathy": 2305,
      "indicates": 2306,
      "Difficulty": 2307,
      "Six": 2308,
      "rhab": 2309,
      "##domyoma": 2310,
      "loc1": 2311,
      "specified": 2312,
      "distress": 2313,
      "rhabdomyoma": 2314,
      "##ank": 2315,
      "Inf": 2316,
      "pregnant": 2317,
      "ling": 2318,
      "tachycardia": 2319,
      "##stern": 2320,
      "##sternal": 2321,
      "##emia": 2322,
      "kyphosis": 2323,
      "perfusion": 2324,
      "collision": 2325,
      "local": 2326,
      "pleuritic": 2327,
      "Lymphoma": 2328,
      "bladder": 2329,
      "compa": 2330,
      "##inning": 2331,
      "##urs": 2332,
      "diaphragms": 2333,
      "underlying": 2334,
      "Melanoma": 2335,
      "Sus": 2336,
      "##astro": 2337,
      "carcinoid": 2338,
      "gastro": 2339,
      "##rill": 2340,
      "Nodule": 2341,
      "##ibrill": 2342,
      "widening": 2343,
      "Degenerative": 2344,
      "hypoinflated": 2345,
      "##ibrillator": 2346,
      "##osed": 2347,
      "Suspected": 2348,
      "Opac": 2349,
      "silhouettes": 2350,
      "localized": 2351,
      "distal": 2352,
      "reac": 2353,
      "cholecystectomy": 2354,
      "Infection": 2355,
      "shif": 2356,
      "Vehicle": 2357,
      "##ications": 2358,
      "##ount": 2359,
      "##sc": 2360,
      "scle": 2361,
      "Does": 2362,
      "angles": 2363,
      "need": 2364,
      "##li": 2365,
      "##mittent": 2366,
      "##ced": 2367,
      "##uring": 2368,
      "obes": 2369,
      "config": 2370,
      "hyperexpansion": 2371,
      "do": 2372,
      "##ulc": 2373,
      "significantly": 2374,
      "##mat": 2375,
      "configuration": 2376,
      "##esophageal": 2377,
      "issue": 2378,
      "##matous": 2379,
      "If": 2380,
      "gre": 2381,
      "junction": 2382,
      "sulc": 2383,
      "##ochond": 2384,
      "compared": 2385,
      "40": 2386,
      "Hod": 2387,
      "##gkin": 2388,
      "##thoracic": 2389,
      "evident": 2390,
      "Wheezing": 2391,
      "Persistent": 2392,
      "gastroesophageal": 2393,
      "Hodgkin": 2394,
      "normally": 2395,
      "midthoracic": 2396,
      "##round": 2397,
      "##posure": 2398,
      "exposure": 2399,
      "ho": 2400,
      "##okin": 2401,
      "shield": 2402,
      "syncop": 2403,
      "including": 2404,
      "certain": 2405,
      "medial": 2406,
      "cholecystokin": 2407,
      "inserted": 2408,
      "syncopal": 2409,
      "cholecystokinin": 2410,
      "##IC": 2411,
      "curvature": 2412,
      "Mor": 2413,
      "##tosis": 2414,
      "##ytosis": 2415,
      "ins": 2416,
      "##ocytosis": 2417,
      "comple": 2418,
      "Comp": 2419,
      "symmetr": 2420,
      "##etes": 2421,
      "wedge": 2422,
      "dextrocardia": 2423,
      "deformities": 2424,
      "sever": 2425,
      "stage": 2426,
      "centrally": 2427,
      "##dedness": 2428,
      "##part": 2429,
      "##gia": 2430,
      "retroc": 2431,
      "obsc": 2432,
      "defibrillator": 2433,
      "##ostomy": 2434,
      "leukocytosis": 2435,
      "some": 2436,
      "Abnormal": 2437,
      "occ": 2438,
      "##gative": 2439,
      "immun": 2440,
      "ring": 2441,
      "##ations": 2442,
      "##uced": 2443,
      "impro": 2444,
      "##cedure": 2445,
      "##vement": 2446,
      "Stable": 2447,
      "##rop": 2448,
      "index": 2449,
      "##opl": 2450,
      "Pneumonia": 2451,
      "indexing": 2452,
      "##sation": 2453,
      "##til": 2454,
      "##sib": 2455,
      "fac": 2456,
      "borderline": 2457,
      "Symptoms": 2458,
      "retrocardiac": 2459,
      "x1": 2460,
      "##ga": 2461,
      "emphysematous": 2462,
      "reduced": 2463,
      "Edema": 2464,
      "brac": 2465,
      "possib": 2466,
      "complaining": 2467,
      "##ommen": 2468,
      "brach": 2469,
      "Follow": 2470,
      "##uted": 2471,
      "appearing": 2472,
      "##lux": 2473,
      "bronchi": 2474,
      "Complain": 2475,
      "##igastric": 2476,
      "level": 2477,
      "nonpro": 2478,
      "nonproductive": 2479,
      "PIC": 2480,
      "ectas": 2481,
      "##tening": 2482,
      "PICC": 2483,
      "ectasia": 2484,
      "flattening": 2485,
      "##let": 2486,
      "patent": 2487,
      "Vomiting": 2488,
      "ve": 2489,
      "recommen": 2490,
      "##umbar": 2491,
      "reflux": 2492,
      "vein": 2493,
      "##esis": 2494,
      "##level": 2495,
      "SVC": 2496,
      "palpitations": 2497,
      "##ff": 2498,
      "##cep": 2499,
      "stents": 2500,
      "congestive": 2501,
      "undergoing": 2502,
      "Opacity": 2503,
      "fat": 2504,
      "Multi": 2505,
      "##als": 2506,
      "around": 2507,
      "stent": 2508,
      "##tensive": 2509,
      "fil": 2510,
      "##ret": 2511,
      "##izure": 2512,
      "flank": 2513,
      "necrosis": 2514,
      "intern": 2515,
      "perfor": 2516,
      "increasing": 2517,
      "spasm": 2518,
      "partial": 2519,
      "ov": 2520,
      "reve": 2521,
      "shift": 2522,
      "obesity": 2523,
      "Ac": 2524,
      "lumbar": 2525,
      "##gni": 2526,
      "##ices": 2527,
      "assess": 2528,
      "varices": 2529,
      "##gagni": 2530,
      "##ium": 2531,
      "had": 2532,
      "few": 2533,
      "##omatosis": 2534,
      "Morgagni": 2535,
      "##surgical": 2536,
      "##astect": 2537,
      "abuse": 2538,
      "subc": 2539,
      "neuro": 2540,
      "##itoneal": 2541,
      "perforation": 2542,
      "##astectomy": 2543,
      "last": 2544,
      "muc": 2545,
      "plu": 2546,
      "squ": 2547,
      "##mia": 2548,
      "liver": 2549,
      "##luded": 2550,
      "##amous": 2551,
      "##piration": 2552,
      "arteries": 2553,
      "mucus": 2554,
      "plug": 2555,
      "squamous": 2556,
      "##hes": 2557,
      "##enia": 2558,
      "##issure": 2559,
      "##desis": 2560,
      "pleurodesis": 2561,
      "leads": 2562,
      "casts": 2563,
      "mastectomy": 2564,
      "##loidosis": 2565,
      "##yloidosis": 2566,
      "##atid": 2567,
      "thinning": 2568,
      "##gestion": 2569,
      "tracheobronchomalacia": 2570,
      "liposarcoma": 2571,
      "##ipple": 2572,
      "postpart": 2573,
      "hemangioma": 2574,
      "amyloidosis": 2575,
      "adenoid": 2576,
      "hydatid": 2577,
      "##tility": 2578,
      "plugs": 2579,
      "postpartum": 2580,
      "Dia": 2581,
      "ear": 2582,
      "##duction": 2583,
      "production": 2584,
      "##tened": 2585,
      "projecting": 2586,
      "##dequ": 2587,
      "##tributed": 2588,
      "malignant": 2589,
      "##otic": 2590,
      "endpl": 2591,
      "flattened": 2592,
      "bi": 2593,
      "pattern": 2594,
      "negative": 2595,
      "Pleural": 2596,
      "confusion": 2597,
      "##idual": 2598,
      "sup": 2599,
      "describ": 2600,
      "##urrent": 2601,
      "dense": 2602,
      "possibly": 2603,
      "##jac": 2604,
      "##tis": 2605,
      "along": 2606,
      "##jacent": 2607,
      "rot": 2608,
      "osteo": 2609,
      "greater": 2610,
      "hum": 2611,
      "tests": 2612,
      "smaller": 2613,
      "multilevel": 2614,
      "dr": 2615,
      "##luc": 2616,
      "hep": 2617,
      "##ctatic": 2618,
      "structure": 2619,
      "recommended": 2620,
      "Multiple": 2621,
      "described": 2622,
      "##rontal": 2623,
      "healed": 2624,
      "brain": 2625,
      "mak": 2626,
      "##inant": 2627,
      "removed": 2628,
      "Surgical": 2629,
      "##eous": 2630,
      "aerated": 2631,
      "##gic": 2632,
      "adjacent": 2633,
      "osteopenia": 2634,
      "endplate": 2635,
      "predom": 2636,
      "lobectomy": 2637,
      "com": 2638,
      "distributed": 2639,
      "##oplasm": 2640,
      "make": 2641,
      "##aturation": 2642,
      "aspiration": 2643,
      "##ophag": 2644,
      "sarcoma": 2645,
      "internal": 2646,
      "##tine": 2647,
      "##icienc": 2648,
      "##outine": 2649,
      "Previous": 2650,
      "diabetes": 2651,
      "predominant": 2652,
      "##iciency": 2653,
      "CA": 2654,
      "bel": 2655,
      "##BG": 2656,
      "##ctal": 2657,
      "structuresosseous": 2658,
      "esophag": 2659,
      "CABG": 2660,
      "14": 2661,
      "##ite": 2662,
      "##acter": 2663,
      "disorder": 2664,
      "hyperluc": 2665,
      "atrium": 2666,
      "postsurgical": 2667,
      "Bronch": 2668,
      "nothing": 2669,
      "seque": 2670,
      "arthritic": 2671,
      "Bilateral": 2672,
      "retro": 2673,
      "hours": 2674,
      "Mot": 2675,
      "##pon": 2676,
      "##fo": 2677,
      "##atrache": 2678,
      "paratrache": 2679,
      "regions": 2680,
      "Motor": 2681,
      "paratracheal": 2682,
      "operative": 2683,
      "past": 2684,
      "procedure": 2685,
      "##genic": 2686,
      "measures": 2687,
      "below": 2688,
      "less": 2689,
      "##cious": 2690,
      "tracheostomy": 2691,
      "conscious": 2692,
      "##tention": 2693,
      "images": 2694,
      "consciousness": 2695,
      "Mediastin": 2696,
      "desc": 2697,
      "##vity": 2698,
      "dilated": 2699,
      "lingula": 2700,
      "descending": 2701,
      "eating": 2702,
      "##tivity": 2703,
      "activity": 2704,
      "ma": 2705,
      "stab": 2706,
      "modal": 2707,
      "peripherally": 2708,
      "adequ": 2709,
      "##trosc": 2710,
      "deep": 2711,
      "##ometr": 2712,
      "severity": 2713,
      "function": 2714,
      "##erred": 2715,
      "sensation": 2716,
      "affecting": 2717,
      "infarct": 2718,
      "food": 2719,
      "airway": 2720,
      "##fold": 2721,
      "down": 2722,
      "panc": 2723,
      "##kle": 2724,
      "intrac": 2725,
      "endometr": 2726,
      "Has": 2727,
      "##ll": 2728,
      "##aper": 2729,
      "ventricle": 2730,
      "shielded": 2731,
      "##troscoliosis": 2732,
      "##lications": 2733,
      "ankle": 2734,
      "throm": 2735,
      "postoperative": 2736,
      "thromb": 2737,
      "##icardial": 2738,
      "ger": 2739,
      "calcific": 2740,
      "colon": 2741,
      "bet": 2742,
      "star": 2743,
      "unfold": 2744,
      "Lungs": 2745,
      "inspiration": 2746,
      "germ": 2747,
      "##aret": 2748,
      "contact": 2749,
      "##igaret": 2750,
      "Acute": 2751,
      "##igarette": 2752,
      "Wor": 2753,
      "ting": 2754,
      "##gu": 2755,
      "##ful": 2756,
      "ingu": 2757,
      "##apical": 2758,
      "Post": 2759,
      "Worsening": 2760,
      "inguinal": 2761,
      "ach": 2762,
      "##atitis": 2763,
      "##isy": 2764,
      "##ormed": 2765,
      "sulcus": 2766,
      "yes": 2767,
      "prob": 2768,
      "##alasia": 2769,
      "##terday": 2770,
      "malignancy": 2771,
      "achalasia": 2772,
      "yesterday": 2773,
      "##ril": 2774,
      "##matory": 2775,
      "##asty": 2776,
      "asymme": 2777,
      "fibril": 2778,
      "previously": 2779,
      "inflammatory": 2780,
      "Coronary": 2781,
      "symmetric": 2782,
      "fibrillation": 2783,
      "zone": 2784,
      "##cy": 2785,
      "dextroscoliosis": 2786,
      "requires": 2787,
      "needs": 2788,
      "Ad": 2789,
      "MVC": 2790,
      "melanoma": 2791,
      "sle": 2792,
      "ventral": 2793,
      "apnea": 2794,
      "apart": 2795,
      "##ellular": 2796,
      "projection": 2797,
      "sleep": 2798,
      "Ep": 2799,
      "Hep": 2800,
      "tubercul": 2801,
      "##tib": 2802,
      "node": 2803,
      "altered": 2804,
      "##tained": 2805,
      "irregularities": 2806,
      "performed": 2807,
      "frontal": 2808,
      "incision": 2809,
      "residual": 2810,
      "demonstrated": 2811,
      "gen": 2812,
      "sur": 2813,
      "##iation": 2814,
      "##gain": 2815,
      "intraper": 2816,
      "caused": 2817,
      "adequately": 2818,
      "intraperitoneal": 2819,
      "He": 2820,
      "##king": 2821,
      "Inc": 2822,
      "saturation": 2823,
      "ur": 2824,
      "leg": 2825,
      "complications": 2826,
      "##sh": 2827,
      "##hed": 2828,
      "seizure": 2829,
      "sternum": 2830,
      "remains": 2831,
      "##roti": 2832,
      "##othorax": 2833,
      "Calcinosis": 2834,
      "Epigastric": 2835,
      "Atheroscle": 2836,
      "Bone": 2837,
      "##urred": 2838,
      "epicardial": 2839,
      "fissure": 2840,
      "##yncope": 2841,
      "artif": 2842,
      "Additional": 2843,
      "day": 2844,
      "nipple": 2845,
      "##pect": 2846,
      "inhal": 2847,
      "presyncope": 2848,
      "radiates": 2849,
      "Diagn": 2850,
      "biapical": 2851,
      "gl": 2852,
      "##her": 2853,
      "##ram": 2854,
      "##rahilar": 2855,
      "aches": 2856,
      "##rapy": 2857,
      "##thritis": 2858,
      "part": 2859,
      "##pa": 2860,
      "aspect": 2861,
      "##ghthe": 2862,
      "lighthe": 2863,
      "##ogram": 2864,
      "depression": 2865,
      "Head": 2866,
      "lighthea": 2867,
      "##ngor": 2868,
      "herniation": 2869,
      "78": 2870,
      "again": 2871,
      "engor": 2872,
      "##tation": 2873,
      "now": 2874,
      "deviated": 2875,
      "##roscop": 2876,
      "costochond": 2877,
      "resol": 2878,
      "current": 2879,
      "lightheadedness": 2880,
      "7th": 2881,
      "ful": 2882,
      "##uff": 2883,
      "Nothing": 2884,
      "blunted": 2885,
      "Shoulder": 2886,
      "##meter": 2887,
      "techni": 2888,
      "disorders": 2889,
      "asymmetric": 2890,
      "fre": 2891,
      "##ry": 2892,
      "spur": 2893,
      "##quent": 2894,
      "hemorrha": 2895,
      "sclerosis": 2896,
      "frequent": 2897,
      "aus": 2898,
      "##cultation": 2899,
      "reaction": 2900,
      "humeral": 2901,
      "auscultation": 2902,
      "6th": 2903,
      "##ag": 2904,
      "##av": 2905,
      "##ritis": 2906,
      "##asion": 2907,
      "##ocarcin": 2908,
      "##uestion": 2909,
      "##tab": 2910,
      "impact": 2911,
      "intermittent": 2912,
      "adenocarcin": 2913,
      "adenocarcinoma": 2914,
      "ectatic": 2915,
      "question": 2916,
      "##respon": 2917,
      "distention": 2918,
      "outlet": 2919,
      "showing": 2920,
      "amount": 2921,
      "Anterior": 2922,
      "technique": 2923,
      "cha": 2924,
      "valv": 2925,
      "##mber": 2926,
      "obscure": 2927,
      "Complaint": 2928,
      "##asional": 2929,
      "chamber": 2930,
      "ju": 2931,
      "##ith": 2932,
      "##jor": 2933,
      "##ressive": 2934,
      "diameter": 2935,
      "airways": 2936,
      "Dec": 2937,
      "##arthritis": 2938,
      "##thro": 2939,
      "##lavi": 2940,
      "pleurisy": 2941,
      "Recurrent": 2942,
      "facility": 2943,
      "subclavi": 2944,
      "osteoarthritis": 2945,
      "subclavian": 2946,
      "Diaphragm": 2947,
      "des": 2948,
      "pol": 2949,
      "##arent": 2950,
      "##ph": 2951,
      "##atoc": 2952,
      "##ither": 2953,
      "apparent": 2954,
      "##orted": 2955,
      "lobar": 2956,
      "##omyosarcoma": 2957,
      "##ephal": 2958,
      "leiomyosarcoma": 2959,
      "Cough": 2960,
      "mor": 2961,
      "##rol": 2962,
      "##rest": 2963,
      "##aracter": 2964,
      "##enly": 2965,
      "##aneous": 2966,
      "##chond": 2967,
      "##olic": 2968,
      "evenly": 2969,
      "coughing": 2970,
      "following": 2971,
      "Tachycardia": 2972,
      "hand": 2973,
      "##clinical": 2974,
      "indclinical": 2975,
      "##ification": 2976,
      "unable": 2977,
      "character": 2978,
      "probable": 2979,
      "##uritic": 2980,
      "rectal": 2981,
      "sec": 2982,
      "encep": 2983,
      "arrest": 2984,
      "##igrant": 2985,
      "##halopathy": 2986,
      "immigrant": 2987,
      "increase": 2988,
      "completed": 2989,
      "tuberculin": 2990,
      "Coughing": 2991,
      "encephalopathy": 2992,
      "##ioc": 2993,
      "##leged": 2994,
      "persis": 2995,
      "metab": 2996,
      "extent": 2997,
      "were": 2998,
      "marg": 2999,
      "complaint": 3000,
      "Inter": 3001,
      "brachioc": 3002,
      "##ephalic": 3003,
      "brachiocephalic": 3004,
      "A1": 3005,
      "ten": 3006,
      "sinus": 3007,
      "12": 3008,
      "##dr": 3009,
      "##ficiency": 3010,
      "dehy": 3011,
      "admit": 3012,
      "##odeficiency": 3013,
      "reactive": 3014,
      "immunodeficiency": 3015,
      "Previously": 3016,
      "major": 3017,
      "spurring": 3018,
      "dehydr": 3019,
      "##sen": 3020,
      "##we": 3021,
      "conside": 3022,
      "Thed": 3023,
      "##plasty": 3024,
      "prostatectomy": 3025,
      "aeration": 3026,
      "Mediastinal": 3027,
      "metabolic": 3028,
      "considered": 3029,
      "otal": 3030,
      "##etic": 3031,
      "##bid": 3032,
      "relation": 3033,
      "##specif": 3034,
      "##lergic": 3035,
      "symmetrically": 3036,
      "hepatoc": 3037,
      "second": 3038,
      "otalgia": 3039,
      "hepatocellular": 3040,
      "Me": 3041,
      "ill": 3042,
      "smo": 3043,
      "##cending": 3044,
      "##imp": 3045,
      "##ose": 3046,
      "ascending": 3047,
      "##tastatic": 3048,
      "extensive": 3049,
      "Cons": 3050,
      "involvement": 3051,
      "improved": 3052,
      "hyperlucent": 3053,
      "Metastatic": 3054,
      "smooth": 3055,
      "##osi": 3056,
      "##xie": 3057,
      "deg": 3058,
      "degener": 3059,
      "hypertro": 3060,
      "diagnosed": 3061,
      "cavitation": 3062,
      "##renchymal": 3063,
      "irregularity": 3064,
      "##like": 3065,
      "Intermittent": 3066,
      "##xiety": 3067,
      "Es": 3068,
      "hal": 3069,
      "ke": 3070,
      "##oper": 3071,
      "##rectomy": 3072,
      "siz": 3073,
      "##end": 3074,
      "##urm": 3075,
      "##acid": 3076,
      "sutures": 3077,
      "##toacid": 3078,
      "superimp": 3079,
      "diabetic": 3080,
      "##parenchymal": 3081,
      "Consolidation": 3082,
      "ketoacid": 3083,
      "ketoacidosis": 3084,
      "MV": 3085,
      "##phy": 3086,
      "##ian": 3087,
      "##milar": 3088,
      "similar": 3089,
      "inferior": 3090,
      "##gency": 3091,
      "represents": 3092,
      "Congestion": 3093,
      "##andlike": 3094,
      "Decreased": 3095,
      "secondary": 3096,
      "hypertrophy": 3097,
      "MVA": 3098,
      "Fall": 3099,
      "Mid": 3100,
      "routine": 3101,
      "vac": 3102,
      "##back": 3103,
      "##ers": 3104,
      "midback": 3105,
      "##ogy": 3106,
      "radiographs": 3107,
      "parenchymal": 3108,
      "##tralogy": 3109,
      "pleuroparenchymal": 3110,
      "betwe": 3111,
      "inhaling": 3112,
      "##responsive": 3113,
      "Fallot": 3114,
      "vaccin": 3115,
      "between": 3116,
      "Boch": 3117,
      "Other": 3118,
      "bandlike": 3119,
      "count": 3120,
      "during": 3121,
      "hel": 3122,
      "##inate": 3123,
      "wires": 3124,
      "cont": 3125,
      "marked": 3126,
      "##oxemia": 3127,
      "white": 3128,
      "terms": 3129,
      "##dalek": 3130,
      "veins": 3131,
      "Diagnosis": 3132,
      "persisting": 3133,
      "Bochdalek": 3134,
      "help": 3135,
      "High": 3136,
      "ax": 3137,
      "sa": 3138,
      "measuring": 3139,
      "complete": 3140,
      "reveals": 3141,
      "valvular": 3142,
      "said": 3143,
      "Palpitations": 3144,
      "##cal": 3145,
      "opacification": 3146,
      "Increased": 3147,
      "Esophageal": 3148,
      "sized": 3149,
      "Ar": 3150,
      "Bas": 3151,
      "car": 3152,
      "##ike": 3153,
      "##stance": 3154,
      "##ann": 3155,
      "##obronchial": 3156,
      "indicative": 3157,
      "falling": 3158,
      "predominantly": 3159,
      "Based": 3160,
      "Low": 3161,
      "##itus": 3162,
      "should": 3163,
      "##gene": 3164,
      "upward": 3165,
      "##upp": 3166,
      "##osupp": 3167,
      "immunosupp": 3168,
      "degree": 3169,
      "##iotic": 3170,
      "##markable": 3171,
      "remarkable": 3172,
      "muscle": 3173,
      "##ounded": 3174,
      "symmetrical": 3175,
      "artifact": 3176,
      "786": 3177,
      "jugular": 3178,
      "Pr": 3179,
      "enchond": 3180,
      "superimposed": 3181,
      "enchondroma": 3182,
      "Trans": 3183,
      "rounded": 3184,
      "vir": 3185,
      "outl": 3186,
      "scapula": 3187,
      "suspicion": 3188,
      "partially": 3189,
      "##roscopy": 3190,
      "might": 3191,
      "##emonstr": 3192,
      "osteochond": 3193,
      "excluded": 3194,
      "dou": 3195,
      "rings": 3196,
      "##oroscopy": 3197,
      "##atoma": 3198,
      "tracheomalacia": 3199,
      "##plasia": 3200,
      "hyperplasia": 3201,
      "lipomatosis": 3202,
      "fluoroscopy": 3203,
      "medication": 3204,
      "teratoma": 3205,
      "lymphangitic": 3206,
      "neurogenic": 3207,
      "sequela": 3208,
      "double": 3209,
      "##sus": 3210,
      "##urren": 3211,
      "##ace": 3212,
      "temp": 3213,
      "interp": 3214,
      "retrosternal": 3215,
      "##urrence": 3216,
      "5th": 3217,
      "##vention": 3218,
      "##atation": 3219,
      "##trast": 3220,
      "foram": 3221,
      "recurrence": 3222,
      "dilatation": 3223,
      "respiration": 3224,
      "malformations": 3225,
      "degeneration": 3226,
      "Ob": 3227,
      "wound": 3228,
      "##ase": 3229,
      "##ocarditis": 3230,
      "strain": 3231,
      "versus": 3232,
      "demonstrate": 3233,
      "improvement": 3234,
      "esophagitis": 3235,
      "impacted": 3236,
      "##osition": 3237,
      "Dis": 3238,
      "Sch": 3239,
      "Tie": 3240,
      "Zen": 3241,
      "agen": 3242,
      "bol": 3243,
      "dysm": 3244,
      "pals": 3245,
      "##tze": 3246,
      "##otility": 3247,
      "##bs": 3248,
      "##ki": 3249,
      "##zki": 3250,
      "##xus": 3251,
      "##ulas": 3252,
      "##atzki": 3253,
      "plexus": 3254,
      "motility": 3255,
      "webs": 3256,
      "myopathy": 3257,
      "granulomatosis": 3258,
      "carcinomatosis": 3259,
      "fistulas": 3260,
      "endobronchial": 3261,
      "endocarditis": 3262,
      "diverticulum": 3263,
      "distributions": 3264,
      "fibroma": 3265,
      "fibroelastosis": 3266,
      "lingular": 3267,
      "brachial": 3268,
      "filter": 3269,
      "ovale": 3270,
      "downward": 3271,
      "pancre": 3272,
      "intracardiac": 3273,
      "endometriosis": 3274,
      "thrombus": 3275,
      "surroun": 3276,
      "costochondritis": 3277,
      "osteochondroma": 3278,
      "foramen": 3279,
      "Schatzki": 3280,
      "Tietze": 3281,
      "Zenker": 3282,
      "agenesis": 3283,
      "bolus": 3284,
      "dysmotility": 3285,
      "palsy": 3286,
      "big": 3287,
      "man": 3288,
      "##dden": 3289,
      "##ang": 3290,
      "##smok": 3291,
      "sudden": 3292,
      "moving": 3293,
      "infarcts": 3294,
      "##agger": 3295,
      "obscured": 3296,
      "smoothly": 3297,
      "outlined": 3298,
      "##smoker": 3299,
      "Fl": 3300,
      "Li": 3301,
      "##eterm": 3302,
      "indeterm": 3303,
      "##len": 3304,
      "neoplasm": 3305,
      "intervention": 3306,
      "occasional": 3307,
      "Bronchitis": 3308,
      "currently": 3309,
      "indeterminate": 3310,
      "inferred": 3311,
      "nonsmoker": 3312,
      "having": 3313,
      "grade": 3314,
      "concluded": 3315,
      "Light": 3316,
      "hx": 3317,
      "op": 3318,
      "sch": 3319,
      "##fib": 3320,
      "##men": 3321,
      "##wann": 3322,
      "##opa": 3323,
      "arthro": 3324,
      "placed": 3325,
      "remote": 3326,
      "##headedness": 3327,
      "involving": 3328,
      "shadows": 3329,
      "neurofib": 3330,
      "Lightheadedness": 3331,
      "schwann": 3332,
      "arthroplasty": 3333,
      "neurofibroma": 3334,
      "schwannoma": 3335,
      "cigarette": 3336,
      "fix": 3337,
      "pounds": 3338,
      "##ped": 3339,
      "##pical": 3340,
      "##tim": 3341,
      "##ones": 3342,
      "##ina": 3343,
      "##structive": 3344,
      "##logene": 3345,
      "reveal": 3346,
      "fixation": 3347,
      "##logeneic": 3348,
      "Sore": 3349,
      "Smok": 3350,
      "huma": 3351,
      "##earing": 3352,
      "feel": 3353,
      "##derness": 3354,
      "##oten": 3355,
      "##allow": 3356,
      "swallow": 3357,
      "followed": 3358,
      "cardiover": 3359,
      "assessment": 3360,
      "tingling": 3361,
      "tenderness": 3362,
      "helpful": 3363,
      "virus": 3364,
      "surrounding": 3365,
      "Smoking": 3366,
      "human": 3367,
      "Sarc": 3368,
      "##ient": 3369,
      "##ee": 3370,
      "##ulator": 3371,
      "conse": 3372,
      "##ease": 3373,
      "##utter": 3374,
      "##utaneous": 3375,
      "spee": 3376,
      "expansion": 3377,
      "trapped": 3378,
      "##ipped": 3379,
      "flutter": 3380,
      "slurred": 3381,
      "moderately": 3382,
      "Lymphadenopathy": 3383,
      "foot": 3384,
      "Atherosclerosis": 3385,
      "fully": 3386,
      "Obstructive": 3387,
      "Disease": 3388,
      "##timulator": 3389,
      "Sarcoidosis": 3390,
      "speech": 3391,
      "9th": 3392,
      "dialysis": 3393,
      "modalities": 3394,
      "contusion": 3395,
      "IC": 3396,
      "Two": 3397,
      "hearing": 3398,
      "##rec": 3399,
      "##itor": 3400,
      "apprec": 3401,
      "outside": 3402,
      "##renal": 3403,
      "adrenal": 3404,
      "redemonstr": 3405,
      "##velop": 3406,
      "ICD": 3407,
      "26": 3408,
      "high": 3409,
      "develop": 3410,
      "exagger": 3411,
      "views": 3412,
      "face": 3413,
      "gland": 3414,
      "Se": 3415,
      "##ague": 3416,
      "##ired": 3417,
      "##ulting": 3418,
      "rel": 3419,
      "lev": 3420,
      "once": 3421,
      "##typical": 3422,
      "##minis": 3423,
      "monitor": 3424,
      "##load": 3425,
      "Chills": 3426,
      "affect": 3427,
      "Ass": 3428,
      "studies": 3429,
      "dehydration": 3430,
      "##gan": 3431,
      "organ": 3432,
      "top": 3433,
      "overload": 3434,
      "fevers": 3435,
      "starting": 3436,
      "Hepatitis": 3437,
      "relative": 3438,
      "ben": 3439,
      "##tig": 3440,
      "##estig": 3441,
      "##ord": 3442,
      "contrast": 3443,
      "fibrotic": 3444,
      "hemith": 3445,
      "midsternal": 3446,
      "markers": 3447,
      "investig": 3448,
      "##itoneum": 3449,
      "suprahilar": 3450,
      "morbid": 3451,
      "##operitoneum": 3452,
      "hemithorax": 3453,
      "Non": 3454,
      "dysp": 3455,
      "sac": 3456,
      "tim": 3457,
      "##umn": 3458,
      "obtained": 3459,
      "column": 3460,
      "evaluating": 3461,
      "##osc": 3462,
      "overt": 3463,
      "##tibiotic": 3464,
      "questionable": 3465,
      "av": 3466,
      "bl": 3467,
      "##cti": 3468,
      "##eating": 3469,
      "##ump": 3470,
      "##ments": 3471,
      "infecti": 3472,
      "sweating": 3473,
      "align": 3474,
      "infectious": 3475,
      "fain": 3476,
      "##odi": 3477,
      "antibiotic": 3478,
      "overl": 3479,
      "representing": 3480,
      "##eralized": 3481,
      "exclu": 3482,
      "fainting": 3483,
      "Duration": 3484,
      "sob": 3485,
      "pneumoperitoneum": 3486,
      "hypertensive": 3487,
      "excep": 3488,
      "unfolded": 3489,
      "urgency": 3490,
      "grow": 3491,
      "vague": 3492,
      "##ors": 3493,
      "sulci": 3494,
      "##rotid": 3495,
      "cuff": 3496,
      "hist": 3497,
      "##oral": 3498,
      "Cardiomediastinal": 3499,
      "thyroidectomy": 3500,
      "histoplasm": 3501,
      "fact": 3502,
      "port": 3503,
      "##imal": 3504,
      "##ximal": 3505,
      "proximal": 3506,
      "##ubstance": 3507,
      "##ysubstance": 3508,
      "consolid": 3509,
      "Headache": 3510,
      "polysubstance": 3511,
      "##minished": 3512,
      "except": 3513,
      "15": 3514,
      "18": 3515,
      "Col": 3516,
      "Down": 3517,
      "Minimal": 3518,
      "comm": 3519,
      "either": 3520,
      "##ortion": 3521,
      "##ops": 3522,
      "##ailable": 3523,
      "Hypoxemia": 3524,
      "Thoracic": 3525,
      "pleura": 3526,
      "Transplant": 3527,
      "available": 3528,
      "round": 3529,
      "##adi": 3530,
      "##lous": 3531,
      "##gr": 3532,
      "therapy": 3533,
      "##arynge": 3534,
      "##ystrop": 3535,
      "worse": 3536,
      "##ternal": 3537,
      "factors": 3538,
      "##aryngeal": 3539,
      "##ystrophy": 3540,
      "##what": 3541,
      "##icc": 3542,
      "substernal": 3543,
      "att": 3544,
      "resection": 3545,
      "require": 3546,
      "shielding": 3547,
      "somewhat": 3548,
      "engorgement": 3549,
      "##calcified": 3550,
      "Te": 3551,
      "laryngeal": 3552,
      "##ove": 3553,
      "above": 3554,
      "##tep": 3555,
      "diminished": 3556,
      "Evaluation": 3557,
      "epigastric": 3558,
      "##endent": 3559,
      "Radi": 3560,
      "lump": 3561,
      "##hen": 3562,
      "##atus": 3563,
      "being": 3564,
      "coarse": 3565,
      "Status": 3566,
      "unfolding": 3567,
      "##sened": 3568,
      "appreciated": 3569,
      "lumpectomy": 3570,
      "Imp": 3571,
      "gun": 3572,
      "##tle": 3573,
      "##ainage": 3574,
      "abnormally": 3575,
      "obli": 3576,
      "##aphragmatic": 3577,
      "dislocations": 3578,
      "Cho": 3579,
      "##shot": 3580,
      "gunshot": 3581,
      "8th": 3582,
      "Further": 3583,
      "cr": 3584,
      "##fore": 3585,
      "##neumothorax": 3586,
      "bullous": 3587,
      "hypoven": 3588,
      "##artment": 3589,
      "hydrop": 3590,
      "modality": 3591,
      "benign": 3592,
      "exclude": 3593,
      "hydropneumothorax": 3594,
      "##omp": 3595,
      "##erator": 3596,
      "form": 3597,
      "rev": 3598,
      "diagnos": 3599,
      "reported": 3600,
      "drainage": 3601,
      "stability": 3602,
      "incisions": 3603,
      "generator": 3604,
      "hemorrhage": 3605,
      "alignment": 3606,
      "Radiograph": 3607,
      "Sen": 3608,
      "##uretic": 3609,
      "loc21": 3610,
      "##dered": 3611,
      "subtle": 3612,
      "prosthe": 3613,
      "resolved": 3614,
      "##oscoliosis": 3615,
      "CH": 3616,
      "dual": 3617,
      "pel": 3618,
      "tract": 3619,
      "##eding": 3620,
      "##irr": 3621,
      "external": 3622,
      "radiographic": 3623,
      "##ective": 3624,
      "decreas": 3625,
      "common": 3626,
      "started": 3627,
      "levoscoliosis": 3628,
      "CHF": 3629,
      "ordered": 3630,
      "##urvature": 3631,
      "##entu": 3632,
      "##utes": 3633,
      "before": 3634,
      "overlap": 3635,
      "accentu": 3636,
      "several": 3637,
      "rotated": 3638,
      "sequelae": 3639,
      "exaggerated": 3640,
      "portable": 3641,
      "End": 3642,
      "wal": 3643,
      "##gone": 3644,
      "##reening": 3645,
      "##onitis": 3646,
      "they": 3647,
      "##enous": 3648,
      "##itary": 3649,
      "feeding": 3650,
      "clearly": 3651,
      "intrav": 3652,
      "chf": 3653,
      "alco": 3654,
      "injuries": 3655,
      "place": 3656,
      "undergone": 3657,
      "Scoliosis": 3658,
      "intravenous": 3659,
      "alcoh": 3660,
      "Cystic": 3661,
      "Emp": 3662,
      "Mass": 3663,
      "glen": 3664,
      "pul": 3665,
      "##vis": 3666,
      "imageed": 3667,
      "hemodi": 3668,
      "radiation": 3669,
      "treated": 3670,
      "cardioverter": 3671,
      "Emphyse": 3672,
      "hemodialysis": 3673,
      "Ir": 3674,
      "Pat": 3675,
      "Rep": 3676,
      "a1": 3677,
      "hab": 3678,
      "nar": 3679,
      "ton": 3680,
      "##ade": 3681,
      "##ulsion": 3682,
      "isc": 3683,
      "##trac": 3684,
      "##omach": 3685,
      "stomach": 3686,
      "shaped": 3687,
      "##ectus": 3688,
      "alter": 3689,
      "result": 3690,
      "Fever": 3691,
      "projected": 3692,
      "implantable": 3693,
      "clavicles": 3694,
      "referred": 3695,
      "obscuration": 3696,
      "##specified": 3697,
      "Arter": 3698,
      "attack": 3699,
      "##irrhosis": 3700,
      "alcohol": 3701,
      "Irregular": 3702,
      "Patchy": 3703,
      "habitus": 3704,
      "narrow": 3705,
      "AP": 3706,
      "war": 3707,
      "##ses": 3708,
      "##fort": 3709,
      "##zy": 3710,
      "##ymptom": 3711,
      "##urse": 3712,
      "##omfort": 3713,
      "asymptom": 3714,
      "heartb": 3715,
      "inflation": 3716,
      "course": 3717,
      "##amic": 3718,
      "like": 3719,
      "choking": 3720,
      "discomfort": 3721,
      "Posterior": 3722,
      "pancreatitis": 3723,
      "warran": 3724,
      "asymptomatic": 3725,
      "27": 3726,
      "72": 3727,
      "Cirrhosis": 3728,
      "Hum": 3729,
      "Ind": 3730,
      "Sep": 3731,
      "lum": 3732,
      "##gy": 3733,
      "##ug": 3734,
      "##yel": 3735,
      "initi": 3736,
      "##inear": 3737,
      "anxiety": 3738,
      "##atures": 3739,
      "##diaphragmatic": 3740,
      "##chair": 3741,
      "##ily": 3742,
      "Cancer": 3743,
      "##emesis": 3744,
      "##elchair": 3745,
      "wheelchair": 3746,
      "unspecified": 3747,
      "subdiaphragmatic": 3748,
      "doesn": 3749,
      "transplantation": 3750,
      "Alleged": 3751,
      "refle": 3752,
      "Screening": 3753,
      "hypoinflation": 3754,
      "occurs": 3755,
      "Complaints": 3756,
      "drug": 3757,
      "hepatic": 3758,
      "esophagus": 3759,
      "Seizure": 3760,
      "diagnoses": 3761,
      "tonight": 3762,
      "lumen": 3763,
      "Routine": 3764,
      "min": 3765,
      "rate": 3766,
      "##yar": 3767,
      "##jective": 3768,
      "##roder": 3769,
      "##arian": 3770,
      "##orient": 3771,
      "##ulted": 3772,
      "disorient": 3773,
      "raise": 3774,
      "subjective": 3775,
      "##ects": 3776,
      "cavitary": 3777,
      "assaulted": 3778,
      "wedging": 3779,
      "scleroder": 3780,
      "film": 3781,
      "carina": 3782,
      "Assess": 3783,
      "revision": 3784,
      "Sensation": 3785,
      "heartbeat": 3786,
      "Sepsis": 3787,
      "scleroderma": 3788,
      "1st": 3789,
      "33": 3790,
      "31": 3791,
      "4th": 3792,
      "Ane": 3793,
      "BN": 3794,
      "BC": 3795,
      "Burm": 3796,
      "Bang": 3797,
      "Coc": 3798,
      "Cigarette": 3799,
      "Duc": 3800,
      "Long": 3801,
      "Osh": 3802,
      "Prom": 3803,
      "Ramic": 3804,
      "Sp": 3805,
      "Sin": 3806,
      "Step": 3807,
      "Ting": 3808,
      "Up": 3809,
      "Year": 3810,
      "cra": 3811,
      "dystrophy": 3812,
      "eth": 3813,
      "five": 3814,
      "kg": 3815,
      "las": 3816,
      "lasts": 3817,
      "natr": 3818,
      "pm": 3819,
      "pass": 3820,
      "pus": 3821,
      "pep": 3822,
      "tachyc": 3823,
      "uve": 3824,
      "##cation": 3825,
      "##cing": 3826,
      "##dose": 3827,
      "##sal": 3828,
      "##pite": 3829,
      "##pendent": 3830,
      "##iuretic": 3831,
      "##ginning": 3832,
      "##vulsion": 3833,
      "##bre": 3834,
      "##kos": 3835,
      "##wit": 3836,
      "##hemia": 3837,
      "##roat": 3838,
      "##mping": 3839,
      "proper": 3840,
      "##tide": 3841,
      "##arting": 3842,
      "##ese": 3843,
      "##inary": 3844,
      "##ergy": 3845,
      "##ulike": 3846,
      "##icine": 3847,
      "##anol": 3848,
      "##aine": 3849,
      "##ira": 3850,
      "##iring": 3851,
      "##seas": 3852,
      "deco": 3853,
      "##lades": 3854,
      "rever": 3855,
      "replaced": 3856,
      "##nessed": 3857,
      "confirms": 3858,
      "##ranial": 3859,
      "enter": 3860,
      "energy": 3861,
      "beginning": 3862,
      "hyste": 3863,
      "##lucin": 3864,
      "##ief": 3865,
      "##ardic": 3866,
      "hematemesis": 3867,
      "preop": 3868,
      "pretib": 3869,
      "##viations": 3870,
      "radial": 3871,
      "anteriorly": 3872,
      "##dependent": 3873,
      "bulging": 3874,
      "overdose": 3875,
      "overseas": 3876,
      "backache": 3877,
      "medicine": 3878,
      "nondependent": 3879,
      "necroti": 3880,
      "ches": 3881,
      "Allogeneic": 3882,
      "muscular": 3883,
      "slipped": 3884,
      "Unresponsive": 3885,
      "Unwit": 3886,
      "Throat": 3887,
      "Confusion": 3888,
      "Convulsion": 3889,
      "##roidal": 3890,
      "Itchy": 3891,
      "Starting": 3892,
      "extremities": 3893,
      "requiring": 3894,
      "excision": 3895,
      "Def": 3896,
      "Scheduled": 3897,
      "Pleuritic": 3898,
      "rotation": 3899,
      "osteogenic": 3900,
      "comments": 3901,
      "pancreas": 3902,
      "intracranial": 3903,
      "endometrial": 3904,
      "tinged": 3905,
      "Postoperative": 3906,
      "Hepatic": 3907,
      "urinary": 3908,
      "hemorrhagic": 3909,
      "despite": 3910,
      "hallucin": 3911,
      "vaccination": 3912,
      "Pruritic": 3913,
      "Flulike": 3914,
      "Liver": 3915,
      "Tetralogy": 3916,
      "##henne": 3917,
      "Choroidal": 3918,
      "pulses": 3919,
      "Reported": 3920,
      "ischemia": 3921,
      "altercation": 3922,
      "Arterial": 3923,
      "attacks": 3924,
      "Humira": 3925,
      "Indwelling": 3926,
      "initiation": 3927,
      "reflect": 3928,
      "minutes": 3929,
      "Anemia": 3930,
      "BNP": 3931,
      "BCG": 3932,
      "Burmese": 3933,
      "Banglades": 3934,
      "Cocaine": 3935,
      "Duchenne": 3936,
      "Oshkos": 3937,
      "Promin": 3938,
      "Ramicade": 3939,
      "Since": 3940,
      "Steps": 3941,
      "Tingling": 3942,
      "cramping": 3943,
      "ethanol": 3944,
      "lasting": 3945,
      "natriuretic": 3946,
      "pushed": 3947,
      "peptide": 3948,
      "tachycardic": 3949,
      "uveitis": 3950,
      "##breviations": 3951,
      "decompression": 3952,
      "hysterectomy": 3953,
      "pretibial": 3954,
      "necrotizing": 3955,
      "Unwitnessed": 3956,
      "hallucinations": 3957,
      "Bangladesh": 3958,
      "Oshkosh": 3959,
      "58": 3960,
      "azy": 3961,
      "##aight": 3962,
      "##gos": 3963,
      "##utive": 3964,
      "##roili": 3965,
      "prog": 3966,
      "##ales": 3967,
      "six": 3968,
      "##sider": 3969,
      "##tinct": 3970,
      "straight": 3971,
      "termin": 3972,
      "Chief": 3973,
      "Coar": 3974,
      "involved": 3975,
      "various": 3976,
      "destr": 3977,
      "sacroili": 3978,
      "Upper": 3979,
      "azygos": 3980,
      "Clear": 3981,
      "EK": 3982,
      "cd": 3983,
      "##lant": 3984,
      "##hib": 3985,
      "##lete": 3986,
      "##cemia": 3987,
      "exhib": 3988,
      "##unne": 3989,
      "incomp": 3990,
      "migr": 3991,
      "allergic": 3992,
      "##lowing": 3993,
      "engorged": 3994,
      "margin": 3995,
      "completely": 3996,
      "investigations": 3997,
      "Implant": 3998,
      "reversal": 3999,
      "EKG": 4000,
      "exhibit": 4001,
      "incomplete": 4002,
      "Ne": 4003,
      "Nipple": 4004,
      "One": 4005,
      "Palpitation": 4006,
      "Smal": 4007,
      "long": 4008,
      "rales": 4009,
      "##oatr": 4010,
      "##ero": 4011,
      "please": 4012,
      "They": 4013,
      "##raw": 4014,
      "fem": 4015,
      "prepro": 4016,
      "electro": 4017,
      "alleged": 4018,
      "##omyopathy": 4019,
      "transp": 4020,
      "cavoatr": 4021,
      "Allergic": 4022,
      "##ressed": 4023,
      "iritis": 4024,
      "thrombosis": 4025,
      "admitted": 4026,
      "time": 4027,
      "hypoventilation": 4028,
      "Small": 4029,
      "preprocedure": 4030,
      "cavoatrial": 4031,
      "cir": 4032,
      "pectus": 4033,
      "reas": 4034,
      "v7": 4035,
      "##vil": 4036,
      "##betes": 4037,
      "##erus": 4038,
      "##apid": 4039,
      "basal": 4040,
      "##terol": 4041,
      "##radi": 4042,
      "abscesses": 4043,
      "defin": 4044,
      "evaluated": 4045,
      "radiography": 4046,
      "neu": 4047,
      "leukemia": 4048,
      "Diabetes": 4049,
      "##vilinear": 4050,
      "home": 4051,
      "##bes": 4052,
      "##illa": 4053,
      "asbes": 4054,
      "##othing": 4055,
      "recess": 4056,
      "##therapy": 4057,
      "##tos": 4058,
      "unilateral": 4059,
      "##motherapy": 4060,
      "closure": 4061,
      "clothing": 4062,
      "##rostimulator": 4063,
      "neph": 4064,
      "subcutaneous": 4065,
      "hyperlucency": 4066,
      "Bronchiectasis": 4067,
      "axilla": 4068,
      "Coarse": 4069,
      "neurostimulator": 4070,
      "asbestos": 4071,
      "CX": 4072,
      "Res": 4073,
      "portion": 4074,
      "rh": 4075,
      "syst": 4076,
      "##ants": 4077,
      "calib": 4078,
      "##geneous": 4079,
      "bullet": 4080,
      "carotid": 4081,
      "usual": 4082,
      "cord": 4083,
      "humerus": 4084,
      "antibiotics": 4085,
      "reason": 4086,
      "CXR": 4087,
      "system": 4088,
      "caliber": 4089,
      "16": 4090,
      "46": 4091,
      "Atypical": 4092,
      "Basilar": 4093,
      "She": 4094,
      "lord": 4095,
      "mm": 4096,
      "valu": 4097,
      "##ody": 4098,
      "sides": 4099,
      "##istinct": 4100,
      "##urry": 4101,
      "vision": 4102,
      "catheterization": 4103,
      "specify": 4104,
      "caval": 4105,
      "##ably": 4106,
      "chemotherapy": 4107,
      "cortic": 4108,
      "insuff": 4109,
      "axillary": 4110,
      "blurry": 4111,
      "overlies": 4112,
      "insufficiency": 4113,
      "53": 4114,
      "74": 4115,
      "GE": 4116,
      "Renal": 4117,
      "aged": 4118,
      "bow": 4119,
      "eto": 4120,
      "murm": 4121,
      "zones": 4122,
      "##draw": 4123,
      "##sw": 4124,
      "##pr": 4125,
      "##vin": 4126,
      "##RD": 4127,
      "##rost": 4128,
      "##arm": 4129,
      "##arily": 4130,
      "withdraw": 4131,
      "convin": 4132,
      "##aines": 4133,
      "##culi": 4134,
      "calculi": 4135,
      "##tions": 4136,
      "##ctly": 4137,
      "feature": 4138,
      "##elitis": 4139,
      "##hagia": 4140,
      "##iving": 4141,
      "##usal": 4142,
      "forearm": 4143,
      "##omyelitis": 4144,
      "care": 4145,
      "osteomyelitis": 4146,
      "##idental": 4147,
      "recently": 4148,
      "Positivekin": 4149,
      "Unknown": 4150,
      "primarily": 4151,
      "implants": 4152,
      "curvilinear": 4153,
      "appropr": 4154,
      "nightsw": 4155,
      "soreness": 4156,
      "stabbing": 4157,
      "##opausal": 4158,
      "dysphagia": 4159,
      "passed": 4160,
      "migraines": 4161,
      "746": 4162,
      "GERD": 4163,
      "bowel": 4164,
      "etoh": 4165,
      "murmur": 4166,
      "withdrawal": 4167,
      "convincing": 4168,
      "appropriat": 4169,
      "nightsweats": 4170,
      "Effusion": 4171,
      "Granul": 4172,
      "fragm": 4173,
      "fiss": 4174,
      "##pation": 4175,
      "##igestion": 4176,
      "##tipation": 4177,
      "indistinct": 4178,
      "indigestion": 4179,
      "##umero": 4180,
      "##ardiogram": 4181,
      "infrahilar": 4182,
      "constipation": 4183,
      "shunt": 4184,
      "hypoten": 4185,
      "fractured": 4186,
      "##loody": 4187,
      "nonspecif": 4188,
      "implantation": 4189,
      "Anxiety": 4190,
      "sclerotic": 4191,
      "early": 4192,
      "immunosuppressed": 4193,
      "temporal": 4194,
      "options": 4195,
      "##umerous": 4196,
      "hypotension": 4197,
      "nonspecific": 4198,
      "43": 4199,
      "Bloody": 4200,
      "Carcin": 4201,
      "Joint": 4202,
      "Panc": 4203,
      "Physical": 4204,
      "Ro": 4205,
      "So": 4206,
      "Sarcoma": 4207,
      "duration": 4208,
      "gown": 4209,
      "pil": 4210,
      "trop": 4211,
      "xan": 4212,
      "##cutive": 4213,
      "##cardiogram": 4214,
      "##aise": 4215,
      "##late": 4216,
      "##rup": 4217,
      "##eze": 4218,
      "##mical": 4219,
      "##reatic": 4220,
      "##mpit": 4221,
      "##tia": 4222,
      "##onin": 4223,
      "##onid": 4224,
      "them": 4225,
      "##inking": 4226,
      "##lev": 4227,
      "anything": 4228,
      "demen": 4229,
      "##peritoneal": 4230,
      "malaise": 4231,
      "colostomy": 4232,
      "##ophy": 4233,
      "armpit": 4234,
      "bronchogram": 4235,
      "changed": 4236,
      "wheeze": 4237,
      "##orectal": 4238,
      "unresponsive": 4239,
      "Exertion": 4240,
      "hasn": 4241,
      "nonradi": 4242,
      "tetralogy": 4243,
      "remove": 4244,
      "chemical": 4245,
      "Inside": 4246,
      "##ommate": 4247,
      "Recently": 4248,
      "concerning": 4249,
      "drinking": 4250,
      "retroperitoneal": 4251,
      "half": 4252,
      "Midline": 4253,
      "vaccinated": 4254,
      "consecutive": 4255,
      "Colorectal": 4256,
      "commissure": 4257,
      "warrants": 4258,
      "Prominent": 4259,
      "sacroiliitis": 4260,
      "electrocardiogram": 4261,
      "nephrectomy": 4262,
      "Resulting": 4263,
      "valuation": 4264,
      "Carcinoid": 4265,
      "Pancreatic": 4266,
      "Roommate": 4267,
      "Soft": 4268,
      "pilonid": 4269,
      "troponin": 4270,
      "xanax": 4271,
      "dementia": 4272,
      "Exertional": 4273,
      "nonradiating": 4274,
      "chemicals": 4275,
      "pilonidal": 4276,
      "##tail": 4277,
      "##atel": 4278,
      "##entesis": 4279,
      "detail": 4280,
      "conflu": 4281,
      "##odular": 4282,
      "accentuated": 4283,
      "Vis": 4284,
      "picc": 4285,
      "ro": 4286,
      "##ool": 4287,
      "##nes": 4288,
      "##ken": 4289,
      "##roken": 4290,
      "##erature": 4291,
      "##gest": 4292,
      "stool": 4293,
      "thoracentesis": 4294,
      "largest": 4295,
      "worsened": 4296,
      "diffusely": 4297,
      "amnes": 4298,
      "occurred": 4299,
      "generalized": 4300,
      "Atherosclerotic": 4301,
      "Otherwise": 4302,
      "temperature": 4303,
      "interpret": 4304,
      "mana": 4305,
      "redemonstrated": 4306,
      "Visualized": 4307,
      "amnesia": 4308,
      "Cathe": 4309,
      "Elev": 4310,
      "Oste": 4311,
      "differen": 4312,
      "##dth": 4313,
      "##essive": 4314,
      "width": 4315,
      "##vex": 4316,
      "suggestion": 4317,
      "tubing": 4318,
      "posteriorly": 4319,
      "crowded": 4320,
      "Streaky": 4321,
      "excessive": 4322,
      "dextrocurvature": 4323,
      "rotator": 4324,
      "##acterial": 4325,
      "appropriate": 4326,
      "gas": 4327,
      "nor": 4328,
      "these": 4329,
      "obj": 4330,
      "changing": 4331,
      "incidental": 4332,
      "medications": 4333,
      "neither": 4334,
      "noncalcified": 4335,
      "remainder": 4336,
      "characterized": 4337,
      "##atelike": 4338,
      "Fract": 4339,
      "broken": 4340,
      "##whe": 4341,
      "whether": 4342,
      "mentions": 4343,
      "compressive": 4344,
      "##escent": 4345,
      "platelike": 4346,
      "hyperost": 4347,
      "assessed": 4348,
      "Mediastinum": 4349,
      "growth": 4350,
      "Emphysema": 4351,
      "##where": 4352,
      "hyperostosis": 4353,
      "Air": 4354,
      "Well": 4355,
      "final": 4356,
      "go": 4357,
      "##tu": 4358,
      "##istic": 4359,
      "##umatic": 4360,
      "presentwhere": 4361,
      "##verse": 4362,
      "radiolog": 4363,
      "cage": 4364,
      "transverse": 4365,
      "filled": 4366,
      "resolution": 4367,
      "histoplasmosis": 4368,
      "lordotic": 4369,
      "bronchograms": 4370,
      "##pic": 4371,
      "##rete": 4372,
      "##atum": 4373,
      "acqu": 4374,
      "very": 4375,
      "atelectatic": 4376,
      "##inflated": 4377,
      "granulomata": 4378,
      "discrete": 4379,
      "Scar": 4380,
      "Pneumothorax": 4381,
      "characteristic": 4382,
      "properly": 4383,
      "Elevated": 4384,
      "acquired": 4385,
      "Atele": 4386,
      "Pres": 4387,
      "satisfactory": 4388,
      "retained": 4389,
      "##tebral": 4390,
      "##otomy": 4391,
      "impa": 4392,
      "remaining": 4393,
      "better": 4394,
      "Diaphragmatic": 4395,
      "interpretation": 4396,
      "Atelectasis": 4397,
      "aut": 4398,
      "date": 4399,
      "eff": 4400,
      "tak": 4401,
      "##pose": 4402,
      "indiv": 4403,
      "convex": 4404,
      "correctly": 4405,
      "correlate": 4406,
      "required": 4407,
      "full": 4408,
      "Prior": 4409,
      "relatively": 4410,
      "fragment": 4411,
      "Catheters": 4412,
      "Scarring": 4413,
      "individual": 4414,
      "dys": 4415,
      "hom": 4416,
      "lo": 4417,
      "tunne": 4418,
      "##ping": 4419,
      "##hotic": 4420,
      "##ever": 4421,
      "cardiophrenic": 4422,
      "##ubitus": 4423,
      "radiopa": 4424,
      "Opacities": 4425,
      "biops": 4426,
      "decreasing": 4427,
      "femur": 4428,
      "confluent": 4429,
      "Presence": 4430,
      "homo": 4431,
      "tunneled": 4432,
      "radiopaque": 4433,
      "biopsy": 4434,
      "Cl": 4435,
      "Main": 4436,
      "Poten": 4437,
      "amp": 4438,
      "rati": 4439,
      "##ud": 4440,
      "##ying": 4441,
      "##ony": 4442,
      "indications": 4443,
      "dire": 4444,
      "##emb": 4445,
      "four": 4446,
      "obese": 4447,
      "ovoid": 4448,
      "consequ": 4449,
      "redemonstration": 4450,
      "Fractures": 4451,
      "Potential": 4452,
      "ratio": 4453,
      "bsence": 4454,
      "clar": 4455,
      "nan": 4456,
      "##iter": 4457,
      "toward": 4458,
      "breasts": 4459,
      "demonstrates": 4460,
      "depend": 4461,
      "comb": 4462,
      "margination": 4463,
      "narrowing": 4464,
      "cortical": 4465,
      "fissures": 4466,
      "goiter": 4467,
      "impaired": 4468,
      "towards": 4469,
      "Ver": 4470,
      "ij": 4471,
      "##aumatic": 4472,
      "These": 4473,
      "##traumatic": 4474,
      "features": 4475,
      "strip": 4476,
      "stated": 4477,
      "posttraumatic": 4478,
      "senescent": 4479,
      "Three": 4480,
      "Scattered": 4481,
      "insertion": 4482,
      "great": 4483,
      "hour": 4484,
      "prosthesis": 4485,
      "radiologist": 4486,
      "stripe": 4487,
      "Rem": 4488,
      "Tortu": 4489,
      "lack": 4490,
      "numerous": 4491,
      "##cum": 4492,
      "##erative": 4493,
      "##iferative": 4494,
      "##ubation": 4495,
      "##oprol": 4496,
      "##ormity": 4497,
      "##rexpanded": 4498,
      "distorted": 4499,
      "insert": 4500,
      "hila": 4501,
      "processes": 4502,
      "interventions": 4503,
      "circum": 4504,
      "fullness": 4505,
      "##oproliferative": 4506,
      "Mo": 4507,
      "hos": 4508,
      "##leural": 4509,
      "##derate": 4510,
      "streak": 4511,
      "##vertebral": 4512,
      "resulting": 4513,
      "oxygenation": 4514,
      "patholog": 4515,
      "costochondral": 4516,
      "many": 4517,
      "exhibits": 4518,
      "loops": 4519,
      "clarity": 4520,
      "combination": 4521,
      "Moderate": 4522,
      "3r": 4523,
      "Atr": 4524,
      "Acc": 4525,
      "Frontal": 4526,
      "With": 4527,
      "memb": 4528,
      "stimulator": 4529,
      "##oh": 4530,
      "##tire": 4531,
      "##tila": 4532,
      "##ull": 4533,
      "##umeral": 4534,
      "contrib": 4535,
      "consider": 4536,
      "pneumonitis": 4537,
      "##ronodular": 4538,
      "lie": 4539,
      "fibronodular": 4540,
      "entire": 4541,
      "##mited": 4542,
      "##ography": 4543,
      "##omatous": 4544,
      "Leuk": 4545,
      "cavities": 4546,
      "projects": 4547,
      "shifted": 4548,
      "Limited": 4549,
      "oblique": 4550,
      "glenoh": 4551,
      "destructive": 4552,
      "Granulomatous": 4553,
      "3rd": 4554,
      "Atrial": 4555,
      "membran": 4556,
      "glenohumeral": 4557,
      "cou": 4558,
      "ja": 4559,
      "##cern": 4560,
      "##lip": 4561,
      "##hind": 4562,
      "##bro": 4563,
      "##mpting": 4564,
      "contain": 4565,
      "##idemia": 4566,
      "disrup": 4567,
      "##tempting": 4568,
      "liters": 4569,
      "behind": 4570,
      "positioning": 4571,
      "##encies": 4572,
      "Exam": 4573,
      "attempting": 4574,
      "new": 4575,
      "tips": 4576,
      "periphery": 4577,
      "Concern": 4578,
      "lucencies": 4579,
      "made": 4580,
      "pancreatic": 4581,
      "histoplasmoma": 4582,
      "pelvic": 4583,
      "pelvis": 4584,
      "couple": 4585,
      "##lipidemia": 4586,
      "AM": 4587,
      "Diffuse": 4588,
      "Gen": 4589,
      "To": 4590,
      "atypical": 4591,
      "flowing": 4592,
      "pound": 4593,
      "sed": 4594,
      "##adequ": 4595,
      "##lob": 4596,
      "##face": 4597,
      "##mer": 4598,
      "##mis": 4599,
      "int": 4600,
      "##isk": 4601,
      "##acts": 4602,
      "##ibronch": 4603,
      "##seud": 4604,
      "retrac": 4605,
      "obvious": 4606,
      "state": 4607,
      "##ogastric": 4608,
      "mostly": 4609,
      "##ences": 4610,
      "hypoxemia": 4611,
      "Hyperlipidemia": 4612,
      "prosthes": 4613,
      "##sitis": 4614,
      "ovarian": 4615,
      "colonic": 4616,
      "artifacts": 4617,
      "interposition": 4618,
      "Deformity": 4619,
      "##pice": 4620,
      "homogeneous": 4621,
      "hospice": 4622,
      "##ullary": 4623,
      "jaw": 4624,
      "AML": 4625,
      "Generalized": 4626,
      "##adequate": 4627,
      "##mission": 4628,
      "##ibronchial": 4629,
      "##seudo": 4630,
      "retraction": 4631,
      "prostheses": 4632,
      "cutaneous": 4633,
      "ey": 4634,
      "##taneous": 4635,
      "##nou": 4636,
      "##by": 4637,
      "##reter": 4638,
      "pronou": 4639,
      "##isis": 4640,
      "##eds": 4641,
      "suture": 4642,
      "##chang": 4643,
      "dish": 4644,
      "##tex": 4645,
      "breat": 4646,
      "pretr": 4647,
      "height": 4648,
      "allogeneic": 4649,
      "Prost": 4650,
      "##nced": 4651,
      "##anced": 4652,
      "noseble": 4653,
      "nearby": 4654,
      "##oplasty": 4655,
      "developed": 4656,
      "crisis": 4657,
      "eye": 4658,
      "pronounced": 4659,
      "##changed": 4660,
      "56": 4661,
      "69": 4662,
      "79": 4663,
      "92": 4664,
      "98": 4665,
      "AI": 4666,
      "Aort": 4667,
      "Apart": 4668,
      "Bacterial": 4669,
      "Cer": 4670,
      "Call": 4671,
      "Cicatrix": 4672,
      "Des": 4673,
      "Den": 4674,
      "EC": 4675,
      "ES": 4676,
      "Myel": 4677,
      "Oxygen": 4678,
      "Occ": 4679,
      "PA": 4680,
      "Pol": 4681,
      "SB": 4682,
      "Spon": 4683,
      "ce": 4684,
      "da": 4685,
      "ery": 4686,
      "emer": 4687,
      "pills": 4688,
      "pyel": 4689,
      "v5": 4690,
      "wr": 4691,
      "##lon": 4692,
      "##iment": 4693,
      "##oing": 4694,
      "##oved": 4695,
      "##nov": 4696,
      "##hasia": 4697,
      "##gly": 4698,
      "##gressive": 4699,
      "##vascular": 4700,
      "##usitis": 4701,
      "##DS": 4702,
      "##read": 4703,
      "##rebro": 4704,
      "ingestion": 4705,
      "induction": 4706,
      "##arinal": 4707,
      "##erul": 4708,
      "##ational": 4709,
      "##ngoing": 4710,
      "##thral": 4711,
      "##stable": 4712,
      "##veill": 4713,
      "##omerul": 4714,
      "##ilis": 4715,
      "##itonitis": 4716,
      "fell": 4717,
      "##oneph": 4718,
      "presented": 4719,
      "hypergly": 4720,
      "##ernight": 4721,
      "exten": 4722,
      "extrac": 4723,
      "midc": 4724,
      "unstable": 4725,
      "syph": 4726,
      "synov": 4727,
      "Productive": 4728,
      "Prolon": 4729,
      "Progressive": 4730,
      "experienced": 4731,
      "compartment": 4732,
      "shower": 4733,
      "angina": 4734,
      "suspected": 4735,
      "haziness": 4736,
      "##ipheral": 4737,
      "sinusitis": 4738,
      "Inadequate": 4739,
      "Peritonitis": 4740,
      "Peripheral": 4741,
      "department": 4742,
      "##lier": 4743,
      "Morbid": 4744,
      "overnight": 4745,
      "earlier": 4746,
      "##cyte": 4747,
      "surveill": 4748,
      "glomerul": 4749,
      "##throcyte": 4750,
      "dehydrated": 4751,
      "Flank": 4752,
      "feeling": 4753,
      "swallowed": 4754,
      "dysphasia": 4755,
      "cuffing": 4756,
      "requirement": 4757,
      "prosthetic": 4758,
      "##yarthral": 4759,
      "disoriented": 4760,
      "entering": 4761,
      "Negative": 4762,
      "transposition": 4763,
      "room": 4764,
      "convexity": 4765,
      "Closure": 4766,
      "ampullary": 4767,
      "Removed": 4768,
      "Tortuous": 4769,
      "Leukemia": 4770,
      "membranoproliferative": 4771,
      "sediment": 4772,
      "intubation": 4773,
      "Prostate": 4774,
      "AIDS": 4775,
      "Aorta": 4776,
      "Cervical": 4777,
      "Desaturation": 4778,
      "ECF": 4779,
      "ESR": 4780,
      "Myeloid": 4781,
      "Occasional": 4782,
      "Polyarthral": 4783,
      "SBP": 4784,
      "Spontaneous": 4785,
      "cerebro": 4786,
      "erythrocyte": 4787,
      "emergency": 4788,
      "pyeloplasty": 4789,
      "v58": 4790,
      "wrist": 4791,
      "##onephritis": 4792,
      "hyperglycemia": 4793,
      "extracellular": 4794,
      "syphilis": 4795,
      "synovial": 4796,
      "Prolonged": 4797,
      "Morbidly": 4798,
      "surveillance": 4799,
      "glomerulonephritis": 4800,
      "sedimentation": 4801,
      "Polyarthralgia": 4802,
      "cerebrovascular": 4803,
      "66": 4804,
      "Bony": 4805,
      "IN": 4806,
      "L1": 4807,
      "Tr": 4808,
      "cx": 4809,
      "eti": 4810,
      "lap": 4811,
      "pulmonic": 4812,
      "run": 4813,
      "rapid": 4814,
      "risk": 4815,
      "sv": 4816,
      "ureter": 4817,
      "##aroscop": 4818,
      "##ny": 4819,
      "##esterol": 4820,
      "##initis": 4821,
      "##itive": 4822,
      "abbreviations": 4823,
      "painful": 4824,
      "##olesterol": 4825,
      "normalized": 4826,
      "assis": 4827,
      "mediastinitis": 4828,
      "retention": 4829,
      "fibros": 4830,
      "coord": 4831,
      "focus": 4832,
      "pread": 4833,
      "unchanged": 4834,
      "cholesterol": 4835,
      "Abbreviations": 4836,
      "10th": 4837,
      "recurrent": 4838,
      "decubitus": 4839,
      "##ologous": 4840,
      "elbowed": 4841,
      "Conf": 4842,
      "international": 4843,
      "suppl": 4844,
      "polyar": 4845,
      "glenoid": 4846,
      "disorientation": 4847,
      "Implantable": 4848,
      "v76": 4849,
      "definitive": 4850,
      "management": 4851,
      "autologous": 4852,
      "nosebleeds": 4853,
      "INR": 4854,
      "Tripped": 4855,
      "cxr": 4856,
      "laparoscop": 4857,
      "runny": 4858,
      "svc": 4859,
      "fibrosing": 4860,
      "coordination": 4861,
      "preadmission": 4862,
      "polyarticular": 4863,
      "laparoscopic": 4864,
      "Current": 4865,
      "Hem": 4866,
      "Ongoing": 4867,
      "Vascular": 4868,
      "lad": 4869,
      "pad": 4870,
      "##other": 4871,
      "##erol": 4872,
      "##uis": 4873,
      "their": 4874,
      "##ans": 4875,
      "##olitis": 4876,
      "access": 4877,
      "visual": 4878,
      "posterol": 4879,
      "testes": 4880,
      "##plained": 4881,
      "##entricular": 4882,
      "protect": 4883,
      "##acheal": 4884,
      "useful": 4885,
      "kyphotic": 4886,
      "bronchiolitis": 4887,
      "recommend": 4888,
      "developing": 4889,
      "consolidating": 4890,
      "Currently": 4891,
      "ladder": 4892,
      "pads": 4893,
      "posterolateral": 4894,
      "Failure": 4895,
      "Ov": 4896,
      "Over": 4897,
      "Osseous": 4898,
      "Some": 4899,
      "Skin": 4900,
      "TN": 4901,
      "Tre": 4902,
      "Tob": 4903,
      "bes": 4904,
      "gall": 4905,
      "mam": 4906,
      "sing": 4907,
      "ul": 4908,
      "une": 4909,
      "##mogram": 4910,
      "instance": 4911,
      "##tium": 4912,
      "##onch": 4913,
      "anat": 4914,
      "living": 4915,
      "##athy": 4916,
      "rightward": 4917,
      "visib": 4918,
      "interstitium": 4919,
      "uncalcified": 4920,
      "clinically": 4921,
      "prominently": 4922,
      "supra": 4923,
      "Postsurgical": 4924,
      "probably": 4925,
      "morning": 4926,
      "##operic": 4927,
      "immunosuppressive": 4928,
      "open": 4929,
      "swallowing": 4930,
      "overlie": 4931,
      "Implanted": 4932,
      "rhonch": 4933,
      "taking": 4934,
      "consequences": 4935,
      "ureteral": 4936,
      "assisted": 4937,
      "supplying": 4938,
      "Ovarian": 4939,
      "TNF": 4940,
      "Treatment": 4941,
      "Tobacco": 4942,
      "mammogram": 4943,
      "single": 4944,
      "unex": 4945,
      "rhonchi": 4946,
      "Blood": 4947,
      "Lumb": 4948,
      "cap": 4949,
      "tr": 4950,
      "##ces": 4951,
      "##ault": 4952,
      "##sing": 4953,
      "##pinal": 4954,
      "##ire": 4955,
      "##oden": 4956,
      "##hesis": 4957,
      "##ins": 4958,
      "##aspinal": 4959,
      "situ": 4960,
      "thin": 4961,
      "##omyc": 4962,
      "pneumon": 4963,
      "##tero": 4964,
      "feet": 4965,
      "##isthesis": 4966,
      "hypercal": 4967,
      "hetero": 4968,
      "##ups": 4969,
      "overla": 4970,
      "paraspinal": 4971,
      "Cardiomyopathy": 4972,
      "Aspiration": 4973,
      "excav": 4974,
      "exacerbations": 4975,
      "possibility": 4976,
      "supine": 4977,
      "cartila": 4978,
      "consolidated": 4979,
      "decrease": 4980,
      "walking": 4981,
      "enteric": 4982,
      "progression": 4983,
      "##ophytes": 4984,
      "extend": 4985,
      "protected": 4986,
      "hypercalcemia": 4987,
      "excavatum": 4988,
      "21": 4989,
      "29": 4990,
      "38": 4991,
      "59": 4992,
      "90": 4993,
      "01": 4994,
      "Bre": 4995,
      "Ca": 4996,
      "Cache": 4997,
      "Eight": 4998,
      "HT": 4999,
      "Hom": 5000,
      "KU": 5001,
      "Men": 5002,
      "Mit": 5003,
      "Mus": 5004,
      "Nec": 5005,
      "PD": 5006,
      "PM": 5007,
      "Park": 5008,
      "Pseudo": 5009,
      "Rapid": 5010,
      "Thy": 5011,
      "UI": 5012,
      "Using": 5013,
      "amb": 5014,
      "fal": 5015,
      "hicc": 5016,
      "lost": 5017,
      "pp": 5018,
      "vs": 5019,
      "wounds": 5020,
      "##cle": 5021,
      "##ctic": 5022,
      "##cision": 5023,
      "##ches": 5024,
      "##ago": 5025,
      "##lto": 5026,
      "##sg": 5027,
      "##pond": 5028,
      "##pathy": 5029,
      "##oy": 5030,
      "##gital": 5031,
      "##ventricular": 5032,
      "##fer": 5033,
      "##bag": 5034,
      "##molar": 5035,
      "##ks": 5036,
      "##kines": 5037,
      "##went": 5038,
      "##RI": 5039,
      "##rotal": 5040,
      "##tigo": 5041,
      "##titis": 5042,
      "##ontin": 5043,
      "##arsen": 5044,
      "##asian": 5045,
      "##ulitis": 5046,
      "##ulance": 5047,
      "ormal": 5048,
      "##icable": 5049,
      "anus": 5050,
      "anterol": 5051,
      "##urisy": 5052,
      "##stair": 5053,
      "ablation": 5054,
      "##respond": 5055,
      "##ocytic": 5056,
      "##ceiving": 5057,
      "##monas": 5058,
      "##teration": 5059,
      "##gestive": 5060,
      "digital": 5061,
      "depl": 5062,
      "delto": 5063,
      "##othache": 5064,
      "##ystitis": 5065,
      "receiving": 5066,
      "airbag": 5067,
      "##utches": 5068,
      "outn": 5069,
      "seiz": 5070,
      "##eless": 5071,
      "##athing": 5072,
      "##hage": 5073,
      "hemog": 5074,
      "##ucasian": 5075,
      "stones": 5076,
      "##ielded": 5077,
      "lymphocytic": 5078,
      "shoulders": 5079,
      "##unicable": 5080,
      "lipase": 5081,
      "tubal": 5082,
      "Shielded": 5083,
      "##iport": 5084,
      "postmen": 5085,
      "##rosmolar": 5086,
      "myotomy": 5087,
      "myoperic": 5088,
      "mediport": 5089,
      "cervicalgia": 5090,
      "underwent": 5091,
      "hyperosmolar": 5092,
      "Hypervis": 5093,
      "##cosity": 5094,
      "##ancy": 5095,
      "Alveolar": 5096,
      "cellulitis": 5097,
      "Thank": 5098,
      "correspond": 5099,
      "##uropathy": 5100,
      "bruis": 5101,
      "cholecystitis": 5102,
      "##orrhage": 5103,
      "Congestive": 5104,
      "Calcif": 5105,
      "Scrotal": 5106,
      "involve": 5107,
      "pregnancy": 5108,
      "Pleurisy": 5109,
      "hoarsen": 5110,
      "Abnormalities": 5111,
      "Complaining": 5112,
      "14th": 5113,
      "downstair": 5114,
      "Incontin": 5115,
      "inhalation": 5116,
      "Diagnosed": 5117,
      "783": 5118,
      "immunosuppression": 5119,
      "Transfer": 5120,
      "cardioversion": 5121,
      "adrenalectomy": 5122,
      "development": 5123,
      "investigation": 5124,
      "growing": 5125,
      "Headaches": 5126,
      "Collision": 5127,
      "communicable": 5128,
      "obliteration": 5129,
      "crutches": 5130,
      "former": 5131,
      "walks": 5132,
      "incompletely": 5133,
      "Neuropathy": 5134,
      "transported": 5135,
      "v70": 5136,
      "definition": 5137,
      "rhinitis": 5138,
      "objects": 5139,
      "dyskines": 5140,
      "Vertigo": 5141,
      "circumcision": 5142,
      "streaked": 5143,
      "Examination": 5144,
      "Toothache": 5145,
      "##lobin": 5146,
      "pretrans": 5147,
      "midchest": 5148,
      "Hemorrhage": 5149,
      "supraventricular": 5150,
      "unexplained": 5151,
      "Lumbago": 5152,
      "##inson": 5153,
      "011": 5154,
      "Breathing": 5155,
      "Caucasian": 5156,
      "Cachectic": 5157,
      "HTN": 5158,
      "Homeless": 5159,
      "KUB": 5160,
      "Menopausal": 5161,
      "Mitomyopathy": 5162,
      "Muscle": 5163,
      "Neck": 5164,
      "PDR": 5165,
      "PMale": 5166,
      "Parkinson": 5167,
      "Pseudomonas": 5168,
      "Thyroid": 5169,
      "UIP": 5170,
      "ambulance": 5171,
      "false": 5172,
      "hiccups": 5173,
      "ppd": 5174,
      "##sgiving": 5175,
      "##oyment": 5176,
      "deployment": 5177,
      "deltoid": 5178,
      "seizures": 5179,
      "hemoglobin": 5180,
      "postmenopausal": 5181,
      "myopericarditis": 5182,
      "Hyperviscosity": 5183,
      "Thanksgiving": 5184,
      "bruising": 5185,
      "hoarseness": 5186,
      "downstairs": 5187,
      "Incontinence": 5188,
      "dyskinesia": 5189,
      "pretransplant": 5190,
      "64": 5191,
      "Border": 5192,
      "Bibasilar": 5193,
      "Could": 5194,
      "Rect": 5195,
      "difficul": 5196,
      "hor": 5197,
      "iron": 5198,
      "os": 5199,
      "palp": 5200,
      "tire": 5201,
      "##over": 5202,
      "##ele": 5203,
      "##bg": 5204,
      "##asound": 5205,
      "anemia": 5206,
      "##ocal": 5207,
      "##ocele": 5208,
      "##omening": 5209,
      "##tinomyc": 5210,
      "##trasound": 5211,
      "cardiovascular": 5212,
      "peribronchial": 5213,
      "hemothorax": 5214,
      "##thritic": 5215,
      "cabg": 5216,
      "compar": 5217,
      "scars": 5218,
      "Cardiover": 5219,
      "parotid": 5220,
      "Mildly": 5221,
      "discoid": 5222,
      "myelomening": 5223,
      "Multilevel": 5224,
      "Actinomyc": 5225,
      "tuberculous": 5226,
      "Arthritic": 5227,
      "Assault": 5228,
      "times": 5229,
      "Defibrillator": 5230,
      "terminating": 5231,
      "effect": 5232,
      "Accident": 5233,
      "ultrasound": 5234,
      "pneumonias": 5235,
      "Borderline": 5236,
      "Rectal": 5237,
      "palpation": 5238,
      "Cardioverter": 5239,
      "myelomeningocele": 5240,
      "Actinomyces": 5241,
      "En": 5242,
      "Ster": 5243,
      "##aer": 5244,
      "another": 5245,
      "##ides": 5246,
      "metal": 5247,
      "hyperaer": 5248,
      "##ather": 5249,
      "cancerind": 5250,
      "addition": 5251,
      "purpose": 5252,
      "intervertebral": 5253,
      "Consider": 5254,
      "needed": 5255,
      "artifactual": 5256,
      "destruction": 5257,
      "damage": 5258,
      "etiology": 5259,
      "Confirm": 5260,
      "Sternotomy": 5261,
      "metallic": 5262,
      "Blun": 5263,
      "Cost": 5264,
      "inlet": 5265,
      "##ontal": 5266,
      "##tracheal": 5267,
      "cours": 5268,
      "##larged": 5269,
      "##ickening": 5270,
      "lobulated": 5271,
      "subpleural": 5272,
      "##izontal": 5273,
      "epig": 5274,
      "types": 5275,
      "However": 5276,
      "Thickening": 5277,
      "potentially": 5278,
      "general": 5279,
      "tension": 5280,
      "markedly": 5281,
      "overlapping": 5282,
      "recesses": 5283,
      "characteristics": 5284,
      "direct": 5285,
      "Without": 5286,
      "visibility": 5287,
      "horizontal": 5288,
      "Costophrenic": 5289,
      "Given": 5290,
      "Ha": 5291,
      "MRI": 5292,
      "gastric": 5293,
      "##clear": 5294,
      "##esm": 5295,
      "##ened": 5296,
      "contex": 5297,
      "##ifes": 5298,
      "enh": 5299,
      "expan": 5300,
      "uncer": 5301,
      "unclear": 5302,
      "health": 5303,
      "subphrenic": 5304,
      "##domen": 5305,
      "accumulations": 5306,
      "Tracheal": 5307,
      "minimally": 5308,
      "reduction": 5309,
      "refers": 5310,
      "syndesm": 5311,
      "obscuring": 5312,
      "Acromioclavicular": 5313,
      "marginal": 5314,
      "besides": 5315,
      "Blunting": 5316,
      "Have": 5317,
      "context": 5318,
      "uncertain": 5319,
      "A2": 5320,
      "Fore": 5321,
      "IVC": 5322,
      "hard": 5323,
      "##are": 5324,
      "##ier": 5325,
      "##ware": 5326,
      "Nod": 5327,
      "##ngular": 5328,
      "##oliotic": 5329,
      "##iangular": 5330,
      "splen": 5331,
      "##piratory": 5332,
      "particular": 5333,
      "scapulae": 5334,
      "consolidative": 5335,
      "margins": 5336,
      "Osteop": 5337,
      "differences": 5338,
      "Density": 5339,
      "triangular": 5340,
      "heterogeneous": 5341,
      "cartilages": 5342,
      "Foreign": 5343,
      "hardware": 5344,
      "splenic": 5345,
      "descr": 5346,
      "rather": 5347,
      "##ange": 5348,
      "##aff": 5349,
      "##ground": 5350,
      "##ves": 5351,
      "##fications": 5352,
      "##roplasty": 5353,
      "##ison": 5354,
      "##ician": 5355,
      "anch": 5356,
      "##oured": 5357,
      "##ock": 5358,
      "##omical": 5359,
      "##change": 5360,
      "set": 5361,
      "##onectomy": 5362,
      "bronchitic": 5363,
      "foci": 5364,
      "vasculatures": 5365,
      "radioden": 5366,
      "unaff": 5367,
      "##iption": 5368,
      "included": 5369,
      "background": 5370,
      "para": 5371,
      "adv": 5372,
      "coarsened": 5373,
      "extremely": 5374,
      "compare": 5375,
      "Additionally": 5376,
      "contoured": 5377,
      "films": 5378,
      "progressive": 5379,
      "terminates": 5380,
      "object": 5381,
      "anatomical": 5382,
      "anterolisthesis": 5383,
      "corresponds": 5384,
      "comparison": 5385,
      "hyperaerated": 5386,
      "Considering": 5387,
      "description": 5388,
      "unaffected": 5389,
      "2nd": 5390,
      "Mark": 5391,
      "fav": 5392,
      "tom": 5393,
      "##fting": 5394,
      "inte": 5395,
      "##orly": 5396,
      "##edic": 5397,
      "##ocurvature": 5398,
      "##irst": 5399,
      "notes": 5400,
      "canal": 5401,
      "exchange": 5402,
      "vessel": 5403,
      "Unremarkable": 5404,
      "dextro": 5405,
      "lucent": 5406,
      "residuals": 5407,
      "Emphysematous": 5408,
      "narrowed": 5409,
      "##ophyte": 5410,
      "growths": 5411,
      "contribute": 5412,
      "syndesmophytes": 5413,
      "Evid": 5414,
      "Sub": 5415,
      "fung": 5416,
      "how": 5417,
      "ly": 5418,
      "lay": 5419,
      "phys": 5420,
      "pier": 5421,
      "##uation": 5422,
      "##reting": 5423,
      "inn": 5424,
      "proced": 5425,
      "##timal": 5426,
      "ann": 5427,
      "ante": 5428,
      "##sile": 5429,
      "##iform": 5430,
      "calc": 5431,
      "scoliotic": 5432,
      "##tially": 5433,
      "##obular": 5434,
      "##tenuation": 5435,
      "##ored": 5436,
      "subchond": 5437,
      "hiatus": 5438,
      "##ecifically": 5439,
      "maintained": 5440,
      "computed": 5441,
      "attenuation": 5442,
      "ventricles": 5443,
      "##ability": 5444,
      "##ressing": 5445,
      "interface": 5446,
      "##osterior": 5447,
      "discs": 5448,
      "##roposterior": 5449,
      "interpreting": 5450,
      "levocurvature": 5451,
      "blis": 5452,
      "Specifically": 5453,
      "disrupted": 5454,
      "difficult": 5455,
      "Enlarged": 5456,
      "Confirmed": 5457,
      "favored": 5458,
      "fungal": 5459,
      "physician": 5460,
      "procedures": 5461,
      "anteroposterior": 5462,
      "subchondral": 5463,
      "Focal": 5464,
      "Hiat": 5465,
      "adi": 5466,
      "funne": 5467,
      "first": 5468,
      "ove": 5469,
      "ortu": 5470,
      "##oli": 5471,
      "pneumonectomy": 5472,
      "##try": 5473,
      "liga": 5474,
      "enough": 5475,
      "poorly": 5476,
      "rays": 5477,
      "exact": 5478,
      "surgeries": 5479,
      "nasogastric": 5480,
      "severely": 5481,
      "##ICD": 5482,
      "subcarinal": 5483,
      "exaggeration": 5484,
      "affects": 5485,
      "##grity": 5486,
      "role": 5487,
      "pathologies": 5488,
      "capping": 5489,
      "expansile": 5490,
      "Osteopenia": 5491,
      "anchor": 5492,
      "parahilar": 5493,
      "advanced": 5494,
      "integrity": 5495,
      "however": 5496,
      "Hiatal": 5497,
      "adipose": 5498,
      "funnel": 5499,
      "overexpanded": 5500,
      "Central": 5501,
      "bacterial": 5502,
      "cas": 5503,
      "ech": 5504,
      "flow": 5505,
      "##iant": 5506,
      "theP": 5507,
      "##inatum": 5508,
      "site": 5509,
      "##ering": 5510,
      "##enic": 5511,
      "dimen": 5512,
      "confirming": 5513,
      "break": 5514,
      "vertebroplasty": 5515,
      "##cessary": 5516,
      "thoracotomy": 5517,
      "congested": 5518,
      "identify": 5519,
      "positional": 5520,
      "comprom": 5521,
      "attributed": 5522,
      "osteopenic": 5523,
      "necessary": 5524,
      "typically": 5525,
      "interrup": 5526,
      "correspon": 5527,
      "variant": 5528,
      "inspiratory": 5529,
      "patterns": 5530,
      "valves": 5531,
      "characterization": 5532,
      "carinatum": 5533,
      "commonly": 5534,
      "femoral": 5535,
      "contains": 5536,
      "Calcification": 5537,
      "radiodensity": 5538,
      "Evidence": 5539,
      "layering": 5540,
      "echoc": 5541,
      "breaks": 5542,
      "corresponding": 5543,
      "Old": 5544,
      "VP": 5545,
      "ere": 5546,
      "lifes": 5547,
      "phy": 5548,
      "tex": 5549,
      "##ading": 5550,
      "##otracheal": 5551,
      "##erexpanded": 5552,
      "##yond": 5553,
      "##tilated": 5554,
      "orient": 5555,
      "notif": 5556,
      "##umed": 5557,
      "##fun": 5558,
      "##ardiography": 5559,
      "##seus": 5560,
      "##ticip": 5561,
      "##iable": 5562,
      "leading": 5563,
      "##optimal": 5564,
      "beyond": 5565,
      "spread": 5566,
      "expiration": 5567,
      "plaque": 5568,
      "##terstitial": 5569,
      "##tyle": 5570,
      "tubular": 5571,
      "allowing": 5572,
      "osteod": 5573,
      "import": 5574,
      "endotracheal": 5575,
      "interspace": 5576,
      "Interstitial": 5577,
      "grafting": 5578,
      "approximating": 5579,
      "measure": 5580,
      "adequate": 5581,
      "##sentially": 5582,
      "Spinal": 5583,
      "usually": 5584,
      "disruption": 5585,
      "accessory": 5586,
      "gallst": 5587,
      "osseus": 5588,
      "courses": 5589,
      "Nodular": 5590,
      "echocardiography": 5591,
      "lifestyle": 5592,
      "physi": 5593,
      "texture": 5594,
      "##ticipated": 5595,
      "osteodystrophy": 5596,
      "Bi": 5597,
      "Lar": 5598,
      "Numerous": 5599,
      "Red": 5600,
      "Wid": 5601,
      "nex": 5602,
      "ser": 5603,
      "stil": 5604,
      "##flow": 5605,
      "##bable": 5606,
      "##bladder": 5607,
      "##xta": 5608,
      "##rew": 5609,
      "inst": 5610,
      "##onodular": 5611,
      "##veoli": 5612,
      "screw": 5613,
      "uniform": 5614,
      "arterial": 5615,
      "all": 5616,
      "alveoli": 5617,
      "Probable": 5618,
      "media": 5619,
      "Hyperinflated": 5620,
      "##itical": 5621,
      "superiorly": 5622,
      "##ticulonodular": 5623,
      "Contrast": 5624,
      "correlated": 5625,
      "approximate": 5626,
      "involves": 5627,
      "deposition": 5628,
      "##oplas": 5629,
      "endplates": 5630,
      "surface": 5631,
      "juxta": 5632,
      "Severe": 5633,
      "##oscop": 5634,
      "portions": 5635,
      "details": 5636,
      "Osteophyte": 5637,
      "dysfun": 5638,
      "pathological": 5639,
      "Overall": 5640,
      "extends": 5641,
      "particularly": 5642,
      "tomography": 5643,
      "annular": 5644,
      "calcium": 5645,
      "dimension": 5646,
      "Biapical": 5647,
      "Large": 5648,
      "next": 5649,
      "still": 5650,
      "juxtahilar": 5651,
      "dysfunction": 5652,
      "Bul": 5653,
      "corac": 5654,
      "fle": 5655,
      "opa": 5656,
      "step": 5657,
      "##cings": 5658,
      "##lot": 5659,
      "##ile": 5660,
      "##rib": 5661,
      "##gill": 5662,
      "ofthing": 5663,
      "##astr": 5664,
      "##ene": 5665,
      "orig": 5666,
      "##icient": 5667,
      "suff": 5668,
      "asper": 5669,
      "##tration": 5670,
      "cardioth": 5671,
      "infrac": 5672,
      "short": 5673,
      "outflow": 5674,
      "bronchop": 5675,
      "suboptimal": 5676,
      "knees": 5677,
      "underinflated": 5678,
      "##atest": 5679,
      "representation": 5680,
      "curved": 5681,
      "distortion": 5682,
      "dependent": 5683,
      "greatest": 5684,
      "Complications": 5685,
      "supp": 5686,
      "densely": 5687,
      "Lower": 5688,
      "##geneity": 5689,
      "bene": 5690,
      "Techn": 5691,
      "Impro": 5692,
      "Spine": 5693,
      "circular": 5694,
      "incidentally": 5695,
      "Airspace": 5696,
      "taken": 5697,
      "Overlying": 5698,
      "overlay": 5699,
      "overlaid": 5700,
      "epigastr": 5701,
      "blister": 5702,
      "interruption": 5703,
      "Redemonstr": 5704,
      "instability": 5705,
      "##oscopy": 5706,
      "flex": 5707,
      "##gilloma": 5708,
      "origin": 5709,
      "sufficient": 5710,
      "aspergilloma": 5711,
      "epigastrium": 5712,
      "AICD": 5713,
      "Kyp": 5714,
      "Luc": 5715,
      "Med": 5716,
      "action": 5717,
      "ic": 5718,
      "oval": 5719,
      "taper": 5720,
      "##ults": 5721,
      "##stomy": 5722,
      "suit": 5723,
      "##ctum": 5724,
      "##ured": 5725,
      "reticulonodular": 5726,
      "rectum": 5727,
      "presumed": 5728,
      "##iltrate": 5729,
      "##ower": 5730,
      "##lusion": 5731,
      "limitations": 5732,
      "midlower": 5733,
      "##ame": 5734,
      "##inflation": 5735,
      "##ographic": 5736,
      "overinflated": 5737,
      "regular": 5738,
      "essentially": 5739,
      "denser": 5740,
      "Scle": 5741,
      "grafts": 5742,
      "Infiltrate": 5743,
      "obscures": 5744,
      "Bronchovascular": 5745,
      "poly": 5746,
      "characterize": 5747,
      "degenerated": 5748,
      "inferiorly": 5749,
      "appreciable": 5750,
      "monitoring": 5751,
      "aligned": 5752,
      "walled": 5753,
      "warranted": 5754,
      "Spondylosis": 5755,
      "corticated": 5756,
      "fissural": 5757,
      "depends": 5758,
      "gallbladder": 5759,
      "enhanced": 5760,
      "opaque": 5761,
      "bronchopleural": 5762,
      "Medical": 5763,
      "icd": 5764,
      "tapering": 5765,
      "Chang": 5766,
      "DI": 5767,
      "IV": 5768,
      "L2": 5769,
      "Sl": 5770,
      "Was": 5771,
      "a2": 5772,
      "hips": 5773,
      "##bdomen": 5774,
      "##SH": 5775,
      "##orre": 5776,
      "##ulate": 5777,
      "##ominate": 5778,
      "calcifie": 5779,
      "##tract": 5780,
      "##ronically": 5781,
      "##aphoid": 5782,
      "absent": 5783,
      "##iabdomen": 5784,
      "##isted": 5785,
      "articul": 5786,
      "hemiabdomen": 5787,
      "##ucting": 5788,
      "stran": 5789,
      "bronchopulmonary": 5790,
      "bronchoscopy": 5791,
      "obstructing": 5792,
      "prevertebral": 5793,
      "formations": 5794,
      "subst": 5795,
      "chronically": 5796,
      "marker": 5797,
      "angulate": 5798,
      "##imm": 5799,
      "Tracheostomy": 5800,
      "laterally": 5801,
      "##ached": 5802,
      "heads": 5803,
      "project": 5804,
      "depending": 5805,
      "partly": 5806,
      "Arthritis": 5807,
      "reflects": 5808,
      "different": 5809,
      "consequence": 5810,
      "visualization": 5811,
      "innominate": 5812,
      "ortuous": 5813,
      "ligament": 5814,
      "gallstones": 5815,
      "Widened": 5816,
      "series": 5817,
      "infracarinal": 5818,
      "Technical": 5819,
      "Redemonstration": 5820,
      "Changes": 5821,
      "DISH": 5822,
      "Slight": 5823,
      "##tracted": 5824,
      "articulation": 5825,
      "A4": 5826,
      "A6": 5827,
      "A3": 5828,
      "A5": 5829,
      "A8": 5830,
      "A7": 5831,
      "A9": 5832,
      "Again": 5833,
      "Gross": 5834,
      "L3": 5835,
      "Man": 5836,
      "case": 5837,
      "done": 5838,
      "hig": 5839,
      "oli": 5840,
      "solid": 5841,
      "same": 5842,
      "tw": 5843,
      "tree": 5844,
      "##agement": 5845,
      "##long": 5846,
      "##rum": 5847,
      "##of": 5848,
      "##fic": 5849,
      "##ques": 5850,
      "##reated": 5851,
      "##erable": 5852,
      "##isplaced": 5853,
      "Note": 5854,
      "##though": 5855,
      "##gemia": 5856,
      "##umerable": 5857,
      "contin": 5858,
      "##nec": 5859,
      "##difications": 5860,
      "thir": 5861,
      "called": 5862,
      "obtain": 5863,
      "oblong": 5864,
      "##emoral": 5865,
      "##eling": 5866,
      "##atively": 5867,
      "##ellof": 5868,
      "limitation": 5869,
      "midab": 5870,
      "modifications": 5871,
      "segmental": 5872,
      "results": 5873,
      "patellof": 5874,
      "neoplas": 5875,
      "##quely": 5876,
      "Hyperexpanded": 5877,
      "while": 5878,
      "embolization": 5879,
      "persistently": 5880,
      "imaged": 5881,
      "approach": 5882,
      "deposi": 5883,
      "gastrostomy": 5884,
      "##scrib": 5885,
      "assessing": 5886,
      "esophagogastric": 5887,
      "functional": 5888,
      "asymmetry": 5889,
      "resolve": 5890,
      "Decubitus": 5891,
      "A14": 5892,
      "A16": 5893,
      "A13": 5894,
      "A12": 5895,
      "A15": 5896,
      "A11": 5897,
      "A10": 5898,
      "A18": 5899,
      "A17": 5900,
      "A19": 5901,
      "sacs": 5902,
      "sacrum": 5903,
      "block": 5904,
      "obliquely": 5905,
      "critical": 5906,
      "managed": 5907,
      "circumscrib": 5908,
      "Within": 5909,
      "definitively": 5910,
      "A20": 5911,
      "setting": 5912,
      "Marked": 5913,
      "piercings": 5914,
      "cases": 5915,
      "oriented": 5916,
      "physiology": 5917,
      "uniformly": 5918,
      "Improved": 5919,
      "flexion": 5920,
      "Lucency": 5921,
      "Grossly": 5922,
      "Management": 5923,
      "higher": 5924,
      "oligemia": 5925,
      "##ficial": 5926,
      "third": 5927,
      "midabdomen": 5928,
      "patellofemoral": 5929,
      "neoplastic": 5930,
      "deposits": 5931,
      "circumscribed": 5932,
      "Lumbar": 5933,
      "NG": 5934,
      "Tub": 5935,
      "biliary": 5936,
      "cres": 5937,
      "doc": 5938,
      "dedic": 5939,
      "mob": 5940,
      "pock": 5941,
      "tib": 5942,
      "vary": 5943,
      "yper": 5944,
      "##cen": 5945,
      "##cla": 5946,
      "##lf": 5947,
      "##spaces": 5948,
      "##oimm": 5949,
      "##une": 5950,
      "##uity": 5951,
      "##tile": 5952,
      "##inous": 5953,
      "##orab": 5954,
      "##asal": 5955,
      "ortic": 5956,
      "##acity": 5957,
      "##sifications": 5958,
      "thorab": 5959,
      "##trictive": 5960,
      "##self": 5961,
      "retracted": 5962,
      "airspaces": 5963,
      "aorticopulmonary": 5964,
      "scaphoid": 5965,
      "acuity": 5966,
      "##dering": 5967,
      "##luder": 5968,
      "##iectatic": 5969,
      "bronchiectatic": 5970,
      "hyperden": 5971,
      "##ets": 5972,
      "thickened": 5973,
      "##ystectomy": 5974,
      "elements": 5975,
      "mix": 5976,
      "altern": 5977,
      "posture": 5978,
      "itself": 5979,
      "##ectile": 5980,
      "add": 5981,
      "100": 5982,
      "restrictive": 5983,
      "provides": 5984,
      "cercla": 5985,
      "Tracheobronchial": 5986,
      "nondi": 5987,
      "##ances": 5988,
      "##ancing": 5989,
      "definitely": 5990,
      "Intact": 5991,
      "elong": 5992,
      "cortex": 5993,
      "##ondral": 5994,
      "##lecystectomy": 5995,
      "implication": 5996,
      "implications": 5997,
      "projectile": 5998,
      "refer": 5999,
      "medially": 6000,
      "occluder": 6001,
      "rotatory": 6002,
      "##lucent": 6003,
      "globular": 6004,
      "viral": 6005,
      "organs": 6006,
      "Cholecystectomy": 6007,
      "hypoventilated": 6008,
      "Prominence": 6009,
      "Granulomas": 6010,
      "fragments": 6011,
      "autoimm": 6012,
      "effort": 6013,
      "Dense": 6014,
      "recommendations": 6015,
      "capacity": 6016,
      "ossifications": 6017,
      "epiglot": 6018,
      "enhancing": 6019,
      "compromise": 6020,
      "important": 6021,
      "shortening": 6022,
      "Sclerosis": 6023,
      "blockage": 6024,
      "crescen": 6025,
      "dedicated": 6026,
      "pockets": 6027,
      "thorabony": 6028,
      "cerclage": 6029,
      "autoimmune": 6030,
      "epiglottis": 6031,
      "crescentic": 6032,
      "Corre": 6033,
      "Dex": 6034,
      "ace": 6035,
      "bound": 6036,
      "bihilar": 6037,
      "centr": 6038,
      "cross": 6039,
      "egenerative": 6040,
      "fill": 6041,
      "je": 6042,
      "trac": 6043,
      "tenting": 6044,
      "tric": 6045,
      "##cting": 6046,
      "##deling": 6047,
      "##pread": 6048,
      "##pene": 6049,
      "##treated": 6050,
      "##olen": 6051,
      "##fra": 6052,
      "##uting": 6053,
      "##wel": 6054,
      "##rel": 6055,
      "##aled": 6056,
      "theroscle": 6057,
      "indolen": 6058,
      "##aries": 6059,
      "##ining": 6060,
      "##ording": 6061,
      "##ulum": 6062,
      "##iculated": 6063,
      "##ediat": 6064,
      "##maged": 6065,
      "wides": 6066,
      "##ide": 6067,
      "##chan": 6068,
      "##ilobular": 6069,
      "diuretic": 6070,
      "inform": 6071,
      "##utation": 6072,
      "presentation": 6073,
      "spiculated": 6074,
      "enlarging": 6075,
      "##ieved": 6076,
      "mechan": 6077,
      "thickness": 6078,
      "heav": 6079,
      "bulge": 6080,
      "##minutive": 6081,
      "walls": 6082,
      "Extensive": 6083,
      "Exagger": 6084,
      "costodi": 6085,
      "adminis": 6086,
      "rest": 6087,
      "atria": 6088,
      "underpene": 6089,
      "kidneys": 6090,
      "superficial": 6091,
      "remodeling": 6092,
      "ell": 6093,
      "conclusion": 6094,
      "immediat": 6095,
      "fold": 6096,
      "Anticipated": 6097,
      "symmetry": 6098,
      "magn": 6099,
      "functioning": 6100,
      "##ship": 6101,
      "depressions": 6102,
      "resolving": 6103,
      "##tabulum": 6104,
      "chambers": 6105,
      "relationship": 6106,
      "exclusion": 6107,
      "attached": 6108,
      "##artmental": 6109,
      "##ompartmental": 6110,
      "sacroiliac": 6111,
      "timefra": 6112,
      "lordosis": 6113,
      "confluence": 6114,
      "differenti": 6115,
      "Clips": 6116,
      "amputation": 6117,
      "direction": 6118,
      "contributing": 6119,
      "containing": 6120,
      "situated": 6121,
      "Calcifications": 6122,
      "generally": 6123,
      "Markings": 6124,
      "beneath": 6125,
      "twisted": 6126,
      "mixed": 6127,
      "addressing": 6128,
      "Dextroscoliosis": 6129,
      "acetabulum": 6130,
      "boundaries": 6131,
      "centrilobular": 6132,
      "filling": 6133,
      "jewel": 6134,
      "traction": 6135,
      "tricompartmental": 6136,
      "indolent": 6137,
      "widespread": 6138,
      "informative": 6139,
      "costodiaphragmatic": 6140,
      "administration": 6141,
      "timeframe": 6142,
      "jewelry": 6143,
      "Ap": 6144,
      "From": 6145,
      "Ling": 6146,
      "Ma": 6147,
      "Par": 6148,
      "Pectus": 6149,
      "cop": 6150,
      "creased": 6151,
      "duct": 6152,
      "ground": 6153,
      "pann": 6154,
      "sk": 6155,
      "yp": 6156,
      "##amp": 6157,
      "##aus": 6158,
      "##lator": 6159,
      "##portion": 6160,
      "##itracheal": 6161,
      "##grow": 6162,
      "##uous": 6163,
      "##rehen": 6164,
      "##artila": 6165,
      "ordering": 6166,
      "##acathe": 6167,
      "##ument": 6168,
      "pneumatoc": 6169,
      "cardia": 6170,
      "##raded": 6171,
      "peritracheal": 6172,
      "notably": 6173,
      "##eles": 6174,
      "confined": 6175,
      "conspic": 6176,
      "articular": 6177,
      "spondyl": 6178,
      "##derlying": 6179,
      "bronchodi": 6180,
      "##ymic": 6181,
      "noticeable": 6182,
      "noticeably": 6183,
      "##licating": 6184,
      "untreated": 6185,
      "##ateaus": 6186,
      "accur": 6187,
      "although": 6188,
      "chronicity": 6189,
      "comprehen": 6190,
      "complicating": 6191,
      "##ificant": 6192,
      "External": 6193,
      "respon": 6194,
      "plateaus": 6195,
      "sarcoid": 6196,
      "exams": 6197,
      "##testin": 6198,
      "Underlying": 6199,
      "##segmental": 6200,
      "correct": 6201,
      "##ounting": 6202,
      "pacing": 6203,
      "Peribronchial": 6204,
      "localization": 6205,
      "improving": 6206,
      "##foot": 6207,
      "stabili": 6208,
      "Healed": 6209,
      "glass": 6210,
      "persist": 6211,
      "degraded": 6212,
      "morbidly": 6213,
      "portacathe": 6214,
      "Senescent": 6215,
      "managing": 6216,
      "Osteophytes": 6217,
      "homogeneity": 6218,
      "directly": 6219,
      "streakiness": 6220,
      "Accounting": 6221,
      "anatomy": 6222,
      "coursing": 6223,
      "healthy": 6224,
      "Subsegmental": 6225,
      "piercing": 6226,
      "notification": 6227,
      "notified": 6228,
      "coracoclavicular": 6229,
      "cardiothymic": 6230,
      "Kyphotic": 6231,
      "Slightly": 6232,
      "Tube": 6233,
      "document": 6234,
      "mobility": 6235,
      "tibial": 6236,
      "hyperdense": 6237,
      "alternatively": 6238,
      "Correlate": 6239,
      "heavily": 6240,
      "Major": 6241,
      "copd": 6242,
      "pannus": 6243,
      "##growth": 6244,
      "pneumatoceles": 6245,
      "conspicuous": 6246,
      "spondylitic": 6247,
      "bronchodilator": 6248,
      "comprehensive": 6249,
      "portacatheter": 6250,
      "documented": 6251,
      "Cav": 6252,
      "For": 6253,
      "Flowing": 6254,
      "Less": 6255,
      "Re": 6256,
      "Rot": 6257,
      "Volum": 6258,
      "Vague": 6259,
      "Wed": 6260,
      "bib": 6261,
      "dom": 6262,
      "eart": 6263,
      "har": 6264,
      "hump": 6265,
      "kind": 6266,
      "none": 6267,
      "pseudo": 6268,
      "track": 6269,
      "##displaced": 6270,
      "##listhesis": 6271,
      "##satory": 6272,
      "##ience": 6273,
      "##rural": 6274,
      "##ok": 6275,
      "##ole": 6276,
      "##old": 6277,
      "##hap": 6278,
      "##fissure": 6279,
      "##ued": 6280,
      "##udal": 6281,
      "##ties": 6282,
      "##ordi": 6283,
      "##ensatory": 6284,
      "##ised": 6285,
      "anticipated": 6286,
      "##active": 6287,
      "##acral": 6288,
      "##uminal": 6289,
      "will": 6290,
      "##antial": 6291,
      "connec": 6292,
      "though": 6293,
      "those": 6294,
      "##iasis": 6295,
      "##ardium": 6296,
      "loculation": 6297,
      "##trical": 6298,
      "diminutive": 6299,
      "infiltr": 6300,
      "reques": 6301,
      "section": 6302,
      "opacified": 6303,
      "##dening": 6304,
      "leftward": 6305,
      "observ": 6306,
      "extral": 6307,
      "##tended": 6308,
      "when": 6309,
      "upon": 6310,
      "##osum": 6311,
      "##ostic": 6312,
      "##osacral": 6313,
      "collecting": 6314,
      "segments": 6315,
      "sternal": 6316,
      "account": 6317,
      "according": 6318,
      "caudal": 6319,
      "experience": 6320,
      "compensatory": 6321,
      "shown": 6322,
      "parts": 6323,
      "##ovole": 6324,
      "deformed": 6325,
      "injection": 6326,
      "Hyperinflation": 6327,
      "nondisplaced": 6328,
      "interlob": 6329,
      "Significant": 6330,
      "barrel": 6331,
      "##lecting": 6332,
      "Recommen": 6333,
      "arteriographic": 6334,
      "arteriosum": 6335,
      "extreme": 6336,
      "reflecting": 6337,
      "collapses": 6338,
      "traumatic": 6339,
      "varies": 6340,
      "retrocrural": 6341,
      "occup": 6342,
      "bile": 6343,
      "believed": 6344,
      "retrolisthesis": 6345,
      "asymmetrical": 6346,
      "Adjacent": 6347,
      "##parent": 6348,
      "helps": 6349,
      "outlining": 6350,
      "Obsc": 6351,
      "manifes": 6352,
      "passes": 6353,
      "termination": 6354,
      "terminate": 6355,
      "Granuloma": 6356,
      "radiological": 6357,
      "##udative": 6358,
      "fourth": 6359,
      "Vertebral": 6360,
      "contributes": 6361,
      "considering": 6362,
      "entirely": 6363,
      "damaged": 6364,
      "##ready": 6365,
      "difficulties": 6366,
      "innumerable": 6367,
      "compromised": 6368,
      "suppor": 6369,
      "support": 6370,
      "suitable": 6371,
      "strandy": 6372,
      "substantial": 6373,
      "ligamentum": 6374,
      "solidification": 6375,
      "continued": 6376,
      "yperlucent": 6377,
      "elongation": 6378,
      "diuretics": 6379,
      "mechanism": 6380,
      "Exaggerated": 6381,
      "Cavitation": 6382,
      "Rotated": 6383,
      "Volume": 6384,
      "Wedge": 6385,
      "bibasal": 6386,
      "hardening": 6387,
      "pseudofissure": 6388,
      "tracking": 6389,
      "##ordial": 6390,
      "connective": 6391,
      "extraluminal": 6392,
      "##ovolemia": 6393,
      "interlobar": 6394,
      "Recommend": 6395,
      "54": 6396,
      "At": 6397,
      "Apical": 6398,
      "Di": 6399,
      "Ret": 6400,
      "Str": 6401,
      "Stent": 6402,
      "a4": 6403,
      "a6": 6404,
      "a3": 6405,
      "a5": 6406,
      "a8": 6407,
      "a7": 6408,
      "a9": 6409,
      "cen": 6410,
      "ge": 6411,
      "her": 6412,
      "iaphragm": 6413,
      "l1": 6414,
      "lumb": 6415,
      "linear": 6416,
      "mul": 6417,
      "max": 6418,
      "mann": 6419,
      "ng": 6420,
      "pas": 6421,
      "pic": 6422,
      "pun": 6423,
      "pedic": 6424,
      "vol": 6425,
      "wear": 6426,
      "##dgment": 6427,
      "##agn": 6428,
      "##ared": 6429,
      "##lin": 6430,
      "##lating": 6431,
      "##sed": 6432,
      "##swe": 6433,
      "##iper": 6434,
      "##tution": 6435,
      "##nce": 6436,
      "##ginous": 6437,
      "##uctions": 6438,
      "##zation": 6439,
      "##rous": 6440,
      "inters": 6441,
      "progn": 6442,
      "##timeter": 6443,
      "##titution": 6444,
      "##onvex": 6445,
      "often": 6446,
      "##intestin": 6447,
      "##leen": 6448,
      "##leli": 6449,
      "##ules": 6450,
      "##ulus": 6451,
      "##icted": 6452,
      "analysis": 6453,
      "answe": 6454,
      "##mance": 6455,
      "##thiasis": 6456,
      "##sif": 6457,
      "able": 6458,
      "##anding": 6459,
      "##ocartila": 6460,
      "##cerous": 6461,
      "##culation": 6462,
      "##olith": 6463,
      "dispro": 6464,
      "distinct": 6465,
      "##ils": 6466,
      "##ctate": 6467,
      "##othoracic": 6468,
      "problematic": 6469,
      "feces": 6470,
      "reache": 6471,
      "limb": 6472,
      "##vicothoracic": 6473,
      "cancerous": 6474,
      "coils": 6475,
      "scant": 6476,
      "ens": 6477,
      "splin": 6478,
      "spleen": 6479,
      "##luent": 6480,
      "clearing": 6481,
      "##plate": 6482,
      "rules": 6483,
      "impressions": 6484,
      "lymphoproliferative": 6485,
      "##tifact": 6486,
      "##tifocal": 6487,
      "sublux": 6488,
      "##infold": 6489,
      "chin": 6490,
      "chondral": 6491,
      "postop": 6492,
      "postradi": 6493,
      "transudative": 6494,
      "composition": 6495,
      "marking": 6496,
      "hypovolemia": 6497,
      "osteocartila": 6498,
      "##oval": 6499,
      "cervicothoracic": 6500,
      "##imum": 6501,
      "impair": 6502,
      "epiper": 6503,
      "tele": 6504,
      "##settes": 6505,
      "All": 6506,
      "technically": 6507,
      "##ologist": 6508,
      "##ologies": 6509,
      "choleli": 6510,
      "Abdomen": 6511,
      "irspace": 6512,
      "extubation": 6513,
      "correlating": 6514,
      "totally": 6515,
      "Were": 6516,
      "nerves": 6517,
      "dextroconvex": 6518,
      "gastrointestin": 6519,
      "shifts": 6520,
      "sulcal": 6521,
      "institution": 6522,
      "facet": 6523,
      "performance": 6524,
      "describes": 6525,
      "retrohilar": 6526,
      "Epicardial": 6527,
      "Incidental": 6528,
      "judgment": 6529,
      "superimposition": 6530,
      "Artifact": 6531,
      "##ositioning": 6532,
      "surrounded": 6533,
      "opening": 6534,
      "diagnostic": 6535,
      "Radiographic": 6536,
      "accentuate": 6537,
      "accentuating": 6538,
      "Endplate": 6539,
      "a14": 6540,
      "a16": 6541,
      "a13": 6542,
      "a12": 6543,
      "a15": 6544,
      "a11": 6545,
      "a10": 6546,
      "a18": 6547,
      "a17": 6548,
      "a19": 6549,
      "progressing": 6550,
      "migration": 6551,
      "circulation": 6552,
      "interpretations": 6553,
      "Catheter": 6554,
      "difference": 6555,
      "Fracture": 6556,
      "good": 6557,
      "effective": 6558,
      "Removal": 6559,
      "Tortuosity": 6560,
      "consideration": 6561,
      "obviously": 6562,
      "pretracheal": 6563,
      "etiologies": 6564,
      "Confluent": 6565,
      "best": 6566,
      "true": 6567,
      "heterogeneity": 6568,
      "cartilage": 6569,
      "anterolateral": 6570,
      "Confirmation": 6571,
      "Nodules": 6572,
      "ortuosity": 6573,
      "ligaments": 6574,
      "cassettes": 6575,
      "importance": 6576,
      "Bullet": 6577,
      "coracoid": 6578,
      "cardiothoracic": 6579,
      "suited": 6580,
      "a20": 6581,
      "nondiagn": 6582,
      "referring": 6583,
      "therosclerotic": 6584,
      "immediately": 6585,
      "differentiate": 6586,
      "Lingular": 6587,
      "skinfold": 6588,
      "##portionate": 6589,
      "bronchodilators": 6590,
      "requested": 6591,
      "observation": 6592,
      "occupying": 6593,
      "Obscured": 6594,
      "Stents": 6595,
      "centimeter": 6596,
      "geographic": 6597,
      "lumbosacral": 6598,
      "multifocal": 6599,
      "maximum": 6600,
      "manner": 6601,
      "passive": 6602,
      "punctate": 6603,
      "interspaces": 6604,
      "prognosis": 6605,
      "answered": 6606,
      "disproportionate": 6607,
      "reaches": 6608,
      "splinting": 6609,
      "subluxation": 6610,
      "postradiation": 6611,
      "osteocartilaginous": 6612,
      "epipericardial": 6613,
      "cholelithiasis": 6614,
      "gastrointestinal": 6615,
      "institutions": 6616,
      "Artifactual": 6617,
      "nondiagnostic": 6618,
      "Com": 6619,
      "Crow": 6620,
      "Pl": 6621,
      "aging": 6622,
      "cle": 6623,
      "cul": 6624,
      "cent": 6625,
      "draw": 6626,
      "ph": 6627,
      "phen": 6628,
      "sti": 6629,
      "sol": 6630,
      "stif": 6631,
      "t9": 6632,
      "tran": 6633,
      "vital": 6634,
      "##pla": 6635,
      "##posi": 6636,
      "##itect": 6637,
      "##iography": 6638,
      "##tary": 6639,
      "##ered": 6640,
      "##fness": 6641,
      "##bolith": 6642,
      "##kely": 6643,
      "insp": 6644,
      "inability": 6645,
      "##aring": 6646,
      "##inable": 6647,
      "##lebolith": 6648,
      "##assif": 6649,
      "##errant": 6650,
      "##enon": 6651,
      "##enlarged": 6652,
      "##ata": 6653,
      "aberrant": 6654,
      "suction": 6655,
      "##nel": 6656,
      "##omenon": 6657,
      "distended": 6658,
      "displa": 6659,
      "##ediastinal": 6660,
      "##trated": 6661,
      "evidenc": 6662,
      "##gmata": 6663,
      "##tical": 6664,
      "outgrowth": 6665,
      "pericardium": 6666,
      "seem": 6667,
      "consult": 6668,
      "sparing": 6669,
      "vertical": 6670,
      "structural": 6671,
      "ones": 6672,
      "##ails": 6673,
      "excess": 6674,
      "extension": 6675,
      "##rapnel": 6676,
      "thicker": 6677,
      "midiaphragm": 6678,
      "patients": 6679,
      "identification": 6680,
      "##athecal": 6681,
      "value": 6682,
      "##untary": 6683,
      "##amediastinal": 6684,
      "radiology": 6685,
      "unli": 6686,
      "until": 6687,
      "ventilated": 6688,
      "bulla": 6689,
      "intrathecal": 6690,
      "##ophagectomy": 6691,
      "determinable": 6692,
      "already": 6693,
      "##aking": 6694,
      "##ditions": 6695,
      "classif": 6696,
      "esophagectomy": 6697,
      "compart": 6698,
      "compressed": 6699,
      "hypoden": 6700,
      "architect": 6701,
      "paramediastinal": 6702,
      "reports": 6703,
      "angiography": 6704,
      "followup": 6705,
      "association": 6706,
      "nonenlarged": 6707,
      "nodularity": 6708,
      "##ological": 6709,
      "Unfold": 6710,
      "primordial": 6711,
      "Conditions": 6712,
      "viewing": 6713,
      "##otherapy": 6714,
      "concerns": 6715,
      "Another": 6716,
      "depicted": 6717,
      "loc10": 6718,
      "certainty": 6719,
      "something": 6720,
      "sizes": 6721,
      "osteochondrom": 6722,
      "manage": 6723,
      "opposi": 6724,
      "avascular": 6725,
      "review": 6726,
      "pull": 6727,
      "progress": 6728,
      "straightening": 6729,
      "unilaterally": 6730,
      "nephrost": 6731,
      "appropriately": 6732,
      "look": 6733,
      "midclavicular": 6734,
      "accessed": 6735,
      "visibly": 6736,
      "expand": 6737,
      "tomogram": 6738,
      "Subc": 6739,
      "blisters": 6740,
      "orientation": 6741,
      "physiotherapy": 6742,
      "Bullous": 6743,
      "Kyphosis": 6744,
      "stranding": 6745,
      "substances": 6746,
      "ligamentous": 6747,
      "varying": 6748,
      "crosses": 6749,
      "underpenetrated": 6750,
      "Partial": 6751,
      "yperexpanded": 6752,
      "stabilization": 6753,
      "dominant": 6754,
      "infiltration": 6755,
      "manifest": 6756,
      "Common": 6757,
      "Crowded": 6758,
      "cleared": 6759,
      "culture": 6760,
      "drawn": 6761,
      "phlebolith": 6762,
      "phenomenon": 6763,
      "stigmata": 6764,
      "solitary": 6765,
      "stiffness": 6766,
      "transection": 6767,
      "inspection": 6768,
      "evidenced": 6769,
      "consultation": 6770,
      "unlikely": 6771,
      "compartments": 6772,
      "hypodense": 6773,
      "architecture": 6774,
      "Unfolded": 6775,
      "opposite": 6776,
      "nephrostomy": 6777,
      "phleboliths": 6778,
      "Als": 6779,
      "Byp": 6780,
      "Cr": 6781,
      "Cur": 6782,
      "Gra": 6783,
      "Ill": 6784,
      "Ly": 6785,
      "L4": 6786,
      "OF": 6787,
      "ORI": 6788,
      "Rul": 6789,
      "Rel": 6790,
      "S1": 6791,
      "Stern": 6792,
      "Sulc": 6793,
      "Why": 6794,
      "aver": 6795,
      "bu": 6796,
      "bub": 6797,
      "bot": 6798,
      "ct": 6799,
      "coc": 6800,
      "cephal": 6801,
      "cirr": 6802,
      "dated": 6803,
      "diff": 6804,
      "ef": 6805,
      "far": 6806,
      "fails": 6807,
      "gu": 6808,
      "gy": 6809,
      "gain": 6810,
      "gather": 6811,
      "kil": 6812,
      "mu": 6813,
      "myc": 6814,
      "misplaced": 6815,
      "pulmon": 6816,
      "pir": 6817,
      "rregular": 6818,
      "sum": 6819,
      "sag": 6820,
      "tact": 6821,
      "tamp": 6822,
      "umb": 6823,
      "##cardiac": 6824,
      "##clusion": 6825,
      "##dinitis": 6826,
      "##less": 6827,
      "##pulsion": 6828,
      "##ild": 6829,
      "##iations": 6830,
      "##iene": 6831,
      "##tom": 6832,
      "##numerable": 6833,
      "##glot": 6834,
      "##giene": 6835,
      "##vatures": 6836,
      "##ections": 6837,
      "##uce": 6838,
      "##rocardiac": 6839,
      "##related": 6840,
      "inactive": 6841,
      "##tise": 6842,
      "##onade": 6843,
      "sites": 6844,
      "##ulates": 6845,
      "orac": 6846,
      "orth": 6847,
      "therefore": 6848,
      "##ats": 6849,
      "##ingy": 6850,
      "##ingement": 6851,
      "##stra": 6852,
      "abut": 6853,
      "##ane": 6854,
      "consis": 6855,
      "##neath": 6856,
      "##monstra": 6857,
      "##olta": 6858,
      "normality": 6859,
      "##ilical": 6860,
      "##teric": 6861,
      "##ittal": 6862,
      "demonstra": 6863,
      "cardiomyopathy": 6864,
      "##ronal": 6865,
      "##uture": 6866,
      "##emble": 6867,
      "too": 6868,
      "##irment": 6869,
      "##opedic": 6870,
      "coiled": 6871,
      "coronal": 6872,
      "screening": 6873,
      "bec": 6874,
      "arth": 6875,
      "arra": 6876,
      "spinous": 6877,
      "hygiene": 6878,
      "##lusive": 6879,
      "stringy": 6880,
      "mean": 6881,
      "##ucted": 6882,
      "##tebroplasty": 6883,
      "obstructions": 6884,
      "herniations": 6885,
      "expiratory": 6886,
      "examp": 6887,
      "midfoot": 6888,
      "##veral": 6889,
      "##entration": 6890,
      "identifying": 6891,
      "##ussed": 6892,
      "##derexpanded": 6893,
      "mentioning": 6894,
      "movement": 6895,
      "eventrated": 6896,
      "unless": 6897,
      "unrelated": 6898,
      "underexpanded": 6899,
      "subjacent": 6900,
      "##oses": 6901,
      "repeat": 6902,
      "##rease": 6903,
      "clip": 6904,
      "close": 6905,
      "accumulates": 6906,
      "largely": 6907,
      "compli": 6908,
      "compressing": 6909,
      "##minuted": 6910,
      "Exclusion": 6911,
      "##ormats": 6912,
      "advis": 6913,
      "resemb": 6914,
      "reside": 6915,
      "resemble": 6916,
      "##ovolta": 6917,
      "Eventration": 6918,
      "impingement": 6919,
      "underneath": 6920,
      "##ascularization": 6921,
      "Chondral": 6922,
      "obstructionosseous": 6923,
      "cms": 6924,
      "##metry": 6925,
      "reduce": 6926,
      "interim": 6927,
      "hazy": 6928,
      "arrhythmia": 6929,
      "Innumerable": 6930,
      "leaking": 6931,
      "fibrous": 6932,
      "Congenital": 6933,
      "representative": 6934,
      "projections": 6935,
      "irregularly": 6936,
      "Mitral": 6937,
      "curvatures": 6938,
      "instrument": 6939,
      "necks": 6940,
      "discussed": 6941,
      "treating": 6942,
      "concurrent": 6943,
      "reformats": 6944,
      "distance": 6945,
      "Pericardial": 6946,
      "traver": 6947,
      "demonstrating": 6948,
      "Please": 6949,
      "Pneumoperitoneum": 6950,
      "depth": 6951,
      "##tilatory": 6952,
      "alongside": 6953,
      "making": 6954,
      "comminuted": 6955,
      "Bronchial": 6956,
      "retropulsion": 6957,
      "techniques": 6958,
      "desired": 6959,
      "##phology": 6960,
      "mortise": 6961,
      "morphology": 6962,
      "secured": 6963,
      "Intervention": 6964,
      "tendinitis": 6965,
      "sinuses": 6966,
      "retrosternally": 6967,
      "Flat": 6968,
      "highly": 6969,
      "Several": 6970,
      "organomegaly": 6971,
      "hypoventilatory": 6972,
      "revascularization": 6973,
      "Radiographically": 6974,
      "externally": 6975,
      "Repositioning": 6976,
      "iscoid": 6977,
      "alterations": 6978,
      "Artery": 6979,
      "Coarsened": 6980,
      "electrode": 6981,
      "reasonably": 6982,
      "systemic": 6983,
      "##ophytic": 6984,
      "Elevation": 6985,
      "Osteophytic": 6986,
      "impairment": 6987,
      "Vertebroplasty": 6988,
      "pathologic": 6989,
      "entirety": 6990,
      "Leukocytosis": 6991,
      "membranes": 6992,
      "extending": 6993,
      "focused": 6994,
      "visualize": 6995,
      "Enteric": 6996,
      "hyperaeration": 6997,
      "Osteoporosis": 6998,
      "radiodense": 6999,
      "annulus": 7000,
      "calcane": 7001,
      "gallstone": 7002,
      "##oplasma": 7003,
      "##necological": 7004,
      "thirds": 7005,
      "nondilated": 7006,
      "underpenetration": 7007,
      "magnified": 7008,
      "magnification": 7009,
      "Apparent": 7010,
      "accurate": 7011,
      "accurately": 7012,
      "response": 7013,
      "responsible": 7014,
      "persistence": 7015,
      "##haps": 7016,
      "thought": 7017,
      "supportive": 7018,
      "Diminished": 7019,
      "Retrocardiac": 7020,
      "pedicles": 7021,
      "limbs": 7022,
      "ensure": 7023,
      "telemetry": 7024,
      "vertically": 7025,
      "classify": 7026,
      "manifestations": 7027,
      "Also": 7028,
      "Bypass": 7029,
      "Critical": 7030,
      "Curvilinear": 7031,
      "Grafting": 7032,
      "ORIF": 7033,
      "Ruling": 7034,
      "Sternum": 7035,
      "Sulcal": 7036,
      "average": 7037,
      "build": 7038,
      "bubble": 7039,
      "bottom": 7040,
      "cephalization": 7041,
      "cirrhotic": 7042,
      "differ": 7043,
      "eformity": 7044,
      "gynecological": 7045,
      "kilovolta": 7046,
      "much": 7047,
      "mycoplasma": 7048,
      "pulmonologist": 7049,
      "piriform": 7050,
      "summation": 7051,
      "sagittal": 7052,
      "tamponade": 7053,
      "umbilical": 7054,
      "##glottic": 7055,
      "oracic": 7056,
      "orthopedic": 7057,
      "demonstrable": 7058,
      "example": 7059,
      "compliance": 7060,
      "advised": 7061,
      "Interventions": 7062,
      "buildup": 7063,
      "kilovoltage": 7064,
      "Aer": 7065,
      "Broken": 7066,
      "C7": 7067,
      "Differen": 7068,
      "Ear": 7069,
      "Formed": 7070,
      "Met": 7071,
      "Mental": 7072,
      "Mastectomy": 7073,
      "Nas": 7074,
      "Pac": 7075,
      "Pier": 7076,
      "Risk": 7077,
      "Suture": 7078,
      "Taking": 7079,
      "biv": 7080,
      "bearing": 7081,
      "ck": 7082,
      "dic": 7083,
      "dating": 7084,
      "dates": 7085,
      "egative": 7086,
      "gro": 7087,
      "hous": 7088,
      "ham": 7089,
      "leas": 7090,
      "list": 7091,
      "listed": 7092,
      "miss": 7093,
      "pump": 7094,
      "she": 7095,
      "tal": 7096,
      "try": 7097,
      "##cus": 7098,
      "##lication": 7099,
      "##log": 7100,
      "##pital": 7101,
      "##poses": 7102,
      "##io": 7103,
      "##ih": 7104,
      "##ived": 7105,
      "##irome": 7106,
      "##rin": 7107,
      "##tac": 7108,
      "##table": 7109,
      "##ood": 7110,
      "##orotic": 7111,
      "##namic": 7112,
      "##ven": 7113,
      "##vative": 7114,
      "##ecular": 7115,
      "##eated": 7116,
      "##erex": 7117,
      "##fit": 7118,
      "##ua": 7119,
      "##basal": 7120,
      "##becular": 7121,
      "##kage": 7122,
      "##ways": 7123,
      "##jection": 7124,
      "##junction": 7125,
      "##hetic": 7126,
      "##roke": 7127,
      "##reng": 7128,
      "protr": 7129,
      "##align": 7130,
      "##ario": 7131,
      "##inance": 7132,
      "##lets": 7133,
      "##leoli": 7134,
      "##astic": 7135,
      "##erc": 7136,
      "##ervative": 7137,
      "##entive": 7138,
      "##enario": 7139,
      "##isting": 7140,
      "##atosis": 7141,
      "##acute": 7142,
      "##stosis": 7143,
      "##anied": 7144,
      "contro": 7145,
      "conjunction": 7146,
      "##idua": 7147,
      "##ifications": 7148,
      "##oluc": 7149,
      "##olism": 7150,
      "##olving": 7151,
      "disting": 7152,
      "##ilitation": 7153,
      "evolving": 7154,
      "##terbro": 7155,
      "##its": 7156,
      "shrin": 7157,
      "rehab": 7158,
      "readi": 7159,
      "relev": 7160,
      "reached": 7161,
      "peritoneal": 7162,
      "malleoli": 7163,
      "outward": 7164,
      "##elih": 7165,
      "opacifications": 7166,
      "##athoracic": 7167,
      "confirmation": 7168,
      "conservative": 7169,
      "scenario": 7170,
      "spirome": 7171,
      "acid": 7172,
      "across": 7173,
      "accep": 7174,
      "rare": 7175,
      "clears": 7176,
      "strand": 7177,
      "metac": 7178,
      "hyperven": 7179,
      "verterbro": 7180,
      "##mitted": 7181,
      "standing": 7182,
      "stroke": 7183,
      "streng": 7184,
      "exce": 7185,
      "explained": 7186,
      "exerc": 7187,
      "thymus": 7188,
      "##rapatel": 7189,
      "identifiable": 7190,
      "whereas": 7191,
      "radioluc": 7192,
      "moved": 7193,
      "incorre": 7194,
      "incentive": 7195,
      "units": 7196,
      "aneurysms": 7197,
      "subacute": 7198,
      "submitted": 7199,
      "##gmental": 7200,
      "likelih": 7201,
      "bullets": 7202,
      "dislod": 7203,
      "Shrapnel": 7204,
      "intrathoracic": 7205,
      "overinflation": 7206,
      "overgrowth": 7207,
      "accomp": 7208,
      "determinate": 7209,
      "repeated": 7210,
      "Projection": 7211,
      "postero": 7212,
      "transparent": 7213,
      "composed": 7214,
      "complication": 7215,
      "anomaly": 7216,
      "showed": 7217,
      "##ecial": 7218,
      "admission": 7219,
      "attention": 7220,
      "prominences": 7221,
      "osteoporotic": 7222,
      "restric": 7223,
      "residua": 7224,
      "plates": 7225,
      "accidental": 7226,
      "purposes": 7227,
      "derived": 7228,
      "laterality": 7229,
      "underinflation": 7230,
      "Hypero": 7231,
      "nonrib": 7232,
      "##pleural": 7233,
      "##abolic": 7234,
      "whose": 7235,
      "termed": 7236,
      "Allowing": 7237,
      "Although": 7238,
      "elastic": 7239,
      "leaks": 7240,
      "additionally": 7241,
      "dextrosc": 7242,
      "##quelae": 7243,
      "perform": 7244,
      "remained": 7245,
      "##arpal": 7246,
      "winged": 7247,
      "trabecular": 7248,
      "variation": 7249,
      "Pneumonectomy": 7250,
      "Suspic": 7251,
      "shifting": 7252,
      "configured": 7253,
      "##sibility": 7254,
      "spasms": 7255,
      "neurolog": 7256,
      "suprapatel": 7257,
      "predominance": 7258,
      "metabolism": 7259,
      "12th": 7260,
      "cavitations": 7261,
      "Essentially": 7262,
      "Consolidations": 7263,
      "Displaced": 7264,
      "optimal": 7265,
      "Segmental": 7266,
      "Sequelae": 7267,
      "exception": 7268,
      "formed": 7269,
      "accentuation": 7270,
      "accentuates": 7271,
      "resultant": 7272,
      "electrodes": 7273,
      "reasons": 7274,
      "valuable": 7275,
      "indistinctness": 7276,
      "clarification": 7277,
      "combined": 7278,
      "hospital": 7279,
      "considerations": 7280,
      "considerably": 7281,
      "ulcer": 7282,
      "syndesmophyte": 7283,
      "anchors": 7284,
      "paraesophageal": 7285,
      "Subtle": 7286,
      "Widening": 7287,
      "Bullae": 7288,
      "benefit": 7289,
      "Improvement": 7290,
      "blistering": 7291,
      "flexure": 7292,
      "Sclerotic": 7293,
      "yperinflated": 7294,
      "elongated": 7295,
      "crossing": 7296,
      "therosclerosis": 7297,
      "immediate": 7298,
      "Partially": 7299,
      "stabilize": 7300,
      "Reactive": 7301,
      "##hapen": 7302,
      "supporting": 7303,
      "Stranding": 7304,
      "voluntary": 7305,
      "effectively": 7306,
      "Placement": 7307,
      "center": 7308,
      "displays": 7309,
      "osteochondromatosis": 7310,
      "Subcutaneous": 7311,
      "guide": 7312,
      "consist": 7313,
      "arrange": 7314,
      "traverses": 7315,
      "Flattened": 7316,
      "Aeration": 7317,
      "Early": 7318,
      "Metabolic": 7319,
      "Nasogastric": 7320,
      "Pacemaker": 7321,
      "Piercings": 7322,
      "biventricular": 7323,
      "ckening": 7324,
      "dictation": 7325,
      "hamart": 7326,
      "least": 7327,
      "misshapen": 7328,
      "trying": 7329,
      "##erexpansion": 7330,
      "##alignment": 7331,
      "control": 7332,
      "distinguis": 7333,
      "shrinkage": 7334,
      "rehabilitation": 7335,
      "readily": 7336,
      "spirometry": 7337,
      "acceptable": 7338,
      "metacarpal": 7339,
      "hyperventilation": 7340,
      "verterbroplasty": 7341,
      "strength": 7342,
      "incorrectly": 7343,
      "likelihood": 7344,
      "dislodgement": 7345,
      "accompanied": 7346,
      "Projectional": 7347,
      "posterobasal": 7348,
      "restricted": 7349,
      "Hyperostosis": 7350,
      "dextroscoliotic": 7351,
      "neurological": 7352,
      "suprapatellar": 7353,
      "34": 7354,
      "09": 7355,
      "Bar": 7356,
      "Bes": 7357,
      "Bra": 7358,
      "Bandlike": 7359,
      "Che": 7360,
      "Cent": 7361,
      "Cortic": 7362,
      "Dr": 7363,
      "Dire": 7364,
      "Eti": 7365,
      "Fat": 7366,
      "First": 7367,
      "Gall": 7368,
      "Gastro": 7369,
      "Hand": 7370,
      "Ima": 7371,
      "Image": 7372,
      "Identif": 7373,
      "Laryngeal": 7374,
      "Mon": 7375,
      "Numbness": 7376,
      "Or": 7377,
      "Oval": 7378,
      "PE": 7379,
      "Ped": 7380,
      "RL": 7381,
      "Round": 7382,
      "Rounded": 7383,
      "Rales": 7384,
      "Su": 7385,
      "Sk": 7386,
      "Sw": 7387,
      "Seas": 7388,
      "Surg": 7389,
      "Sup": 7390,
      "Sim": 7391,
      "Symme": 7392,
      "Skeletal": 7393,
      "Tf": 7394,
      "Typ": 7395,
      "Tips": 7396,
      "US": 7397,
      "Ureter": 7398,
      "Vocal": 7399,
      "Wh": 7400,
      "Would": 7401,
      "ag": 7402,
      "aw": 7403,
      "aid": 7404,
      "aside": 7405,
      "bor": 7406,
      "bac": 7407,
      "bil": 7408,
      "ball": 7409,
      "cirrhosis": 7410,
      "created": 7411,
      "ded": 7412,
      "ec": 7413,
      "ed": 7414,
      "er": 7415,
      "ek": 7416,
      "eq": 7417,
      "eas": 7418,
      "equ": 7419,
      "fro": 7420,
      "fif": 7421,
      "foss": 7422,
      "gang": 7423,
      "hind": 7424,
      "hollow": 7425,
      "jm": 7426,
      "jun": 7427,
      "kick": 7428,
      "lt": 7429,
      "len": 7430,
      "land": 7431,
      "mis": 7432,
      "mat": 7433,
      "ow": 7434,
      "ongoing": 7435,
      "pit": 7436,
      "pop": 7437,
      "ran": 7438,
      "rod": 7439,
      "sf": 7440,
      "ste": 7441,
      "t1": 7442,
      "t7": 7443,
      "tam": 7444,
      "vp": 7445,
      "vag": 7446,
      "vault": 7447,
      "xip": 7448,
      "yo": 7449,
      "ziness": 7450,
      "##cid": 7451,
      "##cage": 7452,
      "##ckle": 7453,
      "##ched": 7454,
      "##clusive": 7455,
      "##da": 7456,
      "##dural": 7457,
      "##dyc": 7458,
      "##ae": 7459,
      "##llar": 7460,
      "##stic": 7461,
      "##sha": 7462,
      "##scep": 7463,
      "##stim": 7464,
      "##sophyte": 7465,
      "##pt": 7466,
      "##pear": 7467,
      "##position": 7468,
      "##pecial": 7469,
      "##ioid": 7470,
      "##rs": 7471,
      "##tor": 7472,
      "##tometr": 7473,
      "##oon": 7474,
      "##oser": 7475,
      "##oste": 7476,
      "##ositis": 7477,
      "##hc": 7478,
      "##hable": 7479,
      "##hhc": 7480,
      "##gth": 7481,
      "##vent": 7482,
      "##vanced": 7483,
      "##vulus": 7484,
      "##eled": 7485,
      "##ust": 7486,
      "##udes": 7487,
      "##bal": 7488,
      "##bon": 7489,
      "##bor": 7490,
      "##bly": 7491,
      "##bility": 7492,
      "##met": 7493,
      "##mark": 7494,
      "##zones": 7495,
      "##xia": 7496,
      "##CS": 7497,
      "##just": 7498,
      "##rors": 7499,
      "##rene": 7500,
      "##reot": 7501,
      "##rept": 7502,
      "inthe": 7503,
      "inadequate": 7504,
      "intestin": 7505,
      "intended": 7506,
      "proxim": 7507,
      "##tiary": 7508,
      "##alemia": 7509,
      "##onal": 7510,
      "##onent": 7511,
      "##onstr": 7512,
      "##oniosis": 7513,
      "##onclusive": 7514,
      "induced": 7515,
      "##armon": 7516,
      "##arte": 7517,
      "##argy": 7518,
      "##arsal": 7519,
      "##estr": 7520,
      "##int": 7521,
      "##intention": 7522,
      "##inician": 7523,
      "sickle": 7524,
      "##ery": 7525,
      "##endi": 7526,
      "##eness": 7527,
      "##ising": 7528,
      "##edded": 7529,
      "##edullary": 7530,
      "anore": 7531,
      "thereosseous": 7532,
      "##urn": 7533,
      "##urce": 7534,
      "##atemesis": 7535,
      "##atarsal": 7536,
      "##actic": 7537,
      "##thy": 7538,
      "##thargy": 7539,
      "isol": 7540,
      "##sthe": 7541,
      "##sillar": 7542,
      "##sitometr": 7543,
      "##entary": 7544,
      "ability": 7545,
      "##andy": 7546,
      "conce": 7547,
      "confu": 7548,
      "contributed": 7549,
      "contracted": 7550,
      "##ococ": 7551,
      "##oconiosis": 7552,
      "##idans": 7553,
      "suscep": 7554,
      "##ained": 7555,
      "thready": 7556,
      "##monal": 7557,
      "##omatic": 7558,
      "##apular": 7559,
      "##ifen": 7560,
      "pneumoperic": 7561,
      "pneumoconiosis": 7562,
      "##ilities": 7563,
      "##illed": 7564,
      "##terem": 7565,
      "##tecting": 7566,
      "##raclavicular": 7567,
      "##sequ": 7568,
      "diox": 7569,
      "divid": 7570,
      "detecting": 7571,
      "##perimp": 7572,
      "##labor": 7573,
      "infer": 7574,
      "informed": 7575,
      "shrapnel": 7576,
      "shaking": 7577,
      "forward": 7578,
      "##axillary": 7579,
      "appendi": 7580,
      "perhaps": 7581,
      "pression": 7582,
      "presuma": 7583,
      "##utrop": 7584,
      "malalignment": 7585,
      "##vice": 7586,
      "confident": 7587,
      "##olidating": 7588,
      "appearances": 7589,
      "##istling": 7590,
      "lethargy": 7591,
      "##oprost": 7592,
      "costic": 7593,
      "enthe": 7594,
      "point": 7595,
      "spot": 7596,
      "spurs": 7597,
      "spher": 7598,
      "acrom": 7599,
      "##ycystic": 7600,
      "hemody": 7601,
      "raising": 7602,
      "##ucing": 7603,
      "##ucial": 7604,
      "strang": 7605,
      "hyperstim": 7606,
      "ribcage": 7607,
      "##obstructive": 7608,
      "stand": 7609,
      "obstructed": 7610,
      "herniated": 7611,
      "exhal": 7612,
      "exchanged": 7613,
      "prevent": 7614,
      "##rency": 7615,
      "source": 7616,
      "midly": 7617,
      "midportion": 7618,
      "midsha": 7619,
      "midzones": 7620,
      "midaxillary": 7621,
      "##entrated": 7622,
      "##ivably": 7623,
      "values": 7624,
      "##ussus": 7625,
      "element": 7626,
      "here": 7627,
      "##antar": 7628,
      "Patients": 7629,
      "forefoot": 7630,
      "inconclusive": 7631,
      "unlike": 7632,
      "unrel": 7633,
      "unda": 7634,
      "subglottic": 7635,
      "subdural": 7636,
      "ventil": 7637,
      "evaluations": 7638,
      "bulges": 7639,
      "Should": 7640,
      "##generation": 7641,
      "swimm": 7642,
      "subphren": 7643,
      "intramedullary": 7644,
      "separate": 7645,
      "always": 7646,
      "##omyositis": 7647,
      "##ipment": 7648,
      "repositioning": 7649,
      "symptom": 7650,
      "##izing": 7651,
      "##domly": 7652,
      "clot": 7653,
      "closer": 7654,
      "clinician": 7655,
      "fluids": 7656,
      "postural": 7657,
      "especial": 7658,
      "##ancement": 7659,
      "transpa": 7660,
      "transpleural": 7661,
      "transmet": 7662,
      "##ually": 7663,
      "component": 7664,
      "senesc": 7665,
      "sensitive": 7666,
      "305": 7667,
      "smoke": 7668,
      "densitometr": 7669,
      "findingsthe": 7670,
      "hypok": 7671,
      "assumed": 7672,
      "Lev": 7673,
      "parame": 7674,
      "costal": 7675,
      "##oxifen": 7676,
      "adjust": 7677,
      "respect": 7678,
      "imbal": 7679,
      "Few": 7680,
      "Feeding": 7681,
      "providing": 7682,
      "reconstr": 7683,
      "worsen": 7684,
      "plantar": 7685,
      "##immer": 7686,
      "##imordial": 7687,
      "neutrop": 7688,
      "Poorly": 7689,
      "dermat": 7690,
      "Hypoven": 7691,
      "Hyperluc": 7692,
      "Hyperlucent": 7693,
      "nonobstructive": 7694,
      "whistling": 7695,
      "tertiary": 7696,
      "endoscopy": 7697,
      "endarte": 7698,
      "embedded": 7699,
      "decision": 7700,
      "reducing": 7701,
      "cells": 7702,
      "Unspecified": 7703,
      "Unintention": 7704,
      "Thin": 7705,
      "else": 7706,
      "##uroparenchymal": 7707,
      "irr": 7708,
      "Contour": 7709,
      "Consequ": 7710,
      "##roids": 7711,
      "##achment": 7712,
      "dexa": 7713,
      "labeling": 7714,
      "labeled": 7715,
      "Possibility": 7716,
      "exertional": 7717,
      "instructions": 7718,
      "Strept": 7719,
      "invasion": 7720,
      "correction": 7721,
      "conclusive": 7722,
      "concentrated": 7723,
      "cardiogenic": 7724,
      "increases": 7725,
      "##ximately": 7726,
      "treatments": 7727,
      "Device": 7728,
      "Degeneration": 7729,
      "Scaphoid": 7730,
      "Scapular": 7731,
      "myeloid": 7732,
      "Perhaps": 7733,
      "involuntary": 7734,
      "erosions": 7735,
      "sharpness": 7736,
      "shadowing": 7737,
      "compatibility": 7738,
      "varian": 7739,
      "Pleuroparenchymal": 7740,
      "##proximately": 7741,
      "Antibiotic": 7742,
      "Inferior": 7743,
      "improve": 7744,
      "##ropathy": 7745,
      "possibilities": 7746,
      "##ception": 7747,
      "##rett": 7748,
      "plugging": 7749,
      "bioprost": 7750,
      "##iduals": 7751,
      "supraclavicular": 7752,
      "hepat": 7753,
      "hepatitis": 7754,
      "coming": 7755,
      "##ophagogastric": 7756,
      "stably": 7757,
      "##cyx": 7758,
      "Advanced": 7759,
      "projectional": 7760,
      "##tibility": 7761,
      "genetic": 7762,
      "intraperitoneally": 7763,
      "lightheaded": 7764,
      "Decrease": 7765,
      "polycystic": 7766,
      "##phied": 7767,
      "apparently": 7768,
      "morgagni": 7769,
      "characterizing": 7770,
      "persists": 7771,
      "Interposition": 7772,
      "secondICD": 7773,
      "illness": 7774,
      "Consolidating": 7775,
      "degenerate": 7776,
      "hypertrophied": 7777,
      "Esophagogastric": 7778,
      "halo": 7779,
      "superimpose": 7780,
      "carbon": 7781,
      "Primordial": 7782,
      "viridans": 7783,
      "foraminal": 7784,
      "improvements": 7785,
      "Disc": 7786,
      "Dish": 7787,
      "##itoring": 7788,
      "appreciation": 7789,
      "exaggerate": 7790,
      "glands": 7791,
      "Nonsmoker": 7792,
      "excluding": 7793,
      "factor": 7794,
      "portal": 7795,
      "Minimally": 7796,
      "attachment": 7797,
      "Radioden": 7798,
      "Choking": 7799,
      "crucial": 7800,
      "diagnosing": 7801,
      "overlapped": 7802,
      "alcoholic": 7803,
      "tonsillar": 7804,
      "heartburn": 7805,
      "likewise": 7806,
      "272": 7807,
      "724": 7808,
      "Humerus": 7809,
      "Indistinct": 7810,
      "initial": 7811,
      "reflex": 7812,
      "lumens": 7813,
      "enteral": 7814,
      "Definite": 7815,
      "585": 7816,
      "sixth": 7817,
      "Results": 7818,
      "Residuals": 7819,
      "systems": 7820,
      "466": 7821,
      "corticoste": 7822,
      "excessively": 7823,
      "automatic": 7824,
      "streaks": 7825,
      "According": 7826,
      "Concerning": 7827,
      "sedentary": 7828,
      "intussus": 7829,
      "disharmon": 7830,
      "nosebleed": 7831,
      "PACS": 7832,
      "Peripherally": 7833,
      "assist": 7834,
      "supply": 7835,
      "Hematemesis": 7836,
      "visually": 7837,
      "protects": 7838,
      "recommendation": 7839,
      "supraglottic": 7840,
      "unexpected": 7841,
      "##omycosis": 7842,
      "pneumonic": 7843,
      "supineP": 7844,
      "ormally": 7845,
      "hormonal": 7846,
      "comparable": 7847,
      "Enlar": 7848,
      "advancement": 7849,
      "interest": 7850,
      "Evident": 7851,
      "Suboptimal": 7852,
      "layers": 7853,
      "firstICD": 7854,
      "exactly": 7855,
      "dimensions": 7856,
      "interrupted": 7857,
      "measurements": 7858,
      "serum": 7859,
      "infraclavicular": 7860,
      "beneficial": 7861,
      "Technically": 7862,
      "Redemonstrated": 7863,
      "Lucent": 7864,
      "twisting": 7865,
      "continue": 7866,
      "continues": 7867,
      "Tubular": 7868,
      "doctor": 7869,
      "tibia": 7870,
      "hyperdensity": 7871,
      "alternate": 7872,
      "mechanical": 7873,
      "Exaggeration": 7874,
      "differentiated": 7875,
      "Appear": 7876,
      "Approximately": 7877,
      "Lingula": 7878,
      "skull": 7879,
      "yperexpansion": 7880,
      "##artilage": 7881,
      "Reticular": 7882,
      "Reticulonodular": 7883,
      "domes": 7884,
      "infiltrative": 7885,
      "Significantly": 7886,
      "Diminutive": 7887,
      "Retained": 7888,
      "Strandy": 7889,
      "pedicle": 7890,
      "volvulus": 7891,
      "limbus": 7892,
      "ensures": 7893,
      "telectasis": 7894,
      "centered": 7895,
      "displaying": 7896,
      "outgrowths": 7897,
      "seems": 7898,
      "osteochondromas": 7899,
      "Subcarinal": 7900,
      "Relative": 7901,
      "Relatively": 7902,
      "coccid": 7903,
      "coccyx": 7904,
      "rregularity": 7905,
      "become": 7906,
      "because": 7907,
      "arthroscopy": 7908,
      "arthropathy": 7909,
      "meaning": 7910,
      "movements": 7911,
      "resembles": 7912,
      "resembling": 7913,
      "calcaneal": 7914,
      "calcaneus": 7915,
      "Different": 7916,
      "group": 7917,
      "housing": 7918,
      "protrudes": 7919,
      "relevant": 7920,
      "exceeds": 7921,
      "exercise": 7922,
      "radiolucent": 7923,
      "elasticity": 7924,
      "Suspicion": 7925,
      "ulceration": 7926,
      "hamartoma": 7927,
      "distinguishable": 7928,
      "Barrett": 7929,
      "Besides": 7930,
      "Bradyc": 7931,
      "Chemotherapy": 7932,
      "Centered": 7933,
      "Corticated": 7934,
      "Drainage": 7935,
      "Direct": 7936,
      "Etiology": 7937,
      "Gallbladder": 7938,
      "Gastrostomy": 7939,
      "Imaging": 7940,
      "Identify": 7941,
      "Monitoring": 7942,
      "Ordering": 7943,
      "PET": 7944,
      "Pedestr": 7945,
      "RLL": 7946,
      "Superimp": 7947,
      "Skilled": 7948,
      "Swimmer": 7949,
      "Seasonal": 7950,
      "Surgery": 7951,
      "Supine": 7952,
      "Similar": 7953,
      "Symmetric": 7954,
      "Tfor": 7955,
      "Typical": 7956,
      "Ureteral": 7957,
      "While": 7958,
      "agents": 7959,
      "away": 7960,
      "bordered": 7961,
      "bacterem": 7962,
      "biloma": 7963,
      "balloon": 7964,
      "deduced": 7965,
      "edge": 7966,
      "errors": 7967,
      "ekg": 7968,
      "equally": 7969,
      "easily": 7970,
      "equipment": 7971,
      "frothy": 7972,
      "fifth": 7973,
      "fossae": 7974,
      "gangrene": 7975,
      "hindfoot": 7976,
      "junctions": 7977,
      "kicked": 7978,
      "length": 7979,
      "landmark": 7980,
      "own": 7981,
      "pitched": 7982,
      "population": 7983,
      "randomly": 7984,
      "rods": 7985,
      "sfhhc": 7986,
      "stereot": 7987,
      "t12": 7988,
      "tamoxifen": 7989,
      "vaginal": 7990,
      "xiphoid": 7991,
      "your": 7992,
      "##ioidomycosis": 7993,
      "intestines": 7994,
      "proximity": 7995,
      "anorexia": 7996,
      "conceivably": 7997,
      "confused": 7998,
      "##ococcus": 7999
    }
  }
}